{
  "version": "1.0",
  "truncation": null,
  "padding": null,
  "added_tokens": [
    {
      "id": 0,
      "content": "<PAD>",
      "single_word": false,
      "lstrip": false,
      "rstrip": false,
      "normalized": false,
      "special": true
    },
    {
      "id": 1,
      "content": "<EOS>",
      "single_word": false,
      "lstrip": false,
      "rstrip": false,
      "normalized": false,
      "special": true
    },
    {
      "id": 2,
      "content": "<BOS>",
      "single_word": false,
      "lstrip": false,
      "rstrip": false,
      "normalized": false,
      "special": true
    }
  ],
  "normalizer": null,
  "pre_tokenizer": {
    "type": "ByteLevel",
    "add_prefix_space": false,
    "trim_offsets": true,
    "use_regex": true
  },
  "post_processor": null,
  "decoder": {
    "type": "ByteLevel",
    "add_prefix_space": true,
    "trim_offsets": true,
    "use_regex": true
  },
  "model": {
    "type": "BPE",
    "dropout": null,
    "unk_token": null,
    "continuing_subword_prefix": null,
    "end_of_word_suffix": null,
    "fuse_unk": false,
    "byte_fallback": false,
    "ignore_merges": false,
    "vocab": {
      "<PAD>": 0,
      "<EOS>": 1,
      "<BOS>": 2,
      "!": 3,
      "\"": 4,
      "'": 5,
      "(": 6,
      ")": 7,
      ",": 8,
      "-": 9,
      ".": 10,
      "0": 11,
      "1": 12,
      "2": 13,
      "3": 14,
      "4": 15,
      "5": 16,
      "6": 17,
      "7": 18,
      "8": 19,
      "9": 20,
      ":": 21,
      ";": 22,
      "?": 23,
      "A": 24,
      "B": 25,
      "C": 26,
      "D": 27,
      "E": 28,
      "F": 29,
      "G": 30,
      "H": 31,
      "I": 32,
      "J": 33,
      "K": 34,
      "L": 35,
      "M": 36,
      "N": 37,
      "O": 38,
      "P": 39,
      "Q": 40,
      "R": 41,
      "S": 42,
      "T": 43,
      "U": 44,
      "V": 45,
      "W": 46,
      "X": 47,
      "Y": 48,
      "Z": 49,
      "a": 50,
      "b": 51,
      "c": 52,
      "d": 53,
      "e": 54,
      "f": 55,
      "g": 56,
      "h": 57,
      "i": 58,
      "j": 59,
      "k": 60,
      "l": 61,
      "m": 62,
      "n": 63,
      "o": 64,
      "p": 65,
      "q": 66,
      "r": 67,
      "s": 68,
      "t": 69,
      "u": 70,
      "v": 71,
      "w": 72,
      "x": 73,
      "y": 74,
      "z": 75,
      "¨": 76,
      "©": 77,
      "¯": 78,
      "Â": 79,
      "â": 80,
      "Ġ": 81,
      "Ģ": 82,
      "Ĥ": 83,
      "ħ": 84,
      "ł": 85,
      "Ġt": 86,
      "Ġa": 87,
      "in": 88,
      "he": 89,
      "Ġs": 90,
      "re": 91,
      "Ġw": 92,
      "Ġo": 93,
      "Ġthe": 94,
      "is": 95,
      "er": 96,
      "Ġf": 97,
      "Ġm": 98,
      "it": 99,
      "at": 100,
      "Ġb": 101,
      "nd": 102,
      "ing": 103,
      "en": 104,
      "Ġc": 105,
      "or": 106,
      "es": 107,
      "on": 108,
      "Ġth": 109,
      "ou": 110,
      "an": 111,
      "Ġd": 112,
      "al": 113,
      "Ġp": 114,
      "ar": 115,
      "Ġof": 116,
      "Ġl": 117,
      "Ġh": 118,
      "Ġand": 119,
      "ed": 120,
      "Ġto": 121,
      "as": 122,
      "Ġin": 123,
      "il": 124,
      "ly": 125,
      "om": 126,
      "Ġg": 127,
      "ic": 128,
      "ut": 129,
      "Ġe": 130,
      "ĠI": 131,
      "le": 132,
      "st": 133,
      "ot": 134,
      "Ġn": 135,
      "Ġit": 136,
      "Ġis": 137,
      "ve": 138,
      "et": 139,
      "ct": 140,
      "el": 141,
      "Ġon": 142,
      "ent": 143,
      "Ġre": 144,
      "Ġthis": 145,
      "im": 146,
      "ion": 147,
      "ow": 148,
      "ver": 149,
      "ad": 150,
      "Ġbe": 151,
      "Ġst": 152,
      "Ġmo": 153,
      "ch": 154,
      "'s": 155,
      "Ġthat": 156,
      "ay": 157,
      "ĠT": 158,
      "ie": 159,
      "gh": 160,
      "am": 161,
      "id": 162,
      "un": 163,
      "Ġy": 164,
      "ke": 165,
      "Ġfor": 166,
      "ol": 167,
      "Ġwh": 168,
      "ith": 169,
      "Ġhe": 170,
      "ilm": 171,
      "Ġwas": 172,
      "Ġwith": 173,
      "ir": 174,
      "Ġan": 175,
      "Ġfilm": 176,
      "se": 177,
      "Ġbut": 178,
      "oo": 179,
      "Ġli": 180,
      "ce": 181,
      "ra": 182,
      "ĠS": 183,
      "Ġal": 184,
      "ur": 185,
      "Ġas": 186,
      "ul": 187,
      "ĠA": 188,
      "ro": 189,
      "ally": 190,
      "Ġse": 191,
      "Ġsh": 192,
      "Ġyou": 193,
      "ck": 194,
      "ld": 195,
      "ter": 196,
      "ĠB": 197,
      "Ġha": 198,
      "vie": 199,
      "us": 200,
      "Ġk": 201,
      "ri": 202,
      "Ġj": 203,
      "ill": 204,
      "..": 205,
      "ĠM": 206,
      "Ġdo": 207,
      "her": 208,
      "ome": 209,
      "ĠC": 210,
      "ag": 211,
      "Ġme": 212,
      "ght": 213,
      "ak": 214,
      "'t": 215,
      "out": 216,
      "Ġab": 217,
      "um": 218,
      "ust": 219,
      "if": 220,
      "Ġso": 221,
      "Ġfr": 222,
      "ist": 223,
      "pe": 224,
      "est": 225,
      "ort": 226,
      "Ġat": 227,
      "em": 228,
      "ĠThe": 229,
      "up": 230,
      "Ġex": 231,
      "Ġch": 232,
      "Ġnot": 233,
      "ab": 234,
      "Ġmovie": 235,
      "ess": 236,
      "ere": 237,
      "Ġde": 238,
      "ĠW": 239,
      "Ġlike": 240,
      "ĠH": 241,
      "ant": 242,
      "ation": 243,
      "very": 244,
      "art": 245,
      "ers": 246,
      "ould": 247,
      "ĠD": 248,
      "Ġcom": 249,
      "qu": 250,
      "Ġmy": 251,
      "Ġv": 252,
      "Ġone": 253,
      "Ġr": 254,
      "ood": 255,
      "Ġint": 256,
      "Ġlo": 257,
      "op": 258,
      "ell": 259,
      "and": 260,
      "ure": 261,
      "th": 262,
      "Ġare": 263,
      "ain": 264,
      "Ġwat": 265,
      "Ġabout": 266,
      "ies": 267,
      "Ġfrom": 268,
      "Ġne": 269,
      "ĠL": 270,
      "ive": 271,
      "ĠF": 272,
      "ĠP": 273,
      "Ġhis": 274,
      "ap": 275,
      "Ġ(": 276,
      "Ġhave": 277,
      "ind": 278,
      "Ġcon": 279,
      "ast": 280,
      "Ġall": 281,
      "Ġby": 282,
      "ate": 283,
      "Ġsome": 284,
      "Ġsc": 285,
      "ough": 286,
      "Ġjust": 287,
      "Ġfe": 288,
      "os": 289,
      "ĠR": 290,
      "ime": 291,
      "Ġpl": 292,
      "ig": 293,
      "Ġact": 294,
      "ĠG": 295,
      "ire": 296,
      "Ġun": 297,
      "Ġwor": 298,
      "ous": 299,
      "Ġwho": 300,
      "Ġwhe": 301,
      "ory": 302,
      "ang": 303,
      "his": 304,
      "ong": 305,
      "Ġout": 306,
      "one": 307,
      "ard": 308,
      "ud": 309,
      "ight": 310,
      "uch": 311,
      "Ġmore": 312,
      "all": 313,
      "ĠN": 314,
      "The": 315,
      "act": 316,
      "ore": 317,
      "Ġpre": 318,
      "ack": 319,
      "ite": 320,
      "ĠJ": 321,
      "reat": 322,
      "Ġle": 323,
      "Ġwatch": 324,
      "ven": 325,
      "Ġpro": 326,
      "od": 327,
      "Ġen": 328,
      "ound": 329,
      "au": 330,
      "Ġi": 331,
      "ĠIt": 332,
      "Ġup": 333,
      "Ġthey": 334,
      "fe": 335,
      "Ġwe": 336,
      "Ġreally": 337,
      "Ġcan": 338,
      "ry": 339,
      "Ġgood": 340,
      "pp": 341,
      "ity": 342,
      "ĠE": 343,
      "ich": 344,
      "ake": 345,
      "Ġget": 346,
      "Ġman": 347,
      "ook": 348,
      "nt": 349,
      "Ġwhat": 350,
      "Ġor": 351,
      "itt": 352,
      "are": 353,
      "Ġhas": 354,
      "Ġ\"": 355,
      "hing": 356,
      "og": 357,
      "Ġqu": 358,
      "ide": 359,
      "Ġtime": 360,
      "ci": 361,
      "able": 362,
      "Ġits": 363,
      "ary": 364,
      "Ġgo": 365,
      "Ġim": 366,
      "ine": 367,
      "che": 368,
      "Ġar": 369,
      "ĠO": 370,
      "our": 371,
      "ĠK": 372,
      "ade": 373,
      "oy": 374,
      "Ġher": 375,
      "Ġhow": 376,
      "Ġthan": 377,
      "Ġno": 378,
      "ame": 379,
      "Ġvery": 380,
      "ll": 381,
      "Ġstory": 382,
      "Ġper": 383,
      "Ġchar": 384,
      "ss": 385,
      "!!": 386,
      "ub": 387,
      "Ġmuch": 388,
      "ne": 389,
      "av": 390,
      "Ġlove": 391,
      "ick": 392,
      "Ġ1": 393,
      "Ġthere": 394,
      "ays": 395,
      "ink": 396,
      "ty": 397,
      "age": 398,
      "ge": 399,
      "iv": 400,
      "pl": 401,
      "Ġinto": 402,
      "ice": 403,
      "Ġbec": 404,
      "now": 405,
      "Ġpe": 406,
      "Ġany": 407,
      "Ġsee": 408,
      "Ġwould": 409,
      "Ġcl": 410,
      "ib": 411,
      "pt": 412,
      "Ġwhen": 413,
      "nder": 414,
      "ish": 415,
      "...": 416,
      "Ġthr": 417,
      "Ġtr": 418,
      "This": 419,
      "Ġtheir": 420,
      "so": 421,
      "Ġfun": 422,
      "Ġu": 423,
      "uck": 424,
      "Ġfeel": 425,
      "ac": 426,
      "Ġam": 427,
      "Ġend": 428,
      "ian": 429,
      "Ġpo": 430,
      "ars": 431,
      "ff": 432,
      "Ġif": 433,
      "Ġbet": 434,
      "Ġhad": 435,
      "Ġevery": 436,
      "Ġshort": 437,
      "ass": 438,
      "ful": 439,
      "Ġdid": 440,
      "Ġmost": 441,
      "ep": 442,
      "man": 443,
      "Ġgreat": 444,
      "ue": 445,
      "Ġad": 446,
      "Ġmade": 447,
      "ther": 448,
      "Ġover": 449,
      "ment": 450,
      "ious": 451,
      "Ġthem": 452,
      "Ġknow": 453,
      "ple": 454,
      "Ġwork": 455,
      "Ġtoo": 456,
      "ny": 457,
      "Ġcharact": 458,
      "ople": 459,
      "irect": 460,
      "Ġlook": 461,
      "ert": 462,
      "Ġ2": 463,
      "Ġeven": 464,
      "ence": 465,
      "Ġthing": 466,
      "Ġdoc": 467,
      "Ġonly": 468,
      "ile": 469,
      "ical": 470,
      "hat": 471,
      "Ġwhich": 472,
      "for": 473,
      "Ġway": 474,
      "irst": 475,
      "ause": 476,
      "Ġdoes": 477,
      "Ġpeople": 478,
      "ittle": 479,
      "te": 480,
      "Ġwere": 481,
      "Ġsp": 482,
      "Ġtw": 483,
      "'m": 484,
      "omet": 485,
      "int": 486,
      "Ġco": 487,
      "ument": 488,
      "iz": 489,
      "ia": 490,
      "erest": 491,
      "Ġthink": 492,
      "Ġpart": 493,
      "Ġcould": 494,
      "Ġdirect": 495,
      "Ġ-": 496,
      "Ġlittle": 497,
      "Ġwell": 498,
      "ial": 499,
      "ated": 500,
      "ute": 501,
      "'ve": 502,
      "ĠY": 503,
      "Ġmin": 504,
      "we": 505,
      "Ġbl": 506,
      "Ġbeing": 507,
      "per": 508,
      "Ġother": 509,
      "ched": 510,
      "ose": 511,
      "Ġte": 512,
      "pect": 513,
      "Ġgu": 514,
      "ual": 515,
      "Ġmak": 516,
      "ace": 517,
      "Ġfirst": 518,
      "Ġhere": 519,
      "Ġye": 520,
      "Ġhim": 521,
      "Ġshow": 522,
      "other": 523,
      "aw": 524,
      "elf": 525,
      "hy": 526,
      "Ġus": 527,
      "Ġdis": 528,
      "ult": 529,
      "Ġmov": 530,
      "tty": 531,
      "Ġmake": 532,
      "Ġoff": 533,
      "Ġag": 534,
      "Ġshe": 535,
      "red": 536,
      "Ġbecause": 537,
      "Ġfilms": 538,
      "Ġscen": 539,
      "ah": 540,
      "Ġbeen": 541,
      "ĠCh": 542,
      "Ġreal": 543,
      "ip": 544,
      "ress": 545,
      "ting": 546,
      "Ġdocument": 547,
      "Ġwant": 548,
      "Ġinterest": 549,
      "ans": 550,
      "get": 551,
      "ark": 552,
      "ild": 553,
      "Ġsomet": 554,
      "fter": 555,
      "own": 556,
      "ob": 557,
      "ĠV": 558,
      "ost": 559,
      "Ġlife": 560,
      "Ġbr": 561,
      "ually": 562,
      "Ġent": 563,
      "Ġalso": 564,
      "ram": 565,
      "Ġdes": 566,
      "ens": 567,
      "Ġra": 568,
      "Ġthrough": 569,
      "Ġdon": 570,
      "Ġyour": 571,
      "co": 572,
      "inem": 573,
      "ces": 574,
      "ict": 575,
      "Ġser": 576,
      "Ġstill": 577,
      "Ġsl": 578,
      "Ġpr": 579,
      "Ġbit": 580,
      "ĠThis": 581,
      "Ġfl": 582,
      "ance": 583,
      "Ġlot": 584,
      "Ġbad": 585,
      "ction": 586,
      "Ġro": 587,
      "view": 588,
      "Ġwill": 589,
      "ating": 590,
      "ved": 591,
      "thing": 592,
      "Ġwhere": 593,
      "Ġcr": 594,
      "the": 595,
      "Ġgr": 596,
      "Ġever": 597,
      "ise": 598,
      "cc": 599,
      "Ġnever": 600,
      "Ġhor": 601,
      "Ġback": 602,
      "Ġpretty": 603,
      "ach": 604,
      "az": 605,
      "aut": 606,
      "sh": 607,
      "urn": 608,
      "ily": 609,
      "Ġrem": 610,
      "Ġbest": 611,
      "fect": 612,
      "Ġseen": 613,
      "mer": 614,
      "ng": 615,
      "Ġplay": 616,
      "Ġdocumentary": 617,
      "oll": 618,
      "Ġunder": 619,
      "oc": 620,
      "Ġsomething": 621,
      "Ġstr": 622,
      "Ġri": 623,
      "Ġkind": 624,
      "vers": 625,
      "Ġbetter": 626,
      "ug": 627,
      "arr": 628,
      "Ġmovies": 629,
      "ving": 630,
      "Ġgen": 631,
      "arly": 632,
      "Ġcinem": 633,
      "ves": 634,
      "Ġtal": 635,
      "Ġimp": 636,
      "Ġafter": 637,
      "Ġwr": 638,
      "ull": 639,
      "Ġtwo": 640,
      "Ġgot": 641,
      "Ġinteresting": 642,
      "ĠSt": 643,
      "ble": 644,
      "old": 645,
      "ors": 646,
      "Ġwatching": 647,
      "Ġaw": 648,
      "Ġthese": 649,
      "Ġsay": 650,
      "Ġem": 651,
      "Ġsur": 652,
      "Ġmus": 653,
      "be": 654,
      "Ġinc": 655,
      "wn": 656,
      "Ġtra": 657,
      "imes": 658,
      "Ġthen": 659,
      "Ġspe": 660,
      "du": 661,
      "ĠU": 662,
      "Ġdec": 663,
      "Ġwom": 664,
      "ought": 665,
      "ber": 666,
      "Ġ20": 667,
      "Ġfuck": 668,
      "ions": 669,
      "Ġcomed": 670,
      "ree": 671,
      "Ġlong": 672,
      "ath": 673,
      "vel": 674,
      "Ġ19": 675,
      "iful": 676,
      "ase": 677,
      "ents": 678,
      "oot": 679,
      "Ġperfor": 680,
      "rap": 681,
      "ror": 682,
      "autiful": 683,
      "inal": 684,
      "ik": 685,
      "joy": 686,
      "Ġwhile": 687,
      "Ġneed": 688,
      "Ġhapp": 689,
      "Ġsub": 690,
      "Ġsup": 691,
      "me": 692,
      "Ġke": 693,
      "ature": 694,
      ".\"": 695,
      "Ġpers": 696,
      "Ġset": 697,
      "Ġrec": 698,
      "Ġgoing": 699,
      "ery": 700,
      "ably": 701,
      "fore": 702,
      "iss": 703,
      "igh": 704,
      "Ġche": 705,
      "iend": 706,
      "irl": 707,
      "ning": 708,
      "utes": 709,
      "Ġfam": 710,
      "ĠAnd": 711,
      "ways": 712,
      "iff": 713,
      "Ġfind": 714,
      "les": 715,
      "Ġseem": 716,
      "Ġmany": 717,
      "Ġcomp": 718,
      "Ġins": 719,
      "It": 720,
      "'re": 721,
      "Ġter": 722,
      "Ġmom": 723,
      "Ġwatched": 724,
      "Ġenjoy": 725,
      "Ġcharacter": 726,
      "ertain": 727,
      "ism": 728,
      "ather": 729,
      "Ġnow": 730,
      "Ġcont": 731,
      "ect": 732,
      "ative": 733,
      "Ġcharacters": 734,
      "ail": 735,
      "Ġcou": 736,
      "ird": 737,
      "Ġworld": 738,
      "ense": 739,
      "Ġart": 740,
      "Ġrel": 741,
      "reen": 742,
      "Ġminutes": 743,
      "uff": 744,
      "Ġthough": 745,
      "Ġagain": 746,
      "Ġguy": 747,
      "Ġsm": 748,
      "ĠBut": 749,
      "cial": 750,
      "Ġold": 751,
      "Ġshot": 752,
      "Ġhum": 753,
      "Ġes": 754,
      "ign": 755,
      "ft": 756,
      "Ġstart": 757,
      "Ġplot": 758,
      "Ġmakes": 759,
      "der": 760,
      "Ġshould": 761,
      "ons": 762,
      ").": 763,
      "Ġanim": 764,
      "ically": 765,
      "Ġperforman": 766,
      "Ġsa": 767,
      "Ġactually": 768,
      "Ġbeautiful": 769,
      "Ġbefore": 770,
      "Ġ'": 771,
      "Ġdidn": 772,
      "less": 773,
      "Ġres": 774,
      "Ġalways": 775,
      "self": 776,
      "li": 777,
      "iting": 778,
      "Ġenough": 779,
      "aking": 780,
      "Ġthose": 781,
      "Ġyears": 782,
      "ren": 783,
      "??": 784,
      "Ġaround": 785,
      "Ġdown": 786,
      "ness": 787,
      "king": 788,
      "Ġnew": 789,
      "Ġdram": 790,
      "Ġthings": 791,
      "elt": 792,
      "Ġinter": 793,
      "Ġsuch": 794,
      "Ġcomedy": 795,
      "Ġsim": 796,
      "ater": 797,
      "Ġsame": 798,
      "Ġdoesn": 799,
      "ible": 800,
      "Ġperson": 801,
      "ience": 802,
      "Ġob": 803,
      "ween": 804,
      "Ġdiff": 805,
      "Ġtry": 806,
      "Ġthought": 807,
      "ks": 808,
      "Ġsound": 809,
      "ream": 810,
      "here": 811,
      "na": 812,
      "ked": 813,
      "pr": 814,
      "Ġpoint": 815,
      "Ġquite": 816,
      "air": 817,
      "Ġmusic": 818,
      "....": 819,
      "Ġright": 820,
      "Ġatt": 821,
      "oth": 822,
      "Ġown": 823,
      "its": 824,
      "rig": 825,
      "ations": 826,
      "Ġmay": 827,
      "Ġapp": 828,
      "Ġgirl": 829,
      "cept": 830,
      "fin": 831,
      "ward": 832,
      "ord": 833,
      "Ġbetween": 834,
      "Ġhard": 835,
      "xt": 836,
      "ograp": 837,
      "Ġfunny": 838,
      "Ġmen": 839,
      "era": 840,
      "ock": 841,
      "Ġhorror": 842,
      "ĠIn": 843,
      "ash": 844,
      "Ġkid": 845,
      "atch": 846,
      "oss": 847,
      "ĠAl": 848,
      "oh": 849,
      "Ġexper": 850,
      "ĠSh": 851,
      "ĠBr": 852,
      "ject": 853,
      "uring": 854,
      "Ġtri": 855,
      "Ġinv": 856,
      "ling": 857,
      "alf": 858,
      "Ġide": 859,
      "Ġscene": 860,
      "Ġ3": 861,
      "ond": 862,
      "Ġbig": 863,
      "Ġwhy": 864,
      "Ġfeels": 865,
      "ave": 866,
      "Ġind": 867,
      "Ġev": 868,
      "Ġvis": 869,
      "Ġprodu": 870,
      "Ġsex": 871,
      "Ġfriend": 872,
      "hen": 873,
      "Ġturn": 874,
      "Ġel": 875,
      "Ġcol": 876,
      "Ġdirector": 877,
      "Ġexpl": 878,
      "ional": 879,
      "Ġfew": 880,
      "Ġabs": 881,
      "Ġkill": 882,
      "io": 883,
      "Ġcast": 884,
      "apt": 885,
      "Ġfav": 886,
      "Ġap": 887,
      "ately": 888,
      "ĠHe": 889,
      "ced": 890,
      "Ġdel": 891,
      "ĠThere": 892,
      "ont": 893,
      "Ġexpect": 894,
      "ane": 895,
      "most": 896,
      "akes": 897,
      "Ġlast": 898,
      "Ġed": 899,
      "iter": 900,
      "Ġlead": 901,
      "Ġtell": 902,
      "Ġbel": 903,
      "ok": 904,
      "Ġchild": 905,
      "ffect": 906,
      "Ġcam": 907,
      "Ġwhole": 908,
      "ings": 909,
      "Ġput": 910,
      "Ġrun": 911,
      "Ġscenes": 912,
      "augh": 913,
      "ins": 914,
      "Ġcomple": 915,
      "Ġtimes": 916,
      "Ġgets": 917,
      "Ġnothing": 918,
      "Ġhalf": 919,
      "Ġcinema": 920,
      "Ġhigh": 921,
      "),": 922,
      "hed": 923,
      "Ġsure": 924,
      "ee": 925,
      "Ġbas": 926,
      "Ġhist": 927,
      "An": 928,
      "ale": 929,
      "Ġtake": 930,
      "Ġacting": 931,
      "Ġclass": 932,
      "sc": 933,
      "ĠTH": 934,
      "olute": 935,
      "Ġacc": 936,
      "'d": 937,
      "atic": 938,
      "ec": 939,
      "ox": 940,
      "Ġaction": 941,
      "ER": 942,
      "ool": 943,
      "Ġnice": 944,
      "Ġdiffere": 945,
      "Ġfar": 946,
      "ster": 947,
      "tern": 948,
      "Ġseries": 949,
      "Ġgl": 950,
      "Ġz": 951,
      "ody": 952,
      "Ġday": 953,
      "ead": 954,
      "Ġscreen": 955,
      "Ġheart": 956,
      "Ġdi": 957,
      "Ġpol": 958,
      "Ġyoung": 959,
      "ung": 960,
      "Ġlet": 961,
      "Ġfelt": 962,
      "ingly": 963,
      "Ġmaking": 964,
      "ĠYou": 965,
      "Ġanother": 966,
      "ered": 967,
      "Ġshit": 968,
      "Ġnarr": 969,
      "bably": 970,
      "arn": 971,
      "rist": 972,
      "ower": 973,
      "Ġsu": 974,
      "ix": 975,
      "Ġanything": 976,
      "Ġfeature": 977,
      "iece": 978,
      "ope": 979,
      "this": 980,
      "cond": 981,
      "Ġdrama": 982,
      "Ġinst": 983,
      "Ġexc": 984,
      "Ġour": 985,
      "eng": 986,
      "Ġboth": 987,
      "Ġcare": 988,
      "Ġcool": 989,
      "Ġmas": 990,
      "Ġfamily": 991,
      "IN": 992,
      "Ġfound": 993,
      "led": 994,
      "Ġsty": 995,
      "app": 996,
      "ason": 997,
      "ady": 998,
      "orth": 999,
      "ince": 1000,
      "!!!!": 1001,
      "ming": 1002,
      "Ġep": 1003,
      "ouse": 1004,
      "Ġhand": 1005,
      "Ġwoman": 1006,
      "Ġmem": 1007,
      "Ġcons": 1008,
      "Ġop": 1009,
      "ange": 1010,
      "ank": 1011,
      "Ġwithout": 1012,
      "Ġimag": 1013,
      "que": 1014,
      "Ġwar": 1015,
      "Ġleast": 1016,
      "ever": 1017,
      "Ġisn": 1018,
      "Ġyear": 1019,
      "Ġbu": 1020,
      "Ġeverything": 1021,
      "ier": 1022,
      "Ġhel": 1023,
      "Ġbor": 1024,
      "Ġpres": 1025,
      "ition": 1026,
      "finite": 1027,
      "Ġdifferent": 1028,
      "icul": 1029,
      "Ġass": 1030,
      "day": 1031,
      "Ġalmost": 1032,
      "Ġeffect": 1033,
      "Ġcle": 1034,
      "ican": 1035,
      "Ġmain": 1036,
      "cially": 1037,
      "onder": 1038,
      "Ġcra": 1039,
      "Ġfoot": 1040,
      "ew": 1041,
      "udget": 1042,
      "Ġcall": 1043,
      "ĠNot": 1044,
      "ĠTh": 1045,
      "ph": 1046,
      "ography": 1047,
      "Ġtit": 1048,
      "Ġrom": 1049,
      "ues": 1050,
      "ics": 1051,
      "'ll": 1052,
      "finitely": 1053,
      "Ġext": 1054,
      "Ġsecond": 1055,
      "Ġless": 1056,
      "Ġfin": 1057,
      "ove": 1058,
      "Ġdep": 1059,
      "Ġcreat": 1060,
      "Ġcomm": 1061,
      "Ġvers": 1062,
      "Ġmight": 1063,
      "Ġweird": 1064,
      "ten": 1065,
      "Ġsurpr": 1066,
      "umb": 1067,
      "Ġsing": 1068,
      "olog": 1069,
      "Ġtrying": 1070,
      "Ġending": 1071,
      "Ġfucking": 1072,
      "Ġstand": 1073,
      "Ġtoget": 1074,
      "Ġtogether": 1075,
      "Ġsol": 1076,
      "Ġyet": 1077,
      "ists": 1078,
      "Ġentertain": 1079,
      "00": 1080,
      "Ġcome": 1081,
      "Ġhour": 1082,
      "Ġsil": 1083,
      "sy": 1084,
      "pecially": 1085,
      "Ġque": 1086,
      "Ġcre": 1087,
      "Ġstar": 1088,
      "ollow": 1089,
      "ount": 1090,
      "Ġhappen": 1091,
      "Ġplace": 1092,
      "Ġentire": 1093,
      "stand": 1094,
      "ner": 1095,
      "Ġmon": 1096,
      "ited": 1097,
      "ates": 1098,
      "ohn": 1099,
      "Ġkeep": 1100,
      "Ġemot": 1101,
      "Ġabsolute": 1102,
      "fort": 1103,
      "Ġhelp": 1104,
      "Ġsch": 1105,
      "ories": 1106,
      "Ġconf": 1107,
      "Ġcar": 1108,
      "ese": 1109,
      "Ġsuper": 1110,
      "ship": 1111,
      "Ġsomeone": 1112,
      "Ġview": 1113,
      "Ġ5": 1114,
      "ives": 1115,
      "yn": 1116,
      "Ġprobably": 1117,
      "Ġgive": 1118,
      "ures": 1119,
      "Ġwomen": 1120,
      "Ġstuff": 1121,
      "ien": 1122,
      "ife": 1123,
      "Ġele": 1124,
      "ĠRe": 1125,
      "Ġlow": 1126,
      "Ġdr": 1127,
      "res": 1128,
      "Ġmean": 1129,
      "istic": 1130,
      "ĠAn": 1131,
      "Ġfact": 1132,
      "Ġsk": 1133,
      "Ġadd": 1134,
      "Ġearly": 1135,
      "Ġnight": 1136,
      "Ġfilmm": 1137,
      "leas": 1138,
      "Ġtrans": 1139,
      "onest": 1140,
      "ĠAmer": 1141,
      "ret": 1142,
      "ality": 1143,
      "ĠFr": 1144,
      "ying": 1145,
      "Ġmoments": 1146,
      "Ġfull": 1147,
      "Ġdone": 1148,
      "Ġbelie": 1149,
      "Ġseems": 1150,
      "ex": 1151,
      "Ġsong": 1152,
      "Ġwonder": 1153,
      "Ġwasn": 1154,
      "iet": 1155,
      "Ġfavor": 1156,
      "ye": 1157,
      "my": 1158,
      "Ġloved": 1159,
      "Ġliked": 1160,
      "Ġreview": 1161,
      "ĠBl": 1162,
      "ross": 1163,
      "ya": 1164,
      "com": 1165,
      "Ġlive": 1166,
      "Ġac": 1167,
      "Ġboy": 1168,
      "ĠDe": 1169,
      "iller": 1170,
      "Ġhaving": 1171,
      "Ġperformance": 1172,
      "ho": 1173,
      "Ġperfect": 1174,
      "ugg": 1175,
      "Ġidea": 1176,
      "ĠSo": 1177,
      "Ġorig": 1178,
      "als": 1179,
      "ai": 1180,
      "Ġcomplete": 1181,
      "Ġsequ": 1182,
      "Ġform": 1183,
      "ney": 1184,
      "Ġsense": 1185,
      "Ġph": 1186,
      "aj": 1187,
      "Ġhead": 1188,
      "Ġdan": 1189,
      "Ġanimation": 1190,
      "Ġunt": 1191,
      "Ġlight": 1192,
      "Ġduring": 1193,
      "Ġgra": 1194,
      "Ġeach": 1195,
      "uk": 1196,
      "Ġterri": 1197,
      "orn": 1198,
      "Ġmar": 1199,
      "Ġsince": 1200,
      "Ġfollow": 1201,
      "idd": 1202,
      "Ġlooks": 1203,
      "Ġhistory": 1204,
      "iously": 1205,
      "isod": 1206,
      "Ġstyle": 1207,
      "amp": 1208,
      "Ġrather": 1209,
      "Ġversion": 1210,
      "Ġbeg": 1211,
      "Ġ4": 1212,
      "ention": 1213,
      "In": 1214,
      "ering": 1215,
      "AN": 1216,
      "ired": 1217,
      "Ġfight": 1218,
      "Ġaway": 1219,
      "Ġsupp": 1220,
      "ilar": 1221,
      "ident": 1222,
      "Ġsad": 1223,
      "att": 1224,
      "Ġhuman": 1225,
      "ude": 1226,
      "Ġmiss": 1227,
      "Ġref": 1228,
      "Ġgoes": 1229,
      "Ġaud": 1230,
      "Ġfootage": 1231,
      "ru": 1232,
      "Ġgetting": 1233,
      "not": 1234,
      "unt": 1235,
      "zy": 1236,
      "Ġpar": 1237,
      "azing": 1238,
      "ĠThat": 1239,
      "Not": 1240,
      "ript": 1241,
      "Ġespecially": 1242,
      "land": 1243,
      "Ġrep": 1244,
      "son": 1245,
      "Ġtakes": 1246,
      "ike": 1247,
      "Ġmed": 1248,
      "Ġgener": 1249,
      "Ġstud": 1250,
      "ural": 1251,
      "Ġdoing": 1252,
      "Ġeveryone": 1253,
      "ames": 1254,
      "Ġworth": 1255,
      "Ġbudget": 1256,
      "Ġpower": 1257,
      "cing": 1258,
      "yp": 1259,
      "Ġspecial": 1260,
      "Ġrest": 1261,
      "Ġhome": 1262,
      "Ġdist": 1263,
      "ann": 1264,
      "19": 1265,
      "but": 1266,
      "Ġdream": 1267,
      "ĠChrist": 1268,
      "Ġsaid": 1269,
      "Ġla": 1270,
      "ĠFilm": 1271,
      "Ġexp": 1272,
      "ĠBe": 1273,
      "Ġmess": 1274,
      "Ġdial": 1275,
      "Ġunderstand": 1276,
      "Ġswe": 1277,
      "Ġexperience": 1278,
      "Ġdefinitely": 1279,
      "Ġproduction": 1280,
      "Ġsurpris": 1281,
      "Ġmind": 1282,
      "Ġepisod": 1283,
      "gr": 1284,
      "Ġincred": 1285,
      "atter": 1286,
      "Ġvide": 1287,
      "fr": 1288,
      "Ġcult": 1289,
      "Ġboring": 1290,
      "llll": 1291,
      "Ġdet": 1292,
      "ments": 1293,
      "ax": 1294,
      "ms": 1295,
      "Ġmur": 1296,
      "Ġtop": 1297,
      "Ġstars": 1298,
      "uss": 1299,
      "Ġlaugh": 1300,
      "Ġslow": 1301,
      "oon": 1302,
      "Ġwish": 1303,
      "asc": 1304,
      "und": 1305,
      "reak": 1306,
      "Ġperformances": 1307,
      "ĠTV": 1308,
      "ibly": 1309,
      "Ġfavorite": 1310,
      "unch": 1311,
      "Ġthree": 1312,
      "Ġpiece": 1313,
      "ets": 1314,
      "Ġelse": 1315,
      "Ġlooking": 1316,
      "Ġcount": 1317,
      "Ġfinal": 1318,
      "Ġdra": 1319,
      "Ġvo": 1320,
      "ocus": 1321,
      "vent": 1322,
      "aring": 1323,
      "arent": 1324,
      "What": 1325,
      "Ġpass": 1326,
      "Ġactors": 1327,
      "Ġtitle": 1328,
      "Ġbeh": 1329,
      "ches": 1330,
      "AT": 1331,
      "Ġfall": 1332,
      "illi": 1333,
      "Ġuni": 1334,
      "ied": 1335,
      "Ġ9": 1336,
      "ĠTHE": 1337,
      "med": 1338,
      "If": 1339,
      "Ġdialog": 1340,
      "Ġmust": 1341,
      "Ġstop": 1342,
      "Ġschool": 1343,
      "fully": 1344,
      "Ġsaw": 1345,
      "dd": 1346,
      "Ġyang": 1347,
      "Ġ8": 1348,
      "Ġonce": 1349,
      "aps": 1350,
      "ump": 1351,
      "ĠJohn": 1352,
      "Ġcame": 1353,
      "elling": 1354,
      "Ġport": 1355,
      "estern": 1356,
      "Ġliter": 1357,
      "ening": 1358,
      "ott": 1359,
      "lease": 1360,
      "ĠAr": 1361,
      "OO": 1362,
      "ival": 1363,
      "Âł": 1364,
      "ract": 1365,
      "Ġdeep": 1366,
      "Ġcomes": 1367,
      "Ġuse": 1368,
      "cess": 1369,
      "Ġfan": 1370,
      "Ġdecent": 1371,
      "atched": 1372,
      "Ġremem": 1373,
      "You": 1374,
      "nya": 1375,
      "Ġcour": 1376,
      "Ġread": 1377,
      "ines": 1378,
      "Ġcouple": 1379,
      "Ġsw": 1380,
      "Ġgi": 1381,
      "Ġappe": 1382,
      "Ġitself": 1383,
      "Ġcertain": 1384,
      "Ġeas": 1385,
      "Ġseeing": 1386,
      "ats": 1387,
      "Ġpain": 1388,
      "Ġoriginal": 1389,
      "Ġvi": 1390,
      "ov": 1391,
      "ĠWe": 1392,
      "Ġenjoyed": 1393,
      "rop": 1394,
      "Ġdark": 1395,
      "iness": 1396,
      "Ġposs": 1397,
      "ities": 1398,
      "Ġreg": 1399,
      "Ġhonest": 1400,
      "Ġsmall": 1401,
      "Ġmet": 1402,
      "Ġcur": 1403,
      "ither": 1404,
      "Ġguess": 1405,
      "way": 1406,
      "Ġjob": 1407,
      "ley": 1408,
      "Ġuntil": 1409,
      "oint": 1410,
      "Ġcut": 1411,
      "Ġloc": 1412,
      "Ġimpress": 1413,
      "Ġvisual": 1414,
      "empt": 1415,
      "Ġwanted": 1416,
      "Ġreason": 1417,
      "ork": 1418,
      "gg": 1419,
      "Ġcamera": 1420,
      "Ġstrong": 1421,
      "St": 1422,
      "ized": 1423,
      "orge": 1424,
      "There": 1425,
      "Ġmel": 1426,
      "Ġret": 1427,
      "mas": 1428,
      "Ġabsolutely": 1429,
      "Ġblack": 1430,
      "ĠZ": 1431,
      "ational": 1432,
      "Ġfocus": 1433,
      "Ġcute": 1434,
      "ĠMar": 1435,
      "Ġinstead": 1436,
      "ma": 1437,
      "cl": 1438,
      "Ġcapt": 1439,
      "uly": 1440,
      "ĠAs": 1441,
      "Ġlack": 1442,
      "Ġdeath": 1443,
      "Ġentertaining": 1444,
      "ĠWh": 1445,
      "Ġamazing": 1446,
      "Ġstra": 1447,
      "Ġused": 1448,
      "Ġsy": 1449,
      "olly": 1450,
      "hes": 1451,
      "Ġeng": 1452,
      "ray": 1453,
      "Ġsolid": 1454,
      "els": 1455,
      "Ġ202": 1456,
      "Ġpast": 1457,
      "Ġnarrative": 1458,
      "Ġgay": 1459,
      "ger": 1460,
      "ĠUn": 1461,
      "reme": 1462,
      "My": 1463,
      "Ġleft": 1464,
      "ĠShe": 1465,
      "Ġdirected": 1466,
      "unk": 1467,
      "ĠThey": 1468,
      "ĠWhat": 1469,
      "Ġsort": 1470,
      "ES": 1471,
      "Ġfriends": 1472,
      "omb": 1473,
      "ison": 1474,
      "ĠCl": 1475,
      "Ġplays": 1476,
      "oney": 1477,
      "iment": 1478,
      "ular": 1479,
      "Ġworks": 1480,
      "Ġincl": 1481,
      "Ġhell": 1482,
      "pite": 1483,
      "cy": 1484,
      "Ġlost": 1485,
      "de": 1486,
      "het": 1487,
      "Ġquest": 1488,
      "Ġscript": 1489,
      "ific": 1490,
      "how": 1491,
      "Ġword": 1492,
      "Ġimport": 1493,
      "IS": 1494,
      "Ġcop": 1495,
      "vis": 1496,
      "Ġsat": 1497,
      "Ġwent": 1498,
      "ently": 1499,
      "orm": 1500,
      "what": 1501,
      "Ġfant": 1502,
      "Ġbra": 1503,
      "ains": 1504,
      "Ġmaster": 1505,
      "to": 1506,
      "Ġ7": 1507,
      "ution": 1508,
      "Ġshows": 1509,
      "ica": 1510,
      "Ġstories": 1511,
      "Ġviol": 1512,
      "AR": 1513,
      "cer": 1514,
      "Ġtrue": 1515,
      "One": 1516,
      "Ġkids": 1517,
      "Ġparticul": 1518,
      "Ġmag": 1519,
      "ĠHow": 1520,
      "Ġcinemat": 1521,
      "Ġhope": 1522,
      "Ġcent": 1523,
      "Ġpolit": 1524,
      "amn": 1525,
      "wood": 1526,
      "Ġlist": 1527,
      "EN": 1528,
      "Ġbelieve": 1529,
      "Ġrole": 1530,
      "ĠIf": 1531,
      "Ġplaying": 1532,
      "Ġvideo": 1533,
      "ON": 1534,
      "Ġthriller": 1535,
      "osed": 1536,
      "Ġtruly": 1537,
      "iving": 1538,
      "Ġmaybe": 1539,
      "ING": 1540,
      "ared": 1541,
      "Ġkinda": 1542,
      "Ġmoment": 1543,
      "Ġcor": 1544,
      "ows": 1545,
      "Ġsubject": 1546,
      "Ġmis": 1547,
      "ĠAmerican": 1548,
      "apan": 1549,
      "Ġrelation": 1550,
      "ĠLe": 1551,
      "Ġhouse": 1552,
      "ina": 1553,
      "Ġbecom": 1554,
      "ief": 1555,
      "ari": 1556,
      "br": 1557,
      "Ġmostly": 1558,
      "Ġwhite": 1559,
      "yes": 1560,
      "Ġworst": 1561,
      "ones": 1562,
      "ides": 1563,
      "?\"": 1564,
      "ters": 1565,
      "Ġinf": 1566,
      "ored": 1567,
      "Ġalong": 1568,
      "Ġfilmmak": 1569,
      "ote": 1570,
      "Ġpop": 1571,
      "Ġhimself": 1572,
      "OR": 1573,
      "Ġcompletely": 1574,
      "ube": 1575,
      "ĠSp": 1576,
      "ascin": 1577,
      "Ġfair": 1578,
      "uc": 1579,
      "Ġexist": 1580,
      "Ġsit": 1581,
      "Ġname": 1582,
      "Ġface": 1583,
      "oke": 1584,
      "Ġgenre": 1585,
      "though": 1586,
      "ential": 1587,
      "iel": 1588,
      "!!!": 1589,
      "ĠSc": 1590,
      "ĠSe": 1591,
      "oe": 1592,
      "Ġland": 1593,
      "Ġang": 1594,
      "ha": 1595,
      "min": 1596,
      "Ġrelationship": 1597,
      "Ġgod": 1598,
      "Ġremember": 1599,
      "Ġbehind": 1600,
      "Ġlater": 1601,
      "box": 1602,
      "ages": 1603,
      "ape": 1604,
      "mend": 1605,
      "Ġvib": 1606,
      "Ġdem": 1607,
      "Ġdialogue": 1608,
      "ony": 1609,
      "ried": 1610,
      "ili": 1611,
      "ino": 1612,
      "let": 1613,
      "oup": 1614,
      "Ġwrong": 1615,
      "Ġpresent": 1616,
      "time": 1617,
      "osp": 1618,
      "right": 1619,
      "Ġinvol": 1620,
      "Ġliterally": 1621,
      "like": 1622,
      "chn": 1623,
      "Ġexact": 1624,
      "LL": 1625,
      "line": 1626,
      "use": 1627,
      "ready": 1628,
      "gy": 1629,
      "onna": 1630,
      "Ġpoor": 1631,
      "Ġoften": 1632,
      "ĠRob": 1633,
      "Ġagainst": 1634,
      "OU": 1635,
      "bs": 1636,
      "Ġprot": 1637,
      "Ġdri": 1638,
      "Ġtou": 1639,
      "Ġattempt": 1640,
      "udd": 1641,
      "itten": 1642,
      "light": 1643,
      "ize": 1644,
      "Ġdesign": 1645,
      "uine": 1646,
      "Ġplayed": 1647,
      "Ġmor": 1648,
      "form": 1649,
      "rench": 1650,
      "side": 1651,
      "Ġdead": 1652,
      "Ġprem": 1653,
      "ek": 1654,
      "Ġant": 1655,
      "Ġmother": 1656,
      "Ġinsp": 1657,
      "Ġfore": 1658,
      "Ġmyself": 1659,
      "Ġcourse": 1660,
      "tra": 1661,
      "Ġwal": 1662,
      "Ġsle": 1663,
      "ij": 1664,
      "Ġnon": 1665,
      "aces": 1666,
      "Ġcinematography": 1667,
      "Ġself": 1668,
      "Ġwa": 1669,
      "Ġhot": 1670,
      "Ġsimple": 1671,
      "Ġsweet": 1672,
      "Re": 1673,
      "Ġve": 1674,
      "Ġbro": 1675,
      "enn": 1676,
      "fortun": 1677,
      "Ġtalking": 1678,
      "Ġflick": 1679,
      "Ġ6": 1680,
      "Ġalready": 1681,
      "So": 1682,
      "ara": 1683,
      "!\"": 1684,
      "antly": 1685,
      "astic": 1686,
      "Ġpict": 1687,
      "Ġtoday": 1688,
      "erman": 1689,
      "Ġstraight": 1690,
      "Ġtalk": 1691,
      "Ġcoming": 1692,
      "Ġfeeling": 1693,
      "Ġfine": 1694,
      "ene": 1695,
      "Ġok": 1696,
      "Ġcrime": 1697,
      "Ġshots": 1698,
      "itch": 1699,
      "owing": 1700,
      "Ġnext": 1701,
      "Ġtot": 1702,
      "ital": 1703,
      "Ġbook": 1704,
      "Ġconcept": 1705,
      "Ġmatter": 1706,
      "ĠAll": 1707,
      "Ġav": 1708,
      "--": 1709,
      "Ġanyone": 1710,
      "uth": 1711,
      "ler": 1712,
      "Ġdog": 1713,
      "ided": 1714,
      "lish": 1715,
      "Ġ10": 1716,
      "inning": 1717,
      "Ġremind": 1718,
      "Ġproble": 1719,
      "Ġcolle": 1720,
      "Ġsingle": 1721,
      "Ġactor": 1722,
      "ommend": 1723,
      "reci": 1724,
      "Ġlives": 1725,
      "Ġminute": 1726,
      "Ġest": 1727,
      "rew": 1728,
      "ĠNo": 1729,
      "ĠBrit": 1730,
      "Ġlevel": 1731,
      "play": 1732,
      "Ġconsid": 1733,
      "Ġfascin": 1734,
      "Ġhate": 1735,
      "Ġpsy": 1736,
      "oof": 1737,
      "Ġann": 1738,
      "terbox": 1739,
      "new": 1740,
      "ih": 1741,
      "Ġdeser": 1742,
      "any": 1743,
      "ility": 1744,
      "by": 1745,
      "Ġterrible": 1746,
      "ted": 1747,
      "Ġconst": 1748,
      "Ġbecome": 1749,
      "Ġdays": 1750,
      "ric": 1751,
      "ished": 1752,
      "ots": 1753,
      "Ġ90": 1754,
      "nce": 1755,
      "ama": 1756,
      "Ġfather": 1757,
      "Ġside": 1758,
      "arch": 1759,
      "Ġguys": 1760,
      "Ġ:": 1761,
      "oles": 1762,
      "ollywood": 1763,
      "Ġclassic": 1764,
      "wards": 1765,
      "Ġdie": 1766,
      "Ġpot": 1767,
      "Ġmot": 1768,
      "iddle": 1769,
      "aby": 1770,
      "Ġlearn": 1771,
      "Ġgroup": 1772,
      "Ġadapt": 1773,
      "Ġepisode": 1774,
      "ured": 1775,
      "Ġeff": 1776,
      "Ġson": 1777,
      "Ġaudience": 1778,
      "Ġclose": 1779,
      "Ġfem": 1780,
      "ĠInd": 1781,
      "Ġmove": 1782,
      "Ġvoice": 1783,
      "ged": 1784,
      "terboxd": 1785,
      "Ġinclud": 1786,
      "Ġimportant": 1787,
      "mp": 1788,
      "arl": 1789,
      "Ġeffects": 1790,
      "Ġwife": 1791,
      "AS": 1792,
      "where": 1793,
      "Ġvill": 1794,
      "ĠNew": 1795,
      "Ġpost": 1796,
      "Ġinterview": 1797,
      "Ġtold": 1798,
      "Ġmix": 1799,
      "Ġcred": 1800,
      "Ġchildren": 1801,
      "retty": 1802,
      "ky": 1803,
      "ator": 1804,
      "Ġeither": 1805,
      "ustr": 1806,
      "ĠQ": 1807,
      "ovie": 1808,
      "ĠAlso": 1809,
      "Ġmurder": 1810,
      "Ġediting": 1811,
      "ĠJapan": 1812,
      "ada": 1813,
      "ĠAt": 1814,
      "Ġactual": 1815,
      "aging": 1816,
      "body": 1817,
      "vol": 1818,
      "Ġer": 1819,
      "Ġera": 1820,
      "Ġbased": 1821,
      "Ġprop": 1822,
      "Ġquality": 1823,
      "Ġbo": 1824,
      "ĠOne": 1825,
      "Ġeyes": 1826,
      "Ġgonna": 1827,
      "Ġlate": 1828,
      "sel": 1829,
      "ined": 1830,
      "Ġcommun": 1831,
      "Ġbuild": 1832,
      "Ġscore": 1833,
      "vious": 1834,
      "pped": 1835,
      "Ġmusical": 1836,
      "Ġgives": 1837,
      "oud": 1838,
      "ians": 1839,
      "ety": 1840,
      "ana": 1841,
      "Ġcart": 1842,
      "ts": 1843,
      "ĠSome": 1844,
      "ĠMy": 1845,
      "Ġcountry": 1846,
      "Ġemotional": 1847,
      "ED": 1848,
      "Ġenjoyable": 1849,
      "oes": 1850,
      "ively": 1851,
      "remely": 1852,
      "Ġgenuine": 1853,
      "Ġprom": 1854,
      "Ġpersonal": 1855,
      "\".": 1856,
      "Ġappreci": 1857,
      "ĠIs": 1858,
      "key": 1859,
      "Th": 1860,
      "Ġcase": 1861,
      "Ġopp": 1862,
      "Ġblood": 1863,
      "ĠFor": 1864,
      "Ġbreak": 1865,
      "iction": 1866,
      "Ġiss": 1867,
      "Ġmoder": 1868,
      "Ġrecommend": 1869,
      "Ġexactly": 1870,
      "ground": 1871,
      "using": 1872,
      "ald": 1873,
      "Ġsoci": 1874,
      "ype": 1875,
      "arring": 1876,
      "20": 1877,
      "Ġfail": 1878,
      "Ġtechn": 1879,
      "Ġthroughout": 1880,
      "ient": 1881,
      "Ġknew": 1882,
      "Ġexec": 1883,
      "anger": 1884,
      "ĠMan": 1885,
      "fortunately": 1886,
      "Ġpat": 1887,
      "Ġtook": 1888,
      "Ġfre": 1889,
      "Ġprof": 1890,
      "real": 1891,
      "avid": 1892,
      "Ġstrange": 1893,
      "wh": 1894,
      "Ġpleas": 1895,
      "Ġable": 1896,
      "OV": 1897,
      "oul": 1898,
      "ush": 1899,
      "ball": 1900,
      "Ġna": 1901,
      "ett": 1902,
      "Ġroom": 1903,
      "HH": 1904,
      "Ġhold": 1905,
      "Ġhit": 1906,
      "Ġwriting": 1907,
      "watch": 1908,
      "ĠGod": 1909,
      "off": 1910,
      "Ġfut": 1911,
      "Ġval": 1912,
      "Ġwestern": 1913,
      "of": 1914,
      "Ġhappened": 1915,
      "Ġcry": 1916,
      "Ġstrugg": 1917,
      "As": 1918,
      "Ġobs": 1919,
      "Ġtown": 1920,
      "TH": 1921,
      "ellent": 1922,
      "ole": 1923,
      "Ġodd": 1924,
      "Ġcho": 1925,
      "Ġparts": 1926,
      "ita": 1927,
      "Ġdisc": 1928,
      "hehe": 1929,
      "Ġgiven": 1930,
      "track": 1931,
      "anda": 1932,
      "amb": 1933,
      "Ġexcept": 1934,
      "Ġsn": 1935,
      "vin": 1936,
      "alian": 1937,
      "Ġoverall": 1938,
      "Ġmyst": 1939,
      "Ġdou": 1940,
      "Ġcouldn": 1941,
      "Ġcalled": 1942,
      "Ġstarted": 1943,
      "host": 1944,
      "Ġtale": 1945,
      "ael": 1946,
      "otic": 1947,
      "Ġliving": 1948,
      "ka": 1949,
      "selves": 1950,
      "Ġste": 1951,
      "Ġpur": 1952,
      "Ġcrazy": 1953,
      "aged": 1954,
      "itting": 1955,
      "Ġmiddle": 1956,
      "Ġage": 1957,
      "Ġband": 1958,
      "Ġdev": 1959,
      "upid": 1960,
      "rodu": 1961,
      "Ġline": 1962,
      "Ġbecomes": 1963,
      "Ġhappy": 1964,
      "aling": 1965,
      "urb": 1966,
      "Ġhumor": 1967,
      "ology": 1968,
      "Ġforg": 1969,
      "Ġhero": 1970,
      "ze": 1971,
      "Ġmodern": 1972,
      "estival": 1973,
      "Ġhom": 1974,
      "ĠBritish": 1975,
      "antic": 1976,
      "Ġeffort": 1977,
      "Ġ80": 1978,
      "Ġocc": 1979,
      "okes": 1980,
      "Ġpsych": 1981,
      "ences": 1982,
      "odram": 1983,
      "Ġma": 1984,
      "ĠPl": 1985,
      "Ġunique": 1986,
      "ices": 1987,
      "Ġ201": 1988,
      "Ġir": 1989,
      "aced": 1990,
      "Ġsometimes": 1991,
      "haps": 1992,
      "itive": 1993,
      "nding": 1994,
      "omp": 1995,
      "Ġturns": 1996,
      "Ġsubt": 1997,
      "mosp": 1998,
      "Ġshorts": 1999,
      "ron": 2000,
      "no": 2001,
      "Ġini": 2002,
      "Ġends": 2003,
      "used": 2004,
      "Al": 2005,
      "Ġwon": 2006,
      "Ġacross": 2007,
      "Ġdespite": 2008,
      "Ġago": 2009,
      "Ġwild": 2010,
      "Ġcareer": 2011,
      "Ġsilly": 2012,
      "nds": 2013,
      "Ġmoney": 2014,
      "Ġfascinating": 2015,
      "Ġwants": 2016,
      "Ġwithin": 2017,
      "ĠChristmas": 2018,
      "Ġhilar": 2019,
      "Ġquick": 2020,
      "Ġsoundtrack": 2021,
      "Ġbus": 2022,
      "Ġbrother": 2023,
      "Ġbar": 2024,
      "RE": 2025,
      "Ġhours": 2026,
      "Ġways": 2027,
      "Ġgame": 2028,
      "ichael": 2029,
      "Ġfinally": 2030,
      "Ġwritten": 2031,
      "Ġworking": 2032,
      "amed": 2033,
      "appoint": 2034,
      "Ġfig": 2035,
      "Ġpred": 2036,
      "agon": 2037,
      "ĠJust": 2038,
      "Ġtwist": 2039,
      "Ġcertainly": 2040,
      "read": 2041,
      "Ġstre": 2042,
      "AA": 2043,
      "Ġcontin": 2044,
      "hood": 2045,
      "ĠAm": 2046,
      "Ġge": 2047,
      "Ġpremise": 2048,
      "aries": 2049,
      "velop": 2050,
      "urd": 2051,
      "imp": 2052,
      "Ġbunch": 2053,
      "Be": 2054,
      "Ġwonderful": 2055,
      "aa": 2056,
      "Ch": 2057,
      "ĠOn": 2058,
      "Ġatmosp": 2059,
      "outh": 2060,
      "Ġgreatest": 2061,
      "ndom": 2062,
      "Ġcharming": 2063,
      "aybe": 2064,
      "When": 2065,
      "Ġchang": 2066,
      "Ġexam": 2067,
      "Ġ--": 2068,
      "Ġslight": 2069,
      "oved": 2070,
      "Ġdeli": 2071,
      "Ġmelodram": 2072,
      "Ġcheck": 2073,
      "ĠMc": 2074,
      "ccess": 2075,
      "Very": 2076,
      "Ġfree": 2077,
      "Ġmater": 2078,
      "Ġshoot": 2079,
      "ĠDon": 2080,
      "Ġlar": 2081,
      "ĠAN": 2082,
      "Ġconne": 2083,
      "Ġrid": 2084,
      "Ġcap": 2085,
      "ury": 2086,
      "Ġproject": 2087,
      "Ġble": 2088,
      "eless": 2089,
      "uz": 2090,
      "ised": 2091,
      "iod": 2092,
      "Ġbody": 2093,
      "urt": 2094,
      "gic": 2095,
      "CK": 2096,
      "Ġstupid": 2097,
      "Ġstarts": 2098,
      "Ġincredible": 2099,
      "uh": 2100,
      "aughter": 2101,
      "ards": 2102,
      "ination": 2103,
      "ister": 2104,
      "Ġgave": 2105,
      "aving": 2106,
      "Ġlos": 2107,
      "Ġsus": 2108,
      "ising": 2109,
      "Ġmoving": 2110,
      "We": 2111,
      "Ġothers": 2112,
      "atural": 2113,
      "ĠEng": 2114,
      "Ġadm": 2115,
      "Ġsocial": 2116,
      "Ġhappens": 2117,
      "Ġpick": 2118,
      "Sh": 2119,
      "Ġcontr": 2120,
      "ys": 2121,
      "Ġvar": 2122,
      "fying": 2123,
      "ially": 2124,
      "Ġbi": 2125,
      "Ġtouch": 2126,
      "Ġcat": 2127,
      "Some": 2128,
      "aul": 2129,
      "anch": 2130,
      "irc": 2131,
      "Ġprov": 2132,
      "Ġparticularly": 2133,
      "illed": 2134,
      "ously": 2135,
      "Ġstri": 2136,
      "Ġmaterial": 2137,
      "Ġmystery": 2138,
      "con": 2139,
      "Ġfour": 2140,
      "Ġfuture": 2141,
      "Ġda": 2142,
      "Ġsimp": 2143,
      "Ġneeds": 2144,
      "ura": 2145,
      "Ġpri": 2146,
      "uct": 2147,
      "ĠCan": 2148,
      "ength": 2149,
      "Ġhorri": 2150,
      "Ġsent": 2151,
      "hh": 2152,
      "llllllll": 2153,
      "nded": 2154,
      "Ġromance": 2155,
      "wise": 2156,
      "Ġdisappoint": 2157,
      "Ġphot": 2158,
      "gan": 2159,
      "Ġrandom": 2160,
      "Ġheard": 2161,
      "Ġteen": 2162,
      "Ġnature": 2163,
      "Ġdesc": 2164,
      "Ġgang": 2165,
      "ta": 2166,
      "ĠLet": 2167,
      "Ġheav": 2168,
      "Ġsuck": 2169,
      "ero": 2170,
      "Ġdirection": 2171,
      "Ġspace": 2172,
      "mb": 2173,
      "go": 2174,
      "Ġdad": 2175,
      "Ġtype": 2176,
      "itation": 2177,
      "friend": 2178,
      "Ġid": 2179,
      "Ġgrand": 2180,
      "Ġworse": 2181,
      "Ġexpected": 2182,
      "Ġbring": 2183,
      "He": 2184,
      "ement": 2185,
      "Ġtaking": 2186,
      "Ġpicture": 2187,
      "Ġjour": 2188,
      "Ġneeded": 2189,
      "Ġsongs": 2190,
      "Ġspir": 2191,
      "Ġlooked": 2192,
      "Ġesc": 2193,
      "ubl": 2194,
      "Ġsec": 2195,
      "uge": 2196,
      "Ġincredibly": 2197,
      "Ġsupport": 2198,
      "Ġult": 2199,
      "orable": 2200,
      "piece": 2201,
      "Ġdamn": 2202,
      "Ġaut": 2203,
      "arth": 2204,
      "aves": 2205,
      "Ġver": 2206,
      "viously": 2207,
      "Ġess": 2208,
      "ĠPr": 2209,
      "Ġhonestly": 2210,
      "Ġ30": 2211,
      "orld": 2212,
      "gu": 2213,
      "Ġbasically": 2214,
      "ĠWar": 2215,
      "Ġcreep": 2216,
      "Ġhop": 2217,
      "itty": 2218,
      "aken": 2219,
      "Ġperiod": 2220,
      "Ġrock": 2221,
      "ja": 2222,
      "Ġbare": 2223,
      "That": 2224,
      "ele": 2225,
      "Ġextremely": 2226,
      "Ġculture": 2227,
      "Ġund": 2228,
      "Ġtreat": 2229,
      "Ġthinking": 2230,
      "Ġthemselves": 2231,
      "bb": 2232,
      "ton": 2233,
      "Ġcheap": 2234,
      "Ġknown": 2235,
      "Ġsign": 2236,
      "Ġamb": 2237,
      "Ġsuccess": 2238,
      "head": 2239,
      "Ġuns": 2240,
      "ĠKe": 2241,
      "lu": 2242,
      "arry": 2243,
      "Ġhistor": 2244,
      "Ġforget": 2245,
      "plic": 2246,
      "uel": 2247,
      "Ġtalent": 2248,
      "Ġimages": 2249,
      "verse": 2250,
      "ĠEd": 2251,
      "Watched": 2252,
      "Ġchange": 2253,
      "ĠMe": 2254,
      "Ġanimated": 2255,
      "Ġleg": 2256,
      "Ġsimply": 2257,
      "Ġopening": 2258,
      "Ġsays": 2259,
      "Ġlang": 2260,
      "ully": 2261,
      "reaking": 2262,
      "ĠTr": 2263,
      "Ġdetail": 2264,
      "iliar": 2265,
      "ĠHollywood": 2266,
      "ĠFrench": 2267,
      "Ġviolence": 2268,
      "Ġreleas": 2269,
      "pping": 2270,
      "Ġunf": 2271,
      "Ġgiving": 2272,
      "lect": 2273,
      "Ġones": 2274,
      "Ġcity": 2275,
      "Ġkiller": 2276,
      "Ġtries": 2277,
      "hetic": 2278,
      "Ġmid": 2279,
      "Ġbeginning": 2280,
      "acing": 2281,
      "IT": 2282,
      "Ġamount": 2283,
      "Ġfavour": 2284,
      "ield": 2285,
      "rent": 2286,
      "ĠGe": 2287,
      "Ġexcellent": 2288,
      "Ġprog": 2289,
      "Ġsens": 2290,
      "Ġalone": 2291,
      "Ġinsane": 2292,
      "Ġill": 2293,
      "Ġappro": 2294,
      "hel": 2295,
      "ĠEvery": 2296,
      "OT": 2297,
      "Ġmad": 2298,
      "Ġmeans": 2299,
      "Ġsilent": 2300,
      "ased": 2301,
      "ants": 2302,
      "Ġmark": 2303,
      "Ġpure": 2304,
      "Ġeasy": 2305,
      "rup": 2306,
      "Ġles": 2307,
      "mm": 2308,
      "Ġclearly": 2309,
      "Ġsaying": 2310,
      "ries": 2311,
      "No": 2312,
      "ĠGerman": 2313,
      "Ġimpressive": 2314,
      "Ġdull": 2315,
      "Ġsomehow": 2316,
      "Ġturned": 2317,
      "Ġquestion": 2318,
      "Ġener": 2319,
      "verage": 2320,
      "Ġgirls": 2321,
      "la": 2322,
      "Ġhilarious": 2323,
      "Ġeye": 2324,
      "Ġevent": 2325,
      "Ġtyp": 2326,
      "band": 2327,
      "Ġdest": 2328,
      "Ġbaby": 2329,
      "Ġcamp": 2330,
      "enty": 2331,
      "Ġjokes": 2332,
      "Ġpolitical": 2333,
      "Ġdisco": 2334,
      "Ġsuff": 2335,
      "Ġannoy": 2336,
      "ances": 2337,
      "yond": 2338,
      "Ġmil": 2339,
      "ĠAd": 2340,
      "For": 2341,
      "Ġsetting": 2342,
      "fic": 2343,
      "por": 2344,
      "........": 2345,
      "Ġlonger": 2346,
      "Ġpull": 2347,
      "eresting": 2348,
      "Ġdevelop": 2349,
      "ini": 2350,
      "Ġstay": 2351,
      "Ġportray": 2352,
      "Ġcost": 2353,
      "Ġparent": 2354,
      "Ġinvest": 2355,
      "Ġattention": 2356,
      "?!": 2357,
      "Ġhear": 2358,
      "Ġrespect": 2359,
      "Ġimm": 2360,
      "Ġgun": 2361,
      "Ġromantic": 2362,
      "ĠSte": 2363,
      "arb": 2364,
      "anna": 2365,
      "Ġtowards": 2366,
      "Ġposter": 2367,
      "Ġdig": 2368,
      "Ġghost": 2369,
      "lo": 2370,
      "ĠJack": 2371,
      "Ġsurv": 2372,
      "Ġreality": 2373,
      "aster": 2374,
      "imate": 2375,
      "izing": 2376,
      "Ġgag": 2377,
      "ĠPe": 2378,
      "Ġsociety": 2379,
      "arre": 2380,
      "Ġpowerful": 2381,
      "Ġwords": 2382,
      "ris": 2383,
      "Ġng": 2384,
      "cent": 2385,
      "ĠRobert": 2386,
      "ension": 2387,
      "Ġpos": 2388,
      "ades": 2389,
      "Ġrunning": 2390,
      "aught": 2391,
      "Ġfa": 2392,
      "AL": 2393,
      "Ġexperiment": 2394,
      "lin": 2395,
      "Ġreturn": 2396,
      "kan": 2397,
      "Ġcolor": 2398,
      "illiam": 2399,
      "Ġfantastic": 2400,
      "esome": 2401,
      "Ġrare": 2402,
      "Ġfilmmaking": 2403,
      "back": 2404,
      "ĠNe": 2405,
      "Just": 2406,
      "Ġsoon": 2407,
      "Ġdue": 2408,
      "Ġusual": 2409,
      "Ġut": 2410,
      "Ġpossible": 2411,
      "Ġje": 2412,
      "erv": 2413,
      "Ġmaj": 2414,
      "irt": 2415,
      "orgeous": 2416,
      "Ġworked": 2417,
      "Ġresult": 2418,
      "ĠHowever": 2419,
      "ĠGreat": 2420,
      "Ġinvolved": 2421,
      "ionally": 2422,
      "Ġleads": 2423,
      "imately": 2424,
      "Ġbackground": 2425,
      "Ġawful": 2426,
      "Ġopen": 2427,
      "Tube": 2428,
      "ips": 2429,
      "Ġaspect": 2430,
      "ĠOr": 2431,
      "oose": 2432,
      "ĠDavid": 2433,
      "Ġevil": 2434,
      "ĠVery": 2435,
      "asy": 2436,
      "ĠWith": 2437,
      "Ġbrilli": 2438,
      "ĠLove": 2439,
      "Ġemp": 2440,
      "eter": 2441,
      "ills": 2442,
      "Ġatmosphere": 2443,
      "Ġwouldn": 2444,
      "usband": 2445,
      "Ġrac": 2446,
      "Ġfans": 2447,
      "umber": 2448,
      "Ġelements": 2449,
      "Ġproblem": 2450,
      "Ġ70": 2451,
      "Ġsomewhat": 2452,
      "Ġinform": 2453,
      "Ġsever": 2454,
      "Ġcomb": 2455,
      "Ġsimilar": 2456,
      "oph": 2457,
      "Ġtheat": 2458,
      "Ġfilmmaker": 2459,
      "Ġsitu": 2460,
      "Ġred": 2461,
      "Ġsexual": 2462,
      "Ġsupposed": 2463,
      "Ġclear": 2464,
      "Ġcartoon": 2465,
      "Why": 2466,
      "Ġfive": 2467,
      "Ġfeatures": 2468,
      "iest": 2469,
      "Ġnovel": 2470,
      "Ġber": 2471,
      "Ġlovely": 2472,
      "Ġextra": 2473,
      "Ġfairly": 2474,
      "oop": 2475,
      "unny": 2476,
      "atever": 2477,
      "Ġcrit": 2478,
      "Ġtotally": 2479,
      "ior": 2480,
      "Ġcinematic": 2481,
      "ĠJames": 2482,
      "Ġteam": 2483,
      "!!!!!!!!": 2484,
      "Ġadvent": 2485,
      "Ġideas": 2486,
      "Ġintrig": 2487,
      "hic": 2488,
      "Ġdaughter": 2489,
      "\",": 2490,
      "Ġyes": 2491,
      "Ġemb": 2492,
      "Ġthird": 2493,
      "Ġfamiliar": 2494,
      "ĠWell": 2495,
      "ĠJapanese": 2496,
      "Ġlim": 2497,
      "Ġprotagon": 2498,
      "Ġglad": 2499,
      "Ġadaptation": 2500,
      "acy": 2501,
      "Another": 2502,
      "Ġequ": 2503,
      "Ġtone": 2504,
      "Ġseveral": 2505,
      "text": 2506,
      "And": 2507,
      "Ġdecided": 2508,
      "ga": 2509,
      "rest": 2510,
      "ges": 2511,
      "Ġhands": 2512,
      "Ġmasterpiece": 2513,
      "Ġended": 2514,
      "ression": 2515,
      "Ġpolice": 2516,
      "ille": 2517,
      "Ġokay": 2518,
      "Ġstarring": 2519,
      "ĠDan": 2520,
      "Ġforgot": 2521,
      "Ġgenuinely": 2522,
      "Ġear": 2523,
      "sw": 2524,
      "Ġdance": 2525,
      "Ġet": 2526,
      "Ġmessage": 2527,
      "Ġtele": 2528,
      "Ġsum": 2529,
      "ĠStill": 2530,
      "Ġpay": 2531,
      "Ġsurprisingly": 2532,
      "mark": 2533,
      "uted": 2534,
      "ining": 2535,
      "ĠTom": 2536,
      "Ġreleased": 2537,
      "ĠTo": 2538,
      "How": 2539,
      "Ġsounds": 2540,
      "Ġwater": 2541,
      "Ġfemale": 2542,
      "Well": 2543,
      "Ġwhose": 2544,
      "Ġactress": 2545,
      "Ġsequel": 2546,
      "arm": 2547,
      "unning": 2548,
      "onic": 2549,
      "Ġrecord": 2550,
      "Ġplease": 2551,
      "Ġhusband": 2552,
      "ĠYouTube": 2553,
      "Ġexpecting": 2554,
      "Ġfavourite": 2555,
      "ĠMichael": 2556,
      "OM": 2557,
      "Ġissues": 2558,
      "Ġmult": 2559,
      "Ġapart": 2560,
      "???": 2561,
      "Ġfell": 2562,
      "resent": 2563,
      "wo": 2564,
      "Ġrich": 2565,
      "stal": 2566,
      "Ġgem": 2567,
      "Ġdebut": 2568,
      "Ġreve": 2569,
      "gend": 2570,
      "Ġfire": 2571,
      "Ġengaging": 2572,
      "over": 2573,
      "oor": 2574,
      "Ġcirc": 2575,
      "Ġlocal": 2576,
      "istry": 2577,
      "illing": 2578,
      "Ġspec": 2579,
      "Ġshowing": 2580,
      "ĠLike": 2581,
      "uma": 2582,
      "ublic": 2583,
      "ilt": 2584,
      "De": 2585,
      "ĠEven": 2586,
      "Ġ200": 2587,
      "icks": 2588,
      "Ġspeak": 2589,
      "Ġ.": 2590,
      "rit": 2591,
      "Ġment": 2592,
      "hys": 2593,
      "Ġdumb": 2594,
      "Ġstage": 2595,
      "Ġalthough": 2596,
      "more": 2597,
      "sp": 2598,
      "ctor": 2599,
      "Ġhowever": 2600,
      "Ġusing": 2601,
      "Ġak": 2602,
      "Ġmedi": 2603,
      "eth": 2604,
      "Ġton": 2605,
      "Ġwin": 2606,
      "OW": 2607,
      "Ġkn": 2608,
      "arently": 2609,
      "Ġtrad": 2610,
      "ressed": 2611,
      "Ġporn": 2612,
      "ĠHall": 2613,
      "ern": 2614,
      "usion": 2615,
      "ĠWhen": 2616,
      "Ġimagine": 2617,
      "Ġentirely": 2618,
      "ĠDis": 2619,
      "ĠEx": 2620,
      "upp": 2621,
      "ging": 2622,
      "Ġmajor": 2623,
      "EE": 2624,
      "Ġrad": 2625,
      "ĠJe": 2626,
      "ĠGood": 2627,
      "oid": 2628,
      "Ġfront": 2629,
      "Ġbeyond": 2630,
      "ĠPer": 2631,
      "icult": 2632,
      "venge": 2633,
      "Ġenergy": 2634,
      "Ġru": 2635,
      "Ġupon": 2636,
      "Ġkept": 2637,
      "Ġplan": 2638,
      "Ġeffective": 2639,
      "VD": 2640,
      "cle": 2641,
      "that": 2642,
      "Ġlength": 2643,
      "ĠEnglish": 2644,
      "Ġpotential": 2645,
      "Ġbox": 2646,
      "Ġmeet": 2647,
      "uing": 2648,
      "Ġfilmed": 2649,
      "Ġserious": 2650,
      "Ġappreciate": 2651,
      "Ġdelight": 2652,
      "Ġinde": 2653,
      "Ġshock": 2654,
      "ala": 2655,
      "aked": 2656,
      "row": 2657,
      "Ġsleep": 2658,
      "ST": 2659,
      "pective": 2660,
      "atching": 2661,
      "Ġ197": 2662,
      "Ġdeal": 2663,
      "Ġpoints": 2664,
      "Ġlarge": 2665,
      "Ġfinds": 2666,
      "Ġsoul": 2667,
      "Ġlol": 2668,
      "par": 2669,
      "Ġorder": 2670,
      "Ġindust": 2671,
      "Ġtre": 2672,
      "auty": 2673,
      "ĠCon": 2674,
      "Ġamong": 2675,
      "ĠWhile": 2676,
      "IL": 2677,
      "alth": 2678,
      "stem": 2679,
      "anc": 2680,
      "Ġpun": 2681,
      "Pretty": 2682,
      "ula": 2683,
      "Ġrelease": 2684,
      "bo": 2685,
      "war": 2686,
      "Ġgorgeous": 2687,
      "Ġtelling": 2688,
      "Ġinn": 2689,
      "Ġvisuals": 2690,
      "Ġjump": 2691,
      "erson": 2692,
      "Ġinspir": 2693,
      "ĠAND": 2694,
      "Ġnear": 2695,
      "Ġic": 2696,
      "CH": 2697,
      "Ġincluding": 2698,
      "Ġleave": 2699,
      "Really": 2700,
      "Ġlesb": 2701,
      "Ġaf": 2702,
      "Ġground": 2703,
      "ros": 2704,
      "Ġrating": 2705,
      "oun": 2706,
      "Ġmelodrama": 2707,
      "ken": 2708,
      "ĠRuss": 2709,
      "AM": 2710,
      "ĠIN": 2711,
      "af": 2712,
      "Ġbrain": 2713,
      "Ġhuge": 2714,
      "gen": 2715,
      "aganda": 2716,
      "Ġevents": 2717,
      "was": 2718,
      "Ġaest": 2719,
      "Ġoper": 2720,
      "ĠWilliam": 2721,
      "Ġseemed": 2722,
      "ichard": 2723,
      "Ġfully": 2724,
      "cious": 2725,
      "Ġbag": 2726,
      "Ġspirit": 2727,
      "ĠSw": 2728,
      "Ġrob": 2729,
      "Ġappear": 2730,
      "Ġperhaps": 2731,
      "Ġsurprised": 2732,
      "Ġdude": 2733,
      "rom": 2734,
      "Ġwind": 2735,
      "Ġparents": 2736,
      "itions": 2737,
      "ume": 2738,
      "Ġpredict": 2739,
      "Ġaverage": 2740,
      "Ġmention": 2741,
      "ĠEl": 2742,
      "ĠLetterboxd": 2743,
      "ata": 2744,
      "edy": 2745,
      "Ġslightly": 2746,
      "Ġhaven": 2747,
      "Ġclos": 2748,
      "Ġknows": 2749,
      "Ġjourney": 2750,
      "Ġnearly": 2751,
      "Ġeasily": 2752,
      "vision": 2753,
      "ĠHis": 2754,
      "Ġfilmmakers": 2755,
      "kes": 2756,
      "ires": 2757,
      "oly": 2758,
      "Ġten": 2759,
      "Ġ198": 2760,
      "Ġobsess": 2761,
      "Ġawesome": 2762,
      "iny": 2763,
      "Ġpoet": 2764,
      "Ġcompelling": 2765,
      "Ġcharm": 2766,
      "Ġmeaning": 2767,
      "illy": 2768,
      "olid": 2769,
      "Ġ15": 2770,
      "Ġchem": 2771,
      "Ġexplo": 2772,
      "Ġstruct": 2773,
      "AD": 2774,
      "Ġpen": 2775,
      "Ġpa": 2776,
      "Ġannoying": 2777,
      "Oh": 2778,
      "Ġhighlight": 2779,
      "Ġmer": 2780,
      "Ġdocumentaries": 2781,
      "Ġdifficult": 2782,
      "medi": 2783,
      "Ġbrilliant": 2784,
      "attle": 2785,
      "Ġbarely": 2786,
      "Ġmonth": 2787,
      "osh": 2788,
      "ĠCom": 2789,
      "Ġridicul": 2790,
      "Ġmass": 2791,
      "ped": 2792,
      "Ġ199": 2793,
      "Ġconc": 2794,
      "Ġcreepy": 2795,
      "fer": 2796,
      "Ġfol": 2797,
      "Ġclim": 2798,
      "rated": 2799,
      "ĠOF": 2800,
      "Ġprison": 2801,
      "Ġruntime": 2802,
      "Ġsequence": 2803,
      "men": 2804,
      "Ġwhatever": 2805,
      "Ġident": 2806,
      "Ġsave": 2807,
      "you": 2808,
      "Ġaren": 2809,
      "Ġperfectly": 2810,
      "ID": 2811,
      "ĠGu": 2812,
      "Every": 2813,
      "dy": 2814,
      "ĠPh": 2815,
      "ki": 2816,
      "They": 2817,
      "Ġviewing": 2818,
      "Ġweak": 2819,
      "orry": 2820,
      "irth": 2821,
      "fi": 2822,
      "Ġoutside": 2823,
      "Ġanime": 2824,
      "omen": 2825,
      "Ġair": 2826,
      "ivid": 2827,
      "Ġcomment": 2828,
      "cted": 2829,
      "Ġenc": 2830,
      "Ġarch": 2831,
      "Ġotherwise": 2832,
      "lor": 2833,
      "Wh": 2834,
      "Ġartist": 2835,
      "ĠChe": 2836,
      "LE": 2837,
      "een": 2838,
      "Ġtaken": 2839,
      "ĠHer": 2840,
      "ĠGr": 2841,
      "ĠDVD": 2842,
      "Ġintrodu": 2843,
      "film": 2844,
      "Ġfur": 2845,
      "unting": 2846,
      "Ġbeautifully": 2847,
      "Ġder": 2848,
      "Ġaff": 2849,
      "Ġjoy": 2850,
      "Ġcannot": 2851,
      "Ġtrack": 2852,
      "Ġtravel": 2853,
      "Ġinterested": 2854,
      "Ġsystem": 2855,
      "Ġinside": 2856,
      "acher": 2857,
      "Ġbiz": 2858,
      "ĠCol": 2859,
      "Ġlots": 2860,
      "Ġintern": 2861,
      "ĠBlack": 2862,
      "ĠWorld": 2863,
      "Ġroll": 2864,
      "Ġdrug": 2865,
      "ares": 2866,
      "ims": 2867,
      "bed": 2868,
      "ishing": 2869,
      "Ġbur": 2870,
      "Ġsi": 2871,
      "Ġheavy": 2872,
      "ctions": 2873,
      "Ġyourself": 2874,
      "Ġhair": 2875,
      "pend": 2876,
      "ĠUS": 2877,
      "Ġtrou": 2878,
      "Ġimpact": 2879,
      "Un": 2880,
      "Ġexperien": 2881,
      "Great": 2882,
      "ogn": 2883,
      "anks": 2884,
      "ĠPro": 2885,
      "Ġlangu": 2886,
      "Ġfeat": 2887,
      "inn": 2888,
      "Ġinflu": 2889,
      "ĠLee": 2890,
      "Ġnorm": 2891,
      "ĠQu": 2892,
      "Ġcoll": 2893,
      "rag": 2894,
      "Ġbang": 2895,
      "Ġexplain": 2896,
      "Ġearli": 2897,
      "Ġchildhood": 2898,
      "hor": 2899,
      "oooo": 2900,
      "Ġmedia": 2901,
      "orts": 2902,
      "Ġnostal": 2903,
      "On": 2904,
      "Ġfast": 2905,
      "Ġchance": 2906,
      "ĠMon": 2907,
      "Ġprocess": 2908,
      "adi": 2909,
      "Ġcreative": 2910,
      "Ġsecret": 2911,
      "Ġmulti": 2912,
      "Ġkilled": 2913,
      "ises": 2914,
      "Ġlaw": 2915,
      "Ġbrought": 2916,
      "Ġpropaganda": 2917,
      "Ġcover": 2918,
      "ĠIS": 2919,
      "ider": 2920,
      "Ġepisodes": 2921,
      "Ġmale": 2922,
      "Ġbeauty": 2923,
      "Ġtap": 2924,
      "Ġcommunity": 2925,
      "Ġhang": 2926,
      "scar": 2927,
      "cher": 2928,
      "uper": 2929,
      "Ġinterviews": 2930,
      "Ġlady": 2931,
      "Ġanti": 2932,
      "Ġnumber": 2933,
      "Ġsets": 2934,
      "Ġphys": 2935,
      "UT": 2936,
      "Ġkeeps": 2937,
      "Ġabsurd": 2938,
      "Ġseg": 2939,
      "ization": 2940,
      "ieces": 2941,
      "Ġtrip": 2942,
      "Ġbrut": 2943,
      "Ġvibe": 2944,
      "Ġcomplex": 2945,
      "Ġbusiness": 2946,
      "Ġvan": 2947,
      "gest": 2948,
      "ios": 2949,
      "II": 2950,
      "boy": 2951,
      "Ġsequences": 2952,
      "Ġtast": 2953,
      "inema": 2954,
      "Ġmissing": 2955,
      "Ġapproach": 2956,
      "Ġimmedi": 2957,
      "Ġjoke": 2958,
      "Ġprotagonist": 2959,
      "come": 2960,
      "uit": 2961,
      "Ġexample": 2962,
      "bel": 2963,
      "ato": 2964,
      "Ġtells": 2965,
      "Ġcond": 2966,
      "Ġcontext": 2967,
      "ral": 2968,
      "ĠFe": 2969,
      "ĠMor": 2970,
      "Ġchemistry": 2971,
      "ailable": 2972,
      "Ġvarious": 2973,
      "Ġtv": 2974,
      "Ġwrite": 2975,
      "AY": 2976,
      "ament": 2977,
      "Ġtension": 2978,
      "abor": 2979,
      "Ġtried": 2980,
      "Ġrepresent": 2981,
      "enge": 2982,
      "aly": 2983,
      "ius": 2984,
      "Ġcredits": 2985,
      "ometimes": 2986,
      "Ġdeeply": 2987,
      "ĠSm": 2988,
      "Ġfalls": 2989,
      "ĠSam": 2990,
      "Ġmood": 2991,
      "Ġcross": 2992,
      "Ġwit": 2993,
      "ĠMovie": 2994,
      "oring": 2995,
      "oman": 2996,
      "urs": 2997,
      "ali": 2998,
      "Ġball": 2999
    },
    "merges": [
      [
        "Ġ",
        "t"
      ],
      [
        "Ġ",
        "a"
      ],
      [
        "i",
        "n"
      ],
      [
        "h",
        "e"
      ],
      [
        "Ġ",
        "s"
      ],
      [
        "r",
        "e"
      ],
      [
        "Ġ",
        "w"
      ],
      [
        "Ġ",
        "o"
      ],
      [
        "Ġt",
        "he"
      ],
      [
        "i",
        "s"
      ],
      [
        "e",
        "r"
      ],
      [
        "Ġ",
        "f"
      ],
      [
        "Ġ",
        "m"
      ],
      [
        "i",
        "t"
      ],
      [
        "a",
        "t"
      ],
      [
        "Ġ",
        "b"
      ],
      [
        "n",
        "d"
      ],
      [
        "in",
        "g"
      ],
      [
        "e",
        "n"
      ],
      [
        "Ġ",
        "c"
      ],
      [
        "o",
        "r"
      ],
      [
        "e",
        "s"
      ],
      [
        "o",
        "n"
      ],
      [
        "Ġt",
        "h"
      ],
      [
        "o",
        "u"
      ],
      [
        "a",
        "n"
      ],
      [
        "Ġ",
        "d"
      ],
      [
        "a",
        "l"
      ],
      [
        "Ġ",
        "p"
      ],
      [
        "a",
        "r"
      ],
      [
        "Ġo",
        "f"
      ],
      [
        "Ġ",
        "l"
      ],
      [
        "Ġ",
        "h"
      ],
      [
        "Ġa",
        "nd"
      ],
      [
        "e",
        "d"
      ],
      [
        "Ġt",
        "o"
      ],
      [
        "a",
        "s"
      ],
      [
        "Ġ",
        "in"
      ],
      [
        "i",
        "l"
      ],
      [
        "l",
        "y"
      ],
      [
        "o",
        "m"
      ],
      [
        "Ġ",
        "g"
      ],
      [
        "i",
        "c"
      ],
      [
        "u",
        "t"
      ],
      [
        "Ġ",
        "e"
      ],
      [
        "Ġ",
        "I"
      ],
      [
        "l",
        "e"
      ],
      [
        "s",
        "t"
      ],
      [
        "o",
        "t"
      ],
      [
        "Ġ",
        "n"
      ],
      [
        "Ġ",
        "it"
      ],
      [
        "Ġ",
        "is"
      ],
      [
        "v",
        "e"
      ],
      [
        "e",
        "t"
      ],
      [
        "c",
        "t"
      ],
      [
        "e",
        "l"
      ],
      [
        "Ġo",
        "n"
      ],
      [
        "en",
        "t"
      ],
      [
        "Ġ",
        "re"
      ],
      [
        "Ġth",
        "is"
      ],
      [
        "i",
        "m"
      ],
      [
        "i",
        "on"
      ],
      [
        "o",
        "w"
      ],
      [
        "v",
        "er"
      ],
      [
        "a",
        "d"
      ],
      [
        "Ġb",
        "e"
      ],
      [
        "Ġs",
        "t"
      ],
      [
        "Ġm",
        "o"
      ],
      [
        "c",
        "h"
      ],
      [
        "'",
        "s"
      ],
      [
        "Ġth",
        "at"
      ],
      [
        "a",
        "y"
      ],
      [
        "Ġ",
        "T"
      ],
      [
        "i",
        "e"
      ],
      [
        "g",
        "h"
      ],
      [
        "a",
        "m"
      ],
      [
        "i",
        "d"
      ],
      [
        "u",
        "n"
      ],
      [
        "Ġ",
        "y"
      ],
      [
        "k",
        "e"
      ],
      [
        "Ġf",
        "or"
      ],
      [
        "o",
        "l"
      ],
      [
        "Ġw",
        "h"
      ],
      [
        "it",
        "h"
      ],
      [
        "Ġ",
        "he"
      ],
      [
        "il",
        "m"
      ],
      [
        "Ġw",
        "as"
      ],
      [
        "Ġw",
        "ith"
      ],
      [
        "i",
        "r"
      ],
      [
        "Ġa",
        "n"
      ],
      [
        "Ġf",
        "ilm"
      ],
      [
        "s",
        "e"
      ],
      [
        "Ġb",
        "ut"
      ],
      [
        "o",
        "o"
      ],
      [
        "Ġl",
        "i"
      ],
      [
        "c",
        "e"
      ],
      [
        "r",
        "a"
      ],
      [
        "Ġ",
        "S"
      ],
      [
        "Ġa",
        "l"
      ],
      [
        "u",
        "r"
      ],
      [
        "Ġa",
        "s"
      ],
      [
        "u",
        "l"
      ],
      [
        "Ġ",
        "A"
      ],
      [
        "r",
        "o"
      ],
      [
        "al",
        "ly"
      ],
      [
        "Ġs",
        "e"
      ],
      [
        "Ġs",
        "h"
      ],
      [
        "Ġy",
        "ou"
      ],
      [
        "c",
        "k"
      ],
      [
        "l",
        "d"
      ],
      [
        "t",
        "er"
      ],
      [
        "Ġ",
        "B"
      ],
      [
        "Ġh",
        "a"
      ],
      [
        "v",
        "ie"
      ],
      [
        "u",
        "s"
      ],
      [
        "Ġ",
        "k"
      ],
      [
        "r",
        "i"
      ],
      [
        "Ġ",
        "j"
      ],
      [
        "il",
        "l"
      ],
      [
        ".",
        "."
      ],
      [
        "Ġ",
        "M"
      ],
      [
        "Ġd",
        "o"
      ],
      [
        "he",
        "r"
      ],
      [
        "om",
        "e"
      ],
      [
        "Ġ",
        "C"
      ],
      [
        "a",
        "g"
      ],
      [
        "Ġm",
        "e"
      ],
      [
        "gh",
        "t"
      ],
      [
        "a",
        "k"
      ],
      [
        "'",
        "t"
      ],
      [
        "ou",
        "t"
      ],
      [
        "Ġa",
        "b"
      ],
      [
        "u",
        "m"
      ],
      [
        "u",
        "st"
      ],
      [
        "i",
        "f"
      ],
      [
        "Ġs",
        "o"
      ],
      [
        "Ġf",
        "r"
      ],
      [
        "is",
        "t"
      ],
      [
        "p",
        "e"
      ],
      [
        "es",
        "t"
      ],
      [
        "or",
        "t"
      ],
      [
        "Ġa",
        "t"
      ],
      [
        "e",
        "m"
      ],
      [
        "ĠT",
        "he"
      ],
      [
        "u",
        "p"
      ],
      [
        "Ġe",
        "x"
      ],
      [
        "Ġc",
        "h"
      ],
      [
        "Ġn",
        "ot"
      ],
      [
        "a",
        "b"
      ],
      [
        "Ġmo",
        "vie"
      ],
      [
        "es",
        "s"
      ],
      [
        "e",
        "re"
      ],
      [
        "Ġd",
        "e"
      ],
      [
        "Ġ",
        "W"
      ],
      [
        "Ġli",
        "ke"
      ],
      [
        "Ġ",
        "H"
      ],
      [
        "an",
        "t"
      ],
      [
        "at",
        "ion"
      ],
      [
        "ver",
        "y"
      ],
      [
        "ar",
        "t"
      ],
      [
        "er",
        "s"
      ],
      [
        "ou",
        "ld"
      ],
      [
        "Ġ",
        "D"
      ],
      [
        "Ġc",
        "om"
      ],
      [
        "q",
        "u"
      ],
      [
        "Ġm",
        "y"
      ],
      [
        "Ġ",
        "v"
      ],
      [
        "Ġon",
        "e"
      ],
      [
        "Ġ",
        "r"
      ],
      [
        "oo",
        "d"
      ],
      [
        "Ġin",
        "t"
      ],
      [
        "Ġl",
        "o"
      ],
      [
        "o",
        "p"
      ],
      [
        "el",
        "l"
      ],
      [
        "a",
        "nd"
      ],
      [
        "u",
        "re"
      ],
      [
        "t",
        "h"
      ],
      [
        "Ġa",
        "re"
      ],
      [
        "a",
        "in"
      ],
      [
        "Ġw",
        "at"
      ],
      [
        "Ġab",
        "out"
      ],
      [
        "i",
        "es"
      ],
      [
        "Ġfr",
        "om"
      ],
      [
        "Ġn",
        "e"
      ],
      [
        "Ġ",
        "L"
      ],
      [
        "i",
        "ve"
      ],
      [
        "Ġ",
        "F"
      ],
      [
        "Ġ",
        "P"
      ],
      [
        "Ġh",
        "is"
      ],
      [
        "a",
        "p"
      ],
      [
        "Ġ",
        "("
      ],
      [
        "Ġha",
        "ve"
      ],
      [
        "in",
        "d"
      ],
      [
        "Ġc",
        "on"
      ],
      [
        "as",
        "t"
      ],
      [
        "Ġal",
        "l"
      ],
      [
        "Ġb",
        "y"
      ],
      [
        "at",
        "e"
      ],
      [
        "Ġs",
        "ome"
      ],
      [
        "Ġs",
        "c"
      ],
      [
        "ou",
        "gh"
      ],
      [
        "Ġj",
        "ust"
      ],
      [
        "Ġf",
        "e"
      ],
      [
        "o",
        "s"
      ],
      [
        "Ġ",
        "R"
      ],
      [
        "im",
        "e"
      ],
      [
        "Ġp",
        "l"
      ],
      [
        "i",
        "g"
      ],
      [
        "Ġa",
        "ct"
      ],
      [
        "Ġ",
        "G"
      ],
      [
        "i",
        "re"
      ],
      [
        "Ġ",
        "un"
      ],
      [
        "Ġw",
        "or"
      ],
      [
        "ou",
        "s"
      ],
      [
        "Ġwh",
        "o"
      ],
      [
        "Ġw",
        "he"
      ],
      [
        "or",
        "y"
      ],
      [
        "an",
        "g"
      ],
      [
        "h",
        "is"
      ],
      [
        "on",
        "g"
      ],
      [
        "Ġo",
        "ut"
      ],
      [
        "on",
        "e"
      ],
      [
        "ar",
        "d"
      ],
      [
        "u",
        "d"
      ],
      [
        "i",
        "ght"
      ],
      [
        "u",
        "ch"
      ],
      [
        "Ġmo",
        "re"
      ],
      [
        "al",
        "l"
      ],
      [
        "Ġ",
        "N"
      ],
      [
        "T",
        "he"
      ],
      [
        "a",
        "ct"
      ],
      [
        "o",
        "re"
      ],
      [
        "Ġp",
        "re"
      ],
      [
        "a",
        "ck"
      ],
      [
        "it",
        "e"
      ],
      [
        "Ġ",
        "J"
      ],
      [
        "re",
        "at"
      ],
      [
        "Ġl",
        "e"
      ],
      [
        "Ġwat",
        "ch"
      ],
      [
        "v",
        "en"
      ],
      [
        "Ġp",
        "ro"
      ],
      [
        "o",
        "d"
      ],
      [
        "Ġ",
        "en"
      ],
      [
        "ou",
        "nd"
      ],
      [
        "a",
        "u"
      ],
      [
        "Ġ",
        "i"
      ],
      [
        "ĠI",
        "t"
      ],
      [
        "Ġ",
        "up"
      ],
      [
        "Ġthe",
        "y"
      ],
      [
        "f",
        "e"
      ],
      [
        "Ġw",
        "e"
      ],
      [
        "Ġre",
        "ally"
      ],
      [
        "Ġc",
        "an"
      ],
      [
        "r",
        "y"
      ],
      [
        "Ġg",
        "ood"
      ],
      [
        "p",
        "p"
      ],
      [
        "it",
        "y"
      ],
      [
        "Ġ",
        "E"
      ],
      [
        "ic",
        "h"
      ],
      [
        "a",
        "ke"
      ],
      [
        "Ġg",
        "et"
      ],
      [
        "Ġm",
        "an"
      ],
      [
        "oo",
        "k"
      ],
      [
        "n",
        "t"
      ],
      [
        "Ġwh",
        "at"
      ],
      [
        "Ġo",
        "r"
      ],
      [
        "it",
        "t"
      ],
      [
        "a",
        "re"
      ],
      [
        "Ġh",
        "as"
      ],
      [
        "Ġ",
        "\""
      ],
      [
        "h",
        "ing"
      ],
      [
        "o",
        "g"
      ],
      [
        "Ġ",
        "qu"
      ],
      [
        "id",
        "e"
      ],
      [
        "Ġt",
        "ime"
      ],
      [
        "c",
        "i"
      ],
      [
        "ab",
        "le"
      ],
      [
        "Ġit",
        "s"
      ],
      [
        "ar",
        "y"
      ],
      [
        "Ġg",
        "o"
      ],
      [
        "Ġ",
        "im"
      ],
      [
        "in",
        "e"
      ],
      [
        "c",
        "he"
      ],
      [
        "Ġa",
        "r"
      ],
      [
        "Ġ",
        "O"
      ],
      [
        "ou",
        "r"
      ],
      [
        "Ġ",
        "K"
      ],
      [
        "ad",
        "e"
      ],
      [
        "o",
        "y"
      ],
      [
        "Ġhe",
        "r"
      ],
      [
        "Ġh",
        "ow"
      ],
      [
        "Ġth",
        "an"
      ],
      [
        "Ġn",
        "o"
      ],
      [
        "am",
        "e"
      ],
      [
        "Ġ",
        "very"
      ],
      [
        "l",
        "l"
      ],
      [
        "Ġst",
        "ory"
      ],
      [
        "Ġp",
        "er"
      ],
      [
        "Ġch",
        "ar"
      ],
      [
        "s",
        "s"
      ],
      [
        "!",
        "!"
      ],
      [
        "u",
        "b"
      ],
      [
        "Ġm",
        "uch"
      ],
      [
        "n",
        "e"
      ],
      [
        "a",
        "v"
      ],
      [
        "Ġlo",
        "ve"
      ],
      [
        "ic",
        "k"
      ],
      [
        "Ġ",
        "1"
      ],
      [
        "Ġthe",
        "re"
      ],
      [
        "ay",
        "s"
      ],
      [
        "in",
        "k"
      ],
      [
        "t",
        "y"
      ],
      [
        "ag",
        "e"
      ],
      [
        "g",
        "e"
      ],
      [
        "i",
        "v"
      ],
      [
        "p",
        "l"
      ],
      [
        "Ġint",
        "o"
      ],
      [
        "ic",
        "e"
      ],
      [
        "Ġbe",
        "c"
      ],
      [
        "n",
        "ow"
      ],
      [
        "Ġp",
        "e"
      ],
      [
        "Ġan",
        "y"
      ],
      [
        "Ġse",
        "e"
      ],
      [
        "Ġw",
        "ould"
      ],
      [
        "Ġc",
        "l"
      ],
      [
        "i",
        "b"
      ],
      [
        "p",
        "t"
      ],
      [
        "Ġwhe",
        "n"
      ],
      [
        "nd",
        "er"
      ],
      [
        "is",
        "h"
      ],
      [
        "..",
        "."
      ],
      [
        "Ġth",
        "r"
      ],
      [
        "Ġt",
        "r"
      ],
      [
        "T",
        "his"
      ],
      [
        "Ġthe",
        "ir"
      ],
      [
        "s",
        "o"
      ],
      [
        "Ġf",
        "un"
      ],
      [
        "Ġ",
        "u"
      ],
      [
        "u",
        "ck"
      ],
      [
        "Ġfe",
        "el"
      ],
      [
        "a",
        "c"
      ],
      [
        "Ġa",
        "m"
      ],
      [
        "Ġe",
        "nd"
      ],
      [
        "i",
        "an"
      ],
      [
        "Ġp",
        "o"
      ],
      [
        "ar",
        "s"
      ],
      [
        "f",
        "f"
      ],
      [
        "Ġ",
        "if"
      ],
      [
        "Ġb",
        "et"
      ],
      [
        "Ġh",
        "ad"
      ],
      [
        "Ġe",
        "very"
      ],
      [
        "Ġsh",
        "ort"
      ],
      [
        "as",
        "s"
      ],
      [
        "f",
        "ul"
      ],
      [
        "Ġd",
        "id"
      ],
      [
        "Ġmo",
        "st"
      ],
      [
        "e",
        "p"
      ],
      [
        "m",
        "an"
      ],
      [
        "Ġg",
        "reat"
      ],
      [
        "u",
        "e"
      ],
      [
        "Ġa",
        "d"
      ],
      [
        "Ġm",
        "ade"
      ],
      [
        "t",
        "her"
      ],
      [
        "Ġo",
        "ver"
      ],
      [
        "m",
        "ent"
      ],
      [
        "i",
        "ous"
      ],
      [
        "Ġthe",
        "m"
      ],
      [
        "Ġk",
        "now"
      ],
      [
        "p",
        "le"
      ],
      [
        "Ġwor",
        "k"
      ],
      [
        "Ġto",
        "o"
      ],
      [
        "n",
        "y"
      ],
      [
        "Ġchar",
        "act"
      ],
      [
        "op",
        "le"
      ],
      [
        "ire",
        "ct"
      ],
      [
        "Ġl",
        "ook"
      ],
      [
        "er",
        "t"
      ],
      [
        "Ġ",
        "2"
      ],
      [
        "Ġe",
        "ven"
      ],
      [
        "en",
        "ce"
      ],
      [
        "Ġth",
        "ing"
      ],
      [
        "Ġdo",
        "c"
      ],
      [
        "Ġon",
        "ly"
      ],
      [
        "il",
        "e"
      ],
      [
        "ic",
        "al"
      ],
      [
        "h",
        "at"
      ],
      [
        "Ġwh",
        "ich"
      ],
      [
        "f",
        "or"
      ],
      [
        "Ġw",
        "ay"
      ],
      [
        "ir",
        "st"
      ],
      [
        "au",
        "se"
      ],
      [
        "Ġdo",
        "es"
      ],
      [
        "Ġpe",
        "ople"
      ],
      [
        "itt",
        "le"
      ],
      [
        "t",
        "e"
      ],
      [
        "Ġw",
        "ere"
      ],
      [
        "Ġs",
        "p"
      ],
      [
        "Ġt",
        "w"
      ],
      [
        "'",
        "m"
      ],
      [
        "om",
        "et"
      ],
      [
        "in",
        "t"
      ],
      [
        "Ġc",
        "o"
      ],
      [
        "um",
        "ent"
      ],
      [
        "i",
        "z"
      ],
      [
        "i",
        "a"
      ],
      [
        "ere",
        "st"
      ],
      [
        "Ġth",
        "ink"
      ],
      [
        "Ġp",
        "art"
      ],
      [
        "Ġc",
        "ould"
      ],
      [
        "Ġd",
        "irect"
      ],
      [
        "Ġ",
        "-"
      ],
      [
        "Ġl",
        "ittle"
      ],
      [
        "Ġw",
        "ell"
      ],
      [
        "i",
        "al"
      ],
      [
        "at",
        "ed"
      ],
      [
        "ut",
        "e"
      ],
      [
        "'",
        "ve"
      ],
      [
        "Ġ",
        "Y"
      ],
      [
        "Ġm",
        "in"
      ],
      [
        "w",
        "e"
      ],
      [
        "Ġb",
        "l"
      ],
      [
        "Ġbe",
        "ing"
      ],
      [
        "p",
        "er"
      ],
      [
        "Ġo",
        "ther"
      ],
      [
        "che",
        "d"
      ],
      [
        "o",
        "se"
      ],
      [
        "Ġt",
        "e"
      ],
      [
        "pe",
        "ct"
      ],
      [
        "Ġg",
        "u"
      ],
      [
        "u",
        "al"
      ],
      [
        "Ġm",
        "ak"
      ],
      [
        "a",
        "ce"
      ],
      [
        "Ġf",
        "irst"
      ],
      [
        "Ġhe",
        "re"
      ],
      [
        "Ġy",
        "e"
      ],
      [
        "Ġh",
        "im"
      ],
      [
        "Ġsh",
        "ow"
      ],
      [
        "ot",
        "her"
      ],
      [
        "a",
        "w"
      ],
      [
        "el",
        "f"
      ],
      [
        "h",
        "y"
      ],
      [
        "Ġ",
        "us"
      ],
      [
        "Ġd",
        "is"
      ],
      [
        "ul",
        "t"
      ],
      [
        "Ġmo",
        "v"
      ],
      [
        "t",
        "ty"
      ],
      [
        "Ġm",
        "ake"
      ],
      [
        "Ġof",
        "f"
      ],
      [
        "Ġa",
        "g"
      ],
      [
        "Ġs",
        "he"
      ],
      [
        "re",
        "d"
      ],
      [
        "Ġbec",
        "ause"
      ],
      [
        "Ġfilm",
        "s"
      ],
      [
        "Ġsc",
        "en"
      ],
      [
        "a",
        "h"
      ],
      [
        "Ġbe",
        "en"
      ],
      [
        "ĠC",
        "h"
      ],
      [
        "Ġre",
        "al"
      ],
      [
        "i",
        "p"
      ],
      [
        "re",
        "ss"
      ],
      [
        "t",
        "ing"
      ],
      [
        "Ġdoc",
        "ument"
      ],
      [
        "Ġw",
        "ant"
      ],
      [
        "Ġint",
        "erest"
      ],
      [
        "an",
        "s"
      ],
      [
        "g",
        "et"
      ],
      [
        "ar",
        "k"
      ],
      [
        "il",
        "d"
      ],
      [
        "Ġs",
        "omet"
      ],
      [
        "f",
        "ter"
      ],
      [
        "ow",
        "n"
      ],
      [
        "o",
        "b"
      ],
      [
        "Ġ",
        "V"
      ],
      [
        "o",
        "st"
      ],
      [
        "Ġli",
        "fe"
      ],
      [
        "Ġb",
        "r"
      ],
      [
        "u",
        "ally"
      ],
      [
        "Ġ",
        "ent"
      ],
      [
        "Ġal",
        "so"
      ],
      [
        "r",
        "am"
      ],
      [
        "Ġd",
        "es"
      ],
      [
        "en",
        "s"
      ],
      [
        "Ġ",
        "ra"
      ],
      [
        "Ġthr",
        "ough"
      ],
      [
        "Ġd",
        "on"
      ],
      [
        "Ġyou",
        "r"
      ],
      [
        "c",
        "o"
      ],
      [
        "in",
        "em"
      ],
      [
        "c",
        "es"
      ],
      [
        "ic",
        "t"
      ],
      [
        "Ġs",
        "er"
      ],
      [
        "Ġst",
        "ill"
      ],
      [
        "Ġs",
        "l"
      ],
      [
        "Ġp",
        "r"
      ],
      [
        "Ġb",
        "it"
      ],
      [
        "ĠT",
        "his"
      ],
      [
        "Ġf",
        "l"
      ],
      [
        "an",
        "ce"
      ],
      [
        "Ġl",
        "ot"
      ],
      [
        "Ġb",
        "ad"
      ],
      [
        "ct",
        "ion"
      ],
      [
        "Ġ",
        "ro"
      ],
      [
        "vie",
        "w"
      ],
      [
        "Ġw",
        "ill"
      ],
      [
        "at",
        "ing"
      ],
      [
        "v",
        "ed"
      ],
      [
        "th",
        "ing"
      ],
      [
        "Ġwhe",
        "re"
      ],
      [
        "Ġc",
        "r"
      ],
      [
        "t",
        "he"
      ],
      [
        "Ġg",
        "r"
      ],
      [
        "Ġe",
        "ver"
      ],
      [
        "is",
        "e"
      ],
      [
        "c",
        "c"
      ],
      [
        "Ġne",
        "ver"
      ],
      [
        "Ġh",
        "or"
      ],
      [
        "Ġb",
        "ack"
      ],
      [
        "Ġpre",
        "tty"
      ],
      [
        "a",
        "ch"
      ],
      [
        "a",
        "z"
      ],
      [
        "a",
        "ut"
      ],
      [
        "s",
        "h"
      ],
      [
        "ur",
        "n"
      ],
      [
        "il",
        "y"
      ],
      [
        "Ġre",
        "m"
      ],
      [
        "Ġb",
        "est"
      ],
      [
        "fe",
        "ct"
      ],
      [
        "Ġse",
        "en"
      ],
      [
        "m",
        "er"
      ],
      [
        "n",
        "g"
      ],
      [
        "Ġpl",
        "ay"
      ],
      [
        "Ġdocument",
        "ary"
      ],
      [
        "ol",
        "l"
      ],
      [
        "Ġu",
        "nder"
      ],
      [
        "o",
        "c"
      ],
      [
        "Ġsomet",
        "hing"
      ],
      [
        "Ġst",
        "r"
      ],
      [
        "Ġ",
        "ri"
      ],
      [
        "Ġk",
        "ind"
      ],
      [
        "ver",
        "s"
      ],
      [
        "Ġbet",
        "ter"
      ],
      [
        "u",
        "g"
      ],
      [
        "ar",
        "r"
      ],
      [
        "Ġmov",
        "ies"
      ],
      [
        "v",
        "ing"
      ],
      [
        "Ġg",
        "en"
      ],
      [
        "ar",
        "ly"
      ],
      [
        "Ġc",
        "inem"
      ],
      [
        "v",
        "es"
      ],
      [
        "Ġt",
        "al"
      ],
      [
        "Ġim",
        "p"
      ],
      [
        "Ġa",
        "fter"
      ],
      [
        "Ġw",
        "r"
      ],
      [
        "ul",
        "l"
      ],
      [
        "Ġtw",
        "o"
      ],
      [
        "Ġg",
        "ot"
      ],
      [
        "Ġinterest",
        "ing"
      ],
      [
        "ĠS",
        "t"
      ],
      [
        "b",
        "le"
      ],
      [
        "ol",
        "d"
      ],
      [
        "or",
        "s"
      ],
      [
        "Ġwatch",
        "ing"
      ],
      [
        "Ġa",
        "w"
      ],
      [
        "Ġthe",
        "se"
      ],
      [
        "Ġs",
        "ay"
      ],
      [
        "Ġe",
        "m"
      ],
      [
        "Ġs",
        "ur"
      ],
      [
        "Ġm",
        "us"
      ],
      [
        "b",
        "e"
      ],
      [
        "Ġin",
        "c"
      ],
      [
        "w",
        "n"
      ],
      [
        "Ġt",
        "ra"
      ],
      [
        "im",
        "es"
      ],
      [
        "Ġthe",
        "n"
      ],
      [
        "Ġs",
        "pe"
      ],
      [
        "d",
        "u"
      ],
      [
        "Ġ",
        "U"
      ],
      [
        "Ġde",
        "c"
      ],
      [
        "Ġw",
        "om"
      ],
      [
        "ou",
        "ght"
      ],
      [
        "b",
        "er"
      ],
      [
        "Ġ2",
        "0"
      ],
      [
        "Ġf",
        "uck"
      ],
      [
        "ion",
        "s"
      ],
      [
        "Ġcom",
        "ed"
      ],
      [
        "re",
        "e"
      ],
      [
        "Ġl",
        "ong"
      ],
      [
        "at",
        "h"
      ],
      [
        "ve",
        "l"
      ],
      [
        "Ġ1",
        "9"
      ],
      [
        "if",
        "ul"
      ],
      [
        "as",
        "e"
      ],
      [
        "ent",
        "s"
      ],
      [
        "o",
        "ot"
      ],
      [
        "Ġper",
        "for"
      ],
      [
        "ra",
        "p"
      ],
      [
        "r",
        "or"
      ],
      [
        "aut",
        "iful"
      ],
      [
        "in",
        "al"
      ],
      [
        "i",
        "k"
      ],
      [
        "j",
        "oy"
      ],
      [
        "Ġwh",
        "ile"
      ],
      [
        "Ġne",
        "ed"
      ],
      [
        "Ġha",
        "pp"
      ],
      [
        "Ġs",
        "ub"
      ],
      [
        "Ġs",
        "up"
      ],
      [
        "m",
        "e"
      ],
      [
        "Ġ",
        "ke"
      ],
      [
        "at",
        "ure"
      ],
      [
        ".",
        "\""
      ],
      [
        "Ġp",
        "ers"
      ],
      [
        "Ġs",
        "et"
      ],
      [
        "Ġre",
        "c"
      ],
      [
        "Ġgo",
        "ing"
      ],
      [
        "er",
        "y"
      ],
      [
        "ab",
        "ly"
      ],
      [
        "f",
        "ore"
      ],
      [
        "is",
        "s"
      ],
      [
        "i",
        "gh"
      ],
      [
        "Ġc",
        "he"
      ],
      [
        "ie",
        "nd"
      ],
      [
        "ir",
        "l"
      ],
      [
        "n",
        "ing"
      ],
      [
        "ut",
        "es"
      ],
      [
        "Ġf",
        "am"
      ],
      [
        "ĠA",
        "nd"
      ],
      [
        "w",
        "ays"
      ],
      [
        "if",
        "f"
      ],
      [
        "Ġf",
        "ind"
      ],
      [
        "l",
        "es"
      ],
      [
        "Ġse",
        "em"
      ],
      [
        "Ġman",
        "y"
      ],
      [
        "Ġcom",
        "p"
      ],
      [
        "Ġin",
        "s"
      ],
      [
        "I",
        "t"
      ],
      [
        "'",
        "re"
      ],
      [
        "Ġt",
        "er"
      ],
      [
        "Ġm",
        "om"
      ],
      [
        "Ġwat",
        "ched"
      ],
      [
        "Ġen",
        "joy"
      ],
      [
        "Ġcharact",
        "er"
      ],
      [
        "ert",
        "ain"
      ],
      [
        "is",
        "m"
      ],
      [
        "at",
        "her"
      ],
      [
        "Ġn",
        "ow"
      ],
      [
        "Ġcon",
        "t"
      ],
      [
        "e",
        "ct"
      ],
      [
        "at",
        "ive"
      ],
      [
        "Ġcharact",
        "ers"
      ],
      [
        "a",
        "il"
      ],
      [
        "Ġc",
        "ou"
      ],
      [
        "ir",
        "d"
      ],
      [
        "Ġwor",
        "ld"
      ],
      [
        "en",
        "se"
      ],
      [
        "Ġar",
        "t"
      ],
      [
        "Ġre",
        "l"
      ],
      [
        "re",
        "en"
      ],
      [
        "Ġmin",
        "utes"
      ],
      [
        "u",
        "ff"
      ],
      [
        "Ġth",
        "ough"
      ],
      [
        "Ġag",
        "ain"
      ],
      [
        "Ġgu",
        "y"
      ],
      [
        "Ġs",
        "m"
      ],
      [
        "ĠB",
        "ut"
      ],
      [
        "ci",
        "al"
      ],
      [
        "Ġo",
        "ld"
      ],
      [
        "Ġsh",
        "ot"
      ],
      [
        "Ġh",
        "um"
      ],
      [
        "Ġ",
        "es"
      ],
      [
        "ig",
        "n"
      ],
      [
        "f",
        "t"
      ],
      [
        "Ġst",
        "art"
      ],
      [
        "Ġpl",
        "ot"
      ],
      [
        "Ġmak",
        "es"
      ],
      [
        "d",
        "er"
      ],
      [
        "Ġsh",
        "ould"
      ],
      [
        "on",
        "s"
      ],
      [
        ")",
        "."
      ],
      [
        "Ġan",
        "im"
      ],
      [
        "ic",
        "ally"
      ],
      [
        "Ġperfor",
        "man"
      ],
      [
        "Ġs",
        "a"
      ],
      [
        "Ġact",
        "ually"
      ],
      [
        "Ġbe",
        "autiful"
      ],
      [
        "Ġbe",
        "fore"
      ],
      [
        "Ġ",
        "'"
      ],
      [
        "Ġdid",
        "n"
      ],
      [
        "l",
        "ess"
      ],
      [
        "Ġre",
        "s"
      ],
      [
        "Ġal",
        "ways"
      ],
      [
        "s",
        "elf"
      ],
      [
        "l",
        "i"
      ],
      [
        "it",
        "ing"
      ],
      [
        "Ġen",
        "ough"
      ],
      [
        "ak",
        "ing"
      ],
      [
        "Ġth",
        "ose"
      ],
      [
        "Ġye",
        "ars"
      ],
      [
        "re",
        "n"
      ],
      [
        "?",
        "?"
      ],
      [
        "Ġar",
        "ound"
      ],
      [
        "Ġd",
        "own"
      ],
      [
        "n",
        "ess"
      ],
      [
        "k",
        "ing"
      ],
      [
        "Ġne",
        "w"
      ],
      [
        "Ġd",
        "ram"
      ],
      [
        "Ġthing",
        "s"
      ],
      [
        "el",
        "t"
      ],
      [
        "Ġin",
        "ter"
      ],
      [
        "Ġs",
        "uch"
      ],
      [
        "Ġcomed",
        "y"
      ],
      [
        "Ġs",
        "im"
      ],
      [
        "at",
        "er"
      ],
      [
        "Ġs",
        "ame"
      ],
      [
        "Ġdoes",
        "n"
      ],
      [
        "ib",
        "le"
      ],
      [
        "Ġpers",
        "on"
      ],
      [
        "i",
        "ence"
      ],
      [
        "Ġo",
        "b"
      ],
      [
        "we",
        "en"
      ],
      [
        "Ġd",
        "iff"
      ],
      [
        "Ġt",
        "ry"
      ],
      [
        "Ġth",
        "ought"
      ],
      [
        "k",
        "s"
      ],
      [
        "Ġs",
        "ound"
      ],
      [
        "re",
        "am"
      ],
      [
        "he",
        "re"
      ],
      [
        "n",
        "a"
      ],
      [
        "k",
        "ed"
      ],
      [
        "p",
        "r"
      ],
      [
        "Ġpo",
        "int"
      ],
      [
        "Ġqu",
        "ite"
      ],
      [
        "a",
        "ir"
      ],
      [
        "Ġmus",
        "ic"
      ],
      [
        "..",
        ".."
      ],
      [
        "Ġri",
        "ght"
      ],
      [
        "Ġat",
        "t"
      ],
      [
        "ot",
        "h"
      ],
      [
        "Ġo",
        "wn"
      ],
      [
        "it",
        "s"
      ],
      [
        "ri",
        "g"
      ],
      [
        "ation",
        "s"
      ],
      [
        "Ġm",
        "ay"
      ],
      [
        "Ġa",
        "pp"
      ],
      [
        "Ġg",
        "irl"
      ],
      [
        "ce",
        "pt"
      ],
      [
        "f",
        "in"
      ],
      [
        "w",
        "ard"
      ],
      [
        "or",
        "d"
      ],
      [
        "Ġbet",
        "ween"
      ],
      [
        "Ġh",
        "ard"
      ],
      [
        "x",
        "t"
      ],
      [
        "og",
        "rap"
      ],
      [
        "Ġfun",
        "ny"
      ],
      [
        "Ġm",
        "en"
      ],
      [
        "er",
        "a"
      ],
      [
        "o",
        "ck"
      ],
      [
        "Ġhor",
        "ror"
      ],
      [
        "ĠI",
        "n"
      ],
      [
        "as",
        "h"
      ],
      [
        "Ġk",
        "id"
      ],
      [
        "at",
        "ch"
      ],
      [
        "os",
        "s"
      ],
      [
        "ĠA",
        "l"
      ],
      [
        "o",
        "h"
      ],
      [
        "Ġex",
        "per"
      ],
      [
        "ĠS",
        "h"
      ],
      [
        "ĠB",
        "r"
      ],
      [
        "j",
        "ect"
      ],
      [
        "ur",
        "ing"
      ],
      [
        "Ġt",
        "ri"
      ],
      [
        "Ġin",
        "v"
      ],
      [
        "l",
        "ing"
      ],
      [
        "al",
        "f"
      ],
      [
        "Ġ",
        "ide"
      ],
      [
        "Ġscen",
        "e"
      ],
      [
        "Ġ",
        "3"
      ],
      [
        "o",
        "nd"
      ],
      [
        "Ġb",
        "ig"
      ],
      [
        "Ġwh",
        "y"
      ],
      [
        "Ġfeel",
        "s"
      ],
      [
        "a",
        "ve"
      ],
      [
        "Ġin",
        "d"
      ],
      [
        "Ġe",
        "v"
      ],
      [
        "Ġv",
        "is"
      ],
      [
        "Ġpro",
        "du"
      ],
      [
        "Ġse",
        "x"
      ],
      [
        "Ġfr",
        "iend"
      ],
      [
        "he",
        "n"
      ],
      [
        "Ġt",
        "urn"
      ],
      [
        "Ġe",
        "l"
      ],
      [
        "Ġc",
        "ol"
      ],
      [
        "Ġdirect",
        "or"
      ],
      [
        "Ġex",
        "pl"
      ],
      [
        "ion",
        "al"
      ],
      [
        "Ġfe",
        "w"
      ],
      [
        "Ġab",
        "s"
      ],
      [
        "Ġk",
        "ill"
      ],
      [
        "i",
        "o"
      ],
      [
        "Ġc",
        "ast"
      ],
      [
        "ap",
        "t"
      ],
      [
        "Ġf",
        "av"
      ],
      [
        "Ġa",
        "p"
      ],
      [
        "ate",
        "ly"
      ],
      [
        "ĠH",
        "e"
      ],
      [
        "c",
        "ed"
      ],
      [
        "Ġd",
        "el"
      ],
      [
        "ĠThe",
        "re"
      ],
      [
        "on",
        "t"
      ],
      [
        "Ġex",
        "pect"
      ],
      [
        "an",
        "e"
      ],
      [
        "m",
        "ost"
      ],
      [
        "ak",
        "es"
      ],
      [
        "Ġl",
        "ast"
      ],
      [
        "Ġ",
        "ed"
      ],
      [
        "it",
        "er"
      ],
      [
        "Ġle",
        "ad"
      ],
      [
        "Ġt",
        "ell"
      ],
      [
        "Ġb",
        "el"
      ],
      [
        "o",
        "k"
      ],
      [
        "Ġch",
        "ild"
      ],
      [
        "f",
        "fect"
      ],
      [
        "Ġc",
        "am"
      ],
      [
        "Ġwho",
        "le"
      ],
      [
        "ing",
        "s"
      ],
      [
        "Ġp",
        "ut"
      ],
      [
        "Ġr",
        "un"
      ],
      [
        "Ġscen",
        "es"
      ],
      [
        "au",
        "gh"
      ],
      [
        "in",
        "s"
      ],
      [
        "Ġcom",
        "ple"
      ],
      [
        "Ġt",
        "imes"
      ],
      [
        "Ġget",
        "s"
      ],
      [
        "Ġnot",
        "hing"
      ],
      [
        "Ġh",
        "alf"
      ],
      [
        "Ġcinem",
        "a"
      ],
      [
        "Ġh",
        "igh"
      ],
      [
        ")",
        ","
      ],
      [
        "he",
        "d"
      ],
      [
        "Ġs",
        "ure"
      ],
      [
        "e",
        "e"
      ],
      [
        "Ġb",
        "as"
      ],
      [
        "Ġh",
        "ist"
      ],
      [
        "A",
        "n"
      ],
      [
        "al",
        "e"
      ],
      [
        "Ġt",
        "ake"
      ],
      [
        "Ġact",
        "ing"
      ],
      [
        "Ġcl",
        "ass"
      ],
      [
        "s",
        "c"
      ],
      [
        "ĠT",
        "H"
      ],
      [
        "ol",
        "ute"
      ],
      [
        "Ġa",
        "cc"
      ],
      [
        "'",
        "d"
      ],
      [
        "at",
        "ic"
      ],
      [
        "e",
        "c"
      ],
      [
        "o",
        "x"
      ],
      [
        "Ġact",
        "ion"
      ],
      [
        "E",
        "R"
      ],
      [
        "o",
        "ol"
      ],
      [
        "Ġn",
        "ice"
      ],
      [
        "Ġdiff",
        "ere"
      ],
      [
        "Ġf",
        "ar"
      ],
      [
        "st",
        "er"
      ],
      [
        "ter",
        "n"
      ],
      [
        "Ġser",
        "ies"
      ],
      [
        "Ġg",
        "l"
      ],
      [
        "Ġ",
        "z"
      ],
      [
        "od",
        "y"
      ],
      [
        "Ġd",
        "ay"
      ],
      [
        "e",
        "ad"
      ],
      [
        "Ġsc",
        "reen"
      ],
      [
        "Ġhe",
        "art"
      ],
      [
        "Ġd",
        "i"
      ],
      [
        "Ġp",
        "ol"
      ],
      [
        "Ġyou",
        "ng"
      ],
      [
        "un",
        "g"
      ],
      [
        "Ġl",
        "et"
      ],
      [
        "Ġf",
        "elt"
      ],
      [
        "ing",
        "ly"
      ],
      [
        "Ġmak",
        "ing"
      ],
      [
        "ĠY",
        "ou"
      ],
      [
        "Ġan",
        "other"
      ],
      [
        "ere",
        "d"
      ],
      [
        "Ġsh",
        "it"
      ],
      [
        "Ġn",
        "arr"
      ],
      [
        "b",
        "ably"
      ],
      [
        "ar",
        "n"
      ],
      [
        "r",
        "ist"
      ],
      [
        "ow",
        "er"
      ],
      [
        "Ġs",
        "u"
      ],
      [
        "i",
        "x"
      ],
      [
        "Ġany",
        "thing"
      ],
      [
        "Ġfe",
        "ature"
      ],
      [
        "ie",
        "ce"
      ],
      [
        "o",
        "pe"
      ],
      [
        "th",
        "is"
      ],
      [
        "co",
        "nd"
      ],
      [
        "Ġdram",
        "a"
      ],
      [
        "Ġin",
        "st"
      ],
      [
        "Ġex",
        "c"
      ],
      [
        "Ġo",
        "ur"
      ],
      [
        "en",
        "g"
      ],
      [
        "Ġb",
        "oth"
      ],
      [
        "Ġc",
        "are"
      ],
      [
        "Ġco",
        "ol"
      ],
      [
        "Ġm",
        "as"
      ],
      [
        "Ġfam",
        "ily"
      ],
      [
        "I",
        "N"
      ],
      [
        "Ġf",
        "ound"
      ],
      [
        "l",
        "ed"
      ],
      [
        "Ġst",
        "y"
      ],
      [
        "ap",
        "p"
      ],
      [
        "as",
        "on"
      ],
      [
        "ad",
        "y"
      ],
      [
        "ort",
        "h"
      ],
      [
        "in",
        "ce"
      ],
      [
        "!!",
        "!!"
      ],
      [
        "m",
        "ing"
      ],
      [
        "Ġe",
        "p"
      ],
      [
        "ou",
        "se"
      ],
      [
        "Ġha",
        "nd"
      ],
      [
        "Ġwom",
        "an"
      ],
      [
        "Ġme",
        "m"
      ],
      [
        "Ġcon",
        "s"
      ],
      [
        "Ġo",
        "p"
      ],
      [
        "ang",
        "e"
      ],
      [
        "an",
        "k"
      ],
      [
        "Ġwith",
        "out"
      ],
      [
        "Ġim",
        "ag"
      ],
      [
        "qu",
        "e"
      ],
      [
        "Ġw",
        "ar"
      ],
      [
        "Ġle",
        "ast"
      ],
      [
        "e",
        "ver"
      ],
      [
        "Ġis",
        "n"
      ],
      [
        "Ġye",
        "ar"
      ],
      [
        "Ġb",
        "u"
      ],
      [
        "Ġevery",
        "thing"
      ],
      [
        "i",
        "er"
      ],
      [
        "Ġhe",
        "l"
      ],
      [
        "Ġb",
        "or"
      ],
      [
        "Ġpre",
        "s"
      ],
      [
        "it",
        "ion"
      ],
      [
        "fin",
        "ite"
      ],
      [
        "Ġdiffere",
        "nt"
      ],
      [
        "ic",
        "ul"
      ],
      [
        "Ġas",
        "s"
      ],
      [
        "d",
        "ay"
      ],
      [
        "Ġal",
        "most"
      ],
      [
        "Ġe",
        "ffect"
      ],
      [
        "Ġc",
        "le"
      ],
      [
        "ic",
        "an"
      ],
      [
        "Ġm",
        "ain"
      ],
      [
        "ci",
        "ally"
      ],
      [
        "o",
        "nder"
      ],
      [
        "Ġc",
        "ra"
      ],
      [
        "Ġf",
        "oot"
      ],
      [
        "e",
        "w"
      ],
      [
        "ud",
        "get"
      ],
      [
        "Ġc",
        "all"
      ],
      [
        "ĠN",
        "ot"
      ],
      [
        "ĠT",
        "h"
      ],
      [
        "p",
        "h"
      ],
      [
        "ograp",
        "hy"
      ],
      [
        "Ġt",
        "it"
      ],
      [
        "Ġr",
        "om"
      ],
      [
        "u",
        "es"
      ],
      [
        "ic",
        "s"
      ],
      [
        "'",
        "ll"
      ],
      [
        "finite",
        "ly"
      ],
      [
        "Ġex",
        "t"
      ],
      [
        "Ġse",
        "cond"
      ],
      [
        "Ġl",
        "ess"
      ],
      [
        "Ġf",
        "in"
      ],
      [
        "o",
        "ve"
      ],
      [
        "Ġde",
        "p"
      ],
      [
        "Ġc",
        "reat"
      ],
      [
        "Ġcom",
        "m"
      ],
      [
        "Ġ",
        "vers"
      ],
      [
        "Ġm",
        "ight"
      ],
      [
        "Ġwe",
        "ird"
      ],
      [
        "t",
        "en"
      ],
      [
        "Ġsur",
        "pr"
      ],
      [
        "um",
        "b"
      ],
      [
        "Ġs",
        "ing"
      ],
      [
        "ol",
        "og"
      ],
      [
        "Ġtry",
        "ing"
      ],
      [
        "Ġend",
        "ing"
      ],
      [
        "Ġfuck",
        "ing"
      ],
      [
        "Ġst",
        "and"
      ],
      [
        "Ġto",
        "get"
      ],
      [
        "Ġtoget",
        "her"
      ],
      [
        "Ġs",
        "ol"
      ],
      [
        "Ġy",
        "et"
      ],
      [
        "ist",
        "s"
      ],
      [
        "Ġent",
        "ertain"
      ],
      [
        "0",
        "0"
      ],
      [
        "Ġc",
        "ome"
      ],
      [
        "Ġh",
        "our"
      ],
      [
        "Ġs",
        "il"
      ],
      [
        "s",
        "y"
      ],
      [
        "pe",
        "cially"
      ],
      [
        "Ġqu",
        "e"
      ],
      [
        "Ġc",
        "re"
      ],
      [
        "Ġst",
        "ar"
      ],
      [
        "oll",
        "ow"
      ],
      [
        "ou",
        "nt"
      ],
      [
        "Ġhapp",
        "en"
      ],
      [
        "Ġpl",
        "ace"
      ],
      [
        "Ġent",
        "ire"
      ],
      [
        "st",
        "and"
      ],
      [
        "n",
        "er"
      ],
      [
        "Ġm",
        "on"
      ],
      [
        "it",
        "ed"
      ],
      [
        "at",
        "es"
      ],
      [
        "oh",
        "n"
      ],
      [
        "Ġke",
        "ep"
      ],
      [
        "Ġem",
        "ot"
      ],
      [
        "Ġabs",
        "olute"
      ],
      [
        "f",
        "ort"
      ],
      [
        "Ġhel",
        "p"
      ],
      [
        "Ġs",
        "ch"
      ],
      [
        "or",
        "ies"
      ],
      [
        "Ġcon",
        "f"
      ],
      [
        "Ġc",
        "ar"
      ],
      [
        "es",
        "e"
      ],
      [
        "Ġsup",
        "er"
      ],
      [
        "sh",
        "ip"
      ],
      [
        "Ġsome",
        "one"
      ],
      [
        "Ġ",
        "view"
      ],
      [
        "Ġ",
        "5"
      ],
      [
        "iv",
        "es"
      ],
      [
        "y",
        "n"
      ],
      [
        "Ġpro",
        "bably"
      ],
      [
        "Ġg",
        "ive"
      ],
      [
        "ure",
        "s"
      ],
      [
        "Ġwom",
        "en"
      ],
      [
        "Ġst",
        "uff"
      ],
      [
        "i",
        "en"
      ],
      [
        "if",
        "e"
      ],
      [
        "Ġe",
        "le"
      ],
      [
        "ĠR",
        "e"
      ],
      [
        "Ġl",
        "ow"
      ],
      [
        "Ġd",
        "r"
      ],
      [
        "re",
        "s"
      ],
      [
        "Ġme",
        "an"
      ],
      [
        "ist",
        "ic"
      ],
      [
        "ĠA",
        "n"
      ],
      [
        "Ġf",
        "act"
      ],
      [
        "Ġs",
        "k"
      ],
      [
        "Ġad",
        "d"
      ],
      [
        "Ġe",
        "arly"
      ],
      [
        "Ġn",
        "ight"
      ],
      [
        "Ġfilm",
        "m"
      ],
      [
        "le",
        "as"
      ],
      [
        "Ġtr",
        "ans"
      ],
      [
        "on",
        "est"
      ],
      [
        "ĠA",
        "mer"
      ],
      [
        "re",
        "t"
      ],
      [
        "al",
        "ity"
      ],
      [
        "ĠF",
        "r"
      ],
      [
        "y",
        "ing"
      ],
      [
        "Ġmom",
        "ents"
      ],
      [
        "Ġf",
        "ull"
      ],
      [
        "Ġd",
        "one"
      ],
      [
        "Ġbel",
        "ie"
      ],
      [
        "Ġseem",
        "s"
      ],
      [
        "e",
        "x"
      ],
      [
        "Ġs",
        "ong"
      ],
      [
        "Ġw",
        "onder"
      ],
      [
        "Ġwas",
        "n"
      ],
      [
        "i",
        "et"
      ],
      [
        "Ġfav",
        "or"
      ],
      [
        "y",
        "e"
      ],
      [
        "m",
        "y"
      ],
      [
        "Ġlo",
        "ved"
      ],
      [
        "Ġli",
        "ked"
      ],
      [
        "Ġre",
        "view"
      ],
      [
        "ĠB",
        "l"
      ],
      [
        "ro",
        "ss"
      ],
      [
        "y",
        "a"
      ],
      [
        "c",
        "om"
      ],
      [
        "Ġli",
        "ve"
      ],
      [
        "Ġa",
        "c"
      ],
      [
        "Ġb",
        "oy"
      ],
      [
        "ĠD",
        "e"
      ],
      [
        "ill",
        "er"
      ],
      [
        "Ġha",
        "ving"
      ],
      [
        "Ġperforman",
        "ce"
      ],
      [
        "h",
        "o"
      ],
      [
        "Ġper",
        "fect"
      ],
      [
        "ug",
        "g"
      ],
      [
        "Ġide",
        "a"
      ],
      [
        "ĠS",
        "o"
      ],
      [
        "Ġo",
        "rig"
      ],
      [
        "al",
        "s"
      ],
      [
        "a",
        "i"
      ],
      [
        "Ġcomple",
        "te"
      ],
      [
        "Ġse",
        "qu"
      ],
      [
        "Ġfor",
        "m"
      ],
      [
        "ne",
        "y"
      ],
      [
        "Ġs",
        "ense"
      ],
      [
        "Ġp",
        "h"
      ],
      [
        "a",
        "j"
      ],
      [
        "Ġhe",
        "ad"
      ],
      [
        "Ġd",
        "an"
      ],
      [
        "Ġanim",
        "ation"
      ],
      [
        "Ġun",
        "t"
      ],
      [
        "Ġli",
        "ght"
      ],
      [
        "Ġd",
        "uring"
      ],
      [
        "Ġg",
        "ra"
      ],
      [
        "Ġe",
        "ach"
      ],
      [
        "u",
        "k"
      ],
      [
        "Ġter",
        "ri"
      ],
      [
        "or",
        "n"
      ],
      [
        "Ġm",
        "ar"
      ],
      [
        "Ġs",
        "ince"
      ],
      [
        "Ġf",
        "ollow"
      ],
      [
        "id",
        "d"
      ],
      [
        "Ġlook",
        "s"
      ],
      [
        "Ġhist",
        "ory"
      ],
      [
        "ious",
        "ly"
      ],
      [
        "is",
        "od"
      ],
      [
        "Ġsty",
        "le"
      ],
      [
        "am",
        "p"
      ],
      [
        "Ġr",
        "ather"
      ],
      [
        "Ġvers",
        "ion"
      ],
      [
        "Ġbe",
        "g"
      ],
      [
        "Ġ",
        "4"
      ],
      [
        "ent",
        "ion"
      ],
      [
        "I",
        "n"
      ],
      [
        "er",
        "ing"
      ],
      [
        "A",
        "N"
      ],
      [
        "ire",
        "d"
      ],
      [
        "Ġf",
        "ight"
      ],
      [
        "Ġaw",
        "ay"
      ],
      [
        "Ġsup",
        "p"
      ],
      [
        "il",
        "ar"
      ],
      [
        "id",
        "ent"
      ],
      [
        "Ġs",
        "ad"
      ],
      [
        "at",
        "t"
      ],
      [
        "Ġhum",
        "an"
      ],
      [
        "ud",
        "e"
      ],
      [
        "Ġm",
        "iss"
      ],
      [
        "Ġre",
        "f"
      ],
      [
        "Ġgo",
        "es"
      ],
      [
        "Ġa",
        "ud"
      ],
      [
        "Ġfoot",
        "age"
      ],
      [
        "r",
        "u"
      ],
      [
        "Ġget",
        "ting"
      ],
      [
        "n",
        "ot"
      ],
      [
        "un",
        "t"
      ],
      [
        "z",
        "y"
      ],
      [
        "Ġp",
        "ar"
      ],
      [
        "az",
        "ing"
      ],
      [
        "ĠT",
        "hat"
      ],
      [
        "N",
        "ot"
      ],
      [
        "ri",
        "pt"
      ],
      [
        "Ġes",
        "pecially"
      ],
      [
        "l",
        "and"
      ],
      [
        "Ġre",
        "p"
      ],
      [
        "s",
        "on"
      ],
      [
        "Ġt",
        "akes"
      ],
      [
        "i",
        "ke"
      ],
      [
        "Ġm",
        "ed"
      ],
      [
        "Ġgen",
        "er"
      ],
      [
        "Ġst",
        "ud"
      ],
      [
        "ur",
        "al"
      ],
      [
        "Ġdo",
        "ing"
      ],
      [
        "Ġevery",
        "one"
      ],
      [
        "am",
        "es"
      ],
      [
        "Ġw",
        "orth"
      ],
      [
        "Ġb",
        "udget"
      ],
      [
        "Ġp",
        "ower"
      ],
      [
        "c",
        "ing"
      ],
      [
        "y",
        "p"
      ],
      [
        "Ġspe",
        "cial"
      ],
      [
        "Ġre",
        "st"
      ],
      [
        "Ġh",
        "ome"
      ],
      [
        "Ġd",
        "ist"
      ],
      [
        "an",
        "n"
      ],
      [
        "1",
        "9"
      ],
      [
        "b",
        "ut"
      ],
      [
        "Ġd",
        "ream"
      ],
      [
        "ĠCh",
        "rist"
      ],
      [
        "Ġsa",
        "id"
      ],
      [
        "Ġl",
        "a"
      ],
      [
        "ĠF",
        "ilm"
      ],
      [
        "Ġex",
        "p"
      ],
      [
        "ĠB",
        "e"
      ],
      [
        "Ġm",
        "ess"
      ],
      [
        "Ġd",
        "ial"
      ],
      [
        "Ġunder",
        "stand"
      ],
      [
        "Ġs",
        "we"
      ],
      [
        "Ġexper",
        "ience"
      ],
      [
        "Ġde",
        "finitely"
      ],
      [
        "Ġprodu",
        "ction"
      ],
      [
        "Ġsurpr",
        "is"
      ],
      [
        "Ġm",
        "ind"
      ],
      [
        "Ġep",
        "isod"
      ],
      [
        "g",
        "r"
      ],
      [
        "Ġinc",
        "red"
      ],
      [
        "at",
        "ter"
      ],
      [
        "Ġv",
        "ide"
      ],
      [
        "f",
        "r"
      ],
      [
        "Ġc",
        "ult"
      ],
      [
        "Ġbor",
        "ing"
      ],
      [
        "ll",
        "ll"
      ],
      [
        "Ġd",
        "et"
      ],
      [
        "ment",
        "s"
      ],
      [
        "a",
        "x"
      ],
      [
        "m",
        "s"
      ],
      [
        "Ġm",
        "ur"
      ],
      [
        "Ġto",
        "p"
      ],
      [
        "Ġst",
        "ars"
      ],
      [
        "us",
        "s"
      ],
      [
        "Ġl",
        "augh"
      ],
      [
        "Ġsl",
        "ow"
      ],
      [
        "o",
        "on"
      ],
      [
        "Ġw",
        "ish"
      ],
      [
        "as",
        "c"
      ],
      [
        "u",
        "nd"
      ],
      [
        "re",
        "ak"
      ],
      [
        "Ġperforman",
        "ces"
      ],
      [
        "ĠT",
        "V"
      ],
      [
        "ib",
        "ly"
      ],
      [
        "Ġfavor",
        "ite"
      ],
      [
        "un",
        "ch"
      ],
      [
        "Ġth",
        "ree"
      ],
      [
        "Ġp",
        "iece"
      ],
      [
        "et",
        "s"
      ],
      [
        "Ġel",
        "se"
      ],
      [
        "Ġlook",
        "ing"
      ],
      [
        "Ġcou",
        "nt"
      ],
      [
        "Ġf",
        "inal"
      ],
      [
        "Ġd",
        "ra"
      ],
      [
        "Ġv",
        "o"
      ],
      [
        "oc",
        "us"
      ],
      [
        "v",
        "ent"
      ],
      [
        "ar",
        "ing"
      ],
      [
        "are",
        "nt"
      ],
      [
        "W",
        "hat"
      ],
      [
        "Ġp",
        "ass"
      ],
      [
        "Ġact",
        "ors"
      ],
      [
        "Ġtit",
        "le"
      ],
      [
        "Ġbe",
        "h"
      ],
      [
        "che",
        "s"
      ],
      [
        "A",
        "T"
      ],
      [
        "Ġf",
        "all"
      ],
      [
        "ill",
        "i"
      ],
      [
        "Ġun",
        "i"
      ],
      [
        "i",
        "ed"
      ],
      [
        "Ġ",
        "9"
      ],
      [
        "ĠTH",
        "E"
      ],
      [
        "m",
        "ed"
      ],
      [
        "I",
        "f"
      ],
      [
        "Ġdial",
        "og"
      ],
      [
        "Ġm",
        "ust"
      ],
      [
        "Ġst",
        "op"
      ],
      [
        "Ġsch",
        "ool"
      ],
      [
        "ful",
        "ly"
      ],
      [
        "Ġs",
        "aw"
      ],
      [
        "d",
        "d"
      ],
      [
        "Ġy",
        "ang"
      ],
      [
        "Ġ",
        "8"
      ],
      [
        "Ġon",
        "ce"
      ],
      [
        "ap",
        "s"
      ],
      [
        "um",
        "p"
      ],
      [
        "ĠJ",
        "ohn"
      ],
      [
        "Ġc",
        "ame"
      ],
      [
        "ell",
        "ing"
      ],
      [
        "Ġp",
        "ort"
      ],
      [
        "es",
        "tern"
      ],
      [
        "Ġl",
        "iter"
      ],
      [
        "en",
        "ing"
      ],
      [
        "ot",
        "t"
      ],
      [
        "le",
        "ase"
      ],
      [
        "ĠA",
        "r"
      ],
      [
        "O",
        "O"
      ],
      [
        "iv",
        "al"
      ],
      [
        "Â",
        "ł"
      ],
      [
        "ra",
        "ct"
      ],
      [
        "Ġde",
        "ep"
      ],
      [
        "Ġcom",
        "es"
      ],
      [
        "Ġu",
        "se"
      ],
      [
        "c",
        "ess"
      ],
      [
        "Ġf",
        "an"
      ],
      [
        "Ġdec",
        "ent"
      ],
      [
        "at",
        "ched"
      ],
      [
        "Ġrem",
        "em"
      ],
      [
        "Y",
        "ou"
      ],
      [
        "ny",
        "a"
      ],
      [
        "Ġc",
        "our"
      ],
      [
        "Ġre",
        "ad"
      ],
      [
        "in",
        "es"
      ],
      [
        "Ġcou",
        "ple"
      ],
      [
        "Ġs",
        "w"
      ],
      [
        "Ġg",
        "i"
      ],
      [
        "Ġap",
        "pe"
      ],
      [
        "Ġits",
        "elf"
      ],
      [
        "Ġc",
        "ertain"
      ],
      [
        "Ġe",
        "as"
      ],
      [
        "Ġsee",
        "ing"
      ],
      [
        "at",
        "s"
      ],
      [
        "Ġp",
        "ain"
      ],
      [
        "Ġorig",
        "inal"
      ],
      [
        "Ġv",
        "i"
      ],
      [
        "o",
        "v"
      ],
      [
        "ĠW",
        "e"
      ],
      [
        "Ġenjoy",
        "ed"
      ],
      [
        "ro",
        "p"
      ],
      [
        "Ġd",
        "ark"
      ],
      [
        "in",
        "ess"
      ],
      [
        "Ġp",
        "oss"
      ],
      [
        "it",
        "ies"
      ],
      [
        "Ġre",
        "g"
      ],
      [
        "Ġh",
        "onest"
      ],
      [
        "Ġsm",
        "all"
      ],
      [
        "Ġm",
        "et"
      ],
      [
        "Ġc",
        "ur"
      ],
      [
        "it",
        "her"
      ],
      [
        "Ġgu",
        "ess"
      ],
      [
        "w",
        "ay"
      ],
      [
        "Ġj",
        "ob"
      ],
      [
        "le",
        "y"
      ],
      [
        "Ġunt",
        "il"
      ],
      [
        "o",
        "int"
      ],
      [
        "Ġc",
        "ut"
      ],
      [
        "Ġlo",
        "c"
      ],
      [
        "Ġimp",
        "ress"
      ],
      [
        "Ġvis",
        "ual"
      ],
      [
        "em",
        "pt"
      ],
      [
        "Ġwant",
        "ed"
      ],
      [
        "Ġre",
        "ason"
      ],
      [
        "or",
        "k"
      ],
      [
        "g",
        "g"
      ],
      [
        "Ġcam",
        "era"
      ],
      [
        "Ġstr",
        "ong"
      ],
      [
        "S",
        "t"
      ],
      [
        "iz",
        "ed"
      ],
      [
        "or",
        "ge"
      ],
      [
        "The",
        "re"
      ],
      [
        "Ġm",
        "el"
      ],
      [
        "Ġre",
        "t"
      ],
      [
        "m",
        "as"
      ],
      [
        "Ġabsolute",
        "ly"
      ],
      [
        "Ġbl",
        "ack"
      ],
      [
        "Ġ",
        "Z"
      ],
      [
        "ation",
        "al"
      ],
      [
        "Ġf",
        "ocus"
      ],
      [
        "Ġc",
        "ute"
      ],
      [
        "ĠM",
        "ar"
      ],
      [
        "Ġinst",
        "ead"
      ],
      [
        "m",
        "a"
      ],
      [
        "c",
        "l"
      ],
      [
        "Ġc",
        "apt"
      ],
      [
        "u",
        "ly"
      ],
      [
        "ĠA",
        "s"
      ],
      [
        "Ġl",
        "ack"
      ],
      [
        "Ġde",
        "ath"
      ],
      [
        "Ġentertain",
        "ing"
      ],
      [
        "ĠW",
        "h"
      ],
      [
        "Ġam",
        "azing"
      ],
      [
        "Ġst",
        "ra"
      ],
      [
        "Ġus",
        "ed"
      ],
      [
        "Ġs",
        "y"
      ],
      [
        "ol",
        "ly"
      ],
      [
        "he",
        "s"
      ],
      [
        "Ġen",
        "g"
      ],
      [
        "r",
        "ay"
      ],
      [
        "Ġsol",
        "id"
      ],
      [
        "el",
        "s"
      ],
      [
        "Ġ20",
        "2"
      ],
      [
        "Ġp",
        "ast"
      ],
      [
        "Ġnarr",
        "ative"
      ],
      [
        "Ġg",
        "ay"
      ],
      [
        "g",
        "er"
      ],
      [
        "ĠU",
        "n"
      ],
      [
        "re",
        "me"
      ],
      [
        "M",
        "y"
      ],
      [
        "Ġle",
        "ft"
      ],
      [
        "ĠS",
        "he"
      ],
      [
        "Ġdirect",
        "ed"
      ],
      [
        "un",
        "k"
      ],
      [
        "ĠThe",
        "y"
      ],
      [
        "ĠW",
        "hat"
      ],
      [
        "Ġs",
        "ort"
      ],
      [
        "E",
        "S"
      ],
      [
        "Ġfriend",
        "s"
      ],
      [
        "om",
        "b"
      ],
      [
        "is",
        "on"
      ],
      [
        "ĠC",
        "l"
      ],
      [
        "Ġpl",
        "ays"
      ],
      [
        "one",
        "y"
      ],
      [
        "im",
        "ent"
      ],
      [
        "ul",
        "ar"
      ],
      [
        "Ġwork",
        "s"
      ],
      [
        "Ġinc",
        "l"
      ],
      [
        "Ġhe",
        "ll"
      ],
      [
        "p",
        "ite"
      ],
      [
        "c",
        "y"
      ],
      [
        "Ġlo",
        "st"
      ],
      [
        "d",
        "e"
      ],
      [
        "he",
        "t"
      ],
      [
        "Ġqu",
        "est"
      ],
      [
        "Ġsc",
        "ript"
      ],
      [
        "if",
        "ic"
      ],
      [
        "h",
        "ow"
      ],
      [
        "Ġwor",
        "d"
      ],
      [
        "Ġimp",
        "ort"
      ],
      [
        "I",
        "S"
      ],
      [
        "Ġc",
        "op"
      ],
      [
        "v",
        "is"
      ],
      [
        "Ġs",
        "at"
      ],
      [
        "Ġw",
        "ent"
      ],
      [
        "ent",
        "ly"
      ],
      [
        "or",
        "m"
      ],
      [
        "w",
        "hat"
      ],
      [
        "Ġf",
        "ant"
      ],
      [
        "Ġb",
        "ra"
      ],
      [
        "ain",
        "s"
      ],
      [
        "Ġmas",
        "ter"
      ],
      [
        "t",
        "o"
      ],
      [
        "Ġ",
        "7"
      ],
      [
        "ut",
        "ion"
      ],
      [
        "Ġshow",
        "s"
      ],
      [
        "ic",
        "a"
      ],
      [
        "Ġst",
        "ories"
      ],
      [
        "Ġvi",
        "ol"
      ],
      [
        "A",
        "R"
      ],
      [
        "c",
        "er"
      ],
      [
        "Ġtr",
        "ue"
      ],
      [
        "O",
        "ne"
      ],
      [
        "Ġkid",
        "s"
      ],
      [
        "Ġpart",
        "icul"
      ],
      [
        "Ġm",
        "ag"
      ],
      [
        "ĠH",
        "ow"
      ],
      [
        "Ġcinem",
        "at"
      ],
      [
        "Ġh",
        "ope"
      ],
      [
        "Ġc",
        "ent"
      ],
      [
        "Ġpol",
        "it"
      ],
      [
        "am",
        "n"
      ],
      [
        "w",
        "ood"
      ],
      [
        "Ġl",
        "ist"
      ],
      [
        "E",
        "N"
      ],
      [
        "Ġbelie",
        "ve"
      ],
      [
        "Ġro",
        "le"
      ],
      [
        "ĠI",
        "f"
      ],
      [
        "Ġplay",
        "ing"
      ],
      [
        "Ġvide",
        "o"
      ],
      [
        "O",
        "N"
      ],
      [
        "Ġthr",
        "iller"
      ],
      [
        "os",
        "ed"
      ],
      [
        "Ġtr",
        "uly"
      ],
      [
        "iv",
        "ing"
      ],
      [
        "Ġmay",
        "be"
      ],
      [
        "IN",
        "G"
      ],
      [
        "are",
        "d"
      ],
      [
        "Ġkind",
        "a"
      ],
      [
        "Ġmom",
        "ent"
      ],
      [
        "Ġc",
        "or"
      ],
      [
        "ow",
        "s"
      ],
      [
        "Ġsub",
        "ject"
      ],
      [
        "Ġm",
        "is"
      ],
      [
        "ĠAmer",
        "ican"
      ],
      [
        "ap",
        "an"
      ],
      [
        "Ġrel",
        "ation"
      ],
      [
        "ĠL",
        "e"
      ],
      [
        "Ġh",
        "ouse"
      ],
      [
        "in",
        "a"
      ],
      [
        "Ġbec",
        "om"
      ],
      [
        "ie",
        "f"
      ],
      [
        "ar",
        "i"
      ],
      [
        "b",
        "r"
      ],
      [
        "Ġmost",
        "ly"
      ],
      [
        "Ġwh",
        "ite"
      ],
      [
        "y",
        "es"
      ],
      [
        "Ġwor",
        "st"
      ],
      [
        "on",
        "es"
      ],
      [
        "id",
        "es"
      ],
      [
        "?",
        "\""
      ],
      [
        "ter",
        "s"
      ],
      [
        "Ġin",
        "f"
      ],
      [
        "ore",
        "d"
      ],
      [
        "Ġal",
        "ong"
      ],
      [
        "Ġfilmm",
        "ak"
      ],
      [
        "ot",
        "e"
      ],
      [
        "Ġp",
        "op"
      ],
      [
        "Ġhim",
        "self"
      ],
      [
        "O",
        "R"
      ],
      [
        "Ġcomplete",
        "ly"
      ],
      [
        "ub",
        "e"
      ],
      [
        "ĠS",
        "p"
      ],
      [
        "asc",
        "in"
      ],
      [
        "Ġf",
        "air"
      ],
      [
        "u",
        "c"
      ],
      [
        "Ġex",
        "ist"
      ],
      [
        "Ġs",
        "it"
      ],
      [
        "Ġn",
        "ame"
      ],
      [
        "Ġf",
        "ace"
      ],
      [
        "o",
        "ke"
      ],
      [
        "Ġgen",
        "re"
      ],
      [
        "th",
        "ough"
      ],
      [
        "ent",
        "ial"
      ],
      [
        "i",
        "el"
      ],
      [
        "!!",
        "!"
      ],
      [
        "ĠS",
        "c"
      ],
      [
        "ĠS",
        "e"
      ],
      [
        "o",
        "e"
      ],
      [
        "Ġl",
        "and"
      ],
      [
        "Ġan",
        "g"
      ],
      [
        "h",
        "a"
      ],
      [
        "m",
        "in"
      ],
      [
        "Ġrelation",
        "ship"
      ],
      [
        "Ġg",
        "od"
      ],
      [
        "Ġremem",
        "ber"
      ],
      [
        "Ġbeh",
        "ind"
      ],
      [
        "Ġl",
        "ater"
      ],
      [
        "b",
        "ox"
      ],
      [
        "ag",
        "es"
      ],
      [
        "a",
        "pe"
      ],
      [
        "me",
        "nd"
      ],
      [
        "Ġv",
        "ib"
      ],
      [
        "Ġd",
        "em"
      ],
      [
        "Ġdialog",
        "ue"
      ],
      [
        "on",
        "y"
      ],
      [
        "ri",
        "ed"
      ],
      [
        "il",
        "i"
      ],
      [
        "in",
        "o"
      ],
      [
        "le",
        "t"
      ],
      [
        "ou",
        "p"
      ],
      [
        "Ġwr",
        "ong"
      ],
      [
        "Ġpres",
        "ent"
      ],
      [
        "t",
        "ime"
      ],
      [
        "os",
        "p"
      ],
      [
        "ri",
        "ght"
      ],
      [
        "Ġinv",
        "ol"
      ],
      [
        "Ġliter",
        "ally"
      ],
      [
        "li",
        "ke"
      ],
      [
        "ch",
        "n"
      ],
      [
        "Ġex",
        "act"
      ],
      [
        "L",
        "L"
      ],
      [
        "l",
        "ine"
      ],
      [
        "u",
        "se"
      ],
      [
        "re",
        "ady"
      ],
      [
        "g",
        "y"
      ],
      [
        "on",
        "na"
      ],
      [
        "Ġpo",
        "or"
      ],
      [
        "Ġof",
        "ten"
      ],
      [
        "ĠR",
        "ob"
      ],
      [
        "Ġagain",
        "st"
      ],
      [
        "O",
        "U"
      ],
      [
        "b",
        "s"
      ],
      [
        "Ġpr",
        "ot"
      ],
      [
        "Ġd",
        "ri"
      ],
      [
        "Ġt",
        "ou"
      ],
      [
        "Ġatt",
        "empt"
      ],
      [
        "ud",
        "d"
      ],
      [
        "itt",
        "en"
      ],
      [
        "l",
        "ight"
      ],
      [
        "iz",
        "e"
      ],
      [
        "Ġdes",
        "ign"
      ],
      [
        "u",
        "ine"
      ],
      [
        "Ġplay",
        "ed"
      ],
      [
        "Ġm",
        "or"
      ],
      [
        "for",
        "m"
      ],
      [
        "ren",
        "ch"
      ],
      [
        "s",
        "ide"
      ],
      [
        "Ġde",
        "ad"
      ],
      [
        "Ġpre",
        "m"
      ],
      [
        "e",
        "k"
      ],
      [
        "Ġan",
        "t"
      ],
      [
        "Ġm",
        "other"
      ],
      [
        "Ġins",
        "p"
      ],
      [
        "Ġf",
        "ore"
      ],
      [
        "Ġmy",
        "self"
      ],
      [
        "Ġcour",
        "se"
      ],
      [
        "t",
        "ra"
      ],
      [
        "Ġw",
        "al"
      ],
      [
        "Ġs",
        "le"
      ],
      [
        "i",
        "j"
      ],
      [
        "Ġn",
        "on"
      ],
      [
        "ac",
        "es"
      ],
      [
        "Ġcinemat",
        "ography"
      ],
      [
        "Ġs",
        "elf"
      ],
      [
        "Ġw",
        "a"
      ],
      [
        "Ġh",
        "ot"
      ],
      [
        "Ġsim",
        "ple"
      ],
      [
        "Ġswe",
        "et"
      ],
      [
        "R",
        "e"
      ],
      [
        "Ġ",
        "ve"
      ],
      [
        "Ġb",
        "ro"
      ],
      [
        "en",
        "n"
      ],
      [
        "fort",
        "un"
      ],
      [
        "Ġtal",
        "king"
      ],
      [
        "Ġfl",
        "ick"
      ],
      [
        "Ġ",
        "6"
      ],
      [
        "Ġal",
        "ready"
      ],
      [
        "S",
        "o"
      ],
      [
        "ar",
        "a"
      ],
      [
        "!",
        "\""
      ],
      [
        "ant",
        "ly"
      ],
      [
        "ast",
        "ic"
      ],
      [
        "Ġp",
        "ict"
      ],
      [
        "Ġto",
        "day"
      ],
      [
        "er",
        "man"
      ],
      [
        "Ġstra",
        "ight"
      ],
      [
        "Ġtal",
        "k"
      ],
      [
        "Ġcom",
        "ing"
      ],
      [
        "Ġfeel",
        "ing"
      ],
      [
        "Ġf",
        "ine"
      ],
      [
        "en",
        "e"
      ],
      [
        "Ġo",
        "k"
      ],
      [
        "Ġcr",
        "ime"
      ],
      [
        "Ġshot",
        "s"
      ],
      [
        "it",
        "ch"
      ],
      [
        "ow",
        "ing"
      ],
      [
        "Ġne",
        "xt"
      ],
      [
        "Ġto",
        "t"
      ],
      [
        "it",
        "al"
      ],
      [
        "Ġb",
        "ook"
      ],
      [
        "Ġcon",
        "cept"
      ],
      [
        "Ġm",
        "atter"
      ],
      [
        "ĠA",
        "ll"
      ],
      [
        "Ġa",
        "v"
      ],
      [
        "-",
        "-"
      ],
      [
        "Ġany",
        "one"
      ],
      [
        "ut",
        "h"
      ],
      [
        "l",
        "er"
      ],
      [
        "Ġdo",
        "g"
      ],
      [
        "id",
        "ed"
      ],
      [
        "l",
        "ish"
      ],
      [
        "Ġ1",
        "0"
      ],
      [
        "in",
        "ning"
      ],
      [
        "Ġrem",
        "ind"
      ],
      [
        "Ġpro",
        "ble"
      ],
      [
        "Ġcol",
        "le"
      ],
      [
        "Ġsing",
        "le"
      ],
      [
        "Ġact",
        "or"
      ],
      [
        "om",
        "mend"
      ],
      [
        "re",
        "ci"
      ],
      [
        "Ġli",
        "ves"
      ],
      [
        "Ġmin",
        "ute"
      ],
      [
        "Ġ",
        "est"
      ],
      [
        "re",
        "w"
      ],
      [
        "ĠN",
        "o"
      ],
      [
        "ĠBr",
        "it"
      ],
      [
        "Ġle",
        "vel"
      ],
      [
        "pl",
        "ay"
      ],
      [
        "Ġcons",
        "id"
      ],
      [
        "Ġf",
        "ascin"
      ],
      [
        "Ġh",
        "ate"
      ],
      [
        "Ġp",
        "sy"
      ],
      [
        "oo",
        "f"
      ],
      [
        "Ġan",
        "n"
      ],
      [
        "ter",
        "box"
      ],
      [
        "ne",
        "w"
      ],
      [
        "i",
        "h"
      ],
      [
        "Ġdes",
        "er"
      ],
      [
        "an",
        "y"
      ],
      [
        "il",
        "ity"
      ],
      [
        "b",
        "y"
      ],
      [
        "Ġterri",
        "ble"
      ],
      [
        "t",
        "ed"
      ],
      [
        "Ġcon",
        "st"
      ],
      [
        "Ġbec",
        "ome"
      ],
      [
        "Ġd",
        "ays"
      ],
      [
        "r",
        "ic"
      ],
      [
        "is",
        "hed"
      ],
      [
        "ot",
        "s"
      ],
      [
        "Ġ9",
        "0"
      ],
      [
        "n",
        "ce"
      ],
      [
        "am",
        "a"
      ],
      [
        "Ġf",
        "ather"
      ],
      [
        "Ġs",
        "ide"
      ],
      [
        "ar",
        "ch"
      ],
      [
        "Ġguy",
        "s"
      ],
      [
        "Ġ",
        ":"
      ],
      [
        "ol",
        "es"
      ],
      [
        "olly",
        "wood"
      ],
      [
        "Ġclass",
        "ic"
      ],
      [
        "ward",
        "s"
      ],
      [
        "Ġd",
        "ie"
      ],
      [
        "Ġp",
        "ot"
      ],
      [
        "Ġm",
        "ot"
      ],
      [
        "idd",
        "le"
      ],
      [
        "ab",
        "y"
      ],
      [
        "Ġle",
        "arn"
      ],
      [
        "Ġgr",
        "oup"
      ],
      [
        "Ġad",
        "apt"
      ],
      [
        "Ġepisod",
        "e"
      ],
      [
        "ure",
        "d"
      ],
      [
        "Ġe",
        "ff"
      ],
      [
        "Ġs",
        "on"
      ],
      [
        "Ġaud",
        "ience"
      ],
      [
        "Ġcl",
        "ose"
      ],
      [
        "Ġf",
        "em"
      ],
      [
        "ĠI",
        "nd"
      ],
      [
        "Ġmo",
        "ve"
      ],
      [
        "Ġvo",
        "ice"
      ],
      [
        "g",
        "ed"
      ],
      [
        "terbox",
        "d"
      ],
      [
        "Ġincl",
        "ud"
      ],
      [
        "Ġimport",
        "ant"
      ],
      [
        "m",
        "p"
      ],
      [
        "ar",
        "l"
      ],
      [
        "Ġeffect",
        "s"
      ],
      [
        "Ġw",
        "ife"
      ],
      [
        "A",
        "S"
      ],
      [
        "w",
        "here"
      ],
      [
        "Ġv",
        "ill"
      ],
      [
        "ĠN",
        "ew"
      ],
      [
        "Ġpo",
        "st"
      ],
      [
        "Ġinter",
        "view"
      ],
      [
        "Ġto",
        "ld"
      ],
      [
        "Ġm",
        "ix"
      ],
      [
        "Ġc",
        "red"
      ],
      [
        "Ġchild",
        "ren"
      ],
      [
        "re",
        "tty"
      ],
      [
        "k",
        "y"
      ],
      [
        "at",
        "or"
      ],
      [
        "Ġe",
        "ither"
      ],
      [
        "ust",
        "r"
      ],
      [
        "Ġ",
        "Q"
      ],
      [
        "o",
        "vie"
      ],
      [
        "ĠAl",
        "so"
      ],
      [
        "Ġmur",
        "der"
      ],
      [
        "Ġed",
        "iting"
      ],
      [
        "ĠJ",
        "apan"
      ],
      [
        "ad",
        "a"
      ],
      [
        "ĠA",
        "t"
      ],
      [
        "Ġact",
        "ual"
      ],
      [
        "ag",
        "ing"
      ],
      [
        "b",
        "ody"
      ],
      [
        "v",
        "ol"
      ],
      [
        "Ġ",
        "er"
      ],
      [
        "Ġ",
        "era"
      ],
      [
        "Ġbas",
        "ed"
      ],
      [
        "Ġpro",
        "p"
      ],
      [
        "Ġqu",
        "ality"
      ],
      [
        "Ġb",
        "o"
      ],
      [
        "ĠO",
        "ne"
      ],
      [
        "Ġe",
        "yes"
      ],
      [
        "Ġg",
        "onna"
      ],
      [
        "Ġl",
        "ate"
      ],
      [
        "s",
        "el"
      ],
      [
        "in",
        "ed"
      ],
      [
        "Ġcomm",
        "un"
      ],
      [
        "Ġbu",
        "ild"
      ],
      [
        "Ġsc",
        "ore"
      ],
      [
        "v",
        "ious"
      ],
      [
        "pp",
        "ed"
      ],
      [
        "Ġmus",
        "ical"
      ],
      [
        "Ġg",
        "ives"
      ],
      [
        "ou",
        "d"
      ],
      [
        "ian",
        "s"
      ],
      [
        "et",
        "y"
      ],
      [
        "an",
        "a"
      ],
      [
        "Ġc",
        "art"
      ],
      [
        "t",
        "s"
      ],
      [
        "ĠS",
        "ome"
      ],
      [
        "ĠM",
        "y"
      ],
      [
        "Ġcount",
        "ry"
      ],
      [
        "Ġemot",
        "ional"
      ],
      [
        "E",
        "D"
      ],
      [
        "Ġenjoy",
        "able"
      ],
      [
        "o",
        "es"
      ],
      [
        "ive",
        "ly"
      ],
      [
        "reme",
        "ly"
      ],
      [
        "Ġgen",
        "uine"
      ],
      [
        "Ġpr",
        "om"
      ],
      [
        "Ġperson",
        "al"
      ],
      [
        "\"",
        "."
      ],
      [
        "Ġapp",
        "reci"
      ],
      [
        "ĠI",
        "s"
      ],
      [
        "ke",
        "y"
      ],
      [
        "T",
        "h"
      ],
      [
        "Ġc",
        "ase"
      ],
      [
        "Ġo",
        "pp"
      ],
      [
        "Ġbl",
        "ood"
      ],
      [
        "ĠF",
        "or"
      ],
      [
        "Ġb",
        "reak"
      ],
      [
        "ict",
        "ion"
      ],
      [
        "Ġis",
        "s"
      ],
      [
        "Ġmo",
        "der"
      ],
      [
        "Ġrec",
        "ommend"
      ],
      [
        "Ġexact",
        "ly"
      ],
      [
        "gr",
        "ound"
      ],
      [
        "us",
        "ing"
      ],
      [
        "al",
        "d"
      ],
      [
        "Ġso",
        "ci"
      ],
      [
        "y",
        "pe"
      ],
      [
        "arr",
        "ing"
      ],
      [
        "2",
        "0"
      ],
      [
        "Ġf",
        "ail"
      ],
      [
        "Ġte",
        "chn"
      ],
      [
        "Ġthrough",
        "out"
      ],
      [
        "i",
        "ent"
      ],
      [
        "Ġk",
        "new"
      ],
      [
        "Ġex",
        "ec"
      ],
      [
        "ang",
        "er"
      ],
      [
        "ĠM",
        "an"
      ],
      [
        "fortun",
        "ately"
      ],
      [
        "Ġp",
        "at"
      ],
      [
        "Ġtoo",
        "k"
      ],
      [
        "Ġf",
        "re"
      ],
      [
        "Ġpro",
        "f"
      ],
      [
        "re",
        "al"
      ],
      [
        "av",
        "id"
      ],
      [
        "Ġstr",
        "ange"
      ],
      [
        "w",
        "h"
      ],
      [
        "Ġp",
        "leas"
      ],
      [
        "Ġab",
        "le"
      ],
      [
        "O",
        "V"
      ],
      [
        "ou",
        "l"
      ],
      [
        "us",
        "h"
      ],
      [
        "b",
        "all"
      ],
      [
        "Ġn",
        "a"
      ],
      [
        "et",
        "t"
      ],
      [
        "Ġro",
        "om"
      ],
      [
        "H",
        "H"
      ],
      [
        "Ġh",
        "old"
      ],
      [
        "Ġh",
        "it"
      ],
      [
        "Ġwr",
        "iting"
      ],
      [
        "w",
        "atch"
      ],
      [
        "ĠG",
        "od"
      ],
      [
        "o",
        "ff"
      ],
      [
        "Ġf",
        "ut"
      ],
      [
        "Ġv",
        "al"
      ],
      [
        "Ġw",
        "estern"
      ],
      [
        "o",
        "f"
      ],
      [
        "Ġhappen",
        "ed"
      ],
      [
        "Ġc",
        "ry"
      ],
      [
        "Ġstr",
        "ugg"
      ],
      [
        "A",
        "s"
      ],
      [
        "Ġob",
        "s"
      ],
      [
        "Ġto",
        "wn"
      ],
      [
        "T",
        "H"
      ],
      [
        "ell",
        "ent"
      ],
      [
        "o",
        "le"
      ],
      [
        "Ġo",
        "dd"
      ],
      [
        "Ġch",
        "o"
      ],
      [
        "Ġpart",
        "s"
      ],
      [
        "it",
        "a"
      ],
      [
        "Ġdis",
        "c"
      ],
      [
        "he",
        "he"
      ],
      [
        "Ġgi",
        "ven"
      ],
      [
        "tra",
        "ck"
      ],
      [
        "and",
        "a"
      ],
      [
        "am",
        "b"
      ],
      [
        "Ġex",
        "cept"
      ],
      [
        "Ġs",
        "n"
      ],
      [
        "v",
        "in"
      ],
      [
        "al",
        "ian"
      ],
      [
        "Ġover",
        "all"
      ],
      [
        "Ġmy",
        "st"
      ],
      [
        "Ġd",
        "ou"
      ],
      [
        "Ġcould",
        "n"
      ],
      [
        "Ġcall",
        "ed"
      ],
      [
        "Ġstart",
        "ed"
      ],
      [
        "h",
        "ost"
      ],
      [
        "Ġtal",
        "e"
      ],
      [
        "a",
        "el"
      ],
      [
        "ot",
        "ic"
      ],
      [
        "Ġli",
        "ving"
      ],
      [
        "k",
        "a"
      ],
      [
        "sel",
        "ves"
      ],
      [
        "Ġst",
        "e"
      ],
      [
        "Ġp",
        "ur"
      ],
      [
        "Ġcra",
        "zy"
      ],
      [
        "ag",
        "ed"
      ],
      [
        "itt",
        "ing"
      ],
      [
        "Ġm",
        "iddle"
      ],
      [
        "Ġa",
        "ge"
      ],
      [
        "Ġb",
        "and"
      ],
      [
        "Ġde",
        "v"
      ],
      [
        "up",
        "id"
      ],
      [
        "ro",
        "du"
      ],
      [
        "Ġl",
        "ine"
      ],
      [
        "Ġbecom",
        "es"
      ],
      [
        "Ġhapp",
        "y"
      ],
      [
        "al",
        "ing"
      ],
      [
        "ur",
        "b"
      ],
      [
        "Ġhum",
        "or"
      ],
      [
        "olog",
        "y"
      ],
      [
        "Ġfor",
        "g"
      ],
      [
        "Ġhe",
        "ro"
      ],
      [
        "z",
        "e"
      ],
      [
        "Ġmoder",
        "n"
      ],
      [
        "est",
        "ival"
      ],
      [
        "Ġh",
        "om"
      ],
      [
        "ĠBrit",
        "ish"
      ],
      [
        "ant",
        "ic"
      ],
      [
        "Ġeff",
        "ort"
      ],
      [
        "Ġ8",
        "0"
      ],
      [
        "Ġo",
        "cc"
      ],
      [
        "ok",
        "es"
      ],
      [
        "Ġpsy",
        "ch"
      ],
      [
        "en",
        "ces"
      ],
      [
        "od",
        "ram"
      ],
      [
        "Ġm",
        "a"
      ],
      [
        "ĠP",
        "l"
      ],
      [
        "Ġuni",
        "que"
      ],
      [
        "ic",
        "es"
      ],
      [
        "Ġ20",
        "1"
      ],
      [
        "Ġ",
        "ir"
      ],
      [
        "ac",
        "ed"
      ],
      [
        "Ġsomet",
        "imes"
      ],
      [
        "h",
        "aps"
      ],
      [
        "it",
        "ive"
      ],
      [
        "nd",
        "ing"
      ],
      [
        "om",
        "p"
      ],
      [
        "Ġturn",
        "s"
      ],
      [
        "Ġsub",
        "t"
      ],
      [
        "m",
        "osp"
      ],
      [
        "Ġshort",
        "s"
      ],
      [
        "r",
        "on"
      ],
      [
        "n",
        "o"
      ],
      [
        "Ġin",
        "i"
      ],
      [
        "Ġend",
        "s"
      ],
      [
        "us",
        "ed"
      ],
      [
        "A",
        "l"
      ],
      [
        "Ġw",
        "on"
      ],
      [
        "Ġac",
        "ross"
      ],
      [
        "Ġdes",
        "pite"
      ],
      [
        "Ġag",
        "o"
      ],
      [
        "Ġw",
        "ild"
      ],
      [
        "Ġcare",
        "er"
      ],
      [
        "Ġsil",
        "ly"
      ],
      [
        "nd",
        "s"
      ],
      [
        "Ġm",
        "oney"
      ],
      [
        "Ġfascin",
        "ating"
      ],
      [
        "Ġwant",
        "s"
      ],
      [
        "Ġwith",
        "in"
      ],
      [
        "ĠChrist",
        "mas"
      ],
      [
        "Ġh",
        "ilar"
      ],
      [
        "Ġqu",
        "ick"
      ],
      [
        "Ġsound",
        "track"
      ],
      [
        "Ġb",
        "us"
      ],
      [
        "Ġbr",
        "other"
      ],
      [
        "Ġb",
        "ar"
      ],
      [
        "R",
        "E"
      ],
      [
        "Ġhour",
        "s"
      ],
      [
        "Ġw",
        "ays"
      ],
      [
        "Ġg",
        "ame"
      ],
      [
        "ich",
        "ael"
      ],
      [
        "Ġfin",
        "ally"
      ],
      [
        "Ġwr",
        "itten"
      ],
      [
        "Ġwork",
        "ing"
      ],
      [
        "am",
        "ed"
      ],
      [
        "app",
        "oint"
      ],
      [
        "Ġf",
        "ig"
      ],
      [
        "Ġpre",
        "d"
      ],
      [
        "ag",
        "on"
      ],
      [
        "ĠJ",
        "ust"
      ],
      [
        "Ġtw",
        "ist"
      ],
      [
        "Ġcertain",
        "ly"
      ],
      [
        "re",
        "ad"
      ],
      [
        "Ġst",
        "re"
      ],
      [
        "A",
        "A"
      ],
      [
        "Ġcont",
        "in"
      ],
      [
        "h",
        "ood"
      ],
      [
        "ĠA",
        "m"
      ],
      [
        "Ġg",
        "e"
      ],
      [
        "Ġprem",
        "ise"
      ],
      [
        "ar",
        "ies"
      ],
      [
        "vel",
        "op"
      ],
      [
        "ur",
        "d"
      ],
      [
        "im",
        "p"
      ],
      [
        "Ġb",
        "unch"
      ],
      [
        "B",
        "e"
      ],
      [
        "Ġwonder",
        "ful"
      ],
      [
        "a",
        "a"
      ],
      [
        "C",
        "h"
      ],
      [
        "ĠO",
        "n"
      ],
      [
        "Ġat",
        "mosp"
      ],
      [
        "out",
        "h"
      ],
      [
        "Ġgreat",
        "est"
      ],
      [
        "nd",
        "om"
      ],
      [
        "Ġchar",
        "ming"
      ],
      [
        "ay",
        "be"
      ],
      [
        "W",
        "hen"
      ],
      [
        "Ġch",
        "ang"
      ],
      [
        "Ġex",
        "am"
      ],
      [
        "Ġ-",
        "-"
      ],
      [
        "Ġsl",
        "ight"
      ],
      [
        "o",
        "ved"
      ],
      [
        "Ġdel",
        "i"
      ],
      [
        "Ġmel",
        "odram"
      ],
      [
        "Ġche",
        "ck"
      ],
      [
        "ĠM",
        "c"
      ],
      [
        "cc",
        "ess"
      ],
      [
        "V",
        "ery"
      ],
      [
        "Ġf",
        "ree"
      ],
      [
        "Ġm",
        "ater"
      ],
      [
        "Ġsh",
        "oot"
      ],
      [
        "ĠD",
        "on"
      ],
      [
        "Ġl",
        "ar"
      ],
      [
        "ĠA",
        "N"
      ],
      [
        "Ġcon",
        "ne"
      ],
      [
        "Ġr",
        "id"
      ],
      [
        "Ġc",
        "ap"
      ],
      [
        "ur",
        "y"
      ],
      [
        "Ġpro",
        "ject"
      ],
      [
        "Ġb",
        "le"
      ],
      [
        "el",
        "ess"
      ],
      [
        "u",
        "z"
      ],
      [
        "is",
        "ed"
      ],
      [
        "i",
        "od"
      ],
      [
        "Ġb",
        "ody"
      ],
      [
        "ur",
        "t"
      ],
      [
        "g",
        "ic"
      ],
      [
        "C",
        "K"
      ],
      [
        "Ġst",
        "upid"
      ],
      [
        "Ġstart",
        "s"
      ],
      [
        "Ġincred",
        "ible"
      ],
      [
        "u",
        "h"
      ],
      [
        "augh",
        "ter"
      ],
      [
        "ard",
        "s"
      ],
      [
        "in",
        "ation"
      ],
      [
        "is",
        "ter"
      ],
      [
        "Ġg",
        "ave"
      ],
      [
        "av",
        "ing"
      ],
      [
        "Ġlo",
        "s"
      ],
      [
        "Ġs",
        "us"
      ],
      [
        "is",
        "ing"
      ],
      [
        "Ġmov",
        "ing"
      ],
      [
        "W",
        "e"
      ],
      [
        "Ġother",
        "s"
      ],
      [
        "at",
        "ural"
      ],
      [
        "ĠE",
        "ng"
      ],
      [
        "Ġad",
        "m"
      ],
      [
        "Ġso",
        "cial"
      ],
      [
        "Ġhapp",
        "ens"
      ],
      [
        "Ġp",
        "ick"
      ],
      [
        "S",
        "h"
      ],
      [
        "Ġcont",
        "r"
      ],
      [
        "y",
        "s"
      ],
      [
        "Ġv",
        "ar"
      ],
      [
        "f",
        "ying"
      ],
      [
        "i",
        "ally"
      ],
      [
        "Ġb",
        "i"
      ],
      [
        "Ġtou",
        "ch"
      ],
      [
        "Ġc",
        "at"
      ],
      [
        "S",
        "ome"
      ],
      [
        "a",
        "ul"
      ],
      [
        "an",
        "ch"
      ],
      [
        "ir",
        "c"
      ],
      [
        "Ġpro",
        "v"
      ],
      [
        "Ġparticul",
        "arly"
      ],
      [
        "ill",
        "ed"
      ],
      [
        "ous",
        "ly"
      ],
      [
        "Ġst",
        "ri"
      ],
      [
        "Ġmater",
        "ial"
      ],
      [
        "Ġmyst",
        "ery"
      ],
      [
        "c",
        "on"
      ],
      [
        "Ġf",
        "our"
      ],
      [
        "Ġfut",
        "ure"
      ],
      [
        "Ġd",
        "a"
      ],
      [
        "Ġsim",
        "p"
      ],
      [
        "Ġneed",
        "s"
      ],
      [
        "u",
        "ra"
      ],
      [
        "Ġp",
        "ri"
      ],
      [
        "u",
        "ct"
      ],
      [
        "ĠC",
        "an"
      ],
      [
        "eng",
        "th"
      ],
      [
        "Ġhor",
        "ri"
      ],
      [
        "Ġs",
        "ent"
      ],
      [
        "h",
        "h"
      ],
      [
        "llll",
        "llll"
      ],
      [
        "nd",
        "ed"
      ],
      [
        "Ġrom",
        "ance"
      ],
      [
        "w",
        "ise"
      ],
      [
        "Ġdis",
        "appoint"
      ],
      [
        "Ġph",
        "ot"
      ],
      [
        "g",
        "an"
      ],
      [
        "Ġra",
        "ndom"
      ],
      [
        "Ġhe",
        "ard"
      ],
      [
        "Ġte",
        "en"
      ],
      [
        "Ġn",
        "ature"
      ],
      [
        "Ġdes",
        "c"
      ],
      [
        "Ġg",
        "ang"
      ],
      [
        "t",
        "a"
      ],
      [
        "ĠL",
        "et"
      ],
      [
        "Ġhe",
        "av"
      ],
      [
        "Ġs",
        "uck"
      ],
      [
        "er",
        "o"
      ],
      [
        "Ġdirect",
        "ion"
      ],
      [
        "Ġsp",
        "ace"
      ],
      [
        "m",
        "b"
      ],
      [
        "g",
        "o"
      ],
      [
        "Ġd",
        "ad"
      ],
      [
        "Ġt",
        "ype"
      ],
      [
        "it",
        "ation"
      ],
      [
        "fr",
        "iend"
      ],
      [
        "Ġ",
        "id"
      ],
      [
        "Ġgra",
        "nd"
      ],
      [
        "Ġwor",
        "se"
      ],
      [
        "Ġexpect",
        "ed"
      ],
      [
        "Ġbr",
        "ing"
      ],
      [
        "H",
        "e"
      ],
      [
        "em",
        "ent"
      ],
      [
        "Ġt",
        "aking"
      ],
      [
        "Ġpict",
        "ure"
      ],
      [
        "Ġj",
        "our"
      ],
      [
        "Ġneed",
        "ed"
      ],
      [
        "Ġsong",
        "s"
      ],
      [
        "Ġsp",
        "ir"
      ],
      [
        "Ġlook",
        "ed"
      ],
      [
        "Ġes",
        "c"
      ],
      [
        "ub",
        "l"
      ],
      [
        "Ġse",
        "c"
      ],
      [
        "u",
        "ge"
      ],
      [
        "Ġincred",
        "ibly"
      ],
      [
        "Ġsupp",
        "ort"
      ],
      [
        "Ġ",
        "ult"
      ],
      [
        "or",
        "able"
      ],
      [
        "p",
        "iece"
      ],
      [
        "Ġd",
        "amn"
      ],
      [
        "Ġa",
        "ut"
      ],
      [
        "art",
        "h"
      ],
      [
        "av",
        "es"
      ],
      [
        "Ġ",
        "ver"
      ],
      [
        "v",
        "iously"
      ],
      [
        "Ġ",
        "ess"
      ],
      [
        "ĠP",
        "r"
      ],
      [
        "Ġhonest",
        "ly"
      ],
      [
        "Ġ3",
        "0"
      ],
      [
        "or",
        "ld"
      ],
      [
        "g",
        "u"
      ],
      [
        "Ġbas",
        "ically"
      ],
      [
        "ĠW",
        "ar"
      ],
      [
        "Ġcre",
        "ep"
      ],
      [
        "Ġh",
        "op"
      ],
      [
        "itt",
        "y"
      ],
      [
        "ak",
        "en"
      ],
      [
        "Ġper",
        "iod"
      ],
      [
        "Ġro",
        "ck"
      ],
      [
        "j",
        "a"
      ],
      [
        "Ġb",
        "are"
      ],
      [
        "T",
        "hat"
      ],
      [
        "e",
        "le"
      ],
      [
        "Ġext",
        "remely"
      ],
      [
        "Ġcult",
        "ure"
      ],
      [
        "Ġu",
        "nd"
      ],
      [
        "Ġt",
        "reat"
      ],
      [
        "Ġthink",
        "ing"
      ],
      [
        "Ġthem",
        "selves"
      ],
      [
        "b",
        "b"
      ],
      [
        "t",
        "on"
      ],
      [
        "Ġche",
        "ap"
      ],
      [
        "Ġknow",
        "n"
      ],
      [
        "Ġs",
        "ign"
      ],
      [
        "Ġam",
        "b"
      ],
      [
        "Ġsu",
        "ccess"
      ],
      [
        "he",
        "ad"
      ],
      [
        "Ġun",
        "s"
      ],
      [
        "ĠK",
        "e"
      ],
      [
        "l",
        "u"
      ],
      [
        "ar",
        "ry"
      ],
      [
        "Ġhist",
        "or"
      ],
      [
        "Ġfor",
        "get"
      ],
      [
        "pl",
        "ic"
      ],
      [
        "u",
        "el"
      ],
      [
        "Ġtal",
        "ent"
      ],
      [
        "Ġimag",
        "es"
      ],
      [
        "ver",
        "se"
      ],
      [
        "ĠE",
        "d"
      ],
      [
        "W",
        "atched"
      ],
      [
        "Ġch",
        "ange"
      ],
      [
        "ĠM",
        "e"
      ],
      [
        "Ġanim",
        "ated"
      ],
      [
        "Ġle",
        "g"
      ],
      [
        "Ġsimp",
        "ly"
      ],
      [
        "Ġop",
        "ening"
      ],
      [
        "Ġs",
        "ays"
      ],
      [
        "Ġl",
        "ang"
      ],
      [
        "ul",
        "ly"
      ],
      [
        "re",
        "aking"
      ],
      [
        "ĠT",
        "r"
      ],
      [
        "Ġdet",
        "ail"
      ],
      [
        "ili",
        "ar"
      ],
      [
        "ĠH",
        "ollywood"
      ],
      [
        "ĠF",
        "rench"
      ],
      [
        "Ġviol",
        "ence"
      ],
      [
        "Ġre",
        "leas"
      ],
      [
        "pp",
        "ing"
      ],
      [
        "Ġun",
        "f"
      ],
      [
        "Ġg",
        "iving"
      ],
      [
        "le",
        "ct"
      ],
      [
        "Ġon",
        "es"
      ],
      [
        "Ġc",
        "ity"
      ],
      [
        "Ġkill",
        "er"
      ],
      [
        "Ġtri",
        "es"
      ],
      [
        "het",
        "ic"
      ],
      [
        "Ġm",
        "id"
      ],
      [
        "Ġbeg",
        "inning"
      ],
      [
        "ac",
        "ing"
      ],
      [
        "I",
        "T"
      ],
      [
        "Ġam",
        "ount"
      ],
      [
        "Ġfav",
        "our"
      ],
      [
        "iel",
        "d"
      ],
      [
        "re",
        "nt"
      ],
      [
        "ĠG",
        "e"
      ],
      [
        "Ġexc",
        "ellent"
      ],
      [
        "Ġpro",
        "g"
      ],
      [
        "Ġs",
        "ens"
      ],
      [
        "Ġal",
        "one"
      ],
      [
        "Ġins",
        "ane"
      ],
      [
        "Ġ",
        "ill"
      ],
      [
        "Ġapp",
        "ro"
      ],
      [
        "he",
        "l"
      ],
      [
        "ĠE",
        "very"
      ],
      [
        "O",
        "T"
      ],
      [
        "Ġm",
        "ad"
      ],
      [
        "Ġme",
        "ans"
      ],
      [
        "Ġsil",
        "ent"
      ],
      [
        "as",
        "ed"
      ],
      [
        "ant",
        "s"
      ],
      [
        "Ġm",
        "ark"
      ],
      [
        "Ġp",
        "ure"
      ],
      [
        "Ġeas",
        "y"
      ],
      [
        "r",
        "up"
      ],
      [
        "Ġl",
        "es"
      ],
      [
        "m",
        "m"
      ],
      [
        "Ġcle",
        "arly"
      ],
      [
        "Ġsay",
        "ing"
      ],
      [
        "ri",
        "es"
      ],
      [
        "N",
        "o"
      ],
      [
        "ĠG",
        "erman"
      ],
      [
        "Ġimpress",
        "ive"
      ],
      [
        "Ġd",
        "ull"
      ],
      [
        "Ġsome",
        "how"
      ],
      [
        "Ġturn",
        "ed"
      ],
      [
        "Ġquest",
        "ion"
      ],
      [
        "Ġen",
        "er"
      ],
      [
        "ver",
        "age"
      ],
      [
        "Ġgirl",
        "s"
      ],
      [
        "l",
        "a"
      ],
      [
        "Ġhilar",
        "ious"
      ],
      [
        "Ġe",
        "ye"
      ],
      [
        "Ġev",
        "ent"
      ],
      [
        "Ġt",
        "yp"
      ],
      [
        "b",
        "and"
      ],
      [
        "Ġd",
        "est"
      ],
      [
        "Ġb",
        "aby"
      ],
      [
        "Ġcam",
        "p"
      ],
      [
        "ent",
        "y"
      ],
      [
        "Ġj",
        "okes"
      ],
      [
        "Ġpolit",
        "ical"
      ],
      [
        "Ġdis",
        "co"
      ],
      [
        "Ġs",
        "uff"
      ],
      [
        "Ġann",
        "oy"
      ],
      [
        "an",
        "ces"
      ],
      [
        "y",
        "ond"
      ],
      [
        "Ġm",
        "il"
      ],
      [
        "ĠA",
        "d"
      ],
      [
        "F",
        "or"
      ],
      [
        "Ġset",
        "ting"
      ],
      [
        "f",
        "ic"
      ],
      [
        "p",
        "or"
      ],
      [
        "....",
        "...."
      ],
      [
        "Ġlong",
        "er"
      ],
      [
        "Ġp",
        "ull"
      ],
      [
        "erest",
        "ing"
      ],
      [
        "Ġde",
        "velop"
      ],
      [
        "in",
        "i"
      ],
      [
        "Ġst",
        "ay"
      ],
      [
        "Ġport",
        "ray"
      ],
      [
        "Ġco",
        "st"
      ],
      [
        "Ġp",
        "arent"
      ],
      [
        "Ġinv",
        "est"
      ],
      [
        "Ġatt",
        "ention"
      ],
      [
        "?",
        "!"
      ],
      [
        "Ġhe",
        "ar"
      ],
      [
        "Ġres",
        "pect"
      ],
      [
        "Ġim",
        "m"
      ],
      [
        "Ġg",
        "un"
      ],
      [
        "Ġrom",
        "antic"
      ],
      [
        "ĠS",
        "te"
      ],
      [
        "ar",
        "b"
      ],
      [
        "an",
        "na"
      ],
      [
        "Ġto",
        "wards"
      ],
      [
        "Ġpo",
        "ster"
      ],
      [
        "Ġd",
        "ig"
      ],
      [
        "Ġg",
        "host"
      ],
      [
        "l",
        "o"
      ],
      [
        "ĠJ",
        "ack"
      ],
      [
        "Ġsur",
        "v"
      ],
      [
        "Ġreal",
        "ity"
      ],
      [
        "as",
        "ter"
      ],
      [
        "im",
        "ate"
      ],
      [
        "iz",
        "ing"
      ],
      [
        "Ġg",
        "ag"
      ],
      [
        "ĠP",
        "e"
      ],
      [
        "Ġsoci",
        "ety"
      ],
      [
        "ar",
        "re"
      ],
      [
        "Ġpower",
        "ful"
      ],
      [
        "Ġword",
        "s"
      ],
      [
        "r",
        "is"
      ],
      [
        "Ġn",
        "g"
      ],
      [
        "c",
        "ent"
      ],
      [
        "ĠRob",
        "ert"
      ],
      [
        "ens",
        "ion"
      ],
      [
        "Ġp",
        "os"
      ],
      [
        "ad",
        "es"
      ],
      [
        "Ġrun",
        "ning"
      ],
      [
        "au",
        "ght"
      ],
      [
        "Ġf",
        "a"
      ],
      [
        "A",
        "L"
      ],
      [
        "Ġexper",
        "iment"
      ],
      [
        "l",
        "in"
      ],
      [
        "Ġret",
        "urn"
      ],
      [
        "k",
        "an"
      ],
      [
        "Ġcol",
        "or"
      ],
      [
        "illi",
        "am"
      ],
      [
        "Ġfant",
        "astic"
      ],
      [
        "es",
        "ome"
      ],
      [
        "Ġra",
        "re"
      ],
      [
        "Ġfilmm",
        "aking"
      ],
      [
        "b",
        "ack"
      ],
      [
        "ĠN",
        "e"
      ],
      [
        "J",
        "ust"
      ],
      [
        "Ġso",
        "on"
      ],
      [
        "Ġd",
        "ue"
      ],
      [
        "Ġus",
        "ual"
      ],
      [
        "Ġ",
        "ut"
      ],
      [
        "Ġposs",
        "ible"
      ],
      [
        "Ġj",
        "e"
      ],
      [
        "er",
        "v"
      ],
      [
        "Ġm",
        "aj"
      ],
      [
        "ir",
        "t"
      ],
      [
        "orge",
        "ous"
      ],
      [
        "Ġwork",
        "ed"
      ],
      [
        "Ġres",
        "ult"
      ],
      [
        "ĠHow",
        "ever"
      ],
      [
        "ĠG",
        "reat"
      ],
      [
        "Ġinvol",
        "ved"
      ],
      [
        "ion",
        "ally"
      ],
      [
        "Ġlead",
        "s"
      ],
      [
        "im",
        "ately"
      ],
      [
        "Ġback",
        "ground"
      ],
      [
        "Ġaw",
        "ful"
      ],
      [
        "Ġop",
        "en"
      ],
      [
        "T",
        "ube"
      ],
      [
        "ip",
        "s"
      ],
      [
        "Ġas",
        "pect"
      ],
      [
        "ĠO",
        "r"
      ],
      [
        "oo",
        "se"
      ],
      [
        "ĠD",
        "avid"
      ],
      [
        "Ġev",
        "il"
      ],
      [
        "ĠV",
        "ery"
      ],
      [
        "as",
        "y"
      ],
      [
        "ĠW",
        "ith"
      ],
      [
        "Ġbr",
        "illi"
      ],
      [
        "ĠL",
        "ove"
      ],
      [
        "Ġem",
        "p"
      ],
      [
        "et",
        "er"
      ],
      [
        "ill",
        "s"
      ],
      [
        "Ġatmosp",
        "here"
      ],
      [
        "Ġwould",
        "n"
      ],
      [
        "us",
        "band"
      ],
      [
        "Ġra",
        "c"
      ],
      [
        "Ġf",
        "ans"
      ],
      [
        "um",
        "ber"
      ],
      [
        "Ġele",
        "ments"
      ],
      [
        "Ġproble",
        "m"
      ],
      [
        "Ġ7",
        "0"
      ],
      [
        "Ġsome",
        "what"
      ],
      [
        "Ġin",
        "form"
      ],
      [
        "Ġse",
        "ver"
      ],
      [
        "Ġcom",
        "b"
      ],
      [
        "Ġsim",
        "ilar"
      ],
      [
        "op",
        "h"
      ],
      [
        "Ġthe",
        "at"
      ],
      [
        "Ġfilmmak",
        "er"
      ],
      [
        "Ġsit",
        "u"
      ],
      [
        "Ġre",
        "d"
      ],
      [
        "Ġsex",
        "ual"
      ],
      [
        "Ġsupp",
        "osed"
      ],
      [
        "Ġcle",
        "ar"
      ],
      [
        "Ġcart",
        "oon"
      ],
      [
        "W",
        "hy"
      ],
      [
        "Ġf",
        "ive"
      ],
      [
        "Ġfeature",
        "s"
      ],
      [
        "i",
        "est"
      ],
      [
        "Ġno",
        "vel"
      ],
      [
        "Ġb",
        "er"
      ],
      [
        "Ġlove",
        "ly"
      ],
      [
        "Ġext",
        "ra"
      ],
      [
        "Ġfair",
        "ly"
      ],
      [
        "oo",
        "p"
      ],
      [
        "un",
        "ny"
      ],
      [
        "ate",
        "ver"
      ],
      [
        "Ġcr",
        "it"
      ],
      [
        "Ġtot",
        "ally"
      ],
      [
        "i",
        "or"
      ],
      [
        "Ġcinem",
        "atic"
      ],
      [
        "ĠJ",
        "ames"
      ],
      [
        "Ġte",
        "am"
      ],
      [
        "!!!!",
        "!!!!"
      ],
      [
        "Ġad",
        "vent"
      ],
      [
        "Ġide",
        "as"
      ],
      [
        "Ġint",
        "rig"
      ],
      [
        "h",
        "ic"
      ],
      [
        "Ġd",
        "aughter"
      ],
      [
        "\"",
        ","
      ],
      [
        "Ġy",
        "es"
      ],
      [
        "Ġem",
        "b"
      ],
      [
        "Ġth",
        "ird"
      ],
      [
        "Ġfam",
        "iliar"
      ],
      [
        "ĠW",
        "ell"
      ],
      [
        "ĠJapan",
        "ese"
      ],
      [
        "Ġl",
        "im"
      ],
      [
        "Ġprot",
        "agon"
      ],
      [
        "Ġgl",
        "ad"
      ],
      [
        "Ġadapt",
        "ation"
      ],
      [
        "ac",
        "y"
      ],
      [
        "An",
        "other"
      ],
      [
        "Ġe",
        "qu"
      ],
      [
        "Ġt",
        "one"
      ],
      [
        "Ġsever",
        "al"
      ],
      [
        "te",
        "xt"
      ],
      [
        "A",
        "nd"
      ],
      [
        "Ġdec",
        "ided"
      ],
      [
        "g",
        "a"
      ],
      [
        "re",
        "st"
      ],
      [
        "g",
        "es"
      ],
      [
        "Ġhand",
        "s"
      ],
      [
        "Ġmaster",
        "piece"
      ],
      [
        "Ġend",
        "ed"
      ],
      [
        "ress",
        "ion"
      ],
      [
        "Ġpol",
        "ice"
      ],
      [
        "il",
        "le"
      ],
      [
        "Ġok",
        "ay"
      ],
      [
        "Ġst",
        "arring"
      ],
      [
        "ĠD",
        "an"
      ],
      [
        "Ġforg",
        "ot"
      ],
      [
        "Ġgenuine",
        "ly"
      ],
      [
        "Ġe",
        "ar"
      ],
      [
        "s",
        "w"
      ],
      [
        "Ġd",
        "ance"
      ],
      [
        "Ġe",
        "t"
      ],
      [
        "Ġmess",
        "age"
      ],
      [
        "Ġte",
        "le"
      ],
      [
        "Ġs",
        "um"
      ],
      [
        "ĠSt",
        "ill"
      ],
      [
        "Ġp",
        "ay"
      ],
      [
        "Ġsurpris",
        "ingly"
      ],
      [
        "m",
        "ark"
      ],
      [
        "ut",
        "ed"
      ],
      [
        "in",
        "ing"
      ],
      [
        "ĠT",
        "om"
      ],
      [
        "Ġreleas",
        "ed"
      ],
      [
        "ĠT",
        "o"
      ],
      [
        "H",
        "ow"
      ],
      [
        "Ġsound",
        "s"
      ],
      [
        "Ġwat",
        "er"
      ],
      [
        "Ġfem",
        "ale"
      ],
      [
        "W",
        "ell"
      ],
      [
        "Ġwho",
        "se"
      ],
      [
        "Ġact",
        "ress"
      ],
      [
        "Ġsequ",
        "el"
      ],
      [
        "ar",
        "m"
      ],
      [
        "un",
        "ning"
      ],
      [
        "on",
        "ic"
      ],
      [
        "Ġrec",
        "ord"
      ],
      [
        "Ġp",
        "lease"
      ],
      [
        "Ġh",
        "usband"
      ],
      [
        "ĠYou",
        "Tube"
      ],
      [
        "Ġexpect",
        "ing"
      ],
      [
        "Ġfavour",
        "ite"
      ],
      [
        "ĠM",
        "ichael"
      ],
      [
        "O",
        "M"
      ],
      [
        "Ġiss",
        "ues"
      ],
      [
        "Ġm",
        "ult"
      ],
      [
        "Ġap",
        "art"
      ],
      [
        "??",
        "?"
      ],
      [
        "Ġf",
        "ell"
      ],
      [
        "res",
        "ent"
      ],
      [
        "w",
        "o"
      ],
      [
        "Ġr",
        "ich"
      ],
      [
        "st",
        "al"
      ],
      [
        "Ġg",
        "em"
      ],
      [
        "Ġde",
        "but"
      ],
      [
        "Ġre",
        "ve"
      ],
      [
        "ge",
        "nd"
      ],
      [
        "Ġf",
        "ire"
      ],
      [
        "Ġeng",
        "aging"
      ],
      [
        "o",
        "ver"
      ],
      [
        "o",
        "or"
      ],
      [
        "Ġc",
        "irc"
      ],
      [
        "Ġloc",
        "al"
      ],
      [
        "ist",
        "ry"
      ],
      [
        "ill",
        "ing"
      ],
      [
        "Ġspe",
        "c"
      ],
      [
        "Ġshow",
        "ing"
      ],
      [
        "ĠL",
        "ike"
      ],
      [
        "um",
        "a"
      ],
      [
        "ubl",
        "ic"
      ],
      [
        "il",
        "t"
      ],
      [
        "D",
        "e"
      ],
      [
        "ĠE",
        "ven"
      ],
      [
        "Ġ20",
        "0"
      ],
      [
        "ick",
        "s"
      ],
      [
        "Ġspe",
        "ak"
      ],
      [
        "Ġ",
        "."
      ],
      [
        "r",
        "it"
      ],
      [
        "Ġm",
        "ent"
      ],
      [
        "hy",
        "s"
      ],
      [
        "Ġd",
        "umb"
      ],
      [
        "Ġst",
        "age"
      ],
      [
        "Ġal",
        "though"
      ],
      [
        "m",
        "ore"
      ],
      [
        "s",
        "p"
      ],
      [
        "ct",
        "or"
      ],
      [
        "Ġhow",
        "ever"
      ],
      [
        "Ġus",
        "ing"
      ],
      [
        "Ġa",
        "k"
      ],
      [
        "Ġmed",
        "i"
      ],
      [
        "et",
        "h"
      ],
      [
        "Ġt",
        "on"
      ],
      [
        "Ġw",
        "in"
      ],
      [
        "O",
        "W"
      ],
      [
        "Ġk",
        "n"
      ],
      [
        "arent",
        "ly"
      ],
      [
        "Ġtr",
        "ad"
      ],
      [
        "ress",
        "ed"
      ],
      [
        "Ġp",
        "orn"
      ],
      [
        "ĠH",
        "all"
      ],
      [
        "er",
        "n"
      ],
      [
        "us",
        "ion"
      ],
      [
        "ĠW",
        "hen"
      ],
      [
        "Ġimag",
        "ine"
      ],
      [
        "Ġentire",
        "ly"
      ],
      [
        "ĠD",
        "is"
      ],
      [
        "ĠE",
        "x"
      ],
      [
        "up",
        "p"
      ],
      [
        "g",
        "ing"
      ],
      [
        "Ġmaj",
        "or"
      ],
      [
        "E",
        "E"
      ],
      [
        "Ġr",
        "ad"
      ],
      [
        "ĠJ",
        "e"
      ],
      [
        "ĠG",
        "ood"
      ],
      [
        "o",
        "id"
      ],
      [
        "Ġfr",
        "ont"
      ],
      [
        "Ġbe",
        "yond"
      ],
      [
        "ĠP",
        "er"
      ],
      [
        "ic",
        "ult"
      ],
      [
        "ven",
        "ge"
      ],
      [
        "Ġener",
        "gy"
      ],
      [
        "Ġr",
        "u"
      ],
      [
        "Ġup",
        "on"
      ],
      [
        "Ġke",
        "pt"
      ],
      [
        "Ġpl",
        "an"
      ],
      [
        "Ġeffect",
        "ive"
      ],
      [
        "V",
        "D"
      ],
      [
        "c",
        "le"
      ],
      [
        "th",
        "at"
      ],
      [
        "Ġl",
        "ength"
      ],
      [
        "ĠEng",
        "lish"
      ],
      [
        "Ġpot",
        "ential"
      ],
      [
        "Ġb",
        "ox"
      ],
      [
        "Ġme",
        "et"
      ],
      [
        "u",
        "ing"
      ],
      [
        "Ġfilm",
        "ed"
      ],
      [
        "Ġser",
        "ious"
      ],
      [
        "Ġappreci",
        "ate"
      ],
      [
        "Ġdel",
        "ight"
      ],
      [
        "Ġind",
        "e"
      ],
      [
        "Ġsh",
        "ock"
      ],
      [
        "al",
        "a"
      ],
      [
        "ak",
        "ed"
      ],
      [
        "r",
        "ow"
      ],
      [
        "Ġsle",
        "ep"
      ],
      [
        "S",
        "T"
      ],
      [
        "pect",
        "ive"
      ],
      [
        "atch",
        "ing"
      ],
      [
        "Ġ19",
        "7"
      ],
      [
        "Ġde",
        "al"
      ],
      [
        "Ġpoint",
        "s"
      ],
      [
        "Ġlar",
        "ge"
      ],
      [
        "Ġfind",
        "s"
      ],
      [
        "Ġs",
        "oul"
      ],
      [
        "Ġl",
        "ol"
      ],
      [
        "p",
        "ar"
      ],
      [
        "Ġor",
        "der"
      ],
      [
        "Ġind",
        "ust"
      ],
      [
        "Ġt",
        "re"
      ],
      [
        "aut",
        "y"
      ],
      [
        "ĠC",
        "on"
      ],
      [
        "Ġam",
        "ong"
      ],
      [
        "ĠWh",
        "ile"
      ],
      [
        "I",
        "L"
      ],
      [
        "al",
        "th"
      ],
      [
        "st",
        "em"
      ],
      [
        "an",
        "c"
      ],
      [
        "Ġp",
        "un"
      ],
      [
        "P",
        "retty"
      ],
      [
        "ul",
        "a"
      ],
      [
        "Ġre",
        "lease"
      ],
      [
        "b",
        "o"
      ],
      [
        "w",
        "ar"
      ],
      [
        "Ġg",
        "orgeous"
      ],
      [
        "Ġtell",
        "ing"
      ],
      [
        "Ġin",
        "n"
      ],
      [
        "Ġvisual",
        "s"
      ],
      [
        "Ġj",
        "ump"
      ],
      [
        "ers",
        "on"
      ],
      [
        "Ġinsp",
        "ir"
      ],
      [
        "ĠAN",
        "D"
      ],
      [
        "Ġne",
        "ar"
      ],
      [
        "Ġ",
        "ic"
      ],
      [
        "C",
        "H"
      ],
      [
        "Ġinclud",
        "ing"
      ],
      [
        "Ġle",
        "ave"
      ],
      [
        "Re",
        "ally"
      ],
      [
        "Ġles",
        "b"
      ],
      [
        "Ġa",
        "f"
      ],
      [
        "Ġgr",
        "ound"
      ],
      [
        "ro",
        "s"
      ],
      [
        "Ġr",
        "ating"
      ],
      [
        "ou",
        "n"
      ],
      [
        "Ġmelodram",
        "a"
      ],
      [
        "k",
        "en"
      ],
      [
        "ĠR",
        "uss"
      ],
      [
        "A",
        "M"
      ],
      [
        "ĠI",
        "N"
      ],
      [
        "a",
        "f"
      ],
      [
        "Ġbra",
        "in"
      ],
      [
        "Ġh",
        "uge"
      ],
      [
        "g",
        "en"
      ],
      [
        "ag",
        "anda"
      ],
      [
        "Ġev",
        "ents"
      ],
      [
        "w",
        "as"
      ],
      [
        "Ġa",
        "est"
      ],
      [
        "Ġo",
        "per"
      ],
      [
        "ĠW",
        "illiam"
      ],
      [
        "Ġseem",
        "ed"
      ],
      [
        "ich",
        "ard"
      ],
      [
        "Ġf",
        "ully"
      ],
      [
        "ci",
        "ous"
      ],
      [
        "Ġb",
        "ag"
      ],
      [
        "Ġspir",
        "it"
      ],
      [
        "ĠS",
        "w"
      ],
      [
        "Ġro",
        "b"
      ],
      [
        "Ġappe",
        "ar"
      ],
      [
        "Ġper",
        "haps"
      ],
      [
        "Ġsurpris",
        "ed"
      ],
      [
        "Ġd",
        "ude"
      ],
      [
        "r",
        "om"
      ],
      [
        "Ġw",
        "ind"
      ],
      [
        "Ġparent",
        "s"
      ],
      [
        "it",
        "ions"
      ],
      [
        "um",
        "e"
      ],
      [
        "Ġpred",
        "ict"
      ],
      [
        "Ġa",
        "verage"
      ],
      [
        "Ġm",
        "ention"
      ],
      [
        "ĠE",
        "l"
      ],
      [
        "ĠLet",
        "terboxd"
      ],
      [
        "at",
        "a"
      ],
      [
        "ed",
        "y"
      ],
      [
        "Ġslight",
        "ly"
      ],
      [
        "Ġha",
        "ven"
      ],
      [
        "Ġcl",
        "os"
      ],
      [
        "Ġknow",
        "s"
      ],
      [
        "Ġjour",
        "ney"
      ],
      [
        "Ġne",
        "arly"
      ],
      [
        "Ġeas",
        "ily"
      ],
      [
        "vis",
        "ion"
      ],
      [
        "ĠH",
        "is"
      ],
      [
        "Ġfilmmak",
        "ers"
      ],
      [
        "k",
        "es"
      ],
      [
        "ire",
        "s"
      ],
      [
        "o",
        "ly"
      ],
      [
        "Ġt",
        "en"
      ],
      [
        "Ġ19",
        "8"
      ],
      [
        "Ġobs",
        "ess"
      ],
      [
        "Ġaw",
        "esome"
      ],
      [
        "in",
        "y"
      ],
      [
        "Ġpo",
        "et"
      ],
      [
        "Ġcomp",
        "elling"
      ],
      [
        "Ġchar",
        "m"
      ],
      [
        "Ġmean",
        "ing"
      ],
      [
        "il",
        "ly"
      ],
      [
        "ol",
        "id"
      ],
      [
        "Ġ1",
        "5"
      ],
      [
        "Ġche",
        "m"
      ],
      [
        "Ġexpl",
        "o"
      ],
      [
        "Ġstr",
        "uct"
      ],
      [
        "A",
        "D"
      ],
      [
        "Ġp",
        "en"
      ],
      [
        "Ġp",
        "a"
      ],
      [
        "Ġannoy",
        "ing"
      ],
      [
        "O",
        "h"
      ],
      [
        "Ġhigh",
        "light"
      ],
      [
        "Ġm",
        "er"
      ],
      [
        "Ġdocument",
        "aries"
      ],
      [
        "Ġdiff",
        "icult"
      ],
      [
        "med",
        "i"
      ],
      [
        "Ġbrilli",
        "ant"
      ],
      [
        "att",
        "le"
      ],
      [
        "Ġbare",
        "ly"
      ],
      [
        "Ġmon",
        "th"
      ],
      [
        "os",
        "h"
      ],
      [
        "ĠC",
        "om"
      ],
      [
        "Ġrid",
        "icul"
      ],
      [
        "Ġm",
        "ass"
      ],
      [
        "p",
        "ed"
      ],
      [
        "Ġ19",
        "9"
      ],
      [
        "Ġcon",
        "c"
      ],
      [
        "Ġcreep",
        "y"
      ],
      [
        "f",
        "er"
      ],
      [
        "Ġf",
        "ol"
      ],
      [
        "Ġcl",
        "im"
      ],
      [
        "r",
        "ated"
      ],
      [
        "ĠO",
        "F"
      ],
      [
        "Ġpr",
        "ison"
      ],
      [
        "Ġrun",
        "time"
      ],
      [
        "Ġsequ",
        "ence"
      ],
      [
        "m",
        "en"
      ],
      [
        "Ġwh",
        "atever"
      ],
      [
        "Ġ",
        "ident"
      ],
      [
        "Ġsa",
        "ve"
      ],
      [
        "y",
        "ou"
      ],
      [
        "Ġare",
        "n"
      ],
      [
        "Ġperfect",
        "ly"
      ],
      [
        "I",
        "D"
      ],
      [
        "ĠG",
        "u"
      ],
      [
        "E",
        "very"
      ],
      [
        "d",
        "y"
      ],
      [
        "ĠP",
        "h"
      ],
      [
        "k",
        "i"
      ],
      [
        "The",
        "y"
      ],
      [
        "Ġview",
        "ing"
      ],
      [
        "Ġwe",
        "ak"
      ],
      [
        "or",
        "ry"
      ],
      [
        "ir",
        "th"
      ],
      [
        "f",
        "i"
      ],
      [
        "Ġout",
        "side"
      ],
      [
        "Ġan",
        "ime"
      ],
      [
        "om",
        "en"
      ],
      [
        "Ġa",
        "ir"
      ],
      [
        "iv",
        "id"
      ],
      [
        "Ġcom",
        "ment"
      ],
      [
        "ct",
        "ed"
      ],
      [
        "Ġen",
        "c"
      ],
      [
        "Ġar",
        "ch"
      ],
      [
        "Ġother",
        "wise"
      ],
      [
        "l",
        "or"
      ],
      [
        "W",
        "h"
      ],
      [
        "Ġart",
        "ist"
      ],
      [
        "ĠC",
        "he"
      ],
      [
        "L",
        "E"
      ],
      [
        "e",
        "en"
      ],
      [
        "Ġt",
        "aken"
      ],
      [
        "ĠH",
        "er"
      ],
      [
        "ĠG",
        "r"
      ],
      [
        "ĠD",
        "VD"
      ],
      [
        "Ġint",
        "rodu"
      ],
      [
        "f",
        "ilm"
      ],
      [
        "Ġf",
        "ur"
      ],
      [
        "un",
        "ting"
      ],
      [
        "Ġbeautiful",
        "ly"
      ],
      [
        "Ġd",
        "er"
      ],
      [
        "Ġa",
        "ff"
      ],
      [
        "Ġj",
        "oy"
      ],
      [
        "Ġcan",
        "not"
      ],
      [
        "Ġtra",
        "ck"
      ],
      [
        "Ġtra",
        "vel"
      ],
      [
        "Ġinterest",
        "ed"
      ],
      [
        "Ġsy",
        "stem"
      ],
      [
        "Ġins",
        "ide"
      ],
      [
        "ac",
        "her"
      ],
      [
        "Ġb",
        "iz"
      ],
      [
        "ĠC",
        "ol"
      ],
      [
        "Ġlot",
        "s"
      ],
      [
        "Ġinter",
        "n"
      ],
      [
        "ĠBl",
        "ack"
      ],
      [
        "ĠW",
        "orld"
      ],
      [
        "Ġr",
        "oll"
      ],
      [
        "Ġdr",
        "ug"
      ],
      [
        "are",
        "s"
      ],
      [
        "im",
        "s"
      ],
      [
        "b",
        "ed"
      ],
      [
        "is",
        "hing"
      ],
      [
        "Ġb",
        "ur"
      ],
      [
        "Ġs",
        "i"
      ],
      [
        "Ġheav",
        "y"
      ],
      [
        "ction",
        "s"
      ],
      [
        "Ġyour",
        "self"
      ],
      [
        "Ġha",
        "ir"
      ],
      [
        "pe",
        "nd"
      ],
      [
        "ĠU",
        "S"
      ],
      [
        "Ġtr",
        "ou"
      ],
      [
        "Ġimp",
        "act"
      ],
      [
        "U",
        "n"
      ],
      [
        "Ġexper",
        "ien"
      ],
      [
        "G",
        "reat"
      ],
      [
        "og",
        "n"
      ],
      [
        "an",
        "ks"
      ],
      [
        "ĠP",
        "ro"
      ],
      [
        "Ġlang",
        "u"
      ],
      [
        "Ġfe",
        "at"
      ],
      [
        "in",
        "n"
      ],
      [
        "Ġinf",
        "lu"
      ],
      [
        "ĠL",
        "ee"
      ],
      [
        "Ġn",
        "orm"
      ],
      [
        "ĠQ",
        "u"
      ],
      [
        "Ġc",
        "oll"
      ],
      [
        "ra",
        "g"
      ],
      [
        "Ġb",
        "ang"
      ],
      [
        "Ġexpl",
        "ain"
      ],
      [
        "Ġear",
        "li"
      ],
      [
        "Ġchild",
        "hood"
      ],
      [
        "h",
        "or"
      ],
      [
        "oo",
        "oo"
      ],
      [
        "Ġmed",
        "ia"
      ],
      [
        "ort",
        "s"
      ],
      [
        "Ġno",
        "stal"
      ],
      [
        "O",
        "n"
      ],
      [
        "Ġf",
        "ast"
      ],
      [
        "Ġch",
        "ance"
      ],
      [
        "ĠM",
        "on"
      ],
      [
        "Ġpro",
        "cess"
      ],
      [
        "ad",
        "i"
      ],
      [
        "Ġcreat",
        "ive"
      ],
      [
        "Ġsec",
        "ret"
      ],
      [
        "Ġmult",
        "i"
      ],
      [
        "Ġkill",
        "ed"
      ],
      [
        "is",
        "es"
      ],
      [
        "Ġl",
        "aw"
      ],
      [
        "Ġbr",
        "ought"
      ],
      [
        "Ġprop",
        "aganda"
      ],
      [
        "Ġco",
        "ver"
      ],
      [
        "ĠI",
        "S"
      ],
      [
        "id",
        "er"
      ],
      [
        "Ġepisod",
        "es"
      ],
      [
        "Ġm",
        "ale"
      ],
      [
        "Ġbe",
        "auty"
      ],
      [
        "Ġt",
        "ap"
      ],
      [
        "Ġcommun",
        "ity"
      ],
      [
        "Ġh",
        "ang"
      ],
      [
        "sc",
        "ar"
      ],
      [
        "c",
        "her"
      ],
      [
        "up",
        "er"
      ],
      [
        "Ġinterview",
        "s"
      ],
      [
        "Ġl",
        "ady"
      ],
      [
        "Ġant",
        "i"
      ],
      [
        "Ġn",
        "umber"
      ],
      [
        "Ġset",
        "s"
      ],
      [
        "Ġp",
        "hys"
      ],
      [
        "U",
        "T"
      ],
      [
        "Ġkeep",
        "s"
      ],
      [
        "Ġabs",
        "urd"
      ],
      [
        "Ġse",
        "g"
      ],
      [
        "iz",
        "ation"
      ],
      [
        "ie",
        "ces"
      ],
      [
        "Ġtri",
        "p"
      ],
      [
        "Ġbr",
        "ut"
      ],
      [
        "Ġvib",
        "e"
      ],
      [
        "Ġcomple",
        "x"
      ],
      [
        "Ġbus",
        "iness"
      ],
      [
        "Ġv",
        "an"
      ],
      [
        "g",
        "est"
      ],
      [
        "i",
        "os"
      ],
      [
        "I",
        "I"
      ],
      [
        "b",
        "oy"
      ],
      [
        "Ġsequ",
        "ences"
      ],
      [
        "Ġt",
        "ast"
      ],
      [
        "inem",
        "a"
      ],
      [
        "Ġmiss",
        "ing"
      ],
      [
        "Ġappro",
        "ach"
      ],
      [
        "Ġim",
        "medi"
      ],
      [
        "Ġj",
        "oke"
      ],
      [
        "Ġprotagon",
        "ist"
      ],
      [
        "c",
        "ome"
      ],
      [
        "u",
        "it"
      ],
      [
        "Ġexam",
        "ple"
      ],
      [
        "b",
        "el"
      ],
      [
        "at",
        "o"
      ],
      [
        "Ġtell",
        "s"
      ],
      [
        "Ġco",
        "nd"
      ],
      [
        "Ġcon",
        "text"
      ],
      [
        "r",
        "al"
      ],
      [
        "ĠF",
        "e"
      ],
      [
        "ĠM",
        "or"
      ],
      [
        "Ġchem",
        "istry"
      ],
      [
        "ail",
        "able"
      ],
      [
        "Ġvar",
        "ious"
      ],
      [
        "Ġt",
        "v"
      ],
      [
        "Ġwr",
        "ite"
      ],
      [
        "A",
        "Y"
      ],
      [
        "am",
        "ent"
      ],
      [
        "Ġt",
        "ension"
      ],
      [
        "ab",
        "or"
      ],
      [
        "Ġtri",
        "ed"
      ],
      [
        "Ġrep",
        "resent"
      ],
      [
        "en",
        "ge"
      ],
      [
        "al",
        "y"
      ],
      [
        "i",
        "us"
      ],
      [
        "Ġcred",
        "its"
      ],
      [
        "omet",
        "imes"
      ],
      [
        "Ġdeep",
        "ly"
      ],
      [
        "ĠS",
        "m"
      ],
      [
        "Ġfall",
        "s"
      ],
      [
        "ĠS",
        "am"
      ],
      [
        "Ġmo",
        "od"
      ],
      [
        "Ġc",
        "ross"
      ],
      [
        "Ġw",
        "it"
      ],
      [
        "ĠM",
        "ovie"
      ],
      [
        "or",
        "ing"
      ],
      [
        "om",
        "an"
      ],
      [
        "ur",
        "s"
      ],
      [
        "al",
        "i"
      ],
      [
        "Ġb",
        "all"
      ]
    ]
  }
}