{
  "version": "1.0",
  "truncation": null,
  "padding": null,
  "added_tokens": [
    {
      "id": 0,
      "content": "<PAD>",
      "single_word": false,
      "lstrip": false,
      "rstrip": false,
      "normalized": false,
      "special": true
    },
    {
      "id": 1,
      "content": "<BOS>",
      "single_word": false,
      "lstrip": false,
      "rstrip": false,
      "normalized": false,
      "special": true
    },
    {
      "id": 2,
      "content": "<EOS>",
      "single_word": false,
      "lstrip": false,
      "rstrip": false,
      "normalized": false,
      "special": true
    },
    {
      "id": 3,
      "content": "<SYN>",
      "single_word": false,
      "lstrip": false,
      "rstrip": false,
      "normalized": false,
      "special": true
    },
    {
      "id": 4,
      "content": "<REV>",
      "single_word": false,
      "lstrip": false,
      "rstrip": false,
      "normalized": false,
      "special": true
    }
  ],
  "normalizer": null,
  "pre_tokenizer": {
    "type": "ByteLevel",
    "add_prefix_space": false,
    "trim_offsets": true,
    "use_regex": true
  },
  "post_processor": null,
  "decoder": {
    "type": "ByteLevel",
    "add_prefix_space": true,
    "trim_offsets": true,
    "use_regex": true
  },
  "model": {
    "type": "BPE",
    "dropout": null,
    "unk_token": null,
    "continuing_subword_prefix": null,
    "end_of_word_suffix": null,
    "fuse_unk": false,
    "byte_fallback": false,
    "ignore_merges": false,
    "vocab": {
      "<PAD>": 0,
      "<BOS>": 1,
      "<EOS>": 2,
      "<SYN>": 3,
      "<REV>": 4,
      "!": 5,
      "\"": 6,
      "#": 7,
      "$": 8,
      "%": 9,
      "&": 10,
      "'": 11,
      "(": 12,
      ")": 13,
      "*": 14,
      "+": 15,
      ",": 16,
      "-": 17,
      ".": 18,
      "/": 19,
      "0": 20,
      "1": 21,
      "2": 22,
      "3": 23,
      "4": 24,
      "5": 25,
      "6": 26,
      "7": 27,
      "8": 28,
      "9": 29,
      ":": 30,
      ";": 31,
      "<": 32,
      "=": 33,
      ">": 34,
      "?": 35,
      "@": 36,
      "A": 37,
      "B": 38,
      "C": 39,
      "D": 40,
      "E": 41,
      "F": 42,
      "G": 43,
      "H": 44,
      "I": 45,
      "J": 46,
      "K": 47,
      "L": 48,
      "M": 49,
      "N": 50,
      "O": 51,
      "P": 52,
      "Q": 53,
      "R": 54,
      "S": 55,
      "T": 56,
      "U": 57,
      "V": 58,
      "W": 59,
      "X": 60,
      "Y": 61,
      "Z": 62,
      "[": 63,
      "\\": 64,
      "]": 65,
      "^": 66,
      "_": 67,
      "`": 68,
      "a": 69,
      "b": 70,
      "c": 71,
      "d": 72,
      "e": 73,
      "f": 74,
      "g": 75,
      "h": 76,
      "i": 77,
      "j": 78,
      "k": 79,
      "l": 80,
      "m": 81,
      "n": 82,
      "o": 83,
      "p": 84,
      "q": 85,
      "r": 86,
      "s": 87,
      "t": 88,
      "u": 89,
      "v": 90,
      "w": 91,
      "x": 92,
      "y": 93,
      "z": 94,
      "{": 95,
      "|": 96,
      "}": 97,
      "~": 98,
      "¡": 99,
      "¢": 100,
      "£": 101,
      "¤": 102,
      "¥": 103,
      "¦": 104,
      "§": 105,
      "¨": 106,
      "©": 107,
      "ª": 108,
      "«": 109,
      "¬": 110,
      "®": 111,
      "¯": 112,
      "°": 113,
      "±": 114,
      "²": 115,
      "³": 116,
      "´": 117,
      "µ": 118,
      "¶": 119,
      "·": 120,
      "¸": 121,
      "¹": 122,
      "º": 123,
      "»": 124,
      "¼": 125,
      "½": 126,
      "¾": 127,
      "¿": 128,
      "Â": 129,
      "Ã": 130,
      "Ä": 131,
      "Å": 132,
      "Æ": 133,
      "Ç": 134,
      "È": 135,
      "É": 136,
      "Ê": 137,
      "Ë": 138,
      "Ì": 139,
      "Í": 140,
      "Î": 141,
      "Ï": 142,
      "Ð": 143,
      "Ñ": 144,
      "Ô": 145,
      "Õ": 146,
      "Ö": 147,
      "×": 148,
      "Ø": 149,
      "Ù": 150,
      "à": 151,
      "á": 152,
      "â": 153,
      "ã": 154,
      "ä": 155,
      "å": 156,
      "æ": 157,
      "ç": 158,
      "è": 159,
      "é": 160,
      "ê": 161,
      "ë": 162,
      "ì": 163,
      "í": 164,
      "ï": 165,
      "ð": 166,
      "Ċ": 167,
      "č": 168,
      "Ġ": 169,
      "Ģ": 170,
      "ģ": 171,
      "Ĥ": 172,
      "ĥ": 173,
      "Ħ": 174,
      "ħ": 175,
      "Ĩ": 176,
      "ĩ": 177,
      "Ī": 178,
      "ī": 179,
      "Ĭ": 180,
      "ĭ": 181,
      "Į": 182,
      "į": 183,
      "İ": 184,
      "ı": 185,
      "Ĳ": 186,
      "ĳ": 187,
      "Ĵ": 188,
      "ĵ": 189,
      "Ķ": 190,
      "ķ": 191,
      "ĸ": 192,
      "Ĺ": 193,
      "ĺ": 194,
      "Ļ": 195,
      "ļ": 196,
      "Ľ": 197,
      "ľ": 198,
      "Ŀ": 199,
      "ŀ": 200,
      "Ł": 201,
      "ł": 202,
      "Ń": 203,
      "Ġt": 204,
      "Ġa": 205,
      "he": 206,
      "in": 207,
      "Ġthe": 208,
      "er": 209,
      "Ġs": 210,
      "Ġo": 211,
      "re": 212,
      "is": 213,
      "nd": 214,
      "Ġw": 215,
      "Ġf": 216,
      "es": 217,
      "at": 218,
      "Ġb": 219,
      "ing": 220,
      "on": 221,
      "en": 222,
      "it": 223,
      "Ġc": 224,
      "or": 225,
      "Ġh": 226,
      "Ġm": 227,
      "an": 228,
      "ar": 229,
      "Ġto": 230,
      "Ġof": 231,
      "Ġand": 232,
      "al": 233,
      "Ġd": 234,
      "ed": 235,
      "Ġp": 236,
      "Ġin": 237,
      "ou": 238,
      "il": 239,
      "Ġl": 240,
      "om": 241,
      "ic": 242,
      "as": 243,
      "Ġth": 244,
      "el": 245,
      "ĠT": 246,
      "Ġhe": 247,
      "Ġg": 248,
      "Ġis": 249,
      "ent": 250,
      "ion": 251,
      "Ġe": 252,
      "et": 253,
      "ut": 254,
      "le": 255,
      "st": 256,
      "ĠA": 257,
      "Ġre": 258,
      "ly": 259,
      "ot": 260,
      "im": 261,
      "Ġn": 262,
      "ac": 263,
      "ve": 264,
      "ĠI": 265,
      "ow": 266,
      "ir": 267,
      "Ġon": 268,
      "Ġst": 269,
      "ol": 270,
      "RE": 271,
      "Ġ<": 272,
      "SY": 273,
      "REV": 274,
      "SYN": 275,
      "ec": 276,
      "ver": 277,
      "am": 278,
      "ith": 279,
      "ur": 280,
      "Ġhis": 281,
      "ri": 282,
      "'s": 283,
      "ĠS": 284,
      "un": 285,
      "Ġwith": 286,
      "gh": 287,
      "Ġwh": 288,
      "ter": 289,
      "ad": 290,
      "id": 291,
      "Ġfor": 292,
      "ĠThe": 293,
      "ay": 294,
      "Ġan": 295,
      "Ġbe": 296,
      "Ġit": 297,
      "ro": 298,
      "ĠM": 299,
      "Ġthat": 300,
      "ĠB": 301,
      "us": 302,
      "ĠC": 303,
      "her": 304,
      "ak": 305,
      "Ġher": 306,
      "Ġas": 307,
      "ul": 308,
      "if": 309,
      "ce": 310,
      "ra": 311,
      "ch": 312,
      "ĠH": 313,
      "ilm": 314,
      "ĠW": 315,
      "Ġmo": 316,
      "ill": 317,
      "Ġfilm": 318,
      "Ġy": 319,
      "ie": 320,
      "se": 321,
      "ge": 322,
      "rom": 323,
      "ts": 324,
      "ation": 325,
      "ĠD": 326,
      "em": 327,
      "and": 328,
      "Ġal": 329,
      "Ġby": 330,
      "est": 331,
      "um": 332,
      "Ġat": 333,
      "ers": 334,
      "oo": 335,
      "Ġex": 336,
      "oc": 337,
      "ld": 338,
      "Ġwho": 339,
      "Ġcom": 340,
      "Ġv": 341,
      "ĠP": 342,
      "Ġsh": 343,
      "ap": 344,
      "Ġch": 345,
      "ess": 346,
      "Ġthis": 347,
      "ear": 348,
      "ĠF": 349,
      "ct": 350,
      "ĠL": 351,
      "igh": 352,
      "Ġfrom": 353,
      "op": 354,
      "up": 355,
      "ĠJ": 356,
      "Ġbut": 357,
      "iv": 358,
      "Ġcon": 359,
      "res": 360,
      "ist": 361,
      "âĢ": 362,
      "Ġse": 363,
      "th": 364,
      "ive": 365,
      "ĠR": 366,
      "Ġtheir": 367,
      "Ġk": 368,
      "Ġun": 369,
      "rou": 370,
      "Ġyou": 371,
      "ies": 372,
      "Ġwas": 373,
      "ome": 374,
      "Ġab": 375,
      "ain": 376,
      "ind": 377,
      "ab": 378,
      "Ġde": 379,
      "Ġ\"": 380,
      "ous": 381,
      "Ġwor": 382,
      "Ġare": 383,
      "os": 384,
      "all": 385,
      "ĠG": 386,
      "hen": 387,
      "art": 388,
      "ant": 389,
      "Ġj": 390,
      "out": 391,
      "ĠN": 392,
      "ack": 393,
      "end": 394,
      "ig": 395,
      "ect": 396,
      "Ġint": 397,
      "ate": 398,
      "ally": 399,
      "ust": 400,
      "qu": 401,
      "ĠE": 402,
      "Ġr": 403,
      "ort": 404,
      "ity": 405,
      "Ġne": 406,
      "Ġhas": 407,
      "Ġthey": 408,
      "ell": 409,
      "ife": 410,
      "ag": 411,
      "ure": 412,
      "Ġpl": 413,
      "Ġshe": 414,
      "ave": 415,
      "ud": 416,
      "Ġhim": 417,
      "ight": 418,
      "Ġpro": 419,
      "Ġlo": 420,
      "ory": 421,
      "Ġtr": 422,
      "Ġman": 423,
      "Ġone": 424,
      "ong": 425,
      "ast": 426,
      "Ġout": 427,
      "ard": 428,
      "ik": 429,
      "ĠO": 430,
      "Ġnot": 431,
      "Ġsp": 432,
      "ĠTh": 433,
      "ĠK": 434,
      "Ġle": 435,
      "ary": 436,
      "Ġmov": 437,
      "Ġabout": 438,
      "Ġ1": 439,
      "ire": 440,
      "Ġ(": 441,
      "Ġexp": 442,
      "Ġup": 443,
      "av": 444,
      "ore": 445,
      "Ġinto": 446,
      "ood": 447,
      "âĢĻ": 448,
      "age": 449,
      "ime": 450,
      "ng": 451,
      "one": 452,
      "ip": 453,
      "Ġme": 454,
      "ide": 455,
      "are": 456,
      "Ġlife": 457,
      "very": 458,
      "ich": 459,
      "Ġdo": 460,
      "Ġdis": 461,
      "our": 462,
      "Ġen": 463,
      "Ġall": 464,
      "ake": 465,
      "ian": 466,
      "ep": 467,
      "Ġhave": 468,
      "Ġfe": 469,
      "oy": 470,
      "reat": 471,
      "uc": 472,
      "ang": 473,
      "Ġar": 474,
      "Ġits": 475,
      "ely": 476,
      "Ġsc": 477,
      "ff": 478,
      "Ġwhen": 479,
      "ry": 480,
      "Ġthem": 481,
      "fter": 482,
      "riend": 483,
      "Ġcl": 484,
      "Ġor": 485,
      "ks": 486,
      "ial": 487,
      "wn": 488,
      "other": 489,
      "own": 490,
      "ue": 491,
      "od": 492,
      "ĠIn": 493,
      "Ġso": 494,
      "ike": 495,
      "Ġim": 496,
      "ĠIt": 497,
      "ious": 498,
      "Ġget": 499,
      "ĠCh": 500,
      "ence": 501,
      "ment": 502,
      "Ġmy": 503,
      "Ġmovie": 504,
      "Ġfind": 505,
      "ice": 506,
      "ile": 507,
      "Ġev": 508,
      "Ġbec": 509,
      "ne": 510,
      "pp": 511,
      "og": 512,
      "ass": 513,
      "ily": 514,
      "Ġgo": 515,
      "ace": 516,
      "ance": 517,
      "mer": 518,
      "Ġstory": 519,
      "Ġfam": 520,
      "ine": 521,
      "Ġsome": 522,
      "ub": 523,
      "Ġact": 524,
      "'t": 525,
      "ite": 526,
      "urn": 527,
      "ild": 528,
      "ould": 529,
      "iz": 530,
      "..": 531,
      "Ġtw": 532,
      "able": 533,
      "Ġcan": 534,
      "king": 535,
      "here": 536,
      "Ġyoung": 537,
      "ical": 538,
      "ĠThis": 539,
      "rough": 540,
      "ish": 541,
      "Ġcomp": 542,
      "nt": 543,
      "ia": 544,
      "Ġ-": 545,
      "ther": 546,
      "Ġag": 547,
      "oll": 548,
      "Ġad": 549,
      "Ġwom": 550,
      "orm": 551,
      "elf": 552,
      "Ġmore": 553,
      "Ġlove": 554,
      "ans": 555,
      "een": 556,
      "ond": 557,
      "ame": 558,
      "Ġwe": 559,
      "Ġqu": 560,
      "Ġtime": 561,
      "ears": 562,
      "Ġover": 563,
      "ated": 564,
      "Ġac": 565,
      "ob": 566,
      "Ġfriend": 567,
      "ru": 568,
      "old": 569,
      "und": 570,
      "Ġoff": 571,
      "Ġlike": 572,
      "Ġpre": 573,
      "der": 574,
      "Ġper": 575,
      "Ġdoc": 576,
      "ents": 577,
      "ib": 578,
      "ĠY": 579,
      "ach": 580,
      "ful": 581,
      "Ġwhich": 582,
      "ĠSt": 583,
      "Ġ19": 584,
      "ings": 585,
      "ult": 586,
      "act": 587,
      "akes": 588,
      "Ġwill": 589,
      "ick": 590,
      "Ġnew": 591,
      "ather": 592,
      "ays": 593,
      "Ġinter": 594,
      "pt": 595,
      "ath": 596,
      "ost": 597,
      "ions": 598,
      "Ġro": 599,
      "ress": 600,
      "irl": 601,
      "itt": 602,
      "co": 603,
      "Ġwat": 604,
      "ĠV": 605,
      "ĠU": 606,
      "Ġbr": 607,
      "ument": 608,
      "Ġworld": 609,
      "Ġpe": 610,
      "ations": 611,
      "Ġtra": 612,
      "ark": 613,
      "ict": 614,
      "app": 615,
      "Ġafter": 616,
      "Ġtwo": 617,
      "Ġother": 618,
      "ĠHe": 619,
      "Ġwhat": 620,
      "Ġatt": 621,
      "Ġdec": 622,
      "Ġfamily": 623,
      "Ġdes": 624,
      "Ġhow": 625,
      "Ġchar": 626,
      "ert": 627,
      "ound": 628,
      "ves": 629,
      "Ġthrough": 630,
      "ough": 631,
      "au": 632,
      "uch": 633,
      "ives": 634,
      "Ġbet": 635,
      "vers": 636,
      "Ġcont": 637,
      "irst": 638,
      "Ġ2": 639,
      "ces": 640,
      "Ġpr": 641,
      "Ġres": 642,
      "Ġcr": 643,
      "ens": 644,
      "Ġonly": 645,
      "Ġus": 646,
      "Ġjust": 647,
      "ual": 648,
      "ree": 649,
      "Ġwhere": 650,
      "Ġgirl": 651,
      "Ġdocument": 652,
      "gin": 653,
      "Ġpart": 654,
      "ade": 655,
      "ows": 656,
      "Ġreal": 657,
      "Ġbl": 658,
      "ople": 659,
      "form": 660,
      "Ġkn": 661,
      "les": 662,
      "Ġsur": 663,
      "Ġown": 664,
      "Ġback": 665,
      "Ġfirst": 666,
      "ĠWhen": 667,
      "round": 668,
      "Ġser": 669,
      "Ġinc": 670,
      "Ġrel": 671,
      "aking": 672,
      "ose": 673,
      "Ġund": 674,
      "Ġevery": 675,
      "Ġend": 676,
      "Ġinv": 677,
      "vel": 678,
      "Ġrec": 679,
      "aw": 680,
      "Ġcou": 681,
      "ĠAn": 682,
      "hing": 683,
      "Ġpeople": 684,
      "Ġwork": 685,
      "ĠAl": 686,
      "Ġno": 687,
      "Ġimp": 688,
      "ere": 689,
      "Ġapp": 690,
      "ĠBut": 691,
      "Ġmost": 692,
      "augh": 693,
      "ool": 694,
      "Ġbeen": 695,
      "Ġsee": 696,
      "Ġtri": 697,
      "ors": 698,
      "Ġthan": 699,
      "ters": 700,
      "Ġbeing": 701,
      "Ġyears": 702,
      "Ġdocumentary": 703,
      "uring": 704,
      "ets": 705,
      "so": 706,
      "self": 707,
      "hed": 708,
      "ating": 709,
      "man": 710,
      "Ġloo": 711,
      "Ġem": 712,
      "iew": 713,
      "Ġwoman": 714,
      "Ġri": 715,
      "hip": 716,
      "get": 717,
      "ĠWh": 718,
      "Ġway": 719,
      "gg": 720,
      "ail": 721,
      "ting": 722,
      "Ġhel": 723,
      "Ġam": 724,
      "ise": 725,
      "Ġunder": 726,
      "ord": 727,
      "Ġmus": 728,
      "Ġchild": 729,
      "ign": 730,
      "Ġthere": 731,
      "ph": 732,
      "irect": 733,
      "Ġold": 734,
      "Ġkill": 735,
      "ran": 736,
      "Ġrem": 737,
      "Ġshort": 738,
      "Ġent": 739,
      "ster": 740,
      "ĠâĢ": 741,
      "Ġra": 742,
      "per": 743,
      "Ġfriends": 744,
      "pl": 745,
      "Ġpo": 746,
      "Ġfeel": 747,
      "Ġexpl": 748,
      "Ġsec": 749,
      "Ġel": 750,
      "ning": 751,
      "Ġagain": 752,
      "Ġhad": 753,
      "aus": 754,
      "Ġany": 755,
      "ew": 756,
      "ouse": 757,
      "Ġwhile": 758,
      "Ġwatch": 759,
      "iss": 760,
      "Ġaw": 761,
      "Ġstar": 762,
      "hes": 763,
      "Ġmake": 764,
      "ram": 765,
      "Ġfather": 766,
      "ures": 767,
      "Ġmar": 768,
      "ons": 769,
      "Ġalso": 770,
      "oot": 771,
      "ren": 772,
      "Ġhome": 773,
      "rit": 774,
      "ok": 775,
      "Ġins": 776,
      "ale": 777,
      "ĠAs": 778,
      "Ġexper": 779,
      "Ġpers": 780,
      "ex": 781,
      "fore": 782,
      "Ġret": 783,
      "Ġacc": 784,
      "Ġdoes": 785,
      "ates": 786,
      "ever": 787,
      "meric": 788,
      "Ġhum": 789,
      "ween": 790,
      "Ġgood": 791,
      "Ġcharac": 792,
      "Ġfl": 793,
      "ĠJo": 794,
      "ty": 795,
      "Ġturn": 796,
      "Ġwere": 797,
      "00": 798,
      "Ġpol": 799,
      "ying": 800,
      "ber": 801,
      "ble": 802,
      "Ġhelp": 803,
      "Ġbetween": 804,
      "ase": 805,
      "ved": 806,
      "Ġsm": 807,
      "oss": 808,
      "Ġlead": 809,
      "ident": 810,
      "Ġdirect": 811,
      "amp": 812,
      "apt": 813,
      "Ġplay": 814,
      "pect": 815,
      "Ġvis": 816,
      "air": 817,
      "Ġart": 818,
      "Ġgreat": 819,
      "Ġwould": 820,
      "red": 821,
      "chool": 822,
      "Ġcomm": 823,
      "omet": 824,
      "...": 825,
      "ĠAmeric": 826,
      "Ġif": 827,
      "aut": 828,
      "ater": 829,
      "ience": 830,
      "Ġwell": 831,
      "Ġvery": 832,
      "ness": 833,
      "Ġday": 834,
      "ĠSh": 835,
      "Ġfall": 836,
      "oth": 837,
      "ling": 838,
      "Ġboy": 839,
      "hn": 840,
      "iff": 841,
      "ĠShe": 842,
      "Ġgr": 843,
      "ream": 844,
      "ven": 845,
      "Ġshow": 846,
      "Ġgu": 847,
      "Ġcol": 848,
      "ually": 849,
      "its": 850,
      "Ġmother": 851,
      "Ġdisco": 852,
      "az": 853,
      "ittle": 854,
      "Ġeven": 855,
      "ition": 856,
      "ney": 857,
      "ft": 858,
      "Ġfoll": 859,
      "Ġset": 860,
      "Ġbefore": 861,
      "Ġtake": 862,
      "Ġte": 863,
      "Ġnight": 864,
      "Ġmade": 865,
      "ands": 866,
      "als": 867,
      "Ġfin": 868,
      "ower": 869,
      "Ġlong": 870,
      "Ġmur": 871,
      "ative": 872,
      "edy": 873,
      "Ġmuch": 874,
      "arr": 875,
      "Ġes": 876,
      "Ġlives": 877,
      "Ġbegin": 878,
      "Ġfeat": 879,
      "ret": 880,
      "Ġsup": 881,
      "Ġtakes": 882,
      "Ġmust": 883,
      "Ġfinds": 884,
      "Ġdown": 885,
      "Ġhigh": 886,
      "iet": 887,
      "ron": 888,
      "Ġschool": 889,
      "ull": 890,
      "Ġfun": 891,
      "Ġperform": 892,
      "Ġsub": 893,
      "ock": 894,
      "Ġsl": 895,
      "ny": 896,
      "Ġbecom": 897,
      "Ġhor": 898,
      "ction": 899,
      "ĠAfter": 900,
      "ced": 901,
      "Ġmusic": 902,
      "ink": 903,
      "cess": 904,
      "Ġwar": 905,
      "iving": 906,
      "Ġscen": 907,
      "ause": 908,
      "ased": 909,
      "aughter": 910,
      "Ġhapp": 911,
      "Ġtown": 912,
      "ner": 913,
      "ror": 914,
      "ĠMar": 915,
      "Ġind": 916,
      "Ġthen": 917,
      "Ġph": 918,
      "Ġperson": 919,
      "less": 920,
      "Ġtell": 921,
      "Ġstud": 922,
      "Ġreally": 923,
      "int": 924,
      "Ġbeaut": 925,
      "Ġpres": 926,
      "Ġgen": 927,
      "Ġbel": 928,
      "roup": 929,
      "rist": 930,
      "Ġco": 931,
      "Ġwife": 932,
      "land": 933,
      "Ġdiff": 934,
      "Ġknow": 935,
      "Ġrun": 936,
      "ple": 937,
      "ev": 938,
      "Ġ'": 939,
      "Ġbest": 940,
      "ides": 941,
      "Ġlittle": 942,
      "Ġter": 943,
      "),": 944,
      "att": 945,
      "Ġmem": 946,
      "ix": 947,
      "Ġnever": 948,
      "Ġmurder": 949,
      "uck": 950,
      "Ġhouse": 951,
      "Ġseem": 952,
      "Ġconf": 953,
      "Ġob": 954,
      "ants": 955,
      "Ġhist": 956,
      "lud": 957,
      "ros": 958,
      "Ġdeath": 959,
      "ĠThey": 960,
      "ash": 961,
      "aving": 962,
      "Ġgets": 963,
      "Ġnow": 964,
      "ey": 965,
      "Ġfilms": 966,
      "Ġear": 967,
      "thing": 968,
      "Ġreturn": 969,
      "Ġmany": 970,
      "cap": 971,
      "Ġhimself": 972,
      "Ġgroup": 973,
      "ists": 974,
      "Ġstill": 975,
      "Ġloc": 976,
      "vent": 977,
      "ward": 978,
      "Ġsomet": 979,
      "Ġcreat": 980,
      "Ġcould": 981,
      "Ġthough": 982,
      "Ġcar": 983,
      "Ġaround": 984,
      "Ġanim": 985,
      "Ġmin": 986,
      "Ġdel": 987,
      "ins": 988,
      "Ġeach": 989,
      "ĠAnd": 990,
      "Ġcare": 991,
      "Ġmyster": 992,
      "ues": 993,
      "ible": 994,
      "Ġstru": 995,
      "Ġthree": 996,
      "Ġboth": 997,
      "Ġsu": 998,
      "ĠNew": 999,
      "Ġjour": 1000,
      "ism": 1001,
      "ited": 1002,
      "Ġdaughter": 1003,
      "Ġtoget": 1004,
      "Ġtoo": 1005,
      "Ġtogether": 1006,
      "Ġwomen": 1007,
      "Ġass": 1008,
      "Ġdet": 1009,
      "orn": 1010,
      "Ġstr": 1011,
      "ately": 1012,
      "Ġmen": 1013,
      "Ġ20": 1014,
      "ĠHow": 1015,
      "view": 1016,
      "Ġrelations": 1017,
      "Ġbecomes": 1018,
      "The": 1019,
      "Ġson": 1020,
      "eep": 1021,
      "ork": 1022,
      "iful": 1023,
      "ular": 1024,
      "Ġsex": 1025,
      "Ġeff": 1026,
      "ied": 1027,
      "Ġsoc": 1028,
      "ute": 1029,
      "led": 1030,
      "Ġdid": 1031,
      "Ġlive": 1032,
      "Ġrep": 1033,
      "ric": 1034,
      "ys": 1035,
      "Ġcons": 1036,
      "ional": 1037,
      "Ġprod": 1038,
      "Ġrelationship": 1039,
      "Ġduring": 1040,
      "inem": 1041,
      "ities": 1042,
      "ĠChrist": 1043,
      "ense": 1044,
      "Ġseries": 1045,
      "ris": 1046,
      "Ġagainst": 1047,
      "Ġcall": 1048,
      "Ġdream": 1049,
      "ines": 1050,
      "Ġbeh": 1051,
      "io": 1052,
      "imes": 1053,
      "Ġpower": 1054,
      "Ġdep": 1055,
      "Ġsw": 1056,
      "atic": 1057,
      "Ġbecause": 1058,
      "ier": 1059,
      "ount": 1060,
      "ogra": 1061,
      "Ġtal": 1062,
      "Ġmarri": 1063,
      "ll": 1064,
      "ories": 1065,
      "ving": 1066,
      "ĠUn": 1067,
      "ght": 1068,
      "Ġwant": 1069,
      "Ġsmall": 1070,
      "uth": 1071,
      "Ġever": 1072,
      "ope": 1073,
      "Ġcapt": 1074,
      "Ġkid": 1075,
      "Ġtrans": 1076,
      "Ġmom": 1077,
      "Ġthese": 1078,
      "ross": 1079,
      "Ġgoes": 1080,
      "Ġclass": 1081,
      "Ġcount": 1082,
      "Ġinclud": 1083,
      "ĠAr": 1084,
      "Ġport": 1085,
      "Ġbu": 1086,
      "Ġfoot": 1087,
      "Ġattem": 1088,
      "Ġbeautiful": 1089,
      "friend": 1090,
      "ien": 1091,
      "ince": 1092,
      "owing": 1093,
      "olog": 1094,
      "eb": 1095,
      "Ġlook": 1096,
      "Ġfound": 1097,
      "ĠBl": 1098,
      "Ġmay": 1099,
      "ĠAmerican": 1100,
      "Ġmaking": 1101,
      "ody": 1102,
      "Ġbrother": 1103,
      "Ġmakes": 1104,
      "Ġlear": 1105,
      "anc": 1106,
      "Ġinterest": 1107,
      "Ġmon": 1108,
      "Ġstrugg": 1109,
      "Ġpast": 1110,
      "Ġbecome": 1111,
      "Ġlast": 1112,
      "ject": 1113,
      "rand": 1114,
      "Ġyear": 1115,
      "Ġpass": 1116,
      "Ġref": 1117,
      "ĠJohn": 1118,
      "ĠOn": 1119,
      "ired": 1120,
      "ister": 1121,
      "ects": 1122,
      "Ġhuman": 1123,
      "Ġcre": 1124,
      "Ġspec": 1125,
      "ient": 1126,
      ".\"": 1127,
      "Ġfar": 1128,
      "cept": 1129,
      "que": 1130,
      "Ġplan": 1131,
      "Ġstart": 1132,
      "Ġanother": 1133,
      "eng": 1134,
      "ook": 1135,
      "Ġsomething": 1136,
      "iness": 1137,
      "ah": 1138,
      "aster": 1139,
      "oney": 1140,
      "Ġinst": 1141,
      "den": 1142,
      "Ġsing": 1143,
      "Ġcinem": 1144,
      "Ġext": 1145,
      "pite": 1146,
      "reak": 1147,
      "Ġcolle": 1148,
      "Ġsk": 1149,
      "joy": 1150,
      "âĢĿ": 1151,
      "Ġcomedy": 1152,
      "Ġheart": 1153,
      "Ġyour": 1154,
      "day": 1155,
      "Ġjourney": 1156,
      "Ġsame": 1157,
      "unt": 1158,
      "Ġdiffer": 1159,
      "ined": 1160,
      "Ġaway": 1161,
      "Ġhead": 1162,
      "Ġbig": 1163,
      "ĠOne": 1164,
      "Ġunt": 1165,
      "Ġcomes": 1166,
      "Ġplace": 1167,
      "ee": 1168,
      "ott": 1169,
      "ched": 1170,
      "Ġgl": 1171,
      "Ġneed": 1172,
      "wh": 1173,
      "Ġdram": 1174,
      "Ġthose": 1175,
      "ady": 1176,
      "my": 1177,
      "Ġmiss": 1178,
      "Ġfight": 1179,
      "'m": 1180,
      "ages": 1181,
      "oun": 1182,
      "Ġdon": 1183,
      "Ġexperience": 1184,
      "ov": 1185,
      "ĠâĢľ": 1186,
      "Ġthr": 1187,
      "Ġenjoy": 1188,
      "Ġcome": 1189,
      "ison": 1190,
      "iver": 1191,
      "ural": 1192,
      "Ġseen": 1193,
      "Ġjob": 1194,
      "ĠCl": 1195,
      "Ġview": 1196,
      "reen": 1197,
      "lic": 1198,
      "Ġdef": 1199,
      "usb": 1200,
      "era": 1201,
      "Ġhistory": 1202,
      "ering": 1203,
      "Ġcharacters": 1204,
      "ĠSp": 1205,
      "ug": 1206,
      "ances": 1207,
      "Ġwr": 1208,
      "Ġlearn": 1209,
      "Ġdead": 1210,
      "ertain": 1211,
      "ray": 1212,
      "Ġpar": 1213,
      "Ġdist": 1214,
      "Ġcity": 1215,
      "Ġdue": 1216,
      "Ġinf": 1217,
      "ms": 1218,
      "ics": 1219,
      "ars": 1220,
      "Ġbelie": 1221,
      "be": 1222,
      "ains": 1223,
      "Ġescap": 1224,
      "Ġour": 1225,
      "let": 1226,
      "Ġsim": 1227,
      "Ġcharacter": 1228,
      "Ġquest": 1229,
      "oon": 1230,
      "sy": 1231,
      "Ġbehind": 1232,
      "Ġsoon": 1233,
      "Ġkeep": 1234,
      "usband": 1235,
      "'ve": 1236,
      "Ġfalls": 1237,
      "Ġsurv": 1238,
      "Ġ3": 1239,
      "Ġthings": 1240,
      "Ġnarr": 1241,
      "Ġsuc": 1242,
      "Ġbus": 1243,
      "ially": 1244,
      "ĠHowever": 1245,
      "Ġchildren": 1246,
      "ĠWith": 1247,
      "ĠYou": 1248,
      "Ġsecret": 1249,
      "Ġche": 1250,
      ").": 1251,
      "Ġop": 1252,
      "Ġbegins": 1253,
      "Ġleft": 1254,
      "ming": 1255,
      "de": 1256,
      "ĠZ": 1257,
      "ane": 1258,
      "Ġdeep": 1259,
      "Ġput": 1260,
      "Ġdark": 1261,
      "ĠThere": 1262,
      "atch": 1263,
      "ck": 1264,
      "Ġshot": 1265,
      "tern": 1266,
      "iol": 1267,
      "Ġmeets": 1268,
      "ution": 1269,
      "Ġuntil": 1270,
      "Ġbo": 1271,
      "ational": 1272,
      "Ġtrue": 1273,
      "Ġhusband": 1274,
      "Ġliving": 1275,
      "Ġplot": 1276,
      "Ġmysterious": 1277,
      "Ġdoesn": 1278,
      "iting": 1279,
      "Ġmeet": 1280,
      "ĠIs": 1281,
      "Ġvill": 1282,
      "ĠBe": 1283,
      "Ġtries": 1284,
      "Ġcult": 1285,
      "son": 1286,
      "anger": 1287,
      "ĠAt": 1288,
      "Ġhard": 1289,
      "Ġwants": 1290,
      "Ġgoing": 1291,
      "Ġbad": 1292,
      "Ġinvest": 1293,
      "Ġteen": 1294,
      "Ġfilmm": 1295,
      "Ġdirector": 1296,
      "Ġwithout": 1297,
      "uss": 1298,
      "Ġdri": 1299,
      "ead": 1300,
      "Ġgang": 1301,
      "ird": 1302,
      "ley": 1303,
      "Ġcountry": 1304,
      "ically": 1305,
      "Ġrom": 1306,
      "ograph": 1307,
      "amed": 1308,
      "Ġdifferent": 1309,
      "Ġpersonal": 1310,
      "year": 1311,
      "Ġdem": 1312,
      "Ġed": 1313,
      "the": 1314,
      "Ġlocal": 1315,
      "cl": 1316,
      "Ġcent": 1317,
      "Ġmoney": 1318,
      "aren": 1319,
      "Ġpolice": 1320,
      "Ġdiscover": 1321,
      "Ġcommun": 1322,
      "Ġemot": 1323,
      "Ġprom": 1324,
      "Ġsuch": 1325,
      "ung": 1326,
      "Ġfore": 1327,
      "ean": 1328,
      "ways": 1329,
      "Ġhorror": 1330,
      "ĠWill": 1331,
      "Ġsol": 1332,
      "Ġstop": 1333,
      "Ġprot": 1334,
      "Ġmed": 1335,
      "Ġteam": 1336,
      "Ġuni": 1337,
      "ingly": 1338,
      "sel": 1339,
      "hood": 1340,
      "eal": 1341,
      "Ġpret": 1342,
      "Ġide": 1343,
      "Ġfootage": 1344,
      "Ġmovies": 1345,
      "ract": 1346,
      "cc": 1347,
      "any": 1348,
      "Ġtells": 1349,
      "ĠTw": 1350,
      "ĠHis": 1351,
      "Ġarri": 1352,
      "Ġtrying": 1353,
      "Ã©": 1354,
      "mas": 1355,
      "Ġthink": 1356,
      "Ġdra": 1357,
      "Ġcle": 1358,
      "ank": 1359,
      "ange": 1360,
      "aces": 1361,
      "yp": 1362,
      "Ġmid": 1363,
      "iec": 1364,
      "Ġspecial": 1365,
      "Ġviol": 1366,
      "Ġprof": 1367,
      "Ġcouple": 1368,
      "urs": 1369,
      "aker": 1370,
      "Ġbetter": 1371,
      "ames": 1372,
      "Ġeng": 1373,
      "Ġsound": 1374,
      "rigin": 1375,
      "istic": 1376,
      "ĠFran": 1377,
      "Ġaff": 1378,
      "iel": 1379,
      "af": 1380,
      "Ġsy": 1381,
      "arious": 1382,
      "ax": 1383,
      "ĠWar": 1384,
      "aves": 1385,
      "ina": 1386,
      "Ġcast": 1387,
      "Ġsuper": 1388,
      "Ġwatching": 1389,
      "side": 1390,
      "elling": 1391,
      "Ġrest": 1392,
      "ett": 1393,
      "Ġdecides": 1394,
      "Ġfollows": 1395,
      "ured": 1396,
      "Ġstre": 1397,
      "ival": 1398,
      "Ġadd": 1399,
      "lex": 1400,
      "Ġlot": 1401,
      "'re": 1402,
      "eg": 1403,
      "ortun": 1404,
      "ĠWhile": 1405,
      "Ġbreak": 1406,
      "selves": 1407,
      "aid": 1408,
      "Ġap": 1409,
      "ĠWhat": 1410,
      "ront": 1411,
      "Ġinvestig": 1412,
      "ony": 1413,
      "Ġunf": 1414,
      "ĠCar": 1415,
      "by": 1416,
      "Ġface": 1417,
      "ĠYork": 1418,
      "urb": 1419,
      "Ġpri": 1420,
      "Ġalong": 1421,
      "Ġmag": 1422,
      "Ġnat": 1423,
      "Ġtravel": 1424,
      "Ġinterview": 1425,
      "arents": 1426,
      "Ġhere": 1427,
      "Ġunc": 1428,
      "Ġscene": 1429,
      "ef": 1430,
      "Ġorigin": 1431,
      "Ġalways": 1432,
      "Ġdest": 1433,
      "xt": 1434,
      "Ġlater": 1435,
      "ized": 1436,
      "yle": 1437,
      "Ġseems": 1438,
      "ital": 1439,
      "Ġsear": 1440,
      "Ġform": 1441,
      "ĠSc": 1442,
      "Ġfew": 1443,
      "Ġreg": 1444,
      "Ġstand": 1445,
      "Ġinvol": 1446,
      "Ġcor": 1447,
      "Ġdisapp": 1448,
      "ann": 1449,
      "Ġrele": 1450,
      "Ġband": 1451,
      "Ġblack": 1452,
      "ury": 1453,
      "ason": 1454,
      "Ġturns": 1455,
      "Ġexplo": 1456,
      "rop": 1457,
      "utes": 1458,
      "Ġeverything": 1459,
      "Ġorder": 1460,
      "ific": 1461,
      "ĠChristmas": 1462,
      "Ġvide": 1463,
      "Ġimm": 1464,
      "Ġwrit": 1465,
      "Ġmet": 1466,
      "Ġconc": 1467,
      "Ġreve": 1468,
      "Ġkind": 1469,
      "ights": 1470,
      "Ġpain": 1471,
      "Ġpolit": 1472,
      "Ġcam": 1473,
      "Ġincluding": 1474,
      "Ġlack": 1475,
      "Ġlost": 1476,
      "orts": 1477,
      "fect": 1478,
      "Ġsuccess": 1479,
      "Ġfut": 1480,
      "Ġhand": 1481,
      "Ġhaving": 1482,
      "uk": 1483,
      "Ġposs": 1484,
      "ably": 1485,
      "Ġmove": 1486,
      "alth": 1487,
      "ĠInd": 1488,
      "ening": 1489,
      "ility": 1490,
      "Ġthemselves": 1491,
      "Ġprov": 1492,
      "Ġdrama": 1493,
      "orld": 1494,
      "ĠFor": 1495,
      "Ġdev": 1496,
      "iety": 1497,
      "Ġfeels": 1498,
      "umb": 1499,
      "Ġself": 1500,
      "ery": 1501,
      "erm": 1502,
      "ĠBr": 1503,
      "Ġfail": 1504,
      "Ġnamed": 1505,
      "Ġyet": 1506,
      "Ġexpect": 1507,
      "Ġsupp": 1508,
      "Ġaction": 1509,
      "Ġaud": 1510,
      "Ġpop": 1511,
      "alf": 1512,
      "Ġnear": 1513,
      "Ġlet": 1514,
      "rif": 1515,
      "stand": 1516,
      "sc": 1517,
      "uction": 1518,
      "Ġcour": 1519,
      "Ġparents": 1520,
      "Ġfour": 1521,
      "Ġinteresting": 1522,
      "Ġattempt": 1523,
      "Ġright": 1524,
      "ai": 1525,
      "Ġonce": 1526,
      "Ġstories": 1527,
      "Ġenc": 1528,
      "Ġwin": 1529,
      "Ġwhose": 1530,
      "ered": 1531,
      "Ġsurp": 1532,
      "ared": 1533,
      "ove": 1534,
      "apan": 1535,
      "Ġdiscovers": 1536,
      "gend": 1537,
      "Ġearly": 1538,
      "Ġey": 1539,
      "Ġspir": 1540,
      "Ġdr": 1541,
      "Ġdays": 1542,
      "aj": 1543,
      "Ġherself": 1544,
      "gan": 1545,
      "olly": 1546,
      "Ġpresent": 1547,
      "nect": 1548,
      "Ġbusiness": 1549,
      "Ġsave": 1550,
      "ize": 1551,
      "osp": 1552,
      "Ġpartic": 1553,
      "pts": 1554,
      "ision": 1555,
      "Ġprison": 1556,
      "enn": 1557,
      "ently": 1558,
      "Ġthought": 1559,
      "Ġep": 1560,
      "ĠBrit": 1561,
      "Ġscenes": 1562,
      "ĠRob": 1563,
      "range": 1564,
      "ental": 1565,
      "aken": 1566,
      "Ġgener": 1567,
      "ten": 1568,
      "\".": 1569,
      "ĠJapan": 1570,
      "inc": 1571,
      "Ġsister": 1572,
      "Ġchang": 1573,
      "Ġworks": 1574,
      "attle": 1575,
      "Ġsong": 1576,
      "sp": 1577,
      "ĠTom": 1578,
      "Ġlight": 1579,
      "Ġworking": 1580,
      "ches": 1581,
      "ĠLe": 1582,
      "ĠHer": 1583,
      "Ġjo": 1584,
      "Ġformer": 1585,
      "ĠChar": 1586,
      "sh": 1587,
      "Ġfuture": 1588,
      "Ġstarts": 1589,
      "Ġbit": 1590,
      "Ġmain": 1591,
      "gu": 1592,
      "Ġdespite": 1593,
      "ĠAm": 1594,
      "Ġemb": 1595,
      "Ġsus": 1596,
      "Ġpsy": 1597,
      "Ġtimes": 1598,
      "velop": 1599,
      "ek": 1600,
      "Ġcat": 1601,
      "19": 1602,
      "ĠQ": 1603,
      "Ġenough": 1604,
      "ĠWe": 1605,
      "Ġphot": 1606,
      "Ġsay": 1607,
      "Ġland": 1608,
      "elt": 1609,
      "pected": 1610,
      "Ġhowever": 1611,
      "Ġsearch": 1612,
      "Ġevent": 1613,
      "ĠEd": 1614,
      "Ġopp": 1615,
      "ences": 1616,
      "Ġshould": 1617,
      "Ġcareer": 1618,
      "Ġcomplet": 1619,
      "Ġevents": 1620,
      "Ġcontin": 1621,
      "Ġexc": 1622,
      "Ġsince": 1623,
      "ĠFilm": 1624,
      "omb": 1625,
      "ocus": 1626,
      "osed": 1627,
      "Ġunique": 1628,
      "ont": 1629,
      "Ġuse": 1630,
      "iece": 1631,
      "Ġcontr": 1632,
      "rem": 1633,
      "ĠâĢĵ": 1634,
      "ator": 1635,
      "Ġcur": 1636,
      "Ġnext": 1637,
      "Ġbuild": 1638,
      "Ġsecond": 1639,
      "ĠEl": 1640,
      "ians": 1641,
      "Ġ5": 1642,
      "ĠDav": 1643,
      "Ġperfect": 1644,
      "Ġentire": 1645,
      "Ġpretty": 1646,
      "Ġabs": 1647,
      "Ġfull": 1648,
      "Ġsever": 1649,
      "ention": 1650,
      "aim": 1651,
      "Ġminutes": 1652,
      "Ġdisc": 1653,
      "Ġrev": 1654,
      "Ġthing": 1655,
      "unk": 1656,
      "Ġsent": 1657,
      "Ġaccident": 1658,
      "ler": 1659,
      "Ġconv": 1660,
      "Ġnothing": 1661,
      "Ġshows": 1662,
      "Ġroom": 1663,
      "ĠTwo": 1664,
      "ination": 1665,
      "ds": 1666,
      "Ġreturns": 1667,
      "ese": 1668,
      "wood": 1669,
      "dle": 1670,
      "Ġfact": 1671,
      "Ġtry": 1672,
      "oice": 1673,
      "ĠHar": 1674,
      "Ġbring": 1675,
      "Ġacross": 1676,
      "ened": 1677,
      "ĠNot": 1678,
      "\",": 1679,
      "imate": 1680,
      "Ġbody": 1681,
      "asc": 1682,
      "Ġgrand": 1683,
      "ĠCan": 1684,
      "Ġobs": 1685,
      "atter": 1686,
      "Ġadvent": 1687,
      "Ġfem": 1688,
      "iam": 1689,
      "ĠMan": 1690,
      "Ġoften": 1691,
      "erman": 1692,
      "ring": 1693,
      "rug": 1694,
      "Ġproble": 1695,
      "Ġscreen": 1696,
      "ĠJack": 1697,
      "Ġ4": 1698,
      "Ġquite": 1699,
      "Ġdeal": 1700,
      "Ġcrime": 1701,
      "Ġcamp": 1702,
      "ective": 1703,
      "rup": 1704,
      "pir": 1705,
      "Ġsit": 1706,
      "Ġmind": 1707,
      "most": 1708,
      "par": 1709,
      "yn": 1710,
      "Ġsil": 1711,
      "Ġperformance": 1712,
      "Ġescape": 1713,
      "Ġapart": 1714,
      "ral": 1715,
      "ively": 1716,
      "Ġforced": 1717,
      "Ġmis": 1718,
      "ĠCom": 1719,
      "ality": 1720,
      "ĠAd": 1721,
      "Ġwit": 1722,
      "ump": 1723,
      "Ġgame": 1724,
      "ĠTo": 1725,
      "aul": 1726,
      "uct": 1727,
      "ĠAll": 1728,
      "Ġfocus": 1729,
      "way": 1730,
      "Ġvideo": 1731,
      "Ġportray": 1732,
      "bers": 1733,
      "ĠDes": 1734,
      "els": 1735,
      "ĠDr": 1736,
      "Ġknown": 1737,
      "Ġtrain": 1738,
      "Ġident": 1739,
      "ĠEng": 1740,
      "Ġgive": 1741,
      "eleb": 1742,
      "Ġstri": 1743,
      "Ġdevelop": 1744,
      "Ġlar": 1745,
      "ices": 1746,
      "Ġrecord": 1747,
      "Ġkiller": 1748,
      "Ġsomeone": 1749,
      "Ġpub": 1750,
      "Ġthreat": 1751,
      "acy": 1752,
      "Ġeveryone": 1753,
      "iller": 1754,
      "Ġhom": 1755,
      "Ġrob": 1756,
      "Ġvillage": 1757,
      "ote": 1758,
      "Ġhalf": 1759,
      "Ġchange": 1760,
      "min": 1761,
      "oring": 1762,
      "Ġwhy": 1763,
      "Ġwatched": 1764,
      "Ġsocial": 1765,
      "Ġtrou": 1766,
      "Ġunex": 1767,
      "ires": 1768,
      "acher": 1769,
      "Ġsign": 1770,
      "ĠIf": 1771,
      "outh": 1772,
      "Ġ&": 1773,
      "Ġsum": 1774,
      "eter": 1775,
      "to": 1776,
      "Ġgirls": 1777,
      "Ġdrug": 1778,
      "ton": 1779,
      "Ġpsych": 1780,
      "orth": 1781,
      "Ġmoments": 1782,
      "na": 1783,
      "Ġbri": 1784,
      "hel": 1785,
      "ighb": 1786,
      "ived": 1787,
      "Ġgot": 1788,
      "Ġfinally": 1789,
      "Ġdog": 1790,
      "Ġcra": 1791,
      "ding": 1792,
      "ted": 1793,
      "ĠPar": 1794,
      "Ġtop": 1795,
      "Ġactually": 1796,
      "Ġfav": 1797,
      "imin": 1798,
      "ments": 1799,
      "Ġceleb": 1800,
      "kn": 1801,
      "Ġdidn": 1802,
      "Ġencoun": 1803,
      "Ġocc": 1804,
      "Ġevil": 1805,
      "Ġcalled": 1806,
      "Ġentertain": 1807,
      "Ġfollow": 1808,
      "asy": 1809,
      "Ġlate": 1810,
      "Ġgetting": 1811,
      "aced": 1812,
      "vern": 1813,
      "irc": 1814,
      "Ġimag": 1815,
      "Ġspend": 1816,
      "Ġcommunity": 1817,
      "Ġlaw": 1818,
      "val": 1819,
      "Ġmean": 1820,
      "ĠGe": 1821,
      "Ġimpress": 1822,
      "Ġneighb": 1823,
      "Ġwild": 1824,
      "Ġcinema": 1825,
      "Ġexplores": 1826,
      "rod": 1827,
      "ger": 1828,
      "Ġ197": 1829,
      "Ġartist": 1830,
      "ma": 1831,
      "ior": 1832,
      "Ġmarried": 1833,
      "Ġ200": 1834,
      "ography": 1835,
      "Ġleave": 1836,
      "Ġoffic": 1837,
      "Ġdanger": 1838,
      "Ġnarrative": 1839,
      "Ġtit": 1840,
      "Ġill": 1841,
      "Ġmight": 1842,
      "aged": 1843,
      "Ġless": 1844,
      "Ġstrange": 1845,
      "ĠWorld": 1846,
      "Ġtale": 1847,
      "Ġfeatures": 1848,
      "Ġpowerful": 1849,
      "ĠSo": 1850,
      "Ġmot": 1851,
      "Ġtrag": 1852,
      ",\"": 1853,
      "ats": 1854,
      "Ġhour": 1855,
      "Ġdreams": 1856,
      "Ġbar": 1857,
      "Ġkilled": 1858,
      "Ġchall": 1859,
      "Ġcase": 1860,
      "Ġstudent": 1861,
      "ĠAmerica": 1862,
      "ĠPh": 1863,
      "Ġpoor": 1864,
      "Ġfeature": 1865,
      "rest": 1866,
      "Ġhero": 1867,
      "rench": 1868,
      "Ġlooking": 1869,
      "pec": 1870,
      "Ġreality": 1871,
      "Ġpoint": 1872,
      "ĠMy": 1873,
      "ager": 1874,
      "ished": 1875,
      "Ġprop": 1876,
      "ask": 1877,
      "Ġattack": 1878,
      "Ġcamera": 1879,
      "ĠMr": 1880,
      "cy": 1881,
      "Ġconst": 1882,
      "ĠBritish": 1883,
      "ivers": 1884,
      "oul": 1885,
      "cover": 1886,
      "Ġest": 1887,
      "ential": 1888,
      "Ġtrip": 1889,
      "venge": 1890,
      "Ġlik": 1891,
      "Ġhot": 1892,
      "Ġname": 1893,
      "eet": 1894,
      "uff": 1895,
      "Ġsense": 1896,
      "iven": 1897,
      "Ġparticular": 1898,
      "ises": 1899,
      "Ġparty": 1900,
      "oses": 1901,
      "Ġblood": 1902,
      "Ġvict": 1903,
      "Ġhop": 1904,
      "orge": 1905,
      "Ġmarriage": 1906,
      "Ġconnect": 1907,
      "Ġunderstand": 1908,
      "Ġstrong": 1909,
      "Ġlegend": 1910,
      "Ġquick": 1911,
      "com": 1912,
      "Ġpost": 1913,
      "Ġmoder": 1914,
      "Ġleads": 1915,
      "Ġcelebr": 1916,
      "Ġmess": 1917,
      "lish": 1918,
      "ĠDan": 1919,
      "ĠAng": 1920,
      "izes": 1921,
      "Ġmaster": 1922,
      "fully": 1923,
      "lin": 1924,
      "Ġsold": 1925,
      "Ġbro": 1926,
      "Ġothers": 1927,
      "Ġunexpected": 1928,
      "Ġproduction": 1929,
      "ĠBar": 1930,
      "Ġsets": 1931,
      "Ġpat": 1932,
      "Ġappears": 1933,
      "ĠDon": 1934,
      "Ġspe": 1935,
      "por": 1936,
      "ades": 1937,
      "Ġhold": 1938,
      "ern": 1939,
      "Ġhope": 1940,
      "Ġproduc": 1941,
      "ball": 1942,
      "Ġanimation": 1943,
      "Ġimport": 1944,
      "ĠNow": 1945,
      "Ġsn": 1946,
      "antic": 1947,
      "Ġthin": 1948,
      "ĠPr": 1949,
      "ided": 1950,
      "Ġtruth": 1951,
      "ored": 1952,
      "Ġha": 1953,
      "echn": 1954,
      "Ġinterviews": 1955,
      "ĠGerman": 1956,
      "Ġstars": 1957,
      "Ġseveral": 1958,
      "Ġcop": 1959,
      "Ġfunny": 1960,
      "ĠRe": 1961,
      "Ġfinal": 1962,
      "alk": 1963,
      "Ġanything": 1964,
      "Ġmodern": 1965,
      "Ġ198": 1966,
      "Ġoriginal": 1967,
      "aby": 1968,
      "Ġhands": 1969,
      "Ġmil": 1970,
      "ush": 1971,
      "Ġexist": 1972,
      "ald": 1973,
      "ement": 1974,
      "rib": 1975,
      "Ġwa": 1976,
      "ĠAf": 1977,
      "acing": 1978,
      "Ġupon": 1979,
      "Ġacting": 1980,
      "rew": 1981,
      "line": 1982,
      "tor": 1983,
      "Ġhumor": 1984,
      "Ġ201": 1985,
      "Ġleaves": 1986,
      "reas": 1987,
      "Ġwhole": 1988,
      "uly": 1989,
      "ges": 1990,
      "Ġwond": 1991,
      "Ġwithin": 1992,
      "aps": 1993,
      "ĠEm": 1994,
      "Ġfamil": 1995,
      "irth": 1996,
      "host": 1997,
      "pecially": 1998,
      "Ġult": 1999,
      "antly": 2000,
      "Ġbattle": 2001,
      "Ġstay": 2002,
      "Ġappro": 2003,
      "ara": 2004,
      "Ġfig": 2005,
      "Ġalmost": 2006,
      "Ġgirlfriend": 2007,
      "Ġmusical": 2008,
      "Ġprofess": 2009,
      "ĠDavid": 2010,
      "Ġmor": 2011,
      "Ġside": 2012,
      "ground": 2013,
      "ests": 2014,
      "Ġrece": 2015,
      "Ġexperien": 2016,
      "Ġ8": 2017,
      "Ġann": 2018,
      "ĠEar": 2019,
      "of": 2020,
      "ox": 2021,
      "ĠMc": 2022,
      "Ġmiddle": 2023,
      "ember": 2024,
      "ised": 2025,
      "Ġbased": 2026,
      "Ġsurpris": 2027,
      "Ġreveal": 2028,
      "Ġlow": 2029,
      "ole": 2030,
      "udden": 2031,
      "Ġwhite": 2032,
      "Ġslow": 2033,
      "ĠCol": 2034,
      "Ġvers": 2035,
      "Ġinn": 2036,
      "Ġclassic": 2037,
      "Ġfavor": 2038,
      "Ġstyle": 2039,
      "ĠCity": 2040,
      "Ġtrad": 2041,
      "Ġclose": 2042,
      "ĠJim": 2043,
      "Ġfemale": 2044,
      "Ġarch": 2045,
      "erry": 2046,
      "Ġ196": 2047,
      "Ġfre": 2048,
      "Ġespecially": 2049,
      "ĠCon": 2050,
      "otic": 2051,
      "Ġcond": 2052,
      "aur": 2053,
      "Ġlooks": 2054,
      "Ġdeb": 2055,
      "Ġsociety": 2056,
      "Ġsle": 2057,
      "Ġchildhood": 2058,
      "Ġprog": 2059,
      "Ġval": 2060,
      "ths": 2061,
      "Ġfant": 2062,
      "Ġiss": 2063,
      "Ġnature": 2064,
      "Ġisn": 2065,
      "Ġoper": 2066,
      "Ġinstead": 2067,
      "Ġexperim": 2068,
      "Ġclear": 2069,
      "vious": 2070,
      "Ġfive": 2071,
      "Ġspirit": 2072,
      "ept": 2073,
      "Ġattempts": 2074,
      "ĠThat": 2075,
      "ĠFrench": 2076,
      "Ġgra": 2077,
      "ged": 2078,
      "Ġhit": 2079,
      "Ġfree": 2080,
      "Ġgives": 2081,
      "Ġav": 2082,
      "Ġdecide": 2083,
      "Ġvisual": 2084,
      "Ġfelt": 2085,
      "iction": 2086,
      "erv": 2087,
      "Ġused": 2088,
      "ĠFl": 2089,
      "Ġrock": 2090,
      "amb": 2091,
      "Ġalone": 2092,
      "ĠPl": 2093,
      "Ġant": 2094,
      "Ġcirc": 2095,
      "Ġfilmmaker": 2096,
      "ondon": 2097,
      "Ġ199": 2098,
      "Ġz": 2099,
      "Ġhid": 2100,
      "Ġperformances": 2101,
      "Ġgay": 2102,
      "ising": 2103,
      "Ġsingle": 2104,
      "Ġbrings": 2105,
      "ĠGod": 2106,
      "Ġcoming": 2107,
      "Ġwrong": 2108,
      "Ġtaken": 2109,
      "Ġfr": 2110,
      "Ġsequ": 2111,
      "ael": 2112,
      "ollywood": 2113,
      "ĠAb": 2114,
      "ĠPaul": 2115,
      "ology": 2116,
      "Ġquestion": 2117,
      "ĠLondon": 2118,
      "Ġbook": 2119,
      "Ġhost": 2120,
      "ĠSam": 2121,
      "Ġleg": 2122,
      "ots": 2123,
      "ones": 2124,
      "inary": 2125,
      "Ġrevenge": 2126,
      "ĠSe": 2127,
      "Ġsuff": 2128,
      "Ġtest": 2129,
      "Ġtechn": 2130,
      "Ġlearns": 2131,
      "iant": 2132,
      "Ġrole": 2133,
      "Ġcoll": 2134,
      "Ġcompany": 2135,
      "Ġage": 2136,
      "illed": 2137,
      "Ġgovern": 2138,
      "Ġkids": 2139,
      "Ġvictim": 2140,
      "Ġ9": 2141,
      "Ġsexual": 2142,
      "aging": 2143,
      "Ġcrew": 2144,
      "Ġends": 2145,
      "Ġsitu": 2146,
      "Ġtel": 2147,
      "wards": 2148,
      "Ġchance": 2149,
      "osing": 2150,
      "Ġcomplex": 2151,
      "olution": 2152,
      "pped": 2153,
      "Ġidea": 2154,
      "Ġcollege": 2155,
      "Ġrather": 2156,
      "Ġstruggles": 2157,
      "Ġtaking": 2158,
      "gy": 2159,
      "Ġhon": 2160,
      "onic": 2161,
      "uge": 2162,
      "Ġfriendship": 2163,
      "ĠTr": 2164,
      "Ġpolitical": 2165,
      "iter": 2166,
      "time": 2167,
      "Ġincred": 2168,
      "Ġappear": 2169,
      "Ġroad": 2170,
      "Ġfamous": 2171,
      "ills": 2172,
      "Ġdesper": 2173,
      "lu": 2174,
      "ĠNo": 2175,
      "ille": 2176,
      "oration": 2177,
      "Ġplays": 2178,
      "Ġpublic": 2179,
      "Ġkidn": 2180,
      "Ġisland": 2181,
      "ivid": 2182,
      "Ġconsid": 2183,
      "yl": 2184,
      "omp": 2185,
      "Ġreview": 2186,
      "ĠMich": 2187,
      "Ġinvolved": 2188,
      "ude": 2189,
      "ĠKing": 2190,
      "Ġmill": 2191,
      "Ġple": 2192,
      "ipp": 2193,
      "Ġspace": 2194,
      "Ġresp": 2195,
      "oph": 2196,
      "Ġwealth": 2197,
      "Ġcomed": 2198,
      "emy": 2199,
      "ĠBlack": 2200,
      "Ġtold": 2201,
      "Ġcut": 2202,
      "Ġuns": 2203,
      "Ġemotional": 2204,
      "ĠRuss": 2205,
      "Ġvisit": 2206,
      "estern": 2207,
      "ements": 2208,
      "'ll": 2209,
      "Ġexec": 2210,
      "Ġvarious": 2211,
      "itten": 2212,
      "Ġmoment": 2213,
      "Ġdesign": 2214,
      "Ġinside": 2215,
      "eat": 2216,
      "ky": 2217,
      "Ġcourse": 2218,
      "lect": 2219,
      "âĢĶ": 2220,
      "ĠTV": 2221,
      "med": 2222,
      "aught": 2223,
      "Ġpot": 2224,
      "eless": 2225,
      "Ġfasc": 2226,
      "known": 2227,
      "Ġdiv": 2228,
      "ploy": 2229,
      "Ġable": 2230,
      "udget": 2231,
      "Ġbirth": 2232,
      "Ġprocess": 2233,
      "ext": 2234,
      "Ġred": 2235,
      "Ġpict": 2236,
      "Ġadv": 2237,
      "go": 2238,
      "ĠDespite": 2239,
      "Ġportrayal": 2240,
      "Ġcrimin": 2241,
      "zy": 2242,
      "Ġsudden": 2243,
      "Ġtruly": 2244,
      "oned": 2245,
      "Ġmission": 2246,
      "Ġmembers": 2247,
      "Ġsusp": 2248,
      "eth": 2249,
      "Ġfeaturing": 2250,
      "Ġlands": 2251,
      "ĠFrank": 2252,
      "Ġamb": 2253,
      "Ġread": 2254,
      "lo": 2255,
      "ĠFrom": 2256,
      "Ġidentity": 2257,
      "Ġguy": 2258,
      "ibly": 2259,
      "ĠHollywood": 2260,
      "Ġquickly": 2261,
      "Ġitself": 2262,
      "Ġstage": 2263,
      "Ġgiven": 2264,
      "--": 2265,
      "Ġforces": 2266,
      "ĠSw": 2267,
      "ortunately": 2268,
      "ief": 2269,
      "icult": 2270,
      "Ġ7": 2271,
      "Ġtitle": 2272,
      "Ġdeliver": 2273,
      "not": 2274,
      "Ġdeterm": 2275,
      "Ġmix": 2276,
      "Ġago": 2277,
      "Ġinform": 2278,
      "itive": 2279,
      "ĠEx": 2280,
      "though": 2281,
      "use": 2282,
      "Ġteacher": 2283,
      "Ġculture": 2284,
      "Ġworth": 2285,
      "Ġamong": 2286,
      "Ġ6": 2287,
      "ĠOr": 2288,
      "ares": 2289,
      "Ġusing": 2290,
      "Ġtour": 2291,
      "Ġviolence": 2292,
      "Ġcompet": 2293,
      "Ġresc": 2294,
      "Ġnum": 2295,
      "Ġplans": 2296,
      "Ġshoot": 2297,
      "ards": 2298,
      "Ġpurs": 2299,
      "while": 2300,
      "Ġtrack": 2301,
      "pe": 2302,
      "Ġghost": 2303,
      "Ġsad": 2304,
      "Ġstep": 2305,
      "Ġelse": 2306,
      "Ġrich": 2307,
      "Ġgri": 2308,
      "Ġterror": 2309,
      "ection": 2310,
      "te": 2311,
      "Ġstra": 2312,
      "Ġoffers": 2313,
      "Ġwater": 2314,
      "ĠJapanese": 2315,
      "Ġsure": 2316,
      "Ġproject": 2317,
      "unch": 2318,
      "Ġwhom": 2319,
      "ĠAfric": 2320,
      "cent": 2321,
      "Ġdifficult": 2322,
      "Ġdance": 2323,
      "'d": 2324,
      "isod": 2325,
      "iar": 2326,
      "Ġmissing": 2327,
      "Ġstudents": 2328,
      "Ġbelieve": 2329,
      "ases": 2330,
      "Ġplaying": 2331,
      "Ġaut": 2332,
      "Ġhistor": 2333,
      "Ġromance": 2334,
      "Ġloved": 2335,
      "Ġmarry": 2336,
      "ke": 2337,
      "Ġdoing": 2338,
      "ization": 2339,
      "imp": 2340,
      "Ġpiece": 2341,
      "het": 2342,
      "Ġsix": 2343,
      "ĠAust": 2344,
      "itary": 2345,
      "ĠAngel": 2346,
      "ĠEvery": 2347,
      "Ġ10": 2348,
      "Ġtyp": 2349,
      "sw": 2350,
      "Ġcomb": 2351,
      "Ġcontrol": 2352,
      "sequ": 2353,
      "Ġparticularly": 2354,
      "read": 2355,
      "Ġbra": 2356,
      "Ġweek": 2357,
      "Ġchalleng": 2358,
      "Ġactor": 2359,
      "Ġtransform": 2360,
      "izing": 2361,
      "Ġsees": 2362,
      "Ġobsess": 2363,
      "oid": 2364,
      "ĠMay": 2365,
      "Ġmount": 2366,
      "rupt": 2367,
      "what": 2368,
      "Ġfell": 2369,
      "stem": 2370,
      "Ġdestro": 2371,
      "Ġstruggle": 2372,
      "Ġgovernment": 2373,
      "like": 2374,
      "Ġromantic": 2375,
      "Ġleaving": 2376,
      "Ġsens": 2377,
      "Ġble": 2378,
      "Ġleading": 2379,
      "Ġdirected": 2380,
      "for": 2381,
      "eral": 2382,
      "mb": 2383,
      "Ġarrives": 2384,
      "rent": 2385,
      "ended": 2386,
      "Ġimages": 2387,
      "ift": 2388,
      "Ġ18": 2389,
      "Ġtoday": 2390,
      "20": 2391,
      "Ġscient": 2392,
      "Ġcaus": 2393,
      "ĠTheir": 2394,
      "used": 2395,
      "Ġpay": 2396,
      "Ġelements": 2397,
      "ana": 2398,
      "Ġheav": 2399,
      "Ġcart": 2400,
      "tr": 2401,
      "Ġowner": 2402,
      "Ġ--": 2403,
      "ders": 2404,
      "Ġmist": 2405,
      "HE": 2406,
      "Ġactors": 2407,
      "ented": 2408,
      "Ġadventure": 2409,
      "Ġfavorite": 2410,
      "Ġship": 2411,
      "ĠSome": 2412,
      "nal": 2413,
      "Ġways": 2414,
      "Ġindust": 2415,
      "Ġsat": 2416,
      "une": 2417,
      "ĠEarth": 2418,
      "Ġsummer": 2419,
      "rid": 2420,
      "ĠJames": 2421,
      "itions": 2422,
      "Ġcross": 2423,
      "Ġnovel": 2424,
      "ield": 2425,
      "Ġeyes": 2426,
      "arch": 2427,
      "rible": 2428,
      "ĠMart": 2429,
      "ining": 2430,
      "con": 2431,
      "Ġbrut": 2432,
      "Ġbur": 2433,
      "Ġsupport": 2434,
      "ĠMichael": 2435,
      "ĠGr": 2436,
      "Ġversion": 2437,
      "Ġextrem": 2438,
      "ĠCal": 2439,
      "ĠSouth": 2440,
      "Ġboys": 2441,
      "Ġtreat": 2442,
      "dy": 2443,
      "Ġsend": 2444,
      "Ġmystery": 2445,
      "Ġgun": 2446,
      "Ġrad": 2447,
      "Ġhear": 2448,
      "Ġruns": 2449,
      "Ġrace": 2450,
      "Ġdangerous": 2451,
      "Ġcame": 2452,
      "Ġwonder": 2453,
      "ech": 2454,
      "Ġwind": 2455,
      "akers": 2456,
      "Ġattract": 2457,
      "icks": 2458,
      "Ġimportant": 2459,
      "Ġer": 2460,
      "Ġmult": 2461,
      "Ġaudience": 2462,
      "imately": 2463,
      "Ġactiv": 2464,
      "Ġwitness": 2465,
      "ĠUS": 2466,
      "Ġresult": 2467,
      "Ġinflu": 2468,
      "che": 2469,
      "Ġdone": 2470,
      "ĠRich": 2471,
      "ĠJoe": 2472,
      "ĠBen": 2473,
      "ites": 2474,
      "Ġfeeling": 2475,
      "olid": 2476,
      "unted": 2477,
      "Ġending": 2478,
      "Ġboyfriend": 2479,
      "oke": 2480,
      "Ġauth": 2481,
      "oles": 2482,
      "Ġsubject": 2483,
      "Ġfire": 2484,
      "oint": 2485,
      "Ġvoice": 2486,
      "ĠSte": 2487,
      "rec": 2488,
      "ĠDe": 2489,
      "ript": 2490,
      "Ġboss": 2491,
      "Ġfear": 2492,
      "ajor": 2493,
      "Ġserv": 2494,
      "Ġod": 2495,
      "Ġknows": 2496,
      "000": 2497,
      "Ġpred": 2498,
      "Ġepisod": 2499,
      "Ġturned": 2500,
      "Ġfront": 2501,
      "Ġclaim": 2502,
      "ĠGu": 2503,
      "Ġanimated": 2504,
      "Ġneeds": 2505,
      "Ġhar": 2506,
      "Ġeffect": 2507,
      "Ġlist": 2508,
      "Ġdanc": 2509,
      "Ġpath": 2510,
      "pective": 2511,
      "ivil": 2512,
      "irt": 2513,
      "agon": 2514,
      "rought": 2515,
      "aries": 2516,
      "ino": 2517,
      "Ġreleased": 2518,
      "Ġmoving": 2519,
      "Ġsaf": 2520,
      "Ġpopular": 2521,
      "ĠPro": 2522,
      "Ġprem": 2523,
      "Ġpur": 2524,
      "Ġlon": 2525,
      "Ġsystem": 2526,
      "Ġcentury": 2527,
      "ene": 2528,
      "Ġintri": 2529,
      "Ġfollowing": 2530,
      "Ġcreate": 2531,
      "rait": 2532,
      "Ġbaby": 2533,
      "Ġcrit": 2534,
      "ither": 2535,
      "Ġsomewhat": 2536,
      "Ġhappy": 2537,
      "Ġstate": 2538,
      "Ġfair": 2539,
      "Ġorgan": 2540,
      "ĠGeorge": 2541,
      "Ġwriter": 2542,
      "Ġwon": 2543,
      "usion": 2544,
      "rag": 2545,
      "Ġclos": 2546,
      "itting": 2547,
      "Ġprotect": 2548,
      "Ġpassion": 2549,
      "ĠItal": 2550,
      "arre": 2551,
      "ĠHall": 2552,
      "Ġmeans": 2553,
      "right": 2554,
      "unning": 2555,
      "ogue": 2556,
      "Ġdeeply": 2557,
      "Ġmemories": 2558,
      "Ġwood": 2559,
      "Ġaffair": 2560,
      "Ġfarm": 2561,
      "ĠJul": 2562,
      "cer": 2563,
      "ĠMor": 2564,
      "Ġsimple": 2565,
      "illy": 2566,
      "Ġled": 2567,
      "aff": 2568,
      "Ġopen": 2569,
      "Ġoutside": 2570,
      "azing": 2571,
      "Ġadapt": 2572,
      "ĠParis": 2573,
      "Ġcover": 2574,
      "Ġtook": 2575,
      "Ġindivid": 2576,
      "Ġcertain": 2577,
      "ĠBro": 2578,
      "Ġtradition": 2579,
      "Ġlif": 2580,
      "Ġconfront": 2581,
      "Ġextra": 2582,
      "Ġuses": 2583,
      "men": 2584,
      "ressed": 2585,
      "Ġfascin": 2586,
      "Ġwish": 2587,
      "Ġapartment": 2588,
      "Ġline": 2589,
      "Ġpriv": 2590,
      "ĠDoc": 2591,
      "ready": 2592,
      "reaking": 2593,
      "ries": 2594,
      "ĠEur": 2595,
      "exic": 2596,
      "Ġneighbor": 2597,
      "Ġaband": 2598,
      "Ġanyone": 2599,
      "Ġwhe": 2600,
      "Ġbecame": 2601,
      "Ġauthor": 2602,
      "Ġcool": 2603,
      "Ġic": 2604,
      "ression": 2605,
      "Ġphys": 2606,
      "!!": 2607,
      "Ġsurvive": 2608,
      "ĠMean": 2609,
      "Ġmagic": 2610,
      "Ġanc": 2611,
      "Ġair": 2612,
      "ĠMary": 2613,
      "Ġru": 2614,
      "ĠBill": 2615,
      "Ġsoul": 2616,
      "ograp": 2617,
      "Ġissues": 2618,
      "Ġstreet": 2619,
      "Ġgreatest": 2620,
      "ĠThen": 2621,
      "ĠCharl": 2622,
      "Ġnice": 2623,
      "Ġeventually": 2624,
      "aches": 2625,
      "ĠRobert": 2626,
      "gn": 2627,
      "Ġindividual": 2628,
      "Ġfan": 2629,
      "astic": 2630,
      "Ġlaugh": 2631,
      "off": 2632,
      "illing": 2633,
      "Ġsleep": 2634,
      "Ġnon": 2635,
      "bably": 2636,
      "light": 2637,
      "Ġattention": 2638,
      "olf": 2639,
      "ĠWilliam": 2640,
      "Ġthroughout": 2641,
      "iod": 2642,
      "Ġactress": 2643,
      "ned": 2644,
      "Ġpos": 2645,
      "gest": 2646,
      "evision": 2647,
      "Ġthemes": 2648,
      "Ġleast": 2649,
      "ĠPeter": 2650,
      "Ġrese": 2651,
      "ospital": 2652,
      "Ġimpact": 2653,
      "Ġful": 2654,
      "ĠMexic": 2655,
      "Ġwealthy": 2656,
      "Ġthriller": 2657,
      "Ġforce": 2658,
      "abor": 2659,
      "Ġmoves": 2660,
      "Ġwent": 2661,
      "Ġtalk": 2662,
      "ĠDis": 2663,
      "aper": 2664,
      "oved": 2665,
      "Ġmurdered": 2666,
      "Ġencounter": 2667,
      "Ġsweet": 2668,
      "ĠBob": 2669,
      "Ġviolent": 2670,
      "ĠSm": 2671,
      "Ġalready": 2672,
      "Ġexploration": 2673,
      "usive": 2674,
      "ruct": 2675,
      "str": 2676,
      "icide": 2677,
      "Ġintern": 2678,
      "enge": 2679,
      "ustr": 2680,
      "real": 2681,
      "Ġsituation": 2682,
      "ĠMeanwhile": 2683,
      "ĠPol": 2684,
      "Ġbox": 2685,
      "ological": 2686,
      "ilar": 2687,
      "ĠDuring": 2688,
      "Ġproblems": 2689,
      "ium": 2690,
      "Ġdoctor": 2691,
      "Ġdou": 2692,
      "Ġexcept": 2693,
      "Ġmater": 2694,
      "Ġseeing": 2695,
      "Ġcost": 2696,
      "estival": 2697,
      "Ġground": 2698,
      "Ġcaught": 2699,
      "Ġdiscuss": 2700,
      "Ġbank": 2701,
      "Ġwed": 2702,
      "ending": 2703,
      "Ġsuccessful": 2704,
      "ued": 2705,
      "Ġreb": 2706,
      "Ġdisturb": 2707,
      "ips": 2708,
      "unting": 2709,
      "ĠEnglish": 2710,
      "Ġinnoc": 2711,
      "Ġmark": 2712,
      "ĠJust": 2713,
      "Ġserious": 2714,
      "Ġremains": 2715,
      "Ġexam": 2716,
      "hem": 2717,
      "Ġwanted": 2718,
      "bo": 2719,
      "Ġbrought": 2720,
      "Ġrare": 2721,
      "Ġcharming": 2722,
      "jects": 2723,
      "itch": 2724,
      "earing": 2725,
      "come": 2726,
      "Ġdial": 2727,
      "Ġentertaining": 2728,
      "Ġhappens": 2729,
      "anged": 2730,
      "idence": 2731,
      "ĠLou": 2732,
      "Ġbas": 2733,
      "Ġsal": 2734,
      "Ġten": 2735,
      "Ġgold": 2736,
      "ilt": 2737,
      "ilarious": 2738,
      "Ġportrait": 2739,
      "ĠEurope": 2740,
      "oman": 2741,
      "Ġpeace": 2742,
      "Ġdetail": 2743,
      "ĠWest": 2744,
      "Ġrac": 2745,
      "ĠThree": 2746,
      "Ġolder": 2747,
      "Ġemploy": 2748,
      "Ġmat": 2749,
      "Ġenjoyed": 2750,
      "Ġfa": 2751,
      "arent": 2752,
      "Ġmass": 2753,
      "ĠFr": 2754,
      "Ġeffects": 2755,
      "Ġabsol": 2756,
      "Ġperiod": 2757,
      "Ġang": 2758,
      "Ġrid": 2759,
      "mp": 2760,
      "Ġteenage": 2761,
      "Ġexperiences": 2762,
      "Ġbuilding": 2763,
      "Ġ194": 2764,
      "Ġcap": 2765,
      "ruction": 2766,
      "bum": 2767,
      "Ġlim": 2768,
      "new": 2769,
      "iron": 2770,
      "Ġhours": 2771,
      "Ġleader": 2772,
      "Ġfood": 2773,
      "Ġsurround": 2774,
      "ĠMad": 2775,
      "Ġreason": 2776,
      "Ġchanges": 2777,
      "boy": 2778,
      "iers": 2779,
      "Ġfigure": 2780,
      "war": 2781,
      "Ġmale": 2782,
      "Ġbeauty": 2783,
      "Ġkilling": 2784,
      "Ġwid": 2785,
      "omin": 2786,
      "urt": 2787,
      "rets": 2788,
      "fort": 2789,
      "ained": 2790,
      "Ġ195": 2791,
      "Ġshare": 2792,
      "Ġhospital": 2793,
      "hern": 2794,
      ".âĢĿ": 2795,
      "Ġintimate": 2796,
      "room": 2797,
      "Ġbrothers": 2798,
      "Ġforg": 2799,
      "Ġloves": 2800,
      "Ġquality": 2801,
      "eer": 2802,
      "Ġconcert": 2803,
      "ius": 2804,
      "Ġmeaning": 2805,
      "Ġfate": 2806,
      "Ġrunning": 2807,
      "Ġdetective": 2808,
      "ĠQu": 2809,
      "ĠPat": 2810,
      "pired": 2811,
      "mosp": 2812,
      "enty": 2813,
      "Ġaccept": 2814,
      "Ġsuddenly": 2815,
      "cle": 2816,
      "Ġmad": 2817,
      "ĠAlex": 2818,
      "nie": 2819,
      "work": 2820,
      "Ġhidden": 2821,
      "ĠMon": 2822,
      "Ġmilitary": 2823,
      "Ġapproach": 2824,
      "Ġremember": 2825,
      "Ġtrouble": 2826,
      "iate": 2827,
      "Ġsaw": 2828,
      "Ġgrad": 2829,
      "Ġhilarious": 2830,
      "Ġsongs": 2831,
      "ender": 2832,
      "row": 2833,
      "Ġkidnapp": 2834,
      "Ġtowards": 2835,
      "head": 2836,
      "iny": 2837,
      "Ġda": 2838,
      "Ġmel": 2839,
      "ĠEv": 2840,
      "Ġproblem": 2841,
      "Ġfans": 2842,
      "lict": 2843,
      "IN": 2844,
      "Ġbecoming": 2845,
      "Ġholid": 2846,
      "roduc": 2847,
      "Ġclub": 2848,
      "Ġatmosp": 2849,
      "Ġstruggling": 2850,
      "Ġpoet": 2851,
      "Ġmaterial": 2852,
      "Ġfur": 2853,
      "ĠThrough": 2854,
      "Ġdraw": 2855,
      "Ġens": 2856,
      "Ġadm": 2857,
      "Ġmod": 2858,
      "Ġtelevision": 2859,
      "Ġi": 2860,
      "Ġtone": 2861,
      "Ġ30": 2862,
      "Ġlarge": 2863,
      "Ġera": 2864,
      "Ġsaid": 2865,
      "ĠTHE": 2866,
      "chie": 2867,
      "Ġdestroy": 2868,
      "Ġforever": 2869,
      "rees": 2870,
      "Ġlover": 2871,
      "Ġrelationships": 2872,
      "Ġfails": 2873,
      "where": 2874,
      "Ġalbum": 2875,
      "Ġengaging": 2876,
      "ĠOl": 2877,
      "Ġmajor": 2878,
      "arks": 2879,
      "Ġfeelings": 2880,
      "Ġstreets": 2881,
      "Ġansw": 2882,
      "Ġdecent": 2883,
      "Ġfinding": 2884,
      "Ġliter": 2885,
      "Ġenjoyable": 2886,
      "Ġasks": 2887,
      "Ġcannot": 2888,
      "Ġhappened": 2889,
      "play": 2890,
      "uz": 2891,
      "anda": 2892,
      "owers": 2893,
      "erson": 2894,
      "Ġplayed": 2895,
      "Ġmer": 2896,
      "aining": 2897,
      "ults": 2898,
      "Ġball": 2899,
      "omm": 2900,
      "Ġcreated": 2901,
      "Ġviewers": 2902,
      "Ġpossible": 2903,
      "Ġstraight": 2904,
      "ĠLee": 2905,
      "sters": 2906,
      "Ġcompletely": 2907,
      "ength": 2908,
      "Ġjoin": 2909,
      "uses": 2910,
      "Ġpartner": 2911,
      "Ġbey": 2912,
      "itation": 2913,
      "Ġbeyond": 2914,
      "Ġshowc": 2915,
      "ps": 2916,
      "Ġultimately": 2917,
      "ĠCanad": 2918,
      "stit": 2919,
      "Ġgenre": 2920,
      "Ġfighting": 2921,
      "uted": 2922,
      "Ġmatter": 2923,
      "Ġenv": 2924,
      "Ġrealize": 2925,
      "Ġlandscap": 2926,
      "Ġintrigu": 2927,
      "Ġnews": 2928,
      "init": 2929,
      "Ġequ": 2930,
      "Ġtem": 2931,
      "Ġ193": 2932,
      "ĠII": 2933,
      "Ġquestions": 2934,
      "ceed": 2935,
      "ĠPe": 2936,
      "ĠMin": 2937,
      "olic": 2938,
      "Ġnav": 2939,
      "Ġess": 2940,
      "Ġloss": 2941,
      "ĠGl": 2942,
      "ishing": 2943,
      "Ġeye": 2944,
      "anch": 2945,
      "ĠHen": 2946,
      "Ġdoor": 2947,
      "Ġrelig": 2948,
      "Ġsteal": 2949,
      "Ġdesert": 2950,
      "ĠâĢĶ": 2951,
      "port": 2952,
      "law": 2953,
      "rifying": 2954,
      "izarre": 2955,
      "ken": 2956,
      "Ġask": 2957,
      "Ġcontem": 2958,
      "Ġbelieves": 2959,
      "Ġbi": 2960,
      "ionally": 2961,
      "heart": 2962,
      "ĠAustral": 2963,
      "Ġdin": 2964,
      "ĠLove": 2965,
      "Ġmedia": 2966,
      "Ġofficer": 2967,
      "Ġpicture": 2968,
      "Ġfle": 2969,
      "Ġyouth": 2970,
      "ried": 2971,
      "ĠUnf": 2972,
      "ha": 2973,
      "ER": 2974,
      "Ġmemory": 2975,
      "Ġweird": 2976,
      "ĠPhil": 2977,
      "Ġfascinating": 2978,
      "ronic": 2979,
      "Ġimpressive": 2980,
      "Ġmach": 2981,
      "Ġinspir": 2982,
      "ĠRichard": 2983,
      "itted": 2984,
      "Ġtwist": 2985,
      "ĠBer": 2986,
      "initely": 2987,
      "using": 2988,
      "Ġprevious": 2989,
      "Ġrespons": 2990,
      "Ġsepar": 2991,
      "Ġpleas": 2992,
      "aring": 2993,
      "Ġshop": 2994,
      "Ġexact": 2995,
      "âĢ¦": 2996,
      "Ġdeadly": 2997,
      "edom": 2998,
      "Ġwedding": 2999,
      "Ġprobably": 3000,
      "Ġforest": 3001,
      "Ġcollect": 3002,
      "Ġrecently": 3003,
      "cher": 3004,
      "rage": 3005,
      "iverse": 3006,
      "Ġsinger": 3007,
      "Ġcinemat": 3008,
      "inese": 3009,
      "Ġhonest": 3010,
      "Ġbizarre": 3011,
      "Ġrou": 3012,
      "Ġtroub": 3013,
      "Ġworst": 3014,
      "Ġdetermined": 3015,
      "Ġlegendary": 3016,
      "oes": 3017,
      "ographer": 3018,
      "Ġrelease": 3019,
      "ously": 3020,
      "life": 3021,
      "uel": 3022,
      "Ġunl": 3023,
      "ij": 3024,
      "ĠPer": 3025,
      "Ġremote": 3026,
      "back": 3027,
      "Ġbed": 3028,
      "Ġfilmed": 3029,
      "Ġrealizes": 3030,
      "ape": 3031,
      "Ġfort": 3032,
      "Ġste": 3033,
      "ĠIndian": 3034,
      "Ġfaces": 3035,
      "Ġprogram": 3036,
      "ĠNorth": 3037,
      "ze": 3038,
      "Ġstat": 3039,
      "Ġyounger": 3040,
      "ĠNaz": 3041,
      "ĠEn": 3042,
      "Ġpract": 3043,
      "Ġmonths": 3044,
      "ĠSant": 3045,
      "lying": 3046,
      "Ġsin": 3047,
      "ends": 3048,
      "Ġreun": 3049,
      "Ġconsequ": 3050,
      "Ġeffort": 3051,
      "Ġalive": 3052,
      "Ġwasn": 3053,
      "Ġdie": 3054,
      "Ġagent": 3055,
      "Ġquiet": 3056,
      "Ġcolor": 3057,
      "Ġmovement": 3058,
      "Ġreveals": 3059,
      "Ġstore": 3060,
      "ĠUnited": 3061,
      "ĠUnfortunately": 3062,
      "Ġcriminal": 3063,
      "Ġopportun": 3064,
      "ormal": 3065,
      "Ġ15": 3066,
      "Ġpresents": 3067,
      "Ġsuicide": 3068,
      "Ġcha": 3069,
      "Ġprep": 3070,
      "Ġfilmmakers": 3071,
      "ĠX": 3072,
      "ĠFin": 3073,
      "Ġsilent": 3074,
      "Ġdied": 3075,
      "ĠGreat": 3076,
      "cious": 3077,
      "Ġconcept": 3078,
      "Ġhealth": 3079,
      "Ġcomplic": 3080,
      "Ġamazing": 3081,
      "Ġterrible": 3082,
      "win": 3083,
      "Ġsecrets": 3084,
      "Ġbeginning": 3085,
      "Ġking": 3086,
      "ators": 3087,
      "Ġcontent": 3088,
      "Ġsimilar": 3089,
      "Ġmillion": 3090,
      "Ġassist": 3091,
      "omen": 3092,
      "Ġsometimes": 3093,
      "ension": 3094,
      "ĠChinese": 3095,
      "ĠMag": 3096,
      "ĠBased": 3097,
      "utely": 3098,
      "Ġsurf": 3099,
      "Ġdialogue": 3100,
      "Ġnumber": 3101,
      "cing": 3102,
      "Ġrap": 3103,
      "owed": 3104,
      "Ġthinks": 3105,
      "cend": 3106,
      "Ġrepres": 3107,
      "Ġapprec": 3108,
      "oor": 3109,
      "oking": 3110,
      "Ġgrowing": 3111,
      "ĠLuc": 3112,
      "Ġarmy": 3113,
      "Ġsett": 3114,
      "ocked": 3115,
      "Ġpress": 3116,
      "urch": 3117,
      "ĠCharlie": 3118,
      "icious": 3119,
      "Ġdesc": 3120,
      "Ġtragic": 3121,
      "ashing": 3122,
      "minute": 3123,
      "Ġrescue": 3124,
      "Ġwal": 3125,
      "Ġdies": 3126,
      "Ġserial": 3127,
      "eed": 3128,
      "vert": 3129,
      "Ġinit": 3130,
      "ency": 3131,
      "Ġtheat": 3132,
      "Ġancient": 3133,
      "pro": 3134,
      "Ġpotential": 3135,
      "rise": 3136,
      "osh": 3137,
      "alls": 3138,
      "riff": 3139,
      "Ġsolid": 3140,
      "ishes": 3141,
      "Ġhotel": 3142,
      "ging": 3143,
      "ĠPal": 3144,
      "ama": 3145,
      "order": 3146,
      "Ġstunning": 3147,
      "Ġalien": 3148,
      "Ġmental": 3149,
      "Ġbond": 3150,
      "Ġcomplete": 3151,
      "ĠPres": 3152,
      "epend": 3153,
      "Ġdesperate": 3154,
      "Ġfreedom": 3155,
      "Ġcinematic": 3156,
      "Ġindustry": 3157,
      "Ġsignific": 3158,
      "hab": 3159,
      "rant": 3160,
      "Ġir": 3161,
      "eck": 3162,
      "Ġglob": 3163,
      "ĠSet": 3164,
      "Ġrural": 3165,
      "ugg": 3166,
      "Ġconflict": 3167,
      "Ġsea": 3168,
      "Ġve": 3169,
      "ĠRed": 3170,
      "Ġdemon": 3171,
      "Ġride": 3172,
      "angers": 3173,
      "Ġarrest": 3174,
      "Ġwords": 3175,
      "Ġhaunted": 3176,
      "Ġstarted": 3177,
      "Ġisol": 3178,
      "Ġvac": 3179,
      "orter": 3180,
      "Ġpair": 3181,
      "Ġstation": 3182,
      "Ġrise": 3183,
      "ecess": 3184,
      "Ġimmed": 3185,
      "Ġabandoned": 3186,
      "Ġintense": 3187,
      "Ġnavig": 3188,
      "ints": 3189,
      "Ġfamilies": 3190,
      "asing": 3191,
      "ĠMark": 3192,
      "ĠBy": 3193,
      "Ġoffice": 3194,
      "uke": 3195,
      "Ġeasy": 3196,
      "Ġcaptiv": 3197,
      "gr": 3198,
      "ĠWal": 3199,
      "Ġdad": 3200,
      "oe": 3201,
      "Ġblend": 3202,
      "Ġsell": 3203,
      "angu": 3204,
      "Ġscript": 3205,
      "Ġfaith": 3206,
      "Ġintriguing": 3207,
      "Ġearth": 3208,
      "Ġwriting": 3209,
      "Ġdig": 3210,
      "Ġpregn": 3211,
      "Ġatmosphere": 3212,
      "Ġuncle": 3213,
      "ette": 3214,
      "Ġtraum": 3215,
      "ague": 3216,
      "Ġprivate": 3217,
      "over": 3218,
      "Ġcurrent": 3219,
      "Ġsugg": 3220,
      "urban": 3221,
      "ĠSan": 3222,
      "iforn": 3223,
      "Ġplanet": 3224,
      "reg": 3225,
      "Ġemer": 3226,
      "uit": 3227,
      "Ġcivil": 3228,
      "Ġpull": 3229,
      "Ġconnection": 3230,
      "Ġsetting": 3231,
      "Ġstuff": 3232,
      "ĠKore": 3233,
      "ĠLa": 3234,
      "ĠSup": 3235,
      "okes": 3236,
      "Ġvisually": 3237,
      "Ġclim": 3238,
      "ocking": 3239,
      "Ġrequ": 3240,
      "yer": 3241,
      "Ġwritten": 3242,
      "Ġtalking": 3243,
      "Ġjournal": 3244,
      "Ġaccidentally": 3245,
      "ĠPet": 3246,
      "Ġhopes": 3247,
      "Ġthird": 3248,
      "otten": 3249,
      "iest": 3250,
      "Ġla": 3251,
      "Ġjustice": 3252,
      "ĠCaliforn": 3253,
      "ĠEngland": 3254,
      "Ġmessage": 3255,
      "cis": 3256,
      "ĠMax": 3257,
      "Ġvamp": 3258,
      "Ġpil": 3259,
      "idents": 3260,
      "Ġtravels": 3261,
      "Ġencounters": 3262,
      "Ġoverall": 3263,
      "ander": 3264,
      "ham": 3265,
      "Ġgenu": 3266,
      "Ġincredible": 3267,
      "Ġtouch": 3268,
      "Ġlonger": 3269,
      "Ġlevel": 3270,
      "Ġdesire": 3271,
      "arkable": 3272,
      "Ġsays": 3273,
      "Ġexistence": 3274,
      "Ġartists": 3275,
      "urd": 3276,
      "ĠFoll": 3277,
      "Ġparts": 3278,
      "Ġseeks": 3279,
      "Ġpossess": 3280,
      "ĠGen": 3281,
      "ogn": 3282,
      "Ġprotagon": 3283,
      "ĠMe": 3284,
      "Ġconsequences": 3285,
      "Ġincreas": 3286,
      "ĠLos": 3287,
      "Ġ$": 3288,
      "Ġmeeting": 3289,
      "mother": 3290,
      "Ġhistorical": 3291,
      "Ġbrutal": 3292,
      "Ġgiving": 3293,
      "Ġris": 3294,
      "Ġwhether": 3295,
      "Ġprove": 3296,
      "Ġkey": 3297,
      "Ġjoy": 3298,
      "Ġdoll": 3299,
      "Ġsubt": 3300,
      "rey": 3301,
      "Ġ16": 3302,
      "Ġgone": 3303,
      "Ġperspective": 3304,
      "Ġenviron": 3305,
      "Ġfast": 3306,
      "acts": 3307,
      "Ġrival": 3308,
      "atching": 3309,
      "father": 3310,
      "Ġhappen": 3311,
      "ĠMa": 3312,
      "itor": 3313,
      "agers": 3314,
      "Ġcoun": 3315,
      "Ġneg": 3316,
      "Ġcinematography": 3317,
      "Ġhorse": 3318,
      "Ġcaptures": 3319,
      "Ġrul": 3320,
      "key": 3321,
      "oices": 3322,
      "ĠWood": 3323,
      "ĠMartin": 3324,
      "Ġtrapped": 3325,
      "ĠMal": 3326,
      "Ġtragedy": 3327,
      "Ġchoice": 3328,
      "ĠStates": 3329,
      "Ġconvers": 3330,
      "Ġener": 3331,
      "Ġcreative": 3332,
      "ĠMus": 3333,
      "Ġbackground": 3334,
      "ĠSer": 3335,
      "Ġchallenges": 3336,
      "ĠLittle": 3337,
      "Ġnearly": 3338,
      "isters": 3339,
      "Ġhell": 3340,
      "Ġelect": 3341,
      "ugh": 3342,
      "ita": 3343,
      "down": 3344,
      "Ġlib": 3345,
      "Ġroll": 3346,
      "anks": 3347,
      "Ġchanged": 3348,
      "bs": 3349,
      "aven": 3350,
      "ĠFrance": 3351,
      "Ġexperimental": 3352,
      "ĠTra": 3353,
      "ĠVal": 3354,
      "ĠRo": 3355,
      "ĠMiss": 3356,
      "Ġdramatic": 3357,
      "Ġfellow": 3358,
      "ĠCalifornia": 3359,
      "Ġbreaks": 3360,
      "Ġachie": 3361,
      "Ġconve": 3362,
      "night": 3363,
      "Ġsoldiers": 3364,
      "Ġhighly": 3365,
      "Ġwoods": 3366,
      "Ġanimals": 3367,
      "yo": 3368,
      "ios": 3369,
      "pet": 3370,
      "iple": 3371,
      "odies": 3372,
      "Ġeduc": 3373,
      "Ġcorrupt": 3374,
      "Ġinspired": 3375,
      "Ġboard": 3376,
      "AN": 3377,
      "Ġadaptation": 3378,
      "Ġkeeps": 3379,
      "ashion": 3380,
      "Ġrevolution": 3381,
      "ube": 3382,
      "Ġremind": 3383,
      "Ġcultural": 3384,
      "Ġsac": 3385,
      "Ġpresence": 3386,
      "Ġlonely": 3387,
      "resh": 3388,
      "Ġshots": 3389,
      "Ġholiday": 3390,
      "Ġbudget": 3391,
      "Ġones": 3392,
      "ĠThese": 3393,
      "ĠCapt": 3394,
      "Ġdecades": 3395,
      "Ġnightm": 3396,
      "Ġinvestigation": 3397,
      "bert": 3398,
      "ĠAg": 3399,
      "Ġcry": 3400,
      "Ġtrail": 3401,
      "Ġbal": 3402,
      "Ġ12": 3403,
      "Ġactual": 3404,
      "Ġcalls": 3405,
      "Ġbiggest": 3406,
      "Ġcru": 3407,
      "ora": 3408,
      "Ġstoryt": 3409,
      "olk": 3410,
      "ĠOver": 3411,
      "ĠSl": 3412,
      "eff": 3413,
      "ĠJew": 3414,
      "Ġknew": 3415,
      "Ġborn": 3416,
      "Ġrecon": 3417,
      "Ġexpected": 3418,
      "ĠAc": 3419,
      "Ġmyself": 3420,
      "asts": 3421,
      "Ġunknown": 3422,
      "Ġspeak": 3423,
      "umentary": 3424,
      "Ġcartoon": 3425,
      "Ġunfold": 3426,
      "Ġunus": 3427,
      "Ġvictims": 3428,
      "ĠDay": 3429,
      "ĠAngeles": 3430,
      "Ġsav": 3431,
      "ĠSim": 3432,
      "Ġmob": 3433,
      "Ġprofessional": 3434,
      "orious": 3435,
      "Ġimage": 3436,
      "icked": 3437,
      "ĠJean": 3438,
      "ĠWho": 3439,
      "Ġdivor": 3440,
      "Ġnatural": 3441,
      "Ġbrill": 3442,
      "Ġdam": 3443,
      "Ġbomb": 3444,
      "alg": 3445,
      "nat": 3446,
      "Ġdi": 3447,
      "Ġfamiliar": 3448,
      "ider": 3449,
      "orable": 3450,
      "Ġtot": 3451,
      "Ġmostly": 3452,
      "Ġgrow": 3453,
      "Ġbull": 3454,
      "Ġcris": 3455,
      "Ġlived": 3456,
      "ĠBig": 3457,
      "Ġconvin": 3458,
      "fer": 3459,
      "Ġunw": 3460,
      "Ġpremise": 3461,
      "ĠQue": 3462,
      "ĠChe": 3463,
      "icted": 3464,
      "ĠBoy": 3465,
      "Ġmember": 3466,
      "ĠGo": 3467,
      "ĠTex": 3468,
      "Ġslowly": 3469,
      "Ġdisturbing": 3470,
      "house": 3471,
      "ka": 3472,
      "ĠAnt": 3473,
      "Ġproduced": 3474,
      "Ġanti": 3475,
      "Ġreach": 3476,
      "ĠDirect": 3477,
      "ĠHong": 3478,
      "ĠSoon": 3479,
      "ĠBel": 3480,
      "ping": 3481,
      "ĠAp": 3482,
      "Ġmir": 3483,
      "Ġcourt": 3484,
      "ĠMike": 3485,
      "ĠAfrican": 3486,
      "ĠKong": 3487,
      "iation": 3488,
      "Ġsqu": 3489,
      "ya": 3490,
      "ĠNick": 3491,
      "Ġut": 3492,
      "Ġloses": 3493,
      "Ġhelps": 3494,
      "ĠRussian": 3495,
      "Ġ202": 3496,
      "ĠRock": 3497,
      "ĠDet": 3498,
      "ĠEast": 3499,
      "Ġchoo": 3500,
      "Ġearl": 3501,
      "ume": 3502,
      "Ġlady": 3503,
      "Ġtraditional": 3504,
      "ĠYoung": 3505,
      "Ġcompelling": 3506,
      "track": 3507,
      "Ġseason": 3508,
      "Ġinformation": 3509,
      "Ġpack": 3510,
      "Ġworse": 3511,
      "Ġstudio": 3512,
      "Ġseemingly": 3513,
      "Ġcab": 3514,
      "Ġboo": 3515,
      "Ġscore": 3516,
      "ĠFrancis": 3517,
      "ĠCent": 3518,
      "Ġsurviv": 3519,
      "rel": 3520,
      "Ġeither": 3521,
      "uous": 3522,
      "Ġtar": 3523,
      "Ġcust": 3524,
      "Ġrefuge": 3525,
      "ula": 3526,
      "Ġassign": 3527,
      "Ġenvironment": 3528,
      "Ġaccomp": 3529,
      "ĠRay": 3530,
      "ĠHenry": 3531,
      "Ġopening": 3532,
      "Ġdriver": 3533,
      "Ġfurther": 3534,
      "Ġindepend": 3535,
      "rian": 3536,
      "Ġkills": 3537,
      "ĠSy": 3538,
      "ĠMel": 3539,
      "Ġfilled": 3540,
      "Ġcontinues": 3541,
      "Ġplaces": 3542,
      "porary": 3543,
      "Ġbeloved": 3544,
      "Ġmorning": 3545,
      "mate": 3546,
      "Ġmurders": 3547,
      "Ġopportunity": 3548,
      "ranged": 3549,
      "ĠHarry": 3550,
      "ĠItalian": 3551,
      "aire": 3552,
      "Ġbrief": 3553,
      "Ġcaptured": 3554,
      "Ġlangu": 3555,
      "Ġediting": 3556,
      "haps": 3557,
      "Ġdaily": 3558,
      "yal": 3559,
      "Ġliked": 3560,
      "ĠPart": 3561,
      "Ġcapture": 3562,
      "Ġwalk": 3563,
      "ON": 3564,
      "ified": 3565,
      "iately": 3566,
      "Ġready": 3567,
      "ĠJerry": 3568,
      "uce": 3569,
      "ĠHam": 3570,
      "anic": 3571,
      "Ġlies": 3572,
      "olves": 3573,
      "ĠJan": 3574,
      "Ġdecided": 3575,
      "iding": 3576,
      "hetic": 3577,
      "ĠChina": 3578,
      "Ġunp": 3579,
      "ether": 3580,
      "Ġunusual": 3581,
      "ĠEll": 3582,
      "Ġshad": 3583,
      "Ġtelling": 3584,
      "Ġmanages": 3585,
      "Ġcow": 3586,
      "ĠPark": 3587,
      "Ġdefinitely": 3588,
      "Ġ1970": 3589,
      "hy": 3590,
      "Ġmonster": 3591,
      "ostalg": 3592,
      "Ġdebut": 3593,
      "Ġcute": 3594,
      "Ġodd": 3595,
      "arden": 3596,
      "bed": 3597,
      "Ġinj": 3598,
      "Ġphysical": 3599,
      "rap": 3600,
      "Ġhang": 3601,
      "Ġcomic": 3602,
      "Ġputs": 3603,
      "Ġ90": 3604,
      "Ġextremely": 3605,
      "Ġcrisis": 3606,
      "Ġvib": 3607,
      "Ġspect": 3608,
      "ĠHel": 3609,
      "ĠMatt": 3610,
      "Ġgod": 3611,
      "Ġunderw": 3612,
      "oil": 3613,
      "Ġcred": 3614,
      "ago": 3615,
      "ĠAlthough": 3616,
      "Ġcomment": 3617,
      "Ġepisode": 3618,
      "Ġid": 3619,
      "Ġrecomm": 3620,
      "die": 3621,
      "aly": 3622,
      "ĠSar": 3623,
      "Ġdiscovered": 3624,
      "Ġepic": 3625,
      "Ġcouldn": 3626,
      "Ġimpro": 3627,
      "Ġprovides": 3628,
      "Ġstorytelling": 3629,
      "ners": 3630,
      "Ġdrag": 3631,
      "han": 3632,
      "dom": 3633,
      "Ġassass": 3634,
      "azz": 3635,
      "ability": 3636,
      "irty": 3637,
      "Ġdepth": 3638,
      "ĠChristian": 3639,
      "Ġunlik": 3640,
      "Ġhuge": 3641,
      "Ġsurvival": 3642,
      "Ġabsolutely": 3643,
      "Ġrecogn": 3644,
      "Ġast": 3645,
      "Ġcollection": 3646,
      "Ġcold": 3647,
      "Ġhide": 3648,
      "omas": 3649,
      "ĠUp": 3650,
      "Ġguys": 3651,
      "ĠJes": 3652,
      "Ġextraord": 3653,
      "ĠSanta": 3654,
      "Ġboring": 3655,
      "Ġdate": 3656,
      "Ġdirection": 3657,
      "Ġfantasy": 3658,
      "Ġblind": 3659,
      "Ġburn": 3660,
      "orough": 3661,
      "Ġstarring": 3662,
      "Ġseek": 3663,
      "nder": 3664,
      "ĠJon": 3665,
      "incess": 3666,
      "oud": 3667,
      "Ġcatch": 3668,
      "Ġspent": 3669,
      "pping": 3670,
      "Ġfalling": 3671,
      "Ġmountain": 3672,
      "Ġcarry": 3673,
      "Ġavoid": 3674,
      "Ġinvestigate": 3675,
      "Ġeffectively": 3676,
      "Ġwaiting": 3677,
      "arian": 3678,
      "Ġarea": 3679,
      "Ġideas": 3680,
      "Ġelder": 3681,
      "Ġorph": 3682,
      "Ġvision": 3683,
      "Ġcommon": 3684,
      "rama": 3685,
      "Ġradio": 3686,
      "Ġinnocent": 3687,
      "Ġdying": 3688,
      "Ġvol": 3689,
      "olen": 3690,
      "Ġforget": 3691,
      "ĠHigh": 3692,
      "Ġsoundtrack": 3693,
      "inting": 3694,
      "ĠâĢĺ": 3695,
      "urity": 3696,
      "Ġadop": 3697,
      "icts": 3698,
      "Ġ80": 3699,
      "ĠScott": 3700,
      "oly": 3701,
      "Ġcontinue": 3702,
      "inis": 3703,
      "Ġimmediately": 3704,
      "Ġemotions": 3705,
      "Ġaffect": 3706,
      "isf": 3707,
      "ĠWhite": 3708,
      "unny": 3709,
      "Ġincredibly": 3710,
      "Ġexactly": 3711,
      "Ġnostalg": 3712,
      "Ġsends": 3713,
      "Ġsurreal": 3714,
      "Ġfian": 3715,
      "action": 3716,
      "Ġlosing": 3717,
      "Ġintroduc": 3718,
      "Ġseven": 3719,
      "Ġpregnant": 3720,
      "ilities": 3721,
      "Ġstruct": 3722,
      "Ġmultiple": 3723,
      "ulous": 3724,
      "Ġteenager": 3725,
      "Ġsed": 3726,
      "aint": 3727,
      "Ġbehav": 3728,
      "Ġhair": 3729,
      "Ġwestern": 3730,
      "ĠIr": 3731,
      "ealous": 3732,
      "Ġrespect": 3733,
      "Ġterms": 3734,
      "Ġsurprise": 3735,
      "ulation": 3736,
      "Ġzomb": 3737,
      "Ġdecision": 3738,
      "Ġrefuses": 3739,
      "Ġ50": 3740,
      "ae": 3741,
      "Ġdevast": 3742,
      "ĠCharles": 3743,
      "Ġbase": 3744,
      "ressive": 3745,
      "Ġtrib": 3746,
      "Ġchronic": 3747,
      "Ġdrunk": 3748,
      "ella": 3749,
      "Ġfrustr": 3750,
      "ĠTok": 3751,
      "Ġdeser": 3752,
      "Ġdelivers": 3753,
      "Ġcharm": 3754,
      "Ġpurp": 3755,
      "Ġexpectations": 3756,
      "Ġcreating": 3757,
      "cast": 3758,
      "ĠSch": 3759,
      "ĠWell": 3760,
      "Ġrecent": 3761,
      "sey": 3762,
      "Ġfinanc": 3763,
      "Ġthinking": 3764,
      "ped": 3765,
      "Ġdrawn": 3766,
      "Ġlacks": 3767,
      "ĠAdam": 3768,
      "Ġbroken": 3769,
      "Ġheads": 3770,
      "eared": 3771,
      "ĠHor": 3772,
      "Ġrobber": 3773,
      "Ġexplore": 3774,
      "Ġiconic": 3775,
      "iles": 3776,
      "Ġtalent": 3777,
      "Ġflat": 3778,
      "Ġimmig": 3779,
      "ought": 3780,
      "ĠSteve": 3781,
      "Ġextraordinary": 3782,
      "vis": 3783,
      "rog": 3784,
      "Ġlandscape": 3785,
      "Ġrepresent": 3786,
      "Ġheard": 3787,
      "Ġstranger": 3788,
      "Ġbirthday": 3789,
      "breaking": 3790,
      "esb": 3791,
      "Ġcrazy": 3792,
      "ĠPop": 3793,
      "ature": 3794,
      "Ġhun": 3795,
      "ictable": 3796,
      "bl": 3797,
      "Ġtrust": 3798,
      "ĠIndia": 3799,
      "Ġscientist": 3800,
      "ĠCr": 3801,
      "AT": 3802,
      "mates": 3803,
      "Ġwait": 3804,
      "budget": 3805,
      "Ġbird": 3806,
      "ĠSat": 3807,
      "Ġrepl": 3808,
      "Ġmagical": 3809,
      "Ġteach": 3810,
      "Ġprim": 3811,
      "Ġvacation": 3812,
      "Ġlat": 3813,
      "ns": 3814,
      "Ġnational": 3815,
      "Ġsupposed": 3816,
      "Ġdyn": 3817,
      "Ġexploring": 3818,
      "Ġhumanity": 3819,
      "bing": 3820,
      "Ġbreat": 3821,
      "aked": 3822,
      "AR": 3823,
      "reet": 3824,
      "itty": 3825,
      "ancy": 3826,
      "Ġheavy": 3827,
      "Ġadult": 3828,
      "mark": 3829,
      "Ġpup": 3830,
      "ĠMur": 3831,
      "ĠOsc": 3832,
      "Ġcompan": 3833,
      "rific": 3834,
      "Ġ17": 3835,
      "Ġprotagonist": 3836,
      "Ġpolic": 3837,
      "Ġkidnapped": 3838,
      "ores": 3839,
      "Ġguard": 3840,
      "coh": 3841,
      "ĠLike": 3842,
      "ĠComm": 3843,
      "Ġheld": 3844,
      "andy": 3845,
      "ĠWat": 3846,
      "ply": 3847,
      "Ġcomedic": 3848,
      "ĠSmith": 3849,
      "urg": 3850,
      "Ġuncover": 3851,
      "ovie": 3852,
      "Ġworked": 3853,
      "ĠKar": 3854,
      "ĠRoy": 3855,
      "Ġreceives": 3856,
      "Ġreminis": 3857,
      "udd": 3858,
      "ĠFirst": 3859,
      "ĠLife": 3860,
      "Ġterrifying": 3861,
      "Ġincludes": 3862,
      "Ġjail": 3863,
      "ĠStan": 3864,
      "Ġign": 3865,
      "Ġlov": 3866,
      "ĠNight": 3867,
      "ĠTony": 3868,
      "Ġnightmare": 3869,
      "ugs": 3870,
      "Ġtim": 3871,
      "ĠCount": 3872,
      "Ġshowing": 3873,
      "Ġdrive": 3874,
      "wise": 3875,
      "Ġlose": 3876,
      "uster": 3877,
      "ĠOf": 3878,
      "ĠGood": 3879,
      "ellig": 3880,
      "oted": 3881,
      "ibility": 3882,
      "Ġrelat": 3883,
      "ĠAnn": 3884,
      "Ġunivers": 3885,
      "how": 3886,
      "Ġsuit": 3887,
      "Ġtheater": 3888,
      "ĠFour": 3889,
      "ellent": 3890,
      "Ġsinging": 3891,
      "Ġstolen": 3892,
      "Ġletter": 3893,
      "Ġvir": 3894,
      "Ġeight": 3895,
      "Ġprovide": 3896,
      "ĠTim": 3897,
      "Ġinsight": 3898,
      "ĠJohnny": 3899,
      "Ġfilmmaking": 3900,
      "Ġjoins": 3901,
      "Ġlawyer": 3902,
      "Ġunlikely": 3903,
      "Ġfashion": 3904,
      "Ġshown": 3905,
      "ĠRy": 3906,
      "pire": 3907,
      "ledge": 3908,
      "Ġsort": 3909,
      "Ġchamp": 3910,
      "Ġweekend": 3911,
      "Ġtreas": 3912,
      "inking": 3913,
      "Ġprostit": 3914,
      "uments": 3915,
      "Ġdisappear": 3916,
      "ĠJane": 3917,
      "ĠBet": 3918,
      "edic": 3919,
      "ĠCaptain": 3920,
      "ĠEven": 3921,
      "Ġentirely": 3922,
      "Ġsnow": 3923,
      "Ġphone": 3924,
      "Ġoffer": 3925,
      "ena": 3926,
      "ĠBilly": 3927,
      "Ġneighborhood": 3928,
      "Ġviewing": 3929,
      "Ġcy": 3930,
      "org": 3931,
      "Ġthous": 3932,
      "Ġfully": 3933,
      "ucky": 3934,
      "iqu": 3935,
      "ashes": 3936,
      "Ġhits": 3937,
      "Ġgiant": 3938,
      "Ġpun": 3939,
      "ĠVict": 3940,
      "oof": 3941,
      "Ġcomfort": 3942,
      "resses": 3943,
      "Ġtough": 3944,
      "hew": 3945,
      "Ġbare": 3946,
      "Ġinher": 3947,
      "hearted": 3948,
      "gl": 3949,
      "Ġpus": 3950,
      "Ġbatt": 3951,
      "Ġmut": 3952,
      "ĠChris": 3953,
      "Ġlanguage": 3954,
      "well": 3955,
      "ki": 3956,
      "Ġevidence": 3957,
      "ĠBra": 3958,
      "ĠJimmy": 3959,
      "uan": 3960,
      "ĠFred": 3961,
      "itz": 3962,
      "Ġphotographer": 3963,
      "ĠWestern": 3964,
      "Th": 3965,
      "Ġservice": 3966,
      "Ġincreasingly": 3967,
      "Ġsuspect": 3968,
      "Ġreligious": 3969,
      "Ġfine": 3970,
      "Ġhired": 3971,
      "ademy": 3972,
      "ĠJeff": 3973,
      "Ġjump": 3974,
      "Ġinterested": 3975,
      "ĠSec": 3976,
      "Ġwonderful": 3977,
      "mar": 3978,
      "uter": 3979,
      "Ġescapes": 3980,
      "Ġcircum": 3981,
      "natural": 3982,
      "Ġring": 3983,
      "Ġalcoh": 3984,
      "ration": 3985,
      "Ġworkers": 3986,
      "Ġenergy": 3987,
      "Ġinternational": 3988,
      "away": 3989,
      "ĠDisney": 3990,
      "Ġfootball": 3991,
      "ometown": 3992,
      "Ġfresh": 3993,
      "entric": 3994,
      "Ġchaos": 3995,
      "ease": 3996,
      "ĠCo": 3997,
      "ĠOnce": 3998,
      "sing": 3999
    },
    "merges": [
      [
        "Ġ",
        "t"
      ],
      [
        "Ġ",
        "a"
      ],
      [
        "h",
        "e"
      ],
      [
        "i",
        "n"
      ],
      [
        "Ġt",
        "he"
      ],
      [
        "e",
        "r"
      ],
      [
        "Ġ",
        "s"
      ],
      [
        "Ġ",
        "o"
      ],
      [
        "r",
        "e"
      ],
      [
        "i",
        "s"
      ],
      [
        "n",
        "d"
      ],
      [
        "Ġ",
        "w"
      ],
      [
        "Ġ",
        "f"
      ],
      [
        "e",
        "s"
      ],
      [
        "a",
        "t"
      ],
      [
        "Ġ",
        "b"
      ],
      [
        "in",
        "g"
      ],
      [
        "o",
        "n"
      ],
      [
        "e",
        "n"
      ],
      [
        "i",
        "t"
      ],
      [
        "Ġ",
        "c"
      ],
      [
        "o",
        "r"
      ],
      [
        "Ġ",
        "h"
      ],
      [
        "Ġ",
        "m"
      ],
      [
        "a",
        "n"
      ],
      [
        "a",
        "r"
      ],
      [
        "Ġt",
        "o"
      ],
      [
        "Ġo",
        "f"
      ],
      [
        "Ġa",
        "nd"
      ],
      [
        "a",
        "l"
      ],
      [
        "Ġ",
        "d"
      ],
      [
        "e",
        "d"
      ],
      [
        "Ġ",
        "p"
      ],
      [
        "Ġ",
        "in"
      ],
      [
        "o",
        "u"
      ],
      [
        "i",
        "l"
      ],
      [
        "Ġ",
        "l"
      ],
      [
        "o",
        "m"
      ],
      [
        "i",
        "c"
      ],
      [
        "a",
        "s"
      ],
      [
        "Ġt",
        "h"
      ],
      [
        "e",
        "l"
      ],
      [
        "Ġ",
        "T"
      ],
      [
        "Ġ",
        "he"
      ],
      [
        "Ġ",
        "g"
      ],
      [
        "Ġ",
        "is"
      ],
      [
        "en",
        "t"
      ],
      [
        "i",
        "on"
      ],
      [
        "Ġ",
        "e"
      ],
      [
        "e",
        "t"
      ],
      [
        "u",
        "t"
      ],
      [
        "l",
        "e"
      ],
      [
        "s",
        "t"
      ],
      [
        "Ġ",
        "A"
      ],
      [
        "Ġ",
        "re"
      ],
      [
        "l",
        "y"
      ],
      [
        "o",
        "t"
      ],
      [
        "i",
        "m"
      ],
      [
        "Ġ",
        "n"
      ],
      [
        "a",
        "c"
      ],
      [
        "v",
        "e"
      ],
      [
        "Ġ",
        "I"
      ],
      [
        "o",
        "w"
      ],
      [
        "i",
        "r"
      ],
      [
        "Ġo",
        "n"
      ],
      [
        "Ġs",
        "t"
      ],
      [
        "o",
        "l"
      ],
      [
        "R",
        "E"
      ],
      [
        "Ġ",
        "<"
      ],
      [
        "S",
        "Y"
      ],
      [
        "RE",
        "V"
      ],
      [
        "SY",
        "N"
      ],
      [
        "e",
        "c"
      ],
      [
        "v",
        "er"
      ],
      [
        "a",
        "m"
      ],
      [
        "it",
        "h"
      ],
      [
        "u",
        "r"
      ],
      [
        "Ġh",
        "is"
      ],
      [
        "r",
        "i"
      ],
      [
        "'",
        "s"
      ],
      [
        "Ġ",
        "S"
      ],
      [
        "u",
        "n"
      ],
      [
        "Ġw",
        "ith"
      ],
      [
        "g",
        "h"
      ],
      [
        "Ġw",
        "h"
      ],
      [
        "t",
        "er"
      ],
      [
        "a",
        "d"
      ],
      [
        "i",
        "d"
      ],
      [
        "Ġf",
        "or"
      ],
      [
        "ĠT",
        "he"
      ],
      [
        "a",
        "y"
      ],
      [
        "Ġa",
        "n"
      ],
      [
        "Ġb",
        "e"
      ],
      [
        "Ġ",
        "it"
      ],
      [
        "r",
        "o"
      ],
      [
        "Ġ",
        "M"
      ],
      [
        "Ġth",
        "at"
      ],
      [
        "Ġ",
        "B"
      ],
      [
        "u",
        "s"
      ],
      [
        "Ġ",
        "C"
      ],
      [
        "he",
        "r"
      ],
      [
        "a",
        "k"
      ],
      [
        "Ġhe",
        "r"
      ],
      [
        "Ġa",
        "s"
      ],
      [
        "u",
        "l"
      ],
      [
        "i",
        "f"
      ],
      [
        "c",
        "e"
      ],
      [
        "r",
        "a"
      ],
      [
        "c",
        "h"
      ],
      [
        "Ġ",
        "H"
      ],
      [
        "il",
        "m"
      ],
      [
        "Ġ",
        "W"
      ],
      [
        "Ġm",
        "o"
      ],
      [
        "il",
        "l"
      ],
      [
        "Ġf",
        "ilm"
      ],
      [
        "Ġ",
        "y"
      ],
      [
        "i",
        "e"
      ],
      [
        "s",
        "e"
      ],
      [
        "g",
        "e"
      ],
      [
        "r",
        "om"
      ],
      [
        "t",
        "s"
      ],
      [
        "at",
        "ion"
      ],
      [
        "Ġ",
        "D"
      ],
      [
        "e",
        "m"
      ],
      [
        "a",
        "nd"
      ],
      [
        "Ġa",
        "l"
      ],
      [
        "Ġb",
        "y"
      ],
      [
        "es",
        "t"
      ],
      [
        "u",
        "m"
      ],
      [
        "Ġa",
        "t"
      ],
      [
        "er",
        "s"
      ],
      [
        "o",
        "o"
      ],
      [
        "Ġe",
        "x"
      ],
      [
        "o",
        "c"
      ],
      [
        "l",
        "d"
      ],
      [
        "Ġwh",
        "o"
      ],
      [
        "Ġc",
        "om"
      ],
      [
        "Ġ",
        "v"
      ],
      [
        "Ġ",
        "P"
      ],
      [
        "Ġs",
        "h"
      ],
      [
        "a",
        "p"
      ],
      [
        "Ġc",
        "h"
      ],
      [
        "es",
        "s"
      ],
      [
        "Ġth",
        "is"
      ],
      [
        "e",
        "ar"
      ],
      [
        "Ġ",
        "F"
      ],
      [
        "c",
        "t"
      ],
      [
        "Ġ",
        "L"
      ],
      [
        "i",
        "gh"
      ],
      [
        "Ġf",
        "rom"
      ],
      [
        "o",
        "p"
      ],
      [
        "u",
        "p"
      ],
      [
        "Ġ",
        "J"
      ],
      [
        "Ġb",
        "ut"
      ],
      [
        "i",
        "v"
      ],
      [
        "Ġc",
        "on"
      ],
      [
        "re",
        "s"
      ],
      [
        "is",
        "t"
      ],
      [
        "â",
        "Ģ"
      ],
      [
        "Ġs",
        "e"
      ],
      [
        "t",
        "h"
      ],
      [
        "i",
        "ve"
      ],
      [
        "Ġ",
        "R"
      ],
      [
        "Ġthe",
        "ir"
      ],
      [
        "Ġ",
        "k"
      ],
      [
        "Ġ",
        "un"
      ],
      [
        "r",
        "ou"
      ],
      [
        "Ġy",
        "ou"
      ],
      [
        "i",
        "es"
      ],
      [
        "Ġw",
        "as"
      ],
      [
        "om",
        "e"
      ],
      [
        "Ġa",
        "b"
      ],
      [
        "a",
        "in"
      ],
      [
        "in",
        "d"
      ],
      [
        "a",
        "b"
      ],
      [
        "Ġd",
        "e"
      ],
      [
        "Ġ",
        "\""
      ],
      [
        "ou",
        "s"
      ],
      [
        "Ġw",
        "or"
      ],
      [
        "Ġa",
        "re"
      ],
      [
        "o",
        "s"
      ],
      [
        "al",
        "l"
      ],
      [
        "Ġ",
        "G"
      ],
      [
        "he",
        "n"
      ],
      [
        "ar",
        "t"
      ],
      [
        "an",
        "t"
      ],
      [
        "Ġ",
        "j"
      ],
      [
        "ou",
        "t"
      ],
      [
        "Ġ",
        "N"
      ],
      [
        "ac",
        "k"
      ],
      [
        "e",
        "nd"
      ],
      [
        "i",
        "g"
      ],
      [
        "ec",
        "t"
      ],
      [
        "Ġin",
        "t"
      ],
      [
        "at",
        "e"
      ],
      [
        "al",
        "ly"
      ],
      [
        "u",
        "st"
      ],
      [
        "q",
        "u"
      ],
      [
        "Ġ",
        "E"
      ],
      [
        "Ġ",
        "r"
      ],
      [
        "or",
        "t"
      ],
      [
        "it",
        "y"
      ],
      [
        "Ġn",
        "e"
      ],
      [
        "Ġh",
        "as"
      ],
      [
        "Ġthe",
        "y"
      ],
      [
        "el",
        "l"
      ],
      [
        "if",
        "e"
      ],
      [
        "a",
        "g"
      ],
      [
        "u",
        "re"
      ],
      [
        "Ġp",
        "l"
      ],
      [
        "Ġs",
        "he"
      ],
      [
        "a",
        "ve"
      ],
      [
        "u",
        "d"
      ],
      [
        "Ġh",
        "im"
      ],
      [
        "igh",
        "t"
      ],
      [
        "Ġp",
        "ro"
      ],
      [
        "Ġl",
        "o"
      ],
      [
        "or",
        "y"
      ],
      [
        "Ġt",
        "r"
      ],
      [
        "Ġm",
        "an"
      ],
      [
        "Ġon",
        "e"
      ],
      [
        "on",
        "g"
      ],
      [
        "as",
        "t"
      ],
      [
        "Ġo",
        "ut"
      ],
      [
        "ar",
        "d"
      ],
      [
        "i",
        "k"
      ],
      [
        "Ġ",
        "O"
      ],
      [
        "Ġn",
        "ot"
      ],
      [
        "Ġs",
        "p"
      ],
      [
        "ĠT",
        "h"
      ],
      [
        "Ġ",
        "K"
      ],
      [
        "Ġl",
        "e"
      ],
      [
        "ar",
        "y"
      ],
      [
        "Ġmo",
        "v"
      ],
      [
        "Ġab",
        "out"
      ],
      [
        "Ġ",
        "1"
      ],
      [
        "i",
        "re"
      ],
      [
        "Ġ",
        "("
      ],
      [
        "Ġex",
        "p"
      ],
      [
        "Ġ",
        "up"
      ],
      [
        "a",
        "v"
      ],
      [
        "o",
        "re"
      ],
      [
        "Ġint",
        "o"
      ],
      [
        "oo",
        "d"
      ],
      [
        "âĢ",
        "Ļ"
      ],
      [
        "a",
        "ge"
      ],
      [
        "im",
        "e"
      ],
      [
        "n",
        "g"
      ],
      [
        "on",
        "e"
      ],
      [
        "i",
        "p"
      ],
      [
        "Ġm",
        "e"
      ],
      [
        "id",
        "e"
      ],
      [
        "a",
        "re"
      ],
      [
        "Ġl",
        "ife"
      ],
      [
        "ver",
        "y"
      ],
      [
        "ic",
        "h"
      ],
      [
        "Ġd",
        "o"
      ],
      [
        "Ġd",
        "is"
      ],
      [
        "ou",
        "r"
      ],
      [
        "Ġ",
        "en"
      ],
      [
        "Ġal",
        "l"
      ],
      [
        "ak",
        "e"
      ],
      [
        "i",
        "an"
      ],
      [
        "e",
        "p"
      ],
      [
        "Ġh",
        "ave"
      ],
      [
        "Ġf",
        "e"
      ],
      [
        "o",
        "y"
      ],
      [
        "re",
        "at"
      ],
      [
        "u",
        "c"
      ],
      [
        "an",
        "g"
      ],
      [
        "Ġa",
        "r"
      ],
      [
        "Ġit",
        "s"
      ],
      [
        "el",
        "y"
      ],
      [
        "Ġs",
        "c"
      ],
      [
        "f",
        "f"
      ],
      [
        "Ġw",
        "hen"
      ],
      [
        "r",
        "y"
      ],
      [
        "Ġthe",
        "m"
      ],
      [
        "f",
        "ter"
      ],
      [
        "ri",
        "end"
      ],
      [
        "Ġc",
        "l"
      ],
      [
        "Ġo",
        "r"
      ],
      [
        "k",
        "s"
      ],
      [
        "i",
        "al"
      ],
      [
        "w",
        "n"
      ],
      [
        "ot",
        "her"
      ],
      [
        "ow",
        "n"
      ],
      [
        "u",
        "e"
      ],
      [
        "o",
        "d"
      ],
      [
        "ĠI",
        "n"
      ],
      [
        "Ġs",
        "o"
      ],
      [
        "ik",
        "e"
      ],
      [
        "Ġ",
        "im"
      ],
      [
        "ĠI",
        "t"
      ],
      [
        "i",
        "ous"
      ],
      [
        "Ġg",
        "et"
      ],
      [
        "ĠC",
        "h"
      ],
      [
        "en",
        "ce"
      ],
      [
        "m",
        "ent"
      ],
      [
        "Ġm",
        "y"
      ],
      [
        "Ġmov",
        "ie"
      ],
      [
        "Ġf",
        "ind"
      ],
      [
        "ic",
        "e"
      ],
      [
        "il",
        "e"
      ],
      [
        "Ġe",
        "v"
      ],
      [
        "Ġb",
        "ec"
      ],
      [
        "n",
        "e"
      ],
      [
        "p",
        "p"
      ],
      [
        "o",
        "g"
      ],
      [
        "as",
        "s"
      ],
      [
        "il",
        "y"
      ],
      [
        "Ġg",
        "o"
      ],
      [
        "ac",
        "e"
      ],
      [
        "an",
        "ce"
      ],
      [
        "m",
        "er"
      ],
      [
        "Ġst",
        "ory"
      ],
      [
        "Ġf",
        "am"
      ],
      [
        "in",
        "e"
      ],
      [
        "Ġs",
        "ome"
      ],
      [
        "u",
        "b"
      ],
      [
        "Ġa",
        "ct"
      ],
      [
        "'",
        "t"
      ],
      [
        "it",
        "e"
      ],
      [
        "ur",
        "n"
      ],
      [
        "il",
        "d"
      ],
      [
        "ou",
        "ld"
      ],
      [
        "i",
        "z"
      ],
      [
        ".",
        "."
      ],
      [
        "Ġt",
        "w"
      ],
      [
        "ab",
        "le"
      ],
      [
        "Ġc",
        "an"
      ],
      [
        "k",
        "ing"
      ],
      [
        "he",
        "re"
      ],
      [
        "Ġyou",
        "ng"
      ],
      [
        "ic",
        "al"
      ],
      [
        "ĠTh",
        "is"
      ],
      [
        "rou",
        "gh"
      ],
      [
        "is",
        "h"
      ],
      [
        "Ġcom",
        "p"
      ],
      [
        "n",
        "t"
      ],
      [
        "i",
        "a"
      ],
      [
        "Ġ",
        "-"
      ],
      [
        "t",
        "her"
      ],
      [
        "Ġa",
        "g"
      ],
      [
        "ol",
        "l"
      ],
      [
        "Ġa",
        "d"
      ],
      [
        "Ġw",
        "om"
      ],
      [
        "or",
        "m"
      ],
      [
        "el",
        "f"
      ],
      [
        "Ġmo",
        "re"
      ],
      [
        "Ġlo",
        "ve"
      ],
      [
        "an",
        "s"
      ],
      [
        "e",
        "en"
      ],
      [
        "o",
        "nd"
      ],
      [
        "am",
        "e"
      ],
      [
        "Ġw",
        "e"
      ],
      [
        "Ġ",
        "qu"
      ],
      [
        "Ġt",
        "ime"
      ],
      [
        "ear",
        "s"
      ],
      [
        "Ġo",
        "ver"
      ],
      [
        "at",
        "ed"
      ],
      [
        "Ġa",
        "c"
      ],
      [
        "o",
        "b"
      ],
      [
        "Ġf",
        "riend"
      ],
      [
        "r",
        "u"
      ],
      [
        "ol",
        "d"
      ],
      [
        "u",
        "nd"
      ],
      [
        "Ġof",
        "f"
      ],
      [
        "Ġl",
        "ike"
      ],
      [
        "Ġp",
        "re"
      ],
      [
        "d",
        "er"
      ],
      [
        "Ġp",
        "er"
      ],
      [
        "Ġd",
        "oc"
      ],
      [
        "ent",
        "s"
      ],
      [
        "i",
        "b"
      ],
      [
        "Ġ",
        "Y"
      ],
      [
        "ac",
        "h"
      ],
      [
        "f",
        "ul"
      ],
      [
        "Ġwh",
        "ich"
      ],
      [
        "ĠS",
        "t"
      ],
      [
        "Ġ1",
        "9"
      ],
      [
        "ing",
        "s"
      ],
      [
        "ul",
        "t"
      ],
      [
        "ac",
        "t"
      ],
      [
        "ak",
        "es"
      ],
      [
        "Ġw",
        "ill"
      ],
      [
        "ic",
        "k"
      ],
      [
        "Ġne",
        "w"
      ],
      [
        "at",
        "her"
      ],
      [
        "ay",
        "s"
      ],
      [
        "Ġin",
        "ter"
      ],
      [
        "p",
        "t"
      ],
      [
        "at",
        "h"
      ],
      [
        "o",
        "st"
      ],
      [
        "ion",
        "s"
      ],
      [
        "Ġ",
        "ro"
      ],
      [
        "res",
        "s"
      ],
      [
        "ir",
        "l"
      ],
      [
        "it",
        "t"
      ],
      [
        "c",
        "o"
      ],
      [
        "Ġw",
        "at"
      ],
      [
        "Ġ",
        "V"
      ],
      [
        "Ġ",
        "U"
      ],
      [
        "Ġb",
        "r"
      ],
      [
        "um",
        "ent"
      ],
      [
        "Ġwor",
        "ld"
      ],
      [
        "Ġp",
        "e"
      ],
      [
        "ation",
        "s"
      ],
      [
        "Ġt",
        "ra"
      ],
      [
        "ar",
        "k"
      ],
      [
        "ic",
        "t"
      ],
      [
        "ap",
        "p"
      ],
      [
        "Ġa",
        "fter"
      ],
      [
        "Ġtw",
        "o"
      ],
      [
        "Ġo",
        "ther"
      ],
      [
        "ĠH",
        "e"
      ],
      [
        "Ġwh",
        "at"
      ],
      [
        "Ġat",
        "t"
      ],
      [
        "Ġd",
        "ec"
      ],
      [
        "Ġfam",
        "ily"
      ],
      [
        "Ġd",
        "es"
      ],
      [
        "Ġh",
        "ow"
      ],
      [
        "Ġch",
        "ar"
      ],
      [
        "er",
        "t"
      ],
      [
        "ou",
        "nd"
      ],
      [
        "v",
        "es"
      ],
      [
        "Ġth",
        "rough"
      ],
      [
        "ou",
        "gh"
      ],
      [
        "a",
        "u"
      ],
      [
        "u",
        "ch"
      ],
      [
        "iv",
        "es"
      ],
      [
        "Ġb",
        "et"
      ],
      [
        "ver",
        "s"
      ],
      [
        "Ġcon",
        "t"
      ],
      [
        "ir",
        "st"
      ],
      [
        "Ġ",
        "2"
      ],
      [
        "c",
        "es"
      ],
      [
        "Ġp",
        "r"
      ],
      [
        "Ġre",
        "s"
      ],
      [
        "Ġc",
        "r"
      ],
      [
        "en",
        "s"
      ],
      [
        "Ġon",
        "ly"
      ],
      [
        "Ġ",
        "us"
      ],
      [
        "Ġj",
        "ust"
      ],
      [
        "u",
        "al"
      ],
      [
        "re",
        "e"
      ],
      [
        "Ġw",
        "here"
      ],
      [
        "Ġg",
        "irl"
      ],
      [
        "Ġdoc",
        "ument"
      ],
      [
        "g",
        "in"
      ],
      [
        "Ġp",
        "art"
      ],
      [
        "ad",
        "e"
      ],
      [
        "ow",
        "s"
      ],
      [
        "Ġre",
        "al"
      ],
      [
        "Ġb",
        "l"
      ],
      [
        "op",
        "le"
      ],
      [
        "f",
        "orm"
      ],
      [
        "Ġk",
        "n"
      ],
      [
        "l",
        "es"
      ],
      [
        "Ġs",
        "ur"
      ],
      [
        "Ġo",
        "wn"
      ],
      [
        "Ġb",
        "ack"
      ],
      [
        "Ġf",
        "irst"
      ],
      [
        "ĠW",
        "hen"
      ],
      [
        "rou",
        "nd"
      ],
      [
        "Ġs",
        "er"
      ],
      [
        "Ġin",
        "c"
      ],
      [
        "Ġre",
        "l"
      ],
      [
        "ak",
        "ing"
      ],
      [
        "o",
        "se"
      ],
      [
        "Ġ",
        "und"
      ],
      [
        "Ġe",
        "very"
      ],
      [
        "Ġe",
        "nd"
      ],
      [
        "Ġin",
        "v"
      ],
      [
        "v",
        "el"
      ],
      [
        "Ġre",
        "c"
      ],
      [
        "a",
        "w"
      ],
      [
        "Ġc",
        "ou"
      ],
      [
        "ĠA",
        "n"
      ],
      [
        "h",
        "ing"
      ],
      [
        "Ġpe",
        "ople"
      ],
      [
        "Ġwor",
        "k"
      ],
      [
        "ĠA",
        "l"
      ],
      [
        "Ġn",
        "o"
      ],
      [
        "Ġim",
        "p"
      ],
      [
        "er",
        "e"
      ],
      [
        "Ġa",
        "pp"
      ],
      [
        "ĠB",
        "ut"
      ],
      [
        "Ġmo",
        "st"
      ],
      [
        "au",
        "gh"
      ],
      [
        "o",
        "ol"
      ],
      [
        "Ġbe",
        "en"
      ],
      [
        "Ġse",
        "e"
      ],
      [
        "Ġt",
        "ri"
      ],
      [
        "or",
        "s"
      ],
      [
        "Ġth",
        "an"
      ],
      [
        "ter",
        "s"
      ],
      [
        "Ġbe",
        "ing"
      ],
      [
        "Ġy",
        "ears"
      ],
      [
        "Ġdocument",
        "ary"
      ],
      [
        "ur",
        "ing"
      ],
      [
        "et",
        "s"
      ],
      [
        "s",
        "o"
      ],
      [
        "s",
        "elf"
      ],
      [
        "he",
        "d"
      ],
      [
        "at",
        "ing"
      ],
      [
        "m",
        "an"
      ],
      [
        "Ġl",
        "oo"
      ],
      [
        "Ġe",
        "m"
      ],
      [
        "ie",
        "w"
      ],
      [
        "Ġwom",
        "an"
      ],
      [
        "Ġ",
        "ri"
      ],
      [
        "h",
        "ip"
      ],
      [
        "g",
        "et"
      ],
      [
        "ĠW",
        "h"
      ],
      [
        "Ġw",
        "ay"
      ],
      [
        "g",
        "g"
      ],
      [
        "a",
        "il"
      ],
      [
        "t",
        "ing"
      ],
      [
        "Ġhe",
        "l"
      ],
      [
        "Ġa",
        "m"
      ],
      [
        "is",
        "e"
      ],
      [
        "Ġund",
        "er"
      ],
      [
        "or",
        "d"
      ],
      [
        "Ġm",
        "us"
      ],
      [
        "Ġch",
        "ild"
      ],
      [
        "ig",
        "n"
      ],
      [
        "Ġthe",
        "re"
      ],
      [
        "p",
        "h"
      ],
      [
        "ire",
        "ct"
      ],
      [
        "Ġo",
        "ld"
      ],
      [
        "Ġk",
        "ill"
      ],
      [
        "r",
        "an"
      ],
      [
        "Ġre",
        "m"
      ],
      [
        "Ġsh",
        "ort"
      ],
      [
        "Ġ",
        "ent"
      ],
      [
        "st",
        "er"
      ],
      [
        "Ġ",
        "âĢ"
      ],
      [
        "Ġ",
        "ra"
      ],
      [
        "p",
        "er"
      ],
      [
        "Ġfriend",
        "s"
      ],
      [
        "p",
        "l"
      ],
      [
        "Ġp",
        "o"
      ],
      [
        "Ġfe",
        "el"
      ],
      [
        "Ġexp",
        "l"
      ],
      [
        "Ġs",
        "ec"
      ],
      [
        "Ġ",
        "el"
      ],
      [
        "n",
        "ing"
      ],
      [
        "Ġag",
        "ain"
      ],
      [
        "Ġh",
        "ad"
      ],
      [
        "a",
        "us"
      ],
      [
        "Ġan",
        "y"
      ],
      [
        "e",
        "w"
      ],
      [
        "ou",
        "se"
      ],
      [
        "Ġwh",
        "ile"
      ],
      [
        "Ġwat",
        "ch"
      ],
      [
        "is",
        "s"
      ],
      [
        "Ġa",
        "w"
      ],
      [
        "Ġst",
        "ar"
      ],
      [
        "he",
        "s"
      ],
      [
        "Ġm",
        "ake"
      ],
      [
        "r",
        "am"
      ],
      [
        "Ġf",
        "ather"
      ],
      [
        "u",
        "res"
      ],
      [
        "Ġm",
        "ar"
      ],
      [
        "on",
        "s"
      ],
      [
        "Ġal",
        "so"
      ],
      [
        "o",
        "ot"
      ],
      [
        "re",
        "n"
      ],
      [
        "Ġh",
        "ome"
      ],
      [
        "r",
        "it"
      ],
      [
        "o",
        "k"
      ],
      [
        "Ġin",
        "s"
      ],
      [
        "al",
        "e"
      ],
      [
        "ĠA",
        "s"
      ],
      [
        "Ġexp",
        "er"
      ],
      [
        "Ġp",
        "ers"
      ],
      [
        "e",
        "x"
      ],
      [
        "f",
        "ore"
      ],
      [
        "Ġre",
        "t"
      ],
      [
        "Ġac",
        "c"
      ],
      [
        "Ġdo",
        "es"
      ],
      [
        "at",
        "es"
      ],
      [
        "e",
        "ver"
      ],
      [
        "mer",
        "ic"
      ],
      [
        "Ġh",
        "um"
      ],
      [
        "w",
        "een"
      ],
      [
        "Ġg",
        "ood"
      ],
      [
        "Ġchar",
        "ac"
      ],
      [
        "Ġf",
        "l"
      ],
      [
        "ĠJ",
        "o"
      ],
      [
        "t",
        "y"
      ],
      [
        "Ġt",
        "urn"
      ],
      [
        "Ġw",
        "ere"
      ],
      [
        "0",
        "0"
      ],
      [
        "Ġp",
        "ol"
      ],
      [
        "y",
        "ing"
      ],
      [
        "b",
        "er"
      ],
      [
        "b",
        "le"
      ],
      [
        "Ġhel",
        "p"
      ],
      [
        "Ġbet",
        "ween"
      ],
      [
        "as",
        "e"
      ],
      [
        "v",
        "ed"
      ],
      [
        "Ġs",
        "m"
      ],
      [
        "os",
        "s"
      ],
      [
        "Ġle",
        "ad"
      ],
      [
        "id",
        "ent"
      ],
      [
        "Ġd",
        "irect"
      ],
      [
        "am",
        "p"
      ],
      [
        "ap",
        "t"
      ],
      [
        "Ġpl",
        "ay"
      ],
      [
        "p",
        "ect"
      ],
      [
        "Ġv",
        "is"
      ],
      [
        "a",
        "ir"
      ],
      [
        "Ġar",
        "t"
      ],
      [
        "Ġg",
        "reat"
      ],
      [
        "Ġw",
        "ould"
      ],
      [
        "re",
        "d"
      ],
      [
        "ch",
        "ool"
      ],
      [
        "Ġcom",
        "m"
      ],
      [
        "om",
        "et"
      ],
      [
        "..",
        "."
      ],
      [
        "ĠA",
        "meric"
      ],
      [
        "Ġ",
        "if"
      ],
      [
        "a",
        "ut"
      ],
      [
        "at",
        "er"
      ],
      [
        "i",
        "ence"
      ],
      [
        "Ġw",
        "ell"
      ],
      [
        "Ġ",
        "very"
      ],
      [
        "n",
        "ess"
      ],
      [
        "Ġd",
        "ay"
      ],
      [
        "ĠS",
        "h"
      ],
      [
        "Ġf",
        "all"
      ],
      [
        "ot",
        "h"
      ],
      [
        "l",
        "ing"
      ],
      [
        "Ġb",
        "oy"
      ],
      [
        "h",
        "n"
      ],
      [
        "if",
        "f"
      ],
      [
        "ĠS",
        "he"
      ],
      [
        "Ġg",
        "r"
      ],
      [
        "re",
        "am"
      ],
      [
        "v",
        "en"
      ],
      [
        "Ġsh",
        "ow"
      ],
      [
        "Ġg",
        "u"
      ],
      [
        "Ġc",
        "ol"
      ],
      [
        "u",
        "ally"
      ],
      [
        "it",
        "s"
      ],
      [
        "Ġm",
        "other"
      ],
      [
        "Ġdis",
        "co"
      ],
      [
        "a",
        "z"
      ],
      [
        "itt",
        "le"
      ],
      [
        "Ġev",
        "en"
      ],
      [
        "it",
        "ion"
      ],
      [
        "ne",
        "y"
      ],
      [
        "f",
        "t"
      ],
      [
        "Ġf",
        "oll"
      ],
      [
        "Ġs",
        "et"
      ],
      [
        "Ġbe",
        "fore"
      ],
      [
        "Ġt",
        "ake"
      ],
      [
        "Ġt",
        "e"
      ],
      [
        "Ġn",
        "ight"
      ],
      [
        "Ġm",
        "ade"
      ],
      [
        "and",
        "s"
      ],
      [
        "al",
        "s"
      ],
      [
        "Ġf",
        "in"
      ],
      [
        "ow",
        "er"
      ],
      [
        "Ġl",
        "ong"
      ],
      [
        "Ġm",
        "ur"
      ],
      [
        "at",
        "ive"
      ],
      [
        "ed",
        "y"
      ],
      [
        "Ġm",
        "uch"
      ],
      [
        "ar",
        "r"
      ],
      [
        "Ġ",
        "es"
      ],
      [
        "Ġl",
        "ives"
      ],
      [
        "Ġbe",
        "gin"
      ],
      [
        "Ġfe",
        "at"
      ],
      [
        "re",
        "t"
      ],
      [
        "Ġs",
        "up"
      ],
      [
        "Ġt",
        "akes"
      ],
      [
        "Ġm",
        "ust"
      ],
      [
        "Ġfind",
        "s"
      ],
      [
        "Ġd",
        "own"
      ],
      [
        "Ġh",
        "igh"
      ],
      [
        "i",
        "et"
      ],
      [
        "r",
        "on"
      ],
      [
        "Ġs",
        "chool"
      ],
      [
        "ul",
        "l"
      ],
      [
        "Ġf",
        "un"
      ],
      [
        "Ġper",
        "form"
      ],
      [
        "Ġs",
        "ub"
      ],
      [
        "oc",
        "k"
      ],
      [
        "Ġs",
        "l"
      ],
      [
        "n",
        "y"
      ],
      [
        "Ġbec",
        "om"
      ],
      [
        "Ġh",
        "or"
      ],
      [
        "ct",
        "ion"
      ],
      [
        "ĠA",
        "fter"
      ],
      [
        "c",
        "ed"
      ],
      [
        "Ġmus",
        "ic"
      ],
      [
        "in",
        "k"
      ],
      [
        "c",
        "ess"
      ],
      [
        "Ġw",
        "ar"
      ],
      [
        "iv",
        "ing"
      ],
      [
        "Ġsc",
        "en"
      ],
      [
        "aus",
        "e"
      ],
      [
        "as",
        "ed"
      ],
      [
        "augh",
        "ter"
      ],
      [
        "Ġh",
        "app"
      ],
      [
        "Ġto",
        "wn"
      ],
      [
        "n",
        "er"
      ],
      [
        "r",
        "or"
      ],
      [
        "ĠM",
        "ar"
      ],
      [
        "Ġin",
        "d"
      ],
      [
        "Ġthe",
        "n"
      ],
      [
        "Ġp",
        "h"
      ],
      [
        "Ġpers",
        "on"
      ],
      [
        "l",
        "ess"
      ],
      [
        "Ġt",
        "ell"
      ],
      [
        "Ġst",
        "ud"
      ],
      [
        "Ġre",
        "ally"
      ],
      [
        "in",
        "t"
      ],
      [
        "Ġbe",
        "aut"
      ],
      [
        "Ġp",
        "res"
      ],
      [
        "Ġg",
        "en"
      ],
      [
        "Ġb",
        "el"
      ],
      [
        "rou",
        "p"
      ],
      [
        "r",
        "ist"
      ],
      [
        "Ġc",
        "o"
      ],
      [
        "Ġw",
        "ife"
      ],
      [
        "l",
        "and"
      ],
      [
        "Ġd",
        "iff"
      ],
      [
        "Ġkn",
        "ow"
      ],
      [
        "Ġr",
        "un"
      ],
      [
        "p",
        "le"
      ],
      [
        "e",
        "v"
      ],
      [
        "Ġ",
        "'"
      ],
      [
        "Ġb",
        "est"
      ],
      [
        "id",
        "es"
      ],
      [
        "Ġl",
        "ittle"
      ],
      [
        "Ġt",
        "er"
      ],
      [
        ")",
        ","
      ],
      [
        "at",
        "t"
      ],
      [
        "Ġm",
        "em"
      ],
      [
        "i",
        "x"
      ],
      [
        "Ġne",
        "ver"
      ],
      [
        "Ġmur",
        "der"
      ],
      [
        "uc",
        "k"
      ],
      [
        "Ġh",
        "ouse"
      ],
      [
        "Ġse",
        "em"
      ],
      [
        "Ġcon",
        "f"
      ],
      [
        "Ġo",
        "b"
      ],
      [
        "an",
        "ts"
      ],
      [
        "Ġhis",
        "t"
      ],
      [
        "l",
        "ud"
      ],
      [
        "ro",
        "s"
      ],
      [
        "Ġde",
        "ath"
      ],
      [
        "ĠThe",
        "y"
      ],
      [
        "as",
        "h"
      ],
      [
        "av",
        "ing"
      ],
      [
        "Ġget",
        "s"
      ],
      [
        "Ġn",
        "ow"
      ],
      [
        "e",
        "y"
      ],
      [
        "Ġfilm",
        "s"
      ],
      [
        "Ġe",
        "ar"
      ],
      [
        "th",
        "ing"
      ],
      [
        "Ġret",
        "urn"
      ],
      [
        "Ġman",
        "y"
      ],
      [
        "c",
        "ap"
      ],
      [
        "Ġhim",
        "self"
      ],
      [
        "Ġg",
        "roup"
      ],
      [
        "is",
        "ts"
      ],
      [
        "Ġst",
        "ill"
      ],
      [
        "Ġl",
        "oc"
      ],
      [
        "v",
        "ent"
      ],
      [
        "w",
        "ard"
      ],
      [
        "Ġs",
        "omet"
      ],
      [
        "Ġc",
        "reat"
      ],
      [
        "Ġc",
        "ould"
      ],
      [
        "Ġth",
        "ough"
      ],
      [
        "Ġc",
        "ar"
      ],
      [
        "Ġa",
        "round"
      ],
      [
        "Ġan",
        "im"
      ],
      [
        "Ġm",
        "in"
      ],
      [
        "Ġd",
        "el"
      ],
      [
        "in",
        "s"
      ],
      [
        "Ġe",
        "ach"
      ],
      [
        "ĠA",
        "nd"
      ],
      [
        "Ġc",
        "are"
      ],
      [
        "Ġmy",
        "ster"
      ],
      [
        "u",
        "es"
      ],
      [
        "ib",
        "le"
      ],
      [
        "Ġst",
        "ru"
      ],
      [
        "Ġth",
        "ree"
      ],
      [
        "Ġb",
        "oth"
      ],
      [
        "Ġs",
        "u"
      ],
      [
        "ĠN",
        "ew"
      ],
      [
        "Ġj",
        "our"
      ],
      [
        "is",
        "m"
      ],
      [
        "it",
        "ed"
      ],
      [
        "Ġd",
        "aughter"
      ],
      [
        "Ġto",
        "get"
      ],
      [
        "Ġto",
        "o"
      ],
      [
        "Ġtoget",
        "her"
      ],
      [
        "Ġwom",
        "en"
      ],
      [
        "Ġas",
        "s"
      ],
      [
        "Ġd",
        "et"
      ],
      [
        "or",
        "n"
      ],
      [
        "Ġst",
        "r"
      ],
      [
        "at",
        "ely"
      ],
      [
        "Ġm",
        "en"
      ],
      [
        "Ġ2",
        "0"
      ],
      [
        "ĠH",
        "ow"
      ],
      [
        "v",
        "iew"
      ],
      [
        "Ġrel",
        "ations"
      ],
      [
        "Ġbecom",
        "es"
      ],
      [
        "T",
        "he"
      ],
      [
        "Ġs",
        "on"
      ],
      [
        "e",
        "ep"
      ],
      [
        "or",
        "k"
      ],
      [
        "if",
        "ul"
      ],
      [
        "ul",
        "ar"
      ],
      [
        "Ġse",
        "x"
      ],
      [
        "Ġe",
        "ff"
      ],
      [
        "i",
        "ed"
      ],
      [
        "Ġs",
        "oc"
      ],
      [
        "ut",
        "e"
      ],
      [
        "l",
        "ed"
      ],
      [
        "Ġd",
        "id"
      ],
      [
        "Ġl",
        "ive"
      ],
      [
        "Ġre",
        "p"
      ],
      [
        "r",
        "ic"
      ],
      [
        "y",
        "s"
      ],
      [
        "Ġcon",
        "s"
      ],
      [
        "ion",
        "al"
      ],
      [
        "Ġpro",
        "d"
      ],
      [
        "Ġrelations",
        "hip"
      ],
      [
        "Ġd",
        "uring"
      ],
      [
        "in",
        "em"
      ],
      [
        "it",
        "ies"
      ],
      [
        "ĠCh",
        "rist"
      ],
      [
        "en",
        "se"
      ],
      [
        "Ġser",
        "ies"
      ],
      [
        "r",
        "is"
      ],
      [
        "Ġagain",
        "st"
      ],
      [
        "Ġc",
        "all"
      ],
      [
        "Ġd",
        "ream"
      ],
      [
        "in",
        "es"
      ],
      [
        "Ġbe",
        "h"
      ],
      [
        "i",
        "o"
      ],
      [
        "im",
        "es"
      ],
      [
        "Ġp",
        "ower"
      ],
      [
        "Ġde",
        "p"
      ],
      [
        "Ġs",
        "w"
      ],
      [
        "at",
        "ic"
      ],
      [
        "Ġbec",
        "ause"
      ],
      [
        "i",
        "er"
      ],
      [
        "ou",
        "nt"
      ],
      [
        "og",
        "ra"
      ],
      [
        "Ġt",
        "al"
      ],
      [
        "Ġmar",
        "ri"
      ],
      [
        "l",
        "l"
      ],
      [
        "or",
        "ies"
      ],
      [
        "v",
        "ing"
      ],
      [
        "ĠU",
        "n"
      ],
      [
        "gh",
        "t"
      ],
      [
        "Ġw",
        "ant"
      ],
      [
        "Ġsm",
        "all"
      ],
      [
        "ut",
        "h"
      ],
      [
        "Ġe",
        "ver"
      ],
      [
        "op",
        "e"
      ],
      [
        "Ġc",
        "apt"
      ],
      [
        "Ġk",
        "id"
      ],
      [
        "Ġtr",
        "ans"
      ],
      [
        "Ġm",
        "om"
      ],
      [
        "Ġthe",
        "se"
      ],
      [
        "ros",
        "s"
      ],
      [
        "Ġgo",
        "es"
      ],
      [
        "Ġcl",
        "ass"
      ],
      [
        "Ġcou",
        "nt"
      ],
      [
        "Ġinc",
        "lud"
      ],
      [
        "ĠA",
        "r"
      ],
      [
        "Ġp",
        "ort"
      ],
      [
        "Ġb",
        "u"
      ],
      [
        "Ġf",
        "oot"
      ],
      [
        "Ġatt",
        "em"
      ],
      [
        "Ġbeaut",
        "iful"
      ],
      [
        "f",
        "riend"
      ],
      [
        "i",
        "en"
      ],
      [
        "in",
        "ce"
      ],
      [
        "ow",
        "ing"
      ],
      [
        "ol",
        "og"
      ],
      [
        "e",
        "b"
      ],
      [
        "Ġloo",
        "k"
      ],
      [
        "Ġf",
        "ound"
      ],
      [
        "ĠB",
        "l"
      ],
      [
        "Ġm",
        "ay"
      ],
      [
        "ĠAmeric",
        "an"
      ],
      [
        "Ġm",
        "aking"
      ],
      [
        "od",
        "y"
      ],
      [
        "Ġbr",
        "other"
      ],
      [
        "Ġm",
        "akes"
      ],
      [
        "Ġl",
        "ear"
      ],
      [
        "an",
        "c"
      ],
      [
        "Ġinter",
        "est"
      ],
      [
        "Ġm",
        "on"
      ],
      [
        "Ġstru",
        "gg"
      ],
      [
        "Ġp",
        "ast"
      ],
      [
        "Ġbec",
        "ome"
      ],
      [
        "Ġl",
        "ast"
      ],
      [
        "j",
        "ect"
      ],
      [
        "ra",
        "nd"
      ],
      [
        "Ġy",
        "ear"
      ],
      [
        "Ġp",
        "ass"
      ],
      [
        "Ġre",
        "f"
      ],
      [
        "ĠJo",
        "hn"
      ],
      [
        "ĠO",
        "n"
      ],
      [
        "ire",
        "d"
      ],
      [
        "is",
        "ter"
      ],
      [
        "ec",
        "ts"
      ],
      [
        "Ġhum",
        "an"
      ],
      [
        "Ġc",
        "re"
      ],
      [
        "Ġsp",
        "ec"
      ],
      [
        "i",
        "ent"
      ],
      [
        ".",
        "\""
      ],
      [
        "Ġf",
        "ar"
      ],
      [
        "ce",
        "pt"
      ],
      [
        "qu",
        "e"
      ],
      [
        "Ġpl",
        "an"
      ],
      [
        "Ġst",
        "art"
      ],
      [
        "Ġan",
        "other"
      ],
      [
        "en",
        "g"
      ],
      [
        "oo",
        "k"
      ],
      [
        "Ġsomet",
        "hing"
      ],
      [
        "in",
        "ess"
      ],
      [
        "a",
        "h"
      ],
      [
        "as",
        "ter"
      ],
      [
        "one",
        "y"
      ],
      [
        "Ġin",
        "st"
      ],
      [
        "d",
        "en"
      ],
      [
        "Ġs",
        "ing"
      ],
      [
        "Ġc",
        "inem"
      ],
      [
        "Ġex",
        "t"
      ],
      [
        "p",
        "ite"
      ],
      [
        "re",
        "ak"
      ],
      [
        "Ġcol",
        "le"
      ],
      [
        "Ġs",
        "k"
      ],
      [
        "j",
        "oy"
      ],
      [
        "âĢ",
        "Ŀ"
      ],
      [
        "Ġcom",
        "edy"
      ],
      [
        "Ġhe",
        "art"
      ],
      [
        "Ġyou",
        "r"
      ],
      [
        "d",
        "ay"
      ],
      [
        "Ġjour",
        "ney"
      ],
      [
        "Ġs",
        "ame"
      ],
      [
        "un",
        "t"
      ],
      [
        "Ġdiff",
        "er"
      ],
      [
        "in",
        "ed"
      ],
      [
        "Ġaw",
        "ay"
      ],
      [
        "Ġhe",
        "ad"
      ],
      [
        "Ġb",
        "ig"
      ],
      [
        "ĠO",
        "ne"
      ],
      [
        "Ġun",
        "t"
      ],
      [
        "Ġcom",
        "es"
      ],
      [
        "Ġpl",
        "ace"
      ],
      [
        "e",
        "e"
      ],
      [
        "ot",
        "t"
      ],
      [
        "c",
        "hed"
      ],
      [
        "Ġg",
        "l"
      ],
      [
        "Ġne",
        "ed"
      ],
      [
        "w",
        "h"
      ],
      [
        "Ġd",
        "ram"
      ],
      [
        "Ġth",
        "ose"
      ],
      [
        "ad",
        "y"
      ],
      [
        "m",
        "y"
      ],
      [
        "Ġm",
        "iss"
      ],
      [
        "Ġf",
        "ight"
      ],
      [
        "'",
        "m"
      ],
      [
        "ag",
        "es"
      ],
      [
        "ou",
        "n"
      ],
      [
        "Ġd",
        "on"
      ],
      [
        "Ġexper",
        "ience"
      ],
      [
        "o",
        "v"
      ],
      [
        "ĠâĢ",
        "ľ"
      ],
      [
        "Ġth",
        "r"
      ],
      [
        "Ġen",
        "joy"
      ],
      [
        "Ġcom",
        "e"
      ],
      [
        "is",
        "on"
      ],
      [
        "i",
        "ver"
      ],
      [
        "ur",
        "al"
      ],
      [
        "Ġse",
        "en"
      ],
      [
        "Ġj",
        "ob"
      ],
      [
        "ĠC",
        "l"
      ],
      [
        "Ġv",
        "iew"
      ],
      [
        "re",
        "en"
      ],
      [
        "l",
        "ic"
      ],
      [
        "Ġde",
        "f"
      ],
      [
        "us",
        "b"
      ],
      [
        "er",
        "a"
      ],
      [
        "Ġhist",
        "ory"
      ],
      [
        "er",
        "ing"
      ],
      [
        "Ġcharac",
        "ters"
      ],
      [
        "ĠS",
        "p"
      ],
      [
        "u",
        "g"
      ],
      [
        "an",
        "ces"
      ],
      [
        "Ġw",
        "r"
      ],
      [
        "Ġlear",
        "n"
      ],
      [
        "Ġde",
        "ad"
      ],
      [
        "ert",
        "ain"
      ],
      [
        "r",
        "ay"
      ],
      [
        "Ġp",
        "ar"
      ],
      [
        "Ġd",
        "ist"
      ],
      [
        "Ġc",
        "ity"
      ],
      [
        "Ġd",
        "ue"
      ],
      [
        "Ġin",
        "f"
      ],
      [
        "m",
        "s"
      ],
      [
        "ic",
        "s"
      ],
      [
        "ar",
        "s"
      ],
      [
        "Ġbel",
        "ie"
      ],
      [
        "b",
        "e"
      ],
      [
        "ain",
        "s"
      ],
      [
        "Ġes",
        "cap"
      ],
      [
        "Ġo",
        "ur"
      ],
      [
        "l",
        "et"
      ],
      [
        "Ġs",
        "im"
      ],
      [
        "Ġcharac",
        "ter"
      ],
      [
        "Ġqu",
        "est"
      ],
      [
        "o",
        "on"
      ],
      [
        "s",
        "y"
      ],
      [
        "Ġbeh",
        "ind"
      ],
      [
        "Ġso",
        "on"
      ],
      [
        "Ġk",
        "eep"
      ],
      [
        "usb",
        "and"
      ],
      [
        "'",
        "ve"
      ],
      [
        "Ġfall",
        "s"
      ],
      [
        "Ġsur",
        "v"
      ],
      [
        "Ġ",
        "3"
      ],
      [
        "Ġth",
        "ings"
      ],
      [
        "Ġn",
        "arr"
      ],
      [
        "Ġs",
        "uc"
      ],
      [
        "Ġb",
        "us"
      ],
      [
        "i",
        "ally"
      ],
      [
        "ĠHow",
        "ever"
      ],
      [
        "Ġchild",
        "ren"
      ],
      [
        "ĠW",
        "ith"
      ],
      [
        "ĠY",
        "ou"
      ],
      [
        "Ġsec",
        "ret"
      ],
      [
        "Ġc",
        "he"
      ],
      [
        ")",
        "."
      ],
      [
        "Ġo",
        "p"
      ],
      [
        "Ġbegin",
        "s"
      ],
      [
        "Ġle",
        "ft"
      ],
      [
        "m",
        "ing"
      ],
      [
        "d",
        "e"
      ],
      [
        "Ġ",
        "Z"
      ],
      [
        "an",
        "e"
      ],
      [
        "Ġde",
        "ep"
      ],
      [
        "Ġp",
        "ut"
      ],
      [
        "Ġd",
        "ark"
      ],
      [
        "ĠThe",
        "re"
      ],
      [
        "at",
        "ch"
      ],
      [
        "c",
        "k"
      ],
      [
        "Ġsh",
        "ot"
      ],
      [
        "ter",
        "n"
      ],
      [
        "i",
        "ol"
      ],
      [
        "Ġme",
        "ets"
      ],
      [
        "ut",
        "ion"
      ],
      [
        "Ġunt",
        "il"
      ],
      [
        "Ġb",
        "o"
      ],
      [
        "ation",
        "al"
      ],
      [
        "Ġtr",
        "ue"
      ],
      [
        "Ġh",
        "usband"
      ],
      [
        "Ġl",
        "iving"
      ],
      [
        "Ġpl",
        "ot"
      ],
      [
        "Ġmyster",
        "ious"
      ],
      [
        "Ġdoes",
        "n"
      ],
      [
        "it",
        "ing"
      ],
      [
        "Ġme",
        "et"
      ],
      [
        "ĠI",
        "s"
      ],
      [
        "Ġv",
        "ill"
      ],
      [
        "ĠB",
        "e"
      ],
      [
        "Ġtri",
        "es"
      ],
      [
        "Ġc",
        "ult"
      ],
      [
        "s",
        "on"
      ],
      [
        "ang",
        "er"
      ],
      [
        "ĠA",
        "t"
      ],
      [
        "Ġh",
        "ard"
      ],
      [
        "Ġw",
        "ants"
      ],
      [
        "Ġgo",
        "ing"
      ],
      [
        "Ġb",
        "ad"
      ],
      [
        "Ġinv",
        "est"
      ],
      [
        "Ġt",
        "een"
      ],
      [
        "Ġfilm",
        "m"
      ],
      [
        "Ġdirect",
        "or"
      ],
      [
        "Ġwith",
        "out"
      ],
      [
        "us",
        "s"
      ],
      [
        "Ġd",
        "ri"
      ],
      [
        "e",
        "ad"
      ],
      [
        "Ġg",
        "ang"
      ],
      [
        "ir",
        "d"
      ],
      [
        "le",
        "y"
      ],
      [
        "Ġcount",
        "ry"
      ],
      [
        "ic",
        "ally"
      ],
      [
        "Ġ",
        "rom"
      ],
      [
        "ogra",
        "ph"
      ],
      [
        "am",
        "ed"
      ],
      [
        "Ġdiffer",
        "ent"
      ],
      [
        "Ġperson",
        "al"
      ],
      [
        "y",
        "ear"
      ],
      [
        "Ġd",
        "em"
      ],
      [
        "Ġ",
        "ed"
      ],
      [
        "t",
        "he"
      ],
      [
        "Ġloc",
        "al"
      ],
      [
        "c",
        "l"
      ],
      [
        "Ġc",
        "ent"
      ],
      [
        "Ġm",
        "oney"
      ],
      [
        "are",
        "n"
      ],
      [
        "Ġpol",
        "ice"
      ],
      [
        "Ġdisco",
        "ver"
      ],
      [
        "Ġcomm",
        "un"
      ],
      [
        "Ġem",
        "ot"
      ],
      [
        "Ġp",
        "rom"
      ],
      [
        "Ġs",
        "uch"
      ],
      [
        "un",
        "g"
      ],
      [
        "Ġf",
        "ore"
      ],
      [
        "e",
        "an"
      ],
      [
        "w",
        "ays"
      ],
      [
        "Ġhor",
        "ror"
      ],
      [
        "ĠW",
        "ill"
      ],
      [
        "Ġs",
        "ol"
      ],
      [
        "Ġst",
        "op"
      ],
      [
        "Ġpr",
        "ot"
      ],
      [
        "Ġm",
        "ed"
      ],
      [
        "Ġte",
        "am"
      ],
      [
        "Ġun",
        "i"
      ],
      [
        "ing",
        "ly"
      ],
      [
        "s",
        "el"
      ],
      [
        "h",
        "ood"
      ],
      [
        "e",
        "al"
      ],
      [
        "Ġpre",
        "t"
      ],
      [
        "Ġ",
        "ide"
      ],
      [
        "Ġfoot",
        "age"
      ],
      [
        "Ġmov",
        "ies"
      ],
      [
        "r",
        "act"
      ],
      [
        "c",
        "c"
      ],
      [
        "an",
        "y"
      ],
      [
        "Ġtell",
        "s"
      ],
      [
        "ĠT",
        "w"
      ],
      [
        "ĠH",
        "is"
      ],
      [
        "Ġar",
        "ri"
      ],
      [
        "Ġtr",
        "ying"
      ],
      [
        "Ã",
        "©"
      ],
      [
        "m",
        "as"
      ],
      [
        "Ġth",
        "ink"
      ],
      [
        "Ġd",
        "ra"
      ],
      [
        "Ġc",
        "le"
      ],
      [
        "an",
        "k"
      ],
      [
        "an",
        "ge"
      ],
      [
        "ac",
        "es"
      ],
      [
        "y",
        "p"
      ],
      [
        "Ġm",
        "id"
      ],
      [
        "i",
        "ec"
      ],
      [
        "Ġspec",
        "ial"
      ],
      [
        "Ġv",
        "iol"
      ],
      [
        "Ġpro",
        "f"
      ],
      [
        "Ġcou",
        "ple"
      ],
      [
        "ur",
        "s"
      ],
      [
        "ak",
        "er"
      ],
      [
        "Ġbet",
        "ter"
      ],
      [
        "am",
        "es"
      ],
      [
        "Ġen",
        "g"
      ],
      [
        "Ġs",
        "ound"
      ],
      [
        "ri",
        "gin"
      ],
      [
        "ist",
        "ic"
      ],
      [
        "ĠF",
        "ran"
      ],
      [
        "Ġa",
        "ff"
      ],
      [
        "i",
        "el"
      ],
      [
        "a",
        "f"
      ],
      [
        "Ġs",
        "y"
      ],
      [
        "ar",
        "ious"
      ],
      [
        "a",
        "x"
      ],
      [
        "ĠW",
        "ar"
      ],
      [
        "av",
        "es"
      ],
      [
        "in",
        "a"
      ],
      [
        "Ġc",
        "ast"
      ],
      [
        "Ġsup",
        "er"
      ],
      [
        "Ġwatch",
        "ing"
      ],
      [
        "s",
        "ide"
      ],
      [
        "ell",
        "ing"
      ],
      [
        "Ġre",
        "st"
      ],
      [
        "et",
        "t"
      ],
      [
        "Ġdec",
        "ides"
      ],
      [
        "Ġfoll",
        "ows"
      ],
      [
        "ure",
        "d"
      ],
      [
        "Ġst",
        "re"
      ],
      [
        "iv",
        "al"
      ],
      [
        "Ġad",
        "d"
      ],
      [
        "le",
        "x"
      ],
      [
        "Ġl",
        "ot"
      ],
      [
        "'",
        "re"
      ],
      [
        "e",
        "g"
      ],
      [
        "ort",
        "un"
      ],
      [
        "ĠWh",
        "ile"
      ],
      [
        "Ġb",
        "reak"
      ],
      [
        "sel",
        "ves"
      ],
      [
        "a",
        "id"
      ],
      [
        "Ġa",
        "p"
      ],
      [
        "ĠWh",
        "at"
      ],
      [
        "ron",
        "t"
      ],
      [
        "Ġinvest",
        "ig"
      ],
      [
        "on",
        "y"
      ],
      [
        "Ġun",
        "f"
      ],
      [
        "ĠC",
        "ar"
      ],
      [
        "b",
        "y"
      ],
      [
        "Ġf",
        "ace"
      ],
      [
        "ĠY",
        "ork"
      ],
      [
        "ur",
        "b"
      ],
      [
        "Ġp",
        "ri"
      ],
      [
        "Ġal",
        "ong"
      ],
      [
        "Ġm",
        "ag"
      ],
      [
        "Ġn",
        "at"
      ],
      [
        "Ġtra",
        "vel"
      ],
      [
        "Ġinter",
        "view"
      ],
      [
        "aren",
        "ts"
      ],
      [
        "Ġhe",
        "re"
      ],
      [
        "Ġun",
        "c"
      ],
      [
        "Ġscen",
        "e"
      ],
      [
        "e",
        "f"
      ],
      [
        "Ġo",
        "rigin"
      ],
      [
        "Ġal",
        "ways"
      ],
      [
        "Ġd",
        "est"
      ],
      [
        "x",
        "t"
      ],
      [
        "Ġl",
        "ater"
      ],
      [
        "iz",
        "ed"
      ],
      [
        "y",
        "le"
      ],
      [
        "Ġseem",
        "s"
      ],
      [
        "it",
        "al"
      ],
      [
        "Ġs",
        "ear"
      ],
      [
        "Ġfor",
        "m"
      ],
      [
        "ĠS",
        "c"
      ],
      [
        "Ġfe",
        "w"
      ],
      [
        "Ġre",
        "g"
      ],
      [
        "Ġst",
        "and"
      ],
      [
        "Ġinv",
        "ol"
      ],
      [
        "Ġc",
        "or"
      ],
      [
        "Ġdis",
        "app"
      ],
      [
        "an",
        "n"
      ],
      [
        "Ġre",
        "le"
      ],
      [
        "Ġb",
        "and"
      ],
      [
        "Ġbl",
        "ack"
      ],
      [
        "ur",
        "y"
      ],
      [
        "as",
        "on"
      ],
      [
        "Ġturn",
        "s"
      ],
      [
        "Ġexpl",
        "o"
      ],
      [
        "ro",
        "p"
      ],
      [
        "ut",
        "es"
      ],
      [
        "Ġevery",
        "thing"
      ],
      [
        "Ġor",
        "der"
      ],
      [
        "if",
        "ic"
      ],
      [
        "ĠChrist",
        "mas"
      ],
      [
        "Ġv",
        "ide"
      ],
      [
        "Ġim",
        "m"
      ],
      [
        "Ġw",
        "rit"
      ],
      [
        "Ġm",
        "et"
      ],
      [
        "Ġcon",
        "c"
      ],
      [
        "Ġre",
        "ve"
      ],
      [
        "Ġk",
        "ind"
      ],
      [
        "igh",
        "ts"
      ],
      [
        "Ġp",
        "ain"
      ],
      [
        "Ġpol",
        "it"
      ],
      [
        "Ġc",
        "am"
      ],
      [
        "Ġinclud",
        "ing"
      ],
      [
        "Ġl",
        "ack"
      ],
      [
        "Ġlo",
        "st"
      ],
      [
        "or",
        "ts"
      ],
      [
        "f",
        "ect"
      ],
      [
        "Ġsuc",
        "cess"
      ],
      [
        "Ġf",
        "ut"
      ],
      [
        "Ġh",
        "and"
      ],
      [
        "Ġh",
        "aving"
      ],
      [
        "u",
        "k"
      ],
      [
        "Ġp",
        "oss"
      ],
      [
        "ab",
        "ly"
      ],
      [
        "Ġmo",
        "ve"
      ],
      [
        "al",
        "th"
      ],
      [
        "ĠI",
        "nd"
      ],
      [
        "en",
        "ing"
      ],
      [
        "il",
        "ity"
      ],
      [
        "Ġthem",
        "selves"
      ],
      [
        "Ġpro",
        "v"
      ],
      [
        "Ġdram",
        "a"
      ],
      [
        "or",
        "ld"
      ],
      [
        "ĠF",
        "or"
      ],
      [
        "Ġde",
        "v"
      ],
      [
        "iet",
        "y"
      ],
      [
        "Ġfeel",
        "s"
      ],
      [
        "um",
        "b"
      ],
      [
        "Ġs",
        "elf"
      ],
      [
        "er",
        "y"
      ],
      [
        "er",
        "m"
      ],
      [
        "ĠB",
        "r"
      ],
      [
        "Ġf",
        "ail"
      ],
      [
        "Ġn",
        "amed"
      ],
      [
        "Ġy",
        "et"
      ],
      [
        "Ġexp",
        "ect"
      ],
      [
        "Ġsup",
        "p"
      ],
      [
        "Ġact",
        "ion"
      ],
      [
        "Ġa",
        "ud"
      ],
      [
        "Ġp",
        "op"
      ],
      [
        "al",
        "f"
      ],
      [
        "Ġn",
        "ear"
      ],
      [
        "Ġl",
        "et"
      ],
      [
        "ri",
        "f"
      ],
      [
        "st",
        "and"
      ],
      [
        "s",
        "c"
      ],
      [
        "u",
        "ction"
      ],
      [
        "Ġc",
        "our"
      ],
      [
        "Ġp",
        "arents"
      ],
      [
        "Ġf",
        "our"
      ],
      [
        "Ġinterest",
        "ing"
      ],
      [
        "Ġattem",
        "pt"
      ],
      [
        "Ġri",
        "ght"
      ],
      [
        "a",
        "i"
      ],
      [
        "Ġon",
        "ce"
      ],
      [
        "Ġst",
        "ories"
      ],
      [
        "Ġen",
        "c"
      ],
      [
        "Ġw",
        "in"
      ],
      [
        "Ġwho",
        "se"
      ],
      [
        "er",
        "ed"
      ],
      [
        "Ġsur",
        "p"
      ],
      [
        "are",
        "d"
      ],
      [
        "o",
        "ve"
      ],
      [
        "ap",
        "an"
      ],
      [
        "Ġdisco",
        "vers"
      ],
      [
        "ge",
        "nd"
      ],
      [
        "Ġear",
        "ly"
      ],
      [
        "Ġe",
        "y"
      ],
      [
        "Ġsp",
        "ir"
      ],
      [
        "Ġd",
        "r"
      ],
      [
        "Ġd",
        "ays"
      ],
      [
        "a",
        "j"
      ],
      [
        "Ġher",
        "self"
      ],
      [
        "g",
        "an"
      ],
      [
        "ol",
        "ly"
      ],
      [
        "Ġpres",
        "ent"
      ],
      [
        "n",
        "ect"
      ],
      [
        "Ġbus",
        "iness"
      ],
      [
        "Ġs",
        "ave"
      ],
      [
        "iz",
        "e"
      ],
      [
        "os",
        "p"
      ],
      [
        "Ġpart",
        "ic"
      ],
      [
        "p",
        "ts"
      ],
      [
        "is",
        "ion"
      ],
      [
        "Ġpr",
        "ison"
      ],
      [
        "en",
        "n"
      ],
      [
        "ent",
        "ly"
      ],
      [
        "Ġthough",
        "t"
      ],
      [
        "Ġe",
        "p"
      ],
      [
        "ĠB",
        "rit"
      ],
      [
        "Ġscen",
        "es"
      ],
      [
        "ĠR",
        "ob"
      ],
      [
        "ran",
        "ge"
      ],
      [
        "ent",
        "al"
      ],
      [
        "ak",
        "en"
      ],
      [
        "Ġgen",
        "er"
      ],
      [
        "t",
        "en"
      ],
      [
        "\"",
        "."
      ],
      [
        "ĠJ",
        "apan"
      ],
      [
        "in",
        "c"
      ],
      [
        "Ġs",
        "ister"
      ],
      [
        "Ġch",
        "ang"
      ],
      [
        "Ġwor",
        "ks"
      ],
      [
        "att",
        "le"
      ],
      [
        "Ġs",
        "ong"
      ],
      [
        "s",
        "p"
      ],
      [
        "ĠT",
        "om"
      ],
      [
        "Ġl",
        "ight"
      ],
      [
        "Ġwor",
        "king"
      ],
      [
        "c",
        "hes"
      ],
      [
        "ĠL",
        "e"
      ],
      [
        "ĠH",
        "er"
      ],
      [
        "Ġj",
        "o"
      ],
      [
        "Ġfor",
        "mer"
      ],
      [
        "ĠCh",
        "ar"
      ],
      [
        "s",
        "h"
      ],
      [
        "Ġfut",
        "ure"
      ],
      [
        "Ġstar",
        "ts"
      ],
      [
        "Ġb",
        "it"
      ],
      [
        "Ġm",
        "ain"
      ],
      [
        "g",
        "u"
      ],
      [
        "Ġdes",
        "pite"
      ],
      [
        "ĠA",
        "m"
      ],
      [
        "Ġem",
        "b"
      ],
      [
        "Ġs",
        "us"
      ],
      [
        "Ġp",
        "sy"
      ],
      [
        "Ġt",
        "imes"
      ],
      [
        "vel",
        "op"
      ],
      [
        "e",
        "k"
      ],
      [
        "Ġc",
        "at"
      ],
      [
        "1",
        "9"
      ],
      [
        "Ġ",
        "Q"
      ],
      [
        "Ġen",
        "ough"
      ],
      [
        "ĠW",
        "e"
      ],
      [
        "Ġph",
        "ot"
      ],
      [
        "Ġs",
        "ay"
      ],
      [
        "Ġl",
        "and"
      ],
      [
        "el",
        "t"
      ],
      [
        "pect",
        "ed"
      ],
      [
        "Ġhow",
        "ever"
      ],
      [
        "Ġsear",
        "ch"
      ],
      [
        "Ġev",
        "ent"
      ],
      [
        "ĠE",
        "d"
      ],
      [
        "Ġo",
        "pp"
      ],
      [
        "en",
        "ces"
      ],
      [
        "Ġsh",
        "ould"
      ],
      [
        "Ġcare",
        "er"
      ],
      [
        "Ġcomp",
        "let"
      ],
      [
        "Ġev",
        "ents"
      ],
      [
        "Ġcont",
        "in"
      ],
      [
        "Ġex",
        "c"
      ],
      [
        "Ġs",
        "ince"
      ],
      [
        "ĠF",
        "ilm"
      ],
      [
        "om",
        "b"
      ],
      [
        "oc",
        "us"
      ],
      [
        "os",
        "ed"
      ],
      [
        "Ġuni",
        "que"
      ],
      [
        "on",
        "t"
      ],
      [
        "Ġus",
        "e"
      ],
      [
        "iec",
        "e"
      ],
      [
        "Ġcont",
        "r"
      ],
      [
        "re",
        "m"
      ],
      [
        "ĠâĢ",
        "ĵ"
      ],
      [
        "at",
        "or"
      ],
      [
        "Ġc",
        "ur"
      ],
      [
        "Ġne",
        "xt"
      ],
      [
        "Ġbu",
        "ild"
      ],
      [
        "Ġsec",
        "ond"
      ],
      [
        "ĠE",
        "l"
      ],
      [
        "ian",
        "s"
      ],
      [
        "Ġ",
        "5"
      ],
      [
        "ĠD",
        "av"
      ],
      [
        "Ġper",
        "fect"
      ],
      [
        "Ġent",
        "ire"
      ],
      [
        "Ġpret",
        "ty"
      ],
      [
        "Ġab",
        "s"
      ],
      [
        "Ġf",
        "ull"
      ],
      [
        "Ġse",
        "ver"
      ],
      [
        "ent",
        "ion"
      ],
      [
        "a",
        "im"
      ],
      [
        "Ġmin",
        "utes"
      ],
      [
        "Ġdis",
        "c"
      ],
      [
        "Ġre",
        "v"
      ],
      [
        "Ġth",
        "ing"
      ],
      [
        "un",
        "k"
      ],
      [
        "Ġs",
        "ent"
      ],
      [
        "Ġacc",
        "ident"
      ],
      [
        "l",
        "er"
      ],
      [
        "Ġcon",
        "v"
      ],
      [
        "Ġnot",
        "hing"
      ],
      [
        "Ġsh",
        "ows"
      ],
      [
        "Ġro",
        "om"
      ],
      [
        "ĠTw",
        "o"
      ],
      [
        "in",
        "ation"
      ],
      [
        "d",
        "s"
      ],
      [
        "Ġreturn",
        "s"
      ],
      [
        "es",
        "e"
      ],
      [
        "w",
        "ood"
      ],
      [
        "d",
        "le"
      ],
      [
        "Ġf",
        "act"
      ],
      [
        "Ġtr",
        "y"
      ],
      [
        "o",
        "ice"
      ],
      [
        "ĠH",
        "ar"
      ],
      [
        "Ġbr",
        "ing"
      ],
      [
        "Ġac",
        "ross"
      ],
      [
        "en",
        "ed"
      ],
      [
        "ĠN",
        "ot"
      ],
      [
        "\"",
        ","
      ],
      [
        "im",
        "ate"
      ],
      [
        "Ġb",
        "ody"
      ],
      [
        "as",
        "c"
      ],
      [
        "Ġg",
        "rand"
      ],
      [
        "ĠC",
        "an"
      ],
      [
        "Ġob",
        "s"
      ],
      [
        "at",
        "ter"
      ],
      [
        "Ġad",
        "vent"
      ],
      [
        "Ġf",
        "em"
      ],
      [
        "i",
        "am"
      ],
      [
        "ĠM",
        "an"
      ],
      [
        "Ġof",
        "ten"
      ],
      [
        "er",
        "man"
      ],
      [
        "r",
        "ing"
      ],
      [
        "ru",
        "g"
      ],
      [
        "Ġpro",
        "ble"
      ],
      [
        "Ġsc",
        "reen"
      ],
      [
        "ĠJ",
        "ack"
      ],
      [
        "Ġ",
        "4"
      ],
      [
        "Ġqu",
        "ite"
      ],
      [
        "Ġde",
        "al"
      ],
      [
        "Ġcr",
        "ime"
      ],
      [
        "Ġc",
        "amp"
      ],
      [
        "ect",
        "ive"
      ],
      [
        "r",
        "up"
      ],
      [
        "p",
        "ir"
      ],
      [
        "Ġs",
        "it"
      ],
      [
        "Ġm",
        "ind"
      ],
      [
        "m",
        "ost"
      ],
      [
        "p",
        "ar"
      ],
      [
        "y",
        "n"
      ],
      [
        "Ġs",
        "il"
      ],
      [
        "Ġperform",
        "ance"
      ],
      [
        "Ġescap",
        "e"
      ],
      [
        "Ġap",
        "art"
      ],
      [
        "r",
        "al"
      ],
      [
        "iv",
        "ely"
      ],
      [
        "Ġfor",
        "ced"
      ],
      [
        "Ġm",
        "is"
      ],
      [
        "ĠC",
        "om"
      ],
      [
        "al",
        "ity"
      ],
      [
        "ĠA",
        "d"
      ],
      [
        "Ġw",
        "it"
      ],
      [
        "um",
        "p"
      ],
      [
        "Ġg",
        "ame"
      ],
      [
        "ĠT",
        "o"
      ],
      [
        "a",
        "ul"
      ],
      [
        "u",
        "ct"
      ],
      [
        "ĠAl",
        "l"
      ],
      [
        "Ġf",
        "ocus"
      ],
      [
        "w",
        "ay"
      ],
      [
        "Ġvide",
        "o"
      ],
      [
        "Ġport",
        "ray"
      ],
      [
        "b",
        "ers"
      ],
      [
        "ĠD",
        "es"
      ],
      [
        "el",
        "s"
      ],
      [
        "ĠD",
        "r"
      ],
      [
        "Ġkn",
        "own"
      ],
      [
        "Ġtra",
        "in"
      ],
      [
        "Ġ",
        "ident"
      ],
      [
        "ĠE",
        "ng"
      ],
      [
        "Ġg",
        "ive"
      ],
      [
        "el",
        "eb"
      ],
      [
        "Ġst",
        "ri"
      ],
      [
        "Ġde",
        "velop"
      ],
      [
        "Ġl",
        "ar"
      ],
      [
        "ic",
        "es"
      ],
      [
        "Ġrec",
        "ord"
      ],
      [
        "Ġkill",
        "er"
      ],
      [
        "Ġsome",
        "one"
      ],
      [
        "Ġp",
        "ub"
      ],
      [
        "Ġth",
        "reat"
      ],
      [
        "ac",
        "y"
      ],
      [
        "Ġevery",
        "one"
      ],
      [
        "ill",
        "er"
      ],
      [
        "Ġh",
        "om"
      ],
      [
        "Ġro",
        "b"
      ],
      [
        "Ġvill",
        "age"
      ],
      [
        "ot",
        "e"
      ],
      [
        "Ġh",
        "alf"
      ],
      [
        "Ġch",
        "ange"
      ],
      [
        "m",
        "in"
      ],
      [
        "or",
        "ing"
      ],
      [
        "Ġwh",
        "y"
      ],
      [
        "Ġwat",
        "ched"
      ],
      [
        "Ġsoc",
        "ial"
      ],
      [
        "Ġt",
        "rou"
      ],
      [
        "Ġun",
        "ex"
      ],
      [
        "i",
        "res"
      ],
      [
        "ac",
        "her"
      ],
      [
        "Ġs",
        "ign"
      ],
      [
        "ĠI",
        "f"
      ],
      [
        "ou",
        "th"
      ],
      [
        "Ġ",
        "&"
      ],
      [
        "Ġs",
        "um"
      ],
      [
        "et",
        "er"
      ],
      [
        "t",
        "o"
      ],
      [
        "Ġgirl",
        "s"
      ],
      [
        "Ġd",
        "rug"
      ],
      [
        "t",
        "on"
      ],
      [
        "Ġpsy",
        "ch"
      ],
      [
        "or",
        "th"
      ],
      [
        "Ġmom",
        "ents"
      ],
      [
        "n",
        "a"
      ],
      [
        "Ġb",
        "ri"
      ],
      [
        "he",
        "l"
      ],
      [
        "igh",
        "b"
      ],
      [
        "iv",
        "ed"
      ],
      [
        "Ġg",
        "ot"
      ],
      [
        "Ġfin",
        "ally"
      ],
      [
        "Ġdo",
        "g"
      ],
      [
        "Ġc",
        "ra"
      ],
      [
        "d",
        "ing"
      ],
      [
        "t",
        "ed"
      ],
      [
        "ĠP",
        "ar"
      ],
      [
        "Ġto",
        "p"
      ],
      [
        "Ġact",
        "ually"
      ],
      [
        "Ġf",
        "av"
      ],
      [
        "im",
        "in"
      ],
      [
        "ment",
        "s"
      ],
      [
        "Ġc",
        "eleb"
      ],
      [
        "k",
        "n"
      ],
      [
        "Ġdid",
        "n"
      ],
      [
        "Ġenc",
        "oun"
      ],
      [
        "Ġo",
        "cc"
      ],
      [
        "Ġev",
        "il"
      ],
      [
        "Ġcall",
        "ed"
      ],
      [
        "Ġent",
        "ertain"
      ],
      [
        "Ġfoll",
        "ow"
      ],
      [
        "as",
        "y"
      ],
      [
        "Ġl",
        "ate"
      ],
      [
        "Ġget",
        "ting"
      ],
      [
        "ac",
        "ed"
      ],
      [
        "ver",
        "n"
      ],
      [
        "ir",
        "c"
      ],
      [
        "Ġim",
        "ag"
      ],
      [
        "Ġsp",
        "end"
      ],
      [
        "Ġcommun",
        "ity"
      ],
      [
        "Ġl",
        "aw"
      ],
      [
        "v",
        "al"
      ],
      [
        "Ġme",
        "an"
      ],
      [
        "ĠG",
        "e"
      ],
      [
        "Ġimp",
        "ress"
      ],
      [
        "Ġne",
        "ighb"
      ],
      [
        "Ġw",
        "ild"
      ],
      [
        "Ġcinem",
        "a"
      ],
      [
        "Ġexplo",
        "res"
      ],
      [
        "ro",
        "d"
      ],
      [
        "g",
        "er"
      ],
      [
        "Ġ19",
        "7"
      ],
      [
        "Ġart",
        "ist"
      ],
      [
        "m",
        "a"
      ],
      [
        "i",
        "or"
      ],
      [
        "Ġmarri",
        "ed"
      ],
      [
        "Ġ2",
        "00"
      ],
      [
        "ograph",
        "y"
      ],
      [
        "Ġle",
        "ave"
      ],
      [
        "Ġoff",
        "ic"
      ],
      [
        "Ġd",
        "anger"
      ],
      [
        "Ġnarr",
        "ative"
      ],
      [
        "Ġt",
        "it"
      ],
      [
        "Ġ",
        "ill"
      ],
      [
        "Ġm",
        "ight"
      ],
      [
        "ag",
        "ed"
      ],
      [
        "Ġl",
        "ess"
      ],
      [
        "Ġst",
        "range"
      ],
      [
        "ĠW",
        "orld"
      ],
      [
        "Ġt",
        "ale"
      ],
      [
        "Ġfeat",
        "ures"
      ],
      [
        "Ġpower",
        "ful"
      ],
      [
        "ĠS",
        "o"
      ],
      [
        "Ġm",
        "ot"
      ],
      [
        "Ġtra",
        "g"
      ],
      [
        ",",
        "\""
      ],
      [
        "at",
        "s"
      ],
      [
        "Ġh",
        "our"
      ],
      [
        "Ġdream",
        "s"
      ],
      [
        "Ġb",
        "ar"
      ],
      [
        "Ġkill",
        "ed"
      ],
      [
        "Ġch",
        "all"
      ],
      [
        "Ġc",
        "ase"
      ],
      [
        "Ġstud",
        "ent"
      ],
      [
        "ĠAmeric",
        "a"
      ],
      [
        "ĠP",
        "h"
      ],
      [
        "Ġpo",
        "or"
      ],
      [
        "Ġfeat",
        "ure"
      ],
      [
        "re",
        "st"
      ],
      [
        "Ġhe",
        "ro"
      ],
      [
        "ren",
        "ch"
      ],
      [
        "Ġloo",
        "king"
      ],
      [
        "p",
        "ec"
      ],
      [
        "Ġreal",
        "ity"
      ],
      [
        "Ġpo",
        "int"
      ],
      [
        "ĠM",
        "y"
      ],
      [
        "ag",
        "er"
      ],
      [
        "is",
        "hed"
      ],
      [
        "Ġpro",
        "p"
      ],
      [
        "as",
        "k"
      ],
      [
        "Ġatt",
        "ack"
      ],
      [
        "Ġcam",
        "era"
      ],
      [
        "ĠM",
        "r"
      ],
      [
        "c",
        "y"
      ],
      [
        "Ġcon",
        "st"
      ],
      [
        "ĠBrit",
        "ish"
      ],
      [
        "i",
        "vers"
      ],
      [
        "ou",
        "l"
      ],
      [
        "co",
        "ver"
      ],
      [
        "Ġ",
        "est"
      ],
      [
        "ent",
        "ial"
      ],
      [
        "Ġtri",
        "p"
      ],
      [
        "ven",
        "ge"
      ],
      [
        "Ġl",
        "ik"
      ],
      [
        "Ġh",
        "ot"
      ],
      [
        "Ġn",
        "ame"
      ],
      [
        "e",
        "et"
      ],
      [
        "u",
        "ff"
      ],
      [
        "Ġs",
        "ense"
      ],
      [
        "iv",
        "en"
      ],
      [
        "Ġpartic",
        "ular"
      ],
      [
        "is",
        "es"
      ],
      [
        "Ġpart",
        "y"
      ],
      [
        "os",
        "es"
      ],
      [
        "Ġbl",
        "ood"
      ],
      [
        "Ġv",
        "ict"
      ],
      [
        "Ġh",
        "op"
      ],
      [
        "or",
        "ge"
      ],
      [
        "Ġmarri",
        "age"
      ],
      [
        "Ġcon",
        "nect"
      ],
      [
        "Ġunder",
        "stand"
      ],
      [
        "Ġstr",
        "ong"
      ],
      [
        "Ġle",
        "gend"
      ],
      [
        "Ġqu",
        "ick"
      ],
      [
        "c",
        "om"
      ],
      [
        "Ġp",
        "ost"
      ],
      [
        "Ġmo",
        "der"
      ],
      [
        "Ġlead",
        "s"
      ],
      [
        "Ġceleb",
        "r"
      ],
      [
        "Ġm",
        "ess"
      ],
      [
        "l",
        "ish"
      ],
      [
        "ĠD",
        "an"
      ],
      [
        "ĠA",
        "ng"
      ],
      [
        "iz",
        "es"
      ],
      [
        "Ġm",
        "aster"
      ],
      [
        "ful",
        "ly"
      ],
      [
        "l",
        "in"
      ],
      [
        "Ġs",
        "old"
      ],
      [
        "Ġb",
        "ro"
      ],
      [
        "Ġother",
        "s"
      ],
      [
        "Ġunex",
        "pected"
      ],
      [
        "Ġprod",
        "uction"
      ],
      [
        "ĠB",
        "ar"
      ],
      [
        "Ġs",
        "ets"
      ],
      [
        "Ġp",
        "at"
      ],
      [
        "Ġapp",
        "ears"
      ],
      [
        "ĠD",
        "on"
      ],
      [
        "Ġsp",
        "e"
      ],
      [
        "p",
        "or"
      ],
      [
        "ad",
        "es"
      ],
      [
        "Ġh",
        "old"
      ],
      [
        "er",
        "n"
      ],
      [
        "Ġh",
        "ope"
      ],
      [
        "Ġprod",
        "uc"
      ],
      [
        "b",
        "all"
      ],
      [
        "Ġanim",
        "ation"
      ],
      [
        "Ġimp",
        "ort"
      ],
      [
        "ĠN",
        "ow"
      ],
      [
        "Ġs",
        "n"
      ],
      [
        "ant",
        "ic"
      ],
      [
        "Ġth",
        "in"
      ],
      [
        "ĠP",
        "r"
      ],
      [
        "id",
        "ed"
      ],
      [
        "Ġtr",
        "uth"
      ],
      [
        "ore",
        "d"
      ],
      [
        "Ġh",
        "a"
      ],
      [
        "ec",
        "hn"
      ],
      [
        "Ġinterview",
        "s"
      ],
      [
        "ĠG",
        "erman"
      ],
      [
        "Ġstar",
        "s"
      ],
      [
        "Ġsever",
        "al"
      ],
      [
        "Ġc",
        "op"
      ],
      [
        "Ġfun",
        "ny"
      ],
      [
        "ĠR",
        "e"
      ],
      [
        "Ġfin",
        "al"
      ],
      [
        "al",
        "k"
      ],
      [
        "Ġany",
        "thing"
      ],
      [
        "Ġmoder",
        "n"
      ],
      [
        "Ġ19",
        "8"
      ],
      [
        "Ġorigin",
        "al"
      ],
      [
        "ab",
        "y"
      ],
      [
        "Ġh",
        "ands"
      ],
      [
        "Ġm",
        "il"
      ],
      [
        "us",
        "h"
      ],
      [
        "Ġex",
        "ist"
      ],
      [
        "al",
        "d"
      ],
      [
        "em",
        "ent"
      ],
      [
        "ri",
        "b"
      ],
      [
        "Ġw",
        "a"
      ],
      [
        "ĠA",
        "f"
      ],
      [
        "ac",
        "ing"
      ],
      [
        "Ġup",
        "on"
      ],
      [
        "Ġact",
        "ing"
      ],
      [
        "re",
        "w"
      ],
      [
        "l",
        "ine"
      ],
      [
        "t",
        "or"
      ],
      [
        "Ġhum",
        "or"
      ],
      [
        "Ġ20",
        "1"
      ],
      [
        "Ġle",
        "aves"
      ],
      [
        "re",
        "as"
      ],
      [
        "Ġwho",
        "le"
      ],
      [
        "u",
        "ly"
      ],
      [
        "g",
        "es"
      ],
      [
        "Ġw",
        "ond"
      ],
      [
        "Ġwith",
        "in"
      ],
      [
        "ap",
        "s"
      ],
      [
        "ĠE",
        "m"
      ],
      [
        "Ġfam",
        "il"
      ],
      [
        "ir",
        "th"
      ],
      [
        "h",
        "ost"
      ],
      [
        "pec",
        "ially"
      ],
      [
        "Ġ",
        "ult"
      ],
      [
        "ant",
        "ly"
      ],
      [
        "Ġb",
        "attle"
      ],
      [
        "Ġst",
        "ay"
      ],
      [
        "Ġapp",
        "ro"
      ],
      [
        "ar",
        "a"
      ],
      [
        "Ġf",
        "ig"
      ],
      [
        "Ġal",
        "most"
      ],
      [
        "Ġgirl",
        "friend"
      ],
      [
        "Ġmus",
        "ical"
      ],
      [
        "Ġprof",
        "ess"
      ],
      [
        "ĠDav",
        "id"
      ],
      [
        "Ġm",
        "or"
      ],
      [
        "Ġs",
        "ide"
      ],
      [
        "g",
        "round"
      ],
      [
        "es",
        "ts"
      ],
      [
        "Ġre",
        "ce"
      ],
      [
        "Ġexper",
        "ien"
      ],
      [
        "Ġ",
        "8"
      ],
      [
        "Ġan",
        "n"
      ],
      [
        "ĠE",
        "ar"
      ],
      [
        "o",
        "f"
      ],
      [
        "o",
        "x"
      ],
      [
        "ĠM",
        "c"
      ],
      [
        "Ġmid",
        "dle"
      ],
      [
        "em",
        "ber"
      ],
      [
        "is",
        "ed"
      ],
      [
        "Ġb",
        "ased"
      ],
      [
        "Ġsurp",
        "ris"
      ],
      [
        "Ġreve",
        "al"
      ],
      [
        "Ġl",
        "ow"
      ],
      [
        "o",
        "le"
      ],
      [
        "ud",
        "den"
      ],
      [
        "Ġwh",
        "ite"
      ],
      [
        "Ġsl",
        "ow"
      ],
      [
        "ĠC",
        "ol"
      ],
      [
        "Ġ",
        "vers"
      ],
      [
        "Ġin",
        "n"
      ],
      [
        "Ġclass",
        "ic"
      ],
      [
        "Ġfav",
        "or"
      ],
      [
        "Ġst",
        "yle"
      ],
      [
        "ĠC",
        "ity"
      ],
      [
        "Ġtr",
        "ad"
      ],
      [
        "Ġcl",
        "ose"
      ],
      [
        "ĠJ",
        "im"
      ],
      [
        "Ġfem",
        "ale"
      ],
      [
        "Ġar",
        "ch"
      ],
      [
        "er",
        "ry"
      ],
      [
        "Ġ19",
        "6"
      ],
      [
        "Ġf",
        "re"
      ],
      [
        "Ġes",
        "pecially"
      ],
      [
        "ĠC",
        "on"
      ],
      [
        "ot",
        "ic"
      ],
      [
        "Ġc",
        "ond"
      ],
      [
        "a",
        "ur"
      ],
      [
        "Ġloo",
        "ks"
      ],
      [
        "Ġde",
        "b"
      ],
      [
        "Ġsoc",
        "iety"
      ],
      [
        "Ġs",
        "le"
      ],
      [
        "Ġchild",
        "hood"
      ],
      [
        "Ġpro",
        "g"
      ],
      [
        "Ġv",
        "al"
      ],
      [
        "th",
        "s"
      ],
      [
        "Ġf",
        "ant"
      ],
      [
        "Ġis",
        "s"
      ],
      [
        "Ġnat",
        "ure"
      ],
      [
        "Ġis",
        "n"
      ],
      [
        "Ġo",
        "per"
      ],
      [
        "Ġinst",
        "ead"
      ],
      [
        "Ġexper",
        "im"
      ],
      [
        "Ġcle",
        "ar"
      ],
      [
        "v",
        "ious"
      ],
      [
        "Ġf",
        "ive"
      ],
      [
        "Ġspir",
        "it"
      ],
      [
        "ep",
        "t"
      ],
      [
        "Ġattem",
        "pts"
      ],
      [
        "ĠTh",
        "at"
      ],
      [
        "ĠF",
        "rench"
      ],
      [
        "Ġg",
        "ra"
      ],
      [
        "g",
        "ed"
      ],
      [
        "Ġh",
        "it"
      ],
      [
        "Ġf",
        "ree"
      ],
      [
        "Ġg",
        "ives"
      ],
      [
        "Ġa",
        "v"
      ],
      [
        "Ġdec",
        "ide"
      ],
      [
        "Ġvis",
        "ual"
      ],
      [
        "Ġf",
        "elt"
      ],
      [
        "ict",
        "ion"
      ],
      [
        "er",
        "v"
      ],
      [
        "Ġus",
        "ed"
      ],
      [
        "ĠF",
        "l"
      ],
      [
        "Ġro",
        "ck"
      ],
      [
        "am",
        "b"
      ],
      [
        "Ġal",
        "one"
      ],
      [
        "ĠP",
        "l"
      ],
      [
        "Ġan",
        "t"
      ],
      [
        "Ġc",
        "irc"
      ],
      [
        "Ġfilmm",
        "aker"
      ],
      [
        "ond",
        "on"
      ],
      [
        "Ġ19",
        "9"
      ],
      [
        "Ġ",
        "z"
      ],
      [
        "Ġh",
        "id"
      ],
      [
        "Ġperform",
        "ances"
      ],
      [
        "Ġg",
        "ay"
      ],
      [
        "is",
        "ing"
      ],
      [
        "Ġsing",
        "le"
      ],
      [
        "Ġbr",
        "ings"
      ],
      [
        "ĠG",
        "od"
      ],
      [
        "Ġcom",
        "ing"
      ],
      [
        "Ġwr",
        "ong"
      ],
      [
        "Ġt",
        "aken"
      ],
      [
        "Ġf",
        "r"
      ],
      [
        "Ġse",
        "qu"
      ],
      [
        "a",
        "el"
      ],
      [
        "olly",
        "wood"
      ],
      [
        "ĠA",
        "b"
      ],
      [
        "ĠP",
        "aul"
      ],
      [
        "olog",
        "y"
      ],
      [
        "Ġquest",
        "ion"
      ],
      [
        "ĠL",
        "ondon"
      ],
      [
        "Ġb",
        "ook"
      ],
      [
        "Ġh",
        "ost"
      ],
      [
        "ĠS",
        "am"
      ],
      [
        "Ġle",
        "g"
      ],
      [
        "ot",
        "s"
      ],
      [
        "on",
        "es"
      ],
      [
        "in",
        "ary"
      ],
      [
        "Ġre",
        "venge"
      ],
      [
        "ĠS",
        "e"
      ],
      [
        "Ġsu",
        "ff"
      ],
      [
        "Ġt",
        "est"
      ],
      [
        "Ġt",
        "echn"
      ],
      [
        "Ġlearn",
        "s"
      ],
      [
        "i",
        "ant"
      ],
      [
        "Ġro",
        "le"
      ],
      [
        "Ġc",
        "oll"
      ],
      [
        "Ġcomp",
        "any"
      ],
      [
        "Ġa",
        "ge"
      ],
      [
        "ill",
        "ed"
      ],
      [
        "Ġgo",
        "vern"
      ],
      [
        "Ġkid",
        "s"
      ],
      [
        "Ġvict",
        "im"
      ],
      [
        "Ġ",
        "9"
      ],
      [
        "Ġsex",
        "ual"
      ],
      [
        "ag",
        "ing"
      ],
      [
        "Ġcre",
        "w"
      ],
      [
        "Ġend",
        "s"
      ],
      [
        "Ġsit",
        "u"
      ],
      [
        "Ġt",
        "el"
      ],
      [
        "ward",
        "s"
      ],
      [
        "Ġch",
        "ance"
      ],
      [
        "os",
        "ing"
      ],
      [
        "Ġcomp",
        "lex"
      ],
      [
        "ol",
        "ution"
      ],
      [
        "pp",
        "ed"
      ],
      [
        "Ġide",
        "a"
      ],
      [
        "Ġcolle",
        "ge"
      ],
      [
        "Ġr",
        "ather"
      ],
      [
        "Ġstrugg",
        "les"
      ],
      [
        "Ġt",
        "aking"
      ],
      [
        "g",
        "y"
      ],
      [
        "Ġh",
        "on"
      ],
      [
        "on",
        "ic"
      ],
      [
        "u",
        "ge"
      ],
      [
        "Ġfriends",
        "hip"
      ],
      [
        "ĠT",
        "r"
      ],
      [
        "Ġpolit",
        "ical"
      ],
      [
        "it",
        "er"
      ],
      [
        "t",
        "ime"
      ],
      [
        "Ġinc",
        "red"
      ],
      [
        "Ġapp",
        "ear"
      ],
      [
        "Ġro",
        "ad"
      ],
      [
        "Ġfam",
        "ous"
      ],
      [
        "ill",
        "s"
      ],
      [
        "Ġdes",
        "per"
      ],
      [
        "l",
        "u"
      ],
      [
        "ĠN",
        "o"
      ],
      [
        "il",
        "le"
      ],
      [
        "or",
        "ation"
      ],
      [
        "Ġpl",
        "ays"
      ],
      [
        "Ġpub",
        "lic"
      ],
      [
        "Ġkid",
        "n"
      ],
      [
        "Ġis",
        "land"
      ],
      [
        "iv",
        "id"
      ],
      [
        "Ġcons",
        "id"
      ],
      [
        "y",
        "l"
      ],
      [
        "om",
        "p"
      ],
      [
        "Ġre",
        "view"
      ],
      [
        "ĠM",
        "ich"
      ],
      [
        "Ġinvol",
        "ved"
      ],
      [
        "ud",
        "e"
      ],
      [
        "ĠK",
        "ing"
      ],
      [
        "Ġm",
        "ill"
      ],
      [
        "Ġp",
        "le"
      ],
      [
        "ip",
        "p"
      ],
      [
        "Ġsp",
        "ace"
      ],
      [
        "Ġres",
        "p"
      ],
      [
        "op",
        "h"
      ],
      [
        "Ġwe",
        "alth"
      ],
      [
        "Ġcom",
        "ed"
      ],
      [
        "em",
        "y"
      ],
      [
        "ĠBl",
        "ack"
      ],
      [
        "Ġto",
        "ld"
      ],
      [
        "Ġc",
        "ut"
      ],
      [
        "Ġun",
        "s"
      ],
      [
        "Ġemot",
        "ional"
      ],
      [
        "ĠR",
        "uss"
      ],
      [
        "Ġvis",
        "it"
      ],
      [
        "es",
        "tern"
      ],
      [
        "em",
        "ents"
      ],
      [
        "'",
        "ll"
      ],
      [
        "Ġex",
        "ec"
      ],
      [
        "Ġv",
        "arious"
      ],
      [
        "itt",
        "en"
      ],
      [
        "Ġmom",
        "ent"
      ],
      [
        "Ġdes",
        "ign"
      ],
      [
        "Ġins",
        "ide"
      ],
      [
        "e",
        "at"
      ],
      [
        "k",
        "y"
      ],
      [
        "Ġcour",
        "se"
      ],
      [
        "le",
        "ct"
      ],
      [
        "âĢ",
        "Ķ"
      ],
      [
        "ĠT",
        "V"
      ],
      [
        "m",
        "ed"
      ],
      [
        "augh",
        "t"
      ],
      [
        "Ġp",
        "ot"
      ],
      [
        "el",
        "ess"
      ],
      [
        "Ġf",
        "asc"
      ],
      [
        "kn",
        "own"
      ],
      [
        "Ġd",
        "iv"
      ],
      [
        "pl",
        "oy"
      ],
      [
        "Ġab",
        "le"
      ],
      [
        "ud",
        "get"
      ],
      [
        "Ġb",
        "irth"
      ],
      [
        "Ġpro",
        "cess"
      ],
      [
        "ex",
        "t"
      ],
      [
        "Ġre",
        "d"
      ],
      [
        "Ġp",
        "ict"
      ],
      [
        "Ġad",
        "v"
      ],
      [
        "g",
        "o"
      ],
      [
        "ĠDes",
        "pite"
      ],
      [
        "Ġportray",
        "al"
      ],
      [
        "Ġcr",
        "imin"
      ],
      [
        "z",
        "y"
      ],
      [
        "Ġs",
        "udden"
      ],
      [
        "Ġtr",
        "uly"
      ],
      [
        "on",
        "ed"
      ],
      [
        "Ġmiss",
        "ion"
      ],
      [
        "Ġmem",
        "bers"
      ],
      [
        "Ġsus",
        "p"
      ],
      [
        "et",
        "h"
      ],
      [
        "Ġfeat",
        "uring"
      ],
      [
        "Ġl",
        "ands"
      ],
      [
        "ĠFran",
        "k"
      ],
      [
        "Ġam",
        "b"
      ],
      [
        "Ġre",
        "ad"
      ],
      [
        "l",
        "o"
      ],
      [
        "ĠF",
        "rom"
      ],
      [
        "Ġident",
        "ity"
      ],
      [
        "Ġgu",
        "y"
      ],
      [
        "ib",
        "ly"
      ],
      [
        "ĠH",
        "ollywood"
      ],
      [
        "Ġquick",
        "ly"
      ],
      [
        "Ġits",
        "elf"
      ],
      [
        "Ġst",
        "age"
      ],
      [
        "Ġg",
        "iven"
      ],
      [
        "-",
        "-"
      ],
      [
        "Ġfor",
        "ces"
      ],
      [
        "ĠS",
        "w"
      ],
      [
        "ortun",
        "ately"
      ],
      [
        "ie",
        "f"
      ],
      [
        "ic",
        "ult"
      ],
      [
        "Ġ",
        "7"
      ],
      [
        "Ġtit",
        "le"
      ],
      [
        "Ġdel",
        "iver"
      ],
      [
        "n",
        "ot"
      ],
      [
        "Ġdet",
        "erm"
      ],
      [
        "Ġm",
        "ix"
      ],
      [
        "Ġag",
        "o"
      ],
      [
        "Ġin",
        "form"
      ],
      [
        "it",
        "ive"
      ],
      [
        "ĠE",
        "x"
      ],
      [
        "th",
        "ough"
      ],
      [
        "us",
        "e"
      ],
      [
        "Ġte",
        "acher"
      ],
      [
        "Ġcult",
        "ure"
      ],
      [
        "Ġwor",
        "th"
      ],
      [
        "Ġam",
        "ong"
      ],
      [
        "Ġ",
        "6"
      ],
      [
        "ĠO",
        "r"
      ],
      [
        "a",
        "res"
      ],
      [
        "Ġus",
        "ing"
      ],
      [
        "Ġto",
        "ur"
      ],
      [
        "Ġviol",
        "ence"
      ],
      [
        "Ġcomp",
        "et"
      ],
      [
        "Ġres",
        "c"
      ],
      [
        "Ġn",
        "um"
      ],
      [
        "Ġpl",
        "ans"
      ],
      [
        "Ġsh",
        "oot"
      ],
      [
        "ard",
        "s"
      ],
      [
        "Ġp",
        "urs"
      ],
      [
        "wh",
        "ile"
      ],
      [
        "Ġtr",
        "ack"
      ],
      [
        "p",
        "e"
      ],
      [
        "Ġg",
        "host"
      ],
      [
        "Ġs",
        "ad"
      ],
      [
        "Ġst",
        "ep"
      ],
      [
        "Ġel",
        "se"
      ],
      [
        "Ġr",
        "ich"
      ],
      [
        "Ġg",
        "ri"
      ],
      [
        "Ġter",
        "ror"
      ],
      [
        "ect",
        "ion"
      ],
      [
        "t",
        "e"
      ],
      [
        "Ġst",
        "ra"
      ],
      [
        "Ġoff",
        "ers"
      ],
      [
        "Ġwat",
        "er"
      ],
      [
        "ĠJapan",
        "ese"
      ],
      [
        "Ġs",
        "ure"
      ],
      [
        "Ġpro",
        "ject"
      ],
      [
        "un",
        "ch"
      ],
      [
        "Ġwh",
        "om"
      ],
      [
        "ĠAf",
        "ric"
      ],
      [
        "c",
        "ent"
      ],
      [
        "Ġdiff",
        "icult"
      ],
      [
        "Ġd",
        "ance"
      ],
      [
        "'",
        "d"
      ],
      [
        "is",
        "od"
      ],
      [
        "i",
        "ar"
      ],
      [
        "Ġmiss",
        "ing"
      ],
      [
        "Ġstud",
        "ents"
      ],
      [
        "Ġbelie",
        "ve"
      ],
      [
        "as",
        "es"
      ],
      [
        "Ġplay",
        "ing"
      ],
      [
        "Ġa",
        "ut"
      ],
      [
        "Ġhist",
        "or"
      ],
      [
        "Ġrom",
        "ance"
      ],
      [
        "Ġlo",
        "ved"
      ],
      [
        "Ġmar",
        "ry"
      ],
      [
        "k",
        "e"
      ],
      [
        "Ġdo",
        "ing"
      ],
      [
        "iz",
        "ation"
      ],
      [
        "im",
        "p"
      ],
      [
        "Ġp",
        "iece"
      ],
      [
        "he",
        "t"
      ],
      [
        "Ġs",
        "ix"
      ],
      [
        "ĠA",
        "ust"
      ],
      [
        "it",
        "ary"
      ],
      [
        "ĠAng",
        "el"
      ],
      [
        "ĠE",
        "very"
      ],
      [
        "Ġ1",
        "0"
      ],
      [
        "Ġt",
        "yp"
      ],
      [
        "s",
        "w"
      ],
      [
        "Ġcom",
        "b"
      ],
      [
        "Ġcontr",
        "ol"
      ],
      [
        "se",
        "qu"
      ],
      [
        "Ġparticular",
        "ly"
      ],
      [
        "re",
        "ad"
      ],
      [
        "Ġb",
        "ra"
      ],
      [
        "Ġwe",
        "ek"
      ],
      [
        "Ġchall",
        "eng"
      ],
      [
        "Ġact",
        "or"
      ],
      [
        "Ġtrans",
        "form"
      ],
      [
        "iz",
        "ing"
      ],
      [
        "Ġse",
        "es"
      ],
      [
        "Ġobs",
        "ess"
      ],
      [
        "o",
        "id"
      ],
      [
        "ĠM",
        "ay"
      ],
      [
        "Ġm",
        "ount"
      ],
      [
        "rup",
        "t"
      ],
      [
        "wh",
        "at"
      ],
      [
        "Ġf",
        "ell"
      ],
      [
        "st",
        "em"
      ],
      [
        "Ġdest",
        "ro"
      ],
      [
        "Ġstrugg",
        "le"
      ],
      [
        "Ġgovern",
        "ment"
      ],
      [
        "l",
        "ike"
      ],
      [
        "Ġrom",
        "antic"
      ],
      [
        "Ġle",
        "aving"
      ],
      [
        "Ġs",
        "ens"
      ],
      [
        "Ġb",
        "le"
      ],
      [
        "Ġlead",
        "ing"
      ],
      [
        "Ġdirect",
        "ed"
      ],
      [
        "f",
        "or"
      ],
      [
        "er",
        "al"
      ],
      [
        "m",
        "b"
      ],
      [
        "Ġarri",
        "ves"
      ],
      [
        "re",
        "nt"
      ],
      [
        "end",
        "ed"
      ],
      [
        "Ġim",
        "ages"
      ],
      [
        "if",
        "t"
      ],
      [
        "Ġ1",
        "8"
      ],
      [
        "Ġto",
        "day"
      ],
      [
        "2",
        "0"
      ],
      [
        "Ġsc",
        "ient"
      ],
      [
        "Ġc",
        "aus"
      ],
      [
        "ĠThe",
        "ir"
      ],
      [
        "us",
        "ed"
      ],
      [
        "Ġp",
        "ay"
      ],
      [
        "Ġel",
        "ements"
      ],
      [
        "an",
        "a"
      ],
      [
        "Ġhe",
        "av"
      ],
      [
        "Ġc",
        "art"
      ],
      [
        "t",
        "r"
      ],
      [
        "Ġown",
        "er"
      ],
      [
        "Ġ-",
        "-"
      ],
      [
        "d",
        "ers"
      ],
      [
        "Ġm",
        "ist"
      ],
      [
        "H",
        "E"
      ],
      [
        "Ġact",
        "ors"
      ],
      [
        "ent",
        "ed"
      ],
      [
        "Ġadvent",
        "ure"
      ],
      [
        "Ġfavor",
        "ite"
      ],
      [
        "Ġsh",
        "ip"
      ],
      [
        "ĠS",
        "ome"
      ],
      [
        "n",
        "al"
      ],
      [
        "Ġw",
        "ays"
      ],
      [
        "Ġind",
        "ust"
      ],
      [
        "Ġs",
        "at"
      ],
      [
        "un",
        "e"
      ],
      [
        "ĠEar",
        "th"
      ],
      [
        "Ġsum",
        "mer"
      ],
      [
        "ri",
        "d"
      ],
      [
        "ĠJ",
        "ames"
      ],
      [
        "it",
        "ions"
      ],
      [
        "Ġc",
        "ross"
      ],
      [
        "Ġno",
        "vel"
      ],
      [
        "iel",
        "d"
      ],
      [
        "Ġey",
        "es"
      ],
      [
        "ar",
        "ch"
      ],
      [
        "ri",
        "ble"
      ],
      [
        "ĠM",
        "art"
      ],
      [
        "in",
        "ing"
      ],
      [
        "c",
        "on"
      ],
      [
        "Ġbr",
        "ut"
      ],
      [
        "Ġb",
        "ur"
      ],
      [
        "Ġsupp",
        "ort"
      ],
      [
        "ĠMich",
        "ael"
      ],
      [
        "ĠG",
        "r"
      ],
      [
        "Ġvers",
        "ion"
      ],
      [
        "Ġext",
        "rem"
      ],
      [
        "ĠC",
        "al"
      ],
      [
        "ĠS",
        "outh"
      ],
      [
        "Ġboy",
        "s"
      ],
      [
        "Ġt",
        "reat"
      ],
      [
        "d",
        "y"
      ],
      [
        "Ġse",
        "nd"
      ],
      [
        "Ġmyster",
        "y"
      ],
      [
        "Ġg",
        "un"
      ],
      [
        "Ġr",
        "ad"
      ],
      [
        "Ġhe",
        "ar"
      ],
      [
        "Ġrun",
        "s"
      ],
      [
        "Ġr",
        "ace"
      ],
      [
        "Ġdanger",
        "ous"
      ],
      [
        "Ġc",
        "ame"
      ],
      [
        "Ġwond",
        "er"
      ],
      [
        "ec",
        "h"
      ],
      [
        "Ġw",
        "ind"
      ],
      [
        "ak",
        "ers"
      ],
      [
        "Ġatt",
        "ract"
      ],
      [
        "ic",
        "ks"
      ],
      [
        "Ġimport",
        "ant"
      ],
      [
        "Ġ",
        "er"
      ],
      [
        "Ġm",
        "ult"
      ],
      [
        "Ġaud",
        "ience"
      ],
      [
        "im",
        "ately"
      ],
      [
        "Ġact",
        "iv"
      ],
      [
        "Ġwit",
        "ness"
      ],
      [
        "ĠU",
        "S"
      ],
      [
        "Ġres",
        "ult"
      ],
      [
        "Ġinf",
        "lu"
      ],
      [
        "c",
        "he"
      ],
      [
        "Ġd",
        "one"
      ],
      [
        "ĠR",
        "ich"
      ],
      [
        "ĠJo",
        "e"
      ],
      [
        "ĠB",
        "en"
      ],
      [
        "it",
        "es"
      ],
      [
        "Ġfeel",
        "ing"
      ],
      [
        "ol",
        "id"
      ],
      [
        "unt",
        "ed"
      ],
      [
        "Ġend",
        "ing"
      ],
      [
        "Ġboy",
        "friend"
      ],
      [
        "ok",
        "e"
      ],
      [
        "Ġa",
        "uth"
      ],
      [
        "ol",
        "es"
      ],
      [
        "Ġsub",
        "ject"
      ],
      [
        "Ġf",
        "ire"
      ],
      [
        "o",
        "int"
      ],
      [
        "Ġv",
        "oice"
      ],
      [
        "ĠSt",
        "e"
      ],
      [
        "re",
        "c"
      ],
      [
        "ĠD",
        "e"
      ],
      [
        "ri",
        "pt"
      ],
      [
        "Ġb",
        "oss"
      ],
      [
        "Ġf",
        "ear"
      ],
      [
        "aj",
        "or"
      ],
      [
        "Ġser",
        "v"
      ],
      [
        "Ġo",
        "d"
      ],
      [
        "Ġkn",
        "ows"
      ],
      [
        "00",
        "0"
      ],
      [
        "Ġpre",
        "d"
      ],
      [
        "Ġep",
        "isod"
      ],
      [
        "Ġturn",
        "ed"
      ],
      [
        "Ġf",
        "ront"
      ],
      [
        "Ġcl",
        "aim"
      ],
      [
        "ĠG",
        "u"
      ],
      [
        "Ġanim",
        "ated"
      ],
      [
        "Ġneed",
        "s"
      ],
      [
        "Ġh",
        "ar"
      ],
      [
        "Ġeff",
        "ect"
      ],
      [
        "Ġl",
        "ist"
      ],
      [
        "Ġd",
        "anc"
      ],
      [
        "Ġp",
        "ath"
      ],
      [
        "pect",
        "ive"
      ],
      [
        "iv",
        "il"
      ],
      [
        "ir",
        "t"
      ],
      [
        "ag",
        "on"
      ],
      [
        "rough",
        "t"
      ],
      [
        "ar",
        "ies"
      ],
      [
        "in",
        "o"
      ],
      [
        "Ġrele",
        "ased"
      ],
      [
        "Ġmov",
        "ing"
      ],
      [
        "Ġs",
        "af"
      ],
      [
        "Ġpop",
        "ular"
      ],
      [
        "ĠP",
        "ro"
      ],
      [
        "Ġpre",
        "m"
      ],
      [
        "Ġp",
        "ur"
      ],
      [
        "Ġl",
        "on"
      ],
      [
        "Ġsy",
        "stem"
      ],
      [
        "Ġcent",
        "ury"
      ],
      [
        "en",
        "e"
      ],
      [
        "Ġint",
        "ri"
      ],
      [
        "Ġfoll",
        "owing"
      ],
      [
        "Ġcre",
        "ate"
      ],
      [
        "ra",
        "it"
      ],
      [
        "Ġb",
        "aby"
      ],
      [
        "Ġcr",
        "it"
      ],
      [
        "it",
        "her"
      ],
      [
        "Ġsome",
        "what"
      ],
      [
        "Ġhapp",
        "y"
      ],
      [
        "Ġst",
        "ate"
      ],
      [
        "Ġf",
        "air"
      ],
      [
        "Ġor",
        "gan"
      ],
      [
        "ĠGe",
        "orge"
      ],
      [
        "Ġwrit",
        "er"
      ],
      [
        "Ġw",
        "on"
      ],
      [
        "us",
        "ion"
      ],
      [
        "ra",
        "g"
      ],
      [
        "Ġcl",
        "os"
      ],
      [
        "itt",
        "ing"
      ],
      [
        "Ġprot",
        "ect"
      ],
      [
        "Ġpass",
        "ion"
      ],
      [
        "ĠIt",
        "al"
      ],
      [
        "ar",
        "re"
      ],
      [
        "ĠH",
        "all"
      ],
      [
        "Ġme",
        "ans"
      ],
      [
        "ri",
        "ght"
      ],
      [
        "un",
        "ning"
      ],
      [
        "og",
        "ue"
      ],
      [
        "Ġdeep",
        "ly"
      ],
      [
        "Ġmem",
        "ories"
      ],
      [
        "Ġw",
        "ood"
      ],
      [
        "Ġaff",
        "air"
      ],
      [
        "Ġfar",
        "m"
      ],
      [
        "ĠJ",
        "ul"
      ],
      [
        "c",
        "er"
      ],
      [
        "ĠM",
        "or"
      ],
      [
        "Ġsim",
        "ple"
      ],
      [
        "il",
        "ly"
      ],
      [
        "Ġl",
        "ed"
      ],
      [
        "a",
        "ff"
      ],
      [
        "Ġop",
        "en"
      ],
      [
        "Ġout",
        "side"
      ],
      [
        "az",
        "ing"
      ],
      [
        "Ġad",
        "apt"
      ],
      [
        "ĠPar",
        "is"
      ],
      [
        "Ġco",
        "ver"
      ],
      [
        "Ġto",
        "ok"
      ],
      [
        "Ġind",
        "ivid"
      ],
      [
        "Ġc",
        "ertain"
      ],
      [
        "ĠB",
        "ro"
      ],
      [
        "Ġtrad",
        "ition"
      ],
      [
        "Ġl",
        "if"
      ],
      [
        "Ġconf",
        "ront"
      ],
      [
        "Ġext",
        "ra"
      ],
      [
        "Ġus",
        "es"
      ],
      [
        "m",
        "en"
      ],
      [
        "ress",
        "ed"
      ],
      [
        "Ġfasc",
        "in"
      ],
      [
        "Ġw",
        "ish"
      ],
      [
        "Ġapart",
        "ment"
      ],
      [
        "Ġl",
        "ine"
      ],
      [
        "Ġpri",
        "v"
      ],
      [
        "ĠD",
        "oc"
      ],
      [
        "re",
        "ady"
      ],
      [
        "re",
        "aking"
      ],
      [
        "ri",
        "es"
      ],
      [
        "ĠE",
        "ur"
      ],
      [
        "ex",
        "ic"
      ],
      [
        "Ġneighb",
        "or"
      ],
      [
        "Ġab",
        "and"
      ],
      [
        "Ġany",
        "one"
      ],
      [
        "Ġw",
        "he"
      ],
      [
        "Ġbec",
        "ame"
      ],
      [
        "Ġauth",
        "or"
      ],
      [
        "Ġc",
        "ool"
      ],
      [
        "Ġ",
        "ic"
      ],
      [
        "ress",
        "ion"
      ],
      [
        "Ġph",
        "ys"
      ],
      [
        "!",
        "!"
      ],
      [
        "Ġsurv",
        "ive"
      ],
      [
        "ĠM",
        "ean"
      ],
      [
        "Ġmag",
        "ic"
      ],
      [
        "Ġan",
        "c"
      ],
      [
        "Ġa",
        "ir"
      ],
      [
        "ĠM",
        "ary"
      ],
      [
        "Ġr",
        "u"
      ],
      [
        "ĠB",
        "ill"
      ],
      [
        "Ġs",
        "oul"
      ],
      [
        "ogra",
        "p"
      ],
      [
        "Ġiss",
        "ues"
      ],
      [
        "Ġstre",
        "et"
      ],
      [
        "Ġgreat",
        "est"
      ],
      [
        "ĠThe",
        "n"
      ],
      [
        "ĠChar",
        "l"
      ],
      [
        "Ġn",
        "ice"
      ],
      [
        "Ġevent",
        "ually"
      ],
      [
        "ac",
        "hes"
      ],
      [
        "ĠRob",
        "ert"
      ],
      [
        "g",
        "n"
      ],
      [
        "Ġindivid",
        "ual"
      ],
      [
        "Ġf",
        "an"
      ],
      [
        "ast",
        "ic"
      ],
      [
        "Ġl",
        "augh"
      ],
      [
        "o",
        "ff"
      ],
      [
        "ill",
        "ing"
      ],
      [
        "Ġsle",
        "ep"
      ],
      [
        "Ġn",
        "on"
      ],
      [
        "b",
        "ably"
      ],
      [
        "l",
        "ight"
      ],
      [
        "Ġatt",
        "ention"
      ],
      [
        "ol",
        "f"
      ],
      [
        "ĠWill",
        "iam"
      ],
      [
        "Ġthrough",
        "out"
      ],
      [
        "i",
        "od"
      ],
      [
        "Ġact",
        "ress"
      ],
      [
        "n",
        "ed"
      ],
      [
        "Ġp",
        "os"
      ],
      [
        "g",
        "est"
      ],
      [
        "ev",
        "ision"
      ],
      [
        "Ġthem",
        "es"
      ],
      [
        "Ġle",
        "ast"
      ],
      [
        "ĠP",
        "eter"
      ],
      [
        "Ġre",
        "se"
      ],
      [
        "osp",
        "ital"
      ],
      [
        "Ġimp",
        "act"
      ],
      [
        "Ġf",
        "ul"
      ],
      [
        "ĠM",
        "exic"
      ],
      [
        "Ġwealth",
        "y"
      ],
      [
        "Ġthr",
        "iller"
      ],
      [
        "Ġfor",
        "ce"
      ],
      [
        "ab",
        "or"
      ],
      [
        "Ġmov",
        "es"
      ],
      [
        "Ġw",
        "ent"
      ],
      [
        "Ġtal",
        "k"
      ],
      [
        "ĠD",
        "is"
      ],
      [
        "ap",
        "er"
      ],
      [
        "o",
        "ved"
      ],
      [
        "Ġmurder",
        "ed"
      ],
      [
        "Ġencoun",
        "ter"
      ],
      [
        "Ġsw",
        "eet"
      ],
      [
        "ĠB",
        "ob"
      ],
      [
        "Ġviol",
        "ent"
      ],
      [
        "ĠS",
        "m"
      ],
      [
        "Ġal",
        "ready"
      ],
      [
        "Ġexpl",
        "oration"
      ],
      [
        "us",
        "ive"
      ],
      [
        "ru",
        "ct"
      ],
      [
        "st",
        "r"
      ],
      [
        "ic",
        "ide"
      ],
      [
        "Ġinter",
        "n"
      ],
      [
        "en",
        "ge"
      ],
      [
        "ust",
        "r"
      ],
      [
        "re",
        "al"
      ],
      [
        "Ġsitu",
        "ation"
      ],
      [
        "ĠMean",
        "while"
      ],
      [
        "ĠP",
        "ol"
      ],
      [
        "Ġbo",
        "x"
      ],
      [
        "olog",
        "ical"
      ],
      [
        "il",
        "ar"
      ],
      [
        "ĠD",
        "uring"
      ],
      [
        "Ġproble",
        "ms"
      ],
      [
        "i",
        "um"
      ],
      [
        "Ġdoc",
        "tor"
      ],
      [
        "Ġd",
        "ou"
      ],
      [
        "Ġex",
        "cept"
      ],
      [
        "Ġm",
        "ater"
      ],
      [
        "Ġsee",
        "ing"
      ],
      [
        "Ġc",
        "ost"
      ],
      [
        "est",
        "ival"
      ],
      [
        "Ġg",
        "round"
      ],
      [
        "Ġc",
        "aught"
      ],
      [
        "Ġdisc",
        "uss"
      ],
      [
        "Ġb",
        "ank"
      ],
      [
        "Ġw",
        "ed"
      ],
      [
        "end",
        "ing"
      ],
      [
        "Ġsuccess",
        "ful"
      ],
      [
        "u",
        "ed"
      ],
      [
        "Ġre",
        "b"
      ],
      [
        "Ġdist",
        "urb"
      ],
      [
        "ip",
        "s"
      ],
      [
        "un",
        "ting"
      ],
      [
        "ĠEng",
        "lish"
      ],
      [
        "Ġinn",
        "oc"
      ],
      [
        "Ġm",
        "ark"
      ],
      [
        "ĠJ",
        "ust"
      ],
      [
        "Ġser",
        "ious"
      ],
      [
        "Ġrem",
        "ains"
      ],
      [
        "Ġex",
        "am"
      ],
      [
        "he",
        "m"
      ],
      [
        "Ġwant",
        "ed"
      ],
      [
        "b",
        "o"
      ],
      [
        "Ġb",
        "rought"
      ],
      [
        "Ġra",
        "re"
      ],
      [
        "Ġchar",
        "ming"
      ],
      [
        "j",
        "ects"
      ],
      [
        "it",
        "ch"
      ],
      [
        "ear",
        "ing"
      ],
      [
        "c",
        "ome"
      ],
      [
        "Ġd",
        "ial"
      ],
      [
        "Ġentertain",
        "ing"
      ],
      [
        "Ġhapp",
        "ens"
      ],
      [
        "ang",
        "ed"
      ],
      [
        "id",
        "ence"
      ],
      [
        "ĠL",
        "ou"
      ],
      [
        "Ġb",
        "as"
      ],
      [
        "Ġs",
        "al"
      ],
      [
        "Ġt",
        "en"
      ],
      [
        "Ġg",
        "old"
      ],
      [
        "il",
        "t"
      ],
      [
        "il",
        "arious"
      ],
      [
        "Ġport",
        "rait"
      ],
      [
        "ĠEur",
        "ope"
      ],
      [
        "om",
        "an"
      ],
      [
        "Ġpe",
        "ace"
      ],
      [
        "Ġdet",
        "ail"
      ],
      [
        "ĠW",
        "est"
      ],
      [
        "Ġr",
        "ac"
      ],
      [
        "ĠTh",
        "ree"
      ],
      [
        "Ġold",
        "er"
      ],
      [
        "Ġem",
        "ploy"
      ],
      [
        "Ġm",
        "at"
      ],
      [
        "Ġenjoy",
        "ed"
      ],
      [
        "Ġf",
        "a"
      ],
      [
        "are",
        "nt"
      ],
      [
        "Ġm",
        "ass"
      ],
      [
        "ĠF",
        "r"
      ],
      [
        "Ġeff",
        "ects"
      ],
      [
        "Ġabs",
        "ol"
      ],
      [
        "Ġper",
        "iod"
      ],
      [
        "Ġan",
        "g"
      ],
      [
        "Ġri",
        "d"
      ],
      [
        "m",
        "p"
      ],
      [
        "Ġteen",
        "age"
      ],
      [
        "Ġexperien",
        "ces"
      ],
      [
        "Ġbuild",
        "ing"
      ],
      [
        "Ġ19",
        "4"
      ],
      [
        "Ġc",
        "ap"
      ],
      [
        "ru",
        "ction"
      ],
      [
        "b",
        "um"
      ],
      [
        "Ġl",
        "im"
      ],
      [
        "ne",
        "w"
      ],
      [
        "ir",
        "on"
      ],
      [
        "Ġhour",
        "s"
      ],
      [
        "Ġlead",
        "er"
      ],
      [
        "Ġf",
        "ood"
      ],
      [
        "Ġsur",
        "round"
      ],
      [
        "ĠM",
        "ad"
      ],
      [
        "Ġre",
        "ason"
      ],
      [
        "Ġchang",
        "es"
      ],
      [
        "b",
        "oy"
      ],
      [
        "i",
        "ers"
      ],
      [
        "Ġfig",
        "ure"
      ],
      [
        "w",
        "ar"
      ],
      [
        "Ġm",
        "ale"
      ],
      [
        "Ġbeaut",
        "y"
      ],
      [
        "Ġkill",
        "ing"
      ],
      [
        "Ġw",
        "id"
      ],
      [
        "om",
        "in"
      ],
      [
        "ur",
        "t"
      ],
      [
        "re",
        "ts"
      ],
      [
        "f",
        "ort"
      ],
      [
        "ain",
        "ed"
      ],
      [
        "Ġ19",
        "5"
      ],
      [
        "Ġsh",
        "are"
      ],
      [
        "Ġh",
        "ospital"
      ],
      [
        "her",
        "n"
      ],
      [
        ".",
        "âĢĿ"
      ],
      [
        "Ġint",
        "imate"
      ],
      [
        "ro",
        "om"
      ],
      [
        "Ġbrother",
        "s"
      ],
      [
        "Ġfor",
        "g"
      ],
      [
        "Ġlo",
        "ves"
      ],
      [
        "Ġqu",
        "ality"
      ],
      [
[...]
