{
  "version": "1.0",
  "truncation": null,
  "padding": null,
  "added_tokens": [
    {
      "id": 0,
      "content": "<PAD>",
      "single_word": false,
      "lstrip": false,
      "rstrip": false,
      "normalized": false,
      "special": true
    },
    {
      "id": 1,
      "content": "<BOS>",
      "single_word": false,
      "lstrip": false,
      "rstrip": false,
      "normalized": false,
      "special": true
    },
    {
      "id": 2,
      "content": "<EOS>",
      "single_word": false,
      "lstrip": false,
      "rstrip": false,
      "normalized": false,
      "special": true
    },
    {
      "id": 3,
      "content": "<SYN>",
      "single_word": false,
      "lstrip": false,
      "rstrip": false,
      "normalized": false,
      "special": true
    },
    {
      "id": 4,
      "content": "<REV>",
      "single_word": false,
      "lstrip": false,
      "rstrip": false,
      "normalized": false,
      "special": true
    }
  ],
  "normalizer": null,
  "pre_tokenizer": {
    "type": "ByteLevel",
    "add_prefix_space": false,
    "trim_offsets": true,
    "use_regex": true
  },
  "post_processor": null,
  "decoder": {
    "type": "ByteLevel",
    "add_prefix_space": true,
    "trim_offsets": true,
    "use_regex": true
  },
  "model": {
    "type": "BPE",
    "dropout": null,
    "unk_token": null,
    "continuing_subword_prefix": null,
    "end_of_word_suffix": null,
    "fuse_unk": false,
    "byte_fallback": false,
    "ignore_merges": false,
    "vocab": {
      "<PAD>": 0,
      "<BOS>": 1,
      "<EOS>": 2,
      "<SYN>": 3,
      "<REV>": 4,
      "!": 5,
      "\"": 6,
      "#": 7,
      "$": 8,
      "%": 9,
      "&": 10,
      "'": 11,
      "(": 12,
      ")": 13,
      "*": 14,
      "+": 15,
      ",": 16,
      "-": 17,
      ".": 18,
      "/": 19,
      "0": 20,
      "1": 21,
      "2": 22,
      "3": 23,
      "4": 24,
      "5": 25,
      "6": 26,
      "7": 27,
      "8": 28,
      "9": 29,
      ":": 30,
      ";": 31,
      "<": 32,
      "=": 33,
      ">": 34,
      "?": 35,
      "@": 36,
      "A": 37,
      "B": 38,
      "C": 39,
      "D": 40,
      "E": 41,
      "F": 42,
      "G": 43,
      "H": 44,
      "I": 45,
      "J": 46,
      "K": 47,
      "L": 48,
      "M": 49,
      "N": 50,
      "O": 51,
      "P": 52,
      "Q": 53,
      "R": 54,
      "S": 55,
      "T": 56,
      "U": 57,
      "V": 58,
      "W": 59,
      "X": 60,
      "Y": 61,
      "Z": 62,
      "[": 63,
      "\\": 64,
      "]": 65,
      "^": 66,
      "_": 67,
      "`": 68,
      "a": 69,
      "b": 70,
      "c": 71,
      "d": 72,
      "e": 73,
      "f": 74,
      "g": 75,
      "h": 76,
      "i": 77,
      "j": 78,
      "k": 79,
      "l": 80,
      "m": 81,
      "n": 82,
      "o": 83,
      "p": 84,
      "q": 85,
      "r": 86,
      "s": 87,
      "t": 88,
      "u": 89,
      "v": 90,
      "w": 91,
      "x": 92,
      "y": 93,
      "z": 94,
      "{": 95,
      "|": 96,
      "}": 97,
      "~": 98,
      "¡": 99,
      "¢": 100,
      "£": 101,
      "¤": 102,
      "¥": 103,
      "¦": 104,
      "§": 105,
      "¨": 106,
      "©": 107,
      "ª": 108,
      "«": 109,
      "¬": 110,
      "®": 111,
      "¯": 112,
      "°": 113,
      "±": 114,
      "²": 115,
      "³": 116,
      "´": 117,
      "µ": 118,
      "¶": 119,
      "·": 120,
      "¸": 121,
      "¹": 122,
      "º": 123,
      "»": 124,
      "¼": 125,
      "½": 126,
      "¾": 127,
      "¿": 128,
      "Â": 129,
      "Ã": 130,
      "Ä": 131,
      "Å": 132,
      "Æ": 133,
      "È": 134,
      "É": 135,
      "Ê": 136,
      "Ë": 137,
      "Ì": 138,
      "Í": 139,
      "Î": 140,
      "Ï": 141,
      "Ð": 142,
      "Ñ": 143,
      "×": 144,
      "à": 145,
      "á": 146,
      "â": 147,
      "ã": 148,
      "å": 149,
      "æ": 150,
      "ç": 151,
      "è": 152,
      "é": 153,
      "ê": 154,
      "ï": 155,
      "ð": 156,
      "Ġ": 157,
      "Ģ": 158,
      "ģ": 159,
      "Ĥ": 160,
      "ĥ": 161,
      "Ħ": 162,
      "ħ": 163,
      "Ĩ": 164,
      "ĩ": 165,
      "Ī": 166,
      "ī": 167,
      "Ĭ": 168,
      "ĭ": 169,
      "Į": 170,
      "į": 171,
      "İ": 172,
      "ı": 173,
      "Ĳ": 174,
      "ĳ": 175,
      "Ĵ": 176,
      "ĵ": 177,
      "Ķ": 178,
      "ķ": 179,
      "ĸ": 180,
      "Ĺ": 181,
      "ĺ": 182,
      "Ļ": 183,
      "ļ": 184,
      "Ľ": 185,
      "ľ": 186,
      "Ŀ": 187,
      "ŀ": 188,
      "Ł": 189,
      "ł": 190,
      "Ń": 191,
      "Ġt": 192,
      "Ġa": 193,
      "in": 194,
      "he": 195,
      "Ġs": 196,
      "re": 197,
      "Ġw": 198,
      "Ġo": 199,
      "is": 200,
      "er": 201,
      "Ġf": 202,
      "it": 203,
      "ing": 204,
      "Ġthe": 205,
      "at": 206,
      "en": 207,
      "Ġm": 208,
      "Ġb": 209,
      "on": 210,
      "or": 211,
      "Ġc": 212,
      "es": 213,
      "nd": 214,
      "ou": 215,
      "ar": 216,
      "al": 217,
      "Ġd": 218,
      "Ġth": 219,
      "Ġp": 220,
      "il": 221,
      "an": 222,
      "Ġof": 223,
      "ed": 224,
      "Ġh": 225,
      "Ġand": 226,
      "Ġin": 227,
      "Ġto": 228,
      "Ġl": 229,
      "as": 230,
      "om": 231,
      "ly": 232,
      "ic": 233,
      "Ġe": 234,
      "Ġit": 235,
      "le": 236,
      "ĠI": 237,
      "ut": 238,
      "Ġis": 239,
      "Ġg": 240,
      "ent": 241,
      "ve": 242,
      "ion": 243,
      "ct": 244,
      "st": 245,
      "ot": 246,
      "The": 247,
      "Ġn": 248,
      "Ġbe": 249,
      "Ġre": 250,
      "ilm": 251,
      "Ġfilm": 252,
      "el": 253,
      "im": 254,
      "Ġst": 255,
      "ow": 256,
      "'s": 257,
      "Ġon": 258,
      "ver": 259,
      "Ġmo": 260,
      "et": 261,
      "vi": 262,
      "ra": 263,
      "Ġthat": 264,
      "ith": 265,
      "ch": 266,
      "gh": 267,
      "Ġwith": 268,
      "un": 269,
      "Ġthis": 270,
      "Ġan": 271,
      "ad": 272,
      "ce": 273,
      "ol": 274,
      "ay": 275,
      "Ġfor": 276,
      "Ġwh": 277,
      "id": 278,
      "ul": 279,
      "Ġy": 280,
      "ur": 281,
      "ke": 282,
      "Ġhe": 283,
      "Ġbut": 284,
      "Ġwas": 285,
      "se": 286,
      "ir": 287,
      "Ġli": 288,
      "ro": 289,
      "Ġas": 290,
      "vie": 291,
      "ri": 292,
      "am": 293,
      "Ġex": 294,
      "âĢ": 295,
      "Ġsh": 296,
      "ĠS": 297,
      "ĠA": 298,
      "oo": 299,
      "ort": 300,
      "Ġse": 301,
      "Ġyou": 302,
      "ck": 303,
      "us": 304,
      "Ġal": 305,
      "ter": 306,
      "um": 307,
      "ld": 308,
      "ation": 309,
      "out": 310,
      "ally": 311,
      "ist": 312,
      "ag": 313,
      "ill": 314,
      "pe": 315,
      "ght": 316,
      "ĠThe": 317,
      "em": 318,
      "Ġch": 319,
      "ĠB": 320,
      "Ġab": 321,
      "Ġmovie": 322,
      "Ġcom": 323,
      "Ġ\"": 324,
      "ĠC": 325,
      "her": 326,
      "if": 327,
      "Ġat": 328,
      "Ġha": 329,
      "rom": 330,
      "ers": 331,
      "Ġdo": 332,
      "ive": 333,
      "ab": 334,
      "res": 335,
      "ess": 336,
      "ĠM": 337,
      "ome": 338,
      "Ġint": 339,
      "ĠT": 340,
      "ak": 341,
      "Ġcon": 342,
      "Ġits": 343,
      "Ġen": 344,
      "Ġde": 345,
      "art": 346,
      "ere": 347,
      "est": 348,
      "qu": 349,
      "Ġun": 350,
      "ant": 351,
      "Ġnot": 352,
      "ĠH": 353,
      "âĢĻ": 354,
      "Ġmy": 355,
      "Ġme": 356,
      "ĠW": 357,
      "Ġfe": 358,
      "up": 359,
      "ain": 360,
      "ust": 361,
      "Ġabout": 362,
      "Ġj": 363,
      "ell": 364,
      "Ġfrom": 365,
      "op": 366,
      "ate": 367,
      "Ġk": 368,
      "Ġlike": 369,
      "ĠD": 370,
      "Ġso": 371,
      "pt": 372,
      "Ġare": 373,
      "ould": 374,
      "Ġby": 375,
      "and": 376,
      "Ġlo": 377,
      "ory": 378,
      "Ġwat": 379,
      "Ġone": 380,
      "ure": 381,
      "'t": 382,
      "very": 383,
      "Ġsome": 384,
      "Ġhis": 385,
      "ity": 386,
      "ood": 387,
      "act": 388,
      "his": 389,
      "rou": 390,
      "ack": 391,
      "all": 392,
      "ĠP": 393,
      "ies": 394,
      "Ġsc": 395,
      "ite": 396,
      "ast": 397,
      "ous": 398,
      "ĠF": 399,
      "fe": 400,
      "ĠL": 401,
      "Ġwor": 402,
      "Ġne": 403,
      "Ġexp": 404,
      "Ġpl": 405,
      "ig": 406,
      "pp": 407,
      "Ġact": 408,
      "Ġpro": 409,
      "ind": 410,
      "ime": 411,
      "able": 412,
      "ĠIt": 413,
      "Ġhave": 414,
      "Ġwhe": 415,
      "ire": 416,
      "one": 417,
      "ight": 418,
      "Ġv": 419,
      "reat": 420,
      "end": 421,
      "Ġwho": 422,
      "ary": 423,
      "th": 424,
      "ud": 425,
      "ĠG": 426,
      "ĠR": 427,
      "ong": 428,
      "ard": 429,
      "Ġr": 430,
      "Ġle": 431,
      "os": 432,
      "ue": 433,
      "Ġchar": 434,
      "Ġmore": 435,
      "ie": 436,
      "Ġsu": 437,
      "Ġwatch": 438,
      "Ġim": 439,
      "ence": 440,
      "Ġall": 441,
      "Ġout": 442,
      "Ġhas": 443,
      "ĠJ": 444,
      "ore": 445,
      "Ġstory": 446,
      "ial": 447,
      "ment": 448,
      "Ġman": 449,
      "oy": 450,
      "ĠN": 451,
      "od": 452,
      "ry": 453,
      "Ġthey": 454,
      "ven": 455,
      "Ġor": 456,
      "Ġwe": 457,
      "This": 458,
      "ĠE": 459,
      "og": 460,
      "Ġqu": 461,
      "Ġjust": 462,
      "nt": 463,
      "ake": 464,
      "age": 465,
      "Ġcan": 466,
      "ge": 467,
      "Ġinto": 468,
      "au": 469,
      "Ġup": 470,
      "Ġtheir": 471,
      "Ġper": 472,
      "Ġhow": 473,
      "Ġpre": 474,
      "Ġdoc": 475,
      "ument": 476,
      "Ġfeel": 477,
      "ars": 478,
      "ful": 479,
      "Ġ1": 480,
      "Ġshort": 481,
      "are": 482,
      "ne": 483,
      "Ġtime": 484,
      "ich": 485,
      "Ġher": 486,
      "ance": 487,
      "ine": 488,
      "Ġcharact": 489,
      "Ġwhat": 490,
      "hing": 491,
      "Ġdocument": 492,
      "ap": 493,
      "for": 494,
      "ook": 495,
      "Ġgood": 496,
      "Ġcomp": 497,
      "ac": 498,
      "Ġover": 499,
      "Ġcl": 500,
      "iv": 501,
      "itt": 502,
      "Ġ(": 503,
      "Ġthan": 504,
      "ep": 505,
      "ical": 506,
      "ound": 507,
      "Ġthem": 508,
      "pect": 509,
      "Ġdis": 510,
      "ĠO": 511,
      "Ġad": 512,
      "Ġpo": 513,
      "hed": 514,
      "ice": 515,
      "ru": 516,
      "Ġlove": 517,
      "ress": 518,
      "Ġu": 519,
      "ade": 520,
      "our": 521,
      "ide": 522,
      "ass": 523,
      "eri": 524,
      "Ġget": 525,
      "Ġdes": 526,
      "aking": 527,
      "Ġdocumentary": 528,
      "view": 529,
      "Ġwhen": 530,
      "Ġpe": 531,
      "Ġno": 532,
      "ction": 533,
      "Ġbec": 534,
      "now": 535,
      "ish": 536,
      "Ġ-": 537,
      "Ġwork": 538,
      "Ġsee": 539,
      "ays": 540,
      "ult": 541,
      "Ġreally": 542,
      "Ġwould": 543,
      "..": 544,
      "uch": 545,
      "ual": 546,
      "ip": 547,
      "Ġimp": 548,
      "Ġgreat": 549,
      "Ġam": 550,
      "ble": 551,
      "Ġsp": 552,
      "ated": 553,
      "Ġfun": 554,
      "ert": 555,
      "ving": 556,
      "Ġhad": 557,
      "Ġany": 558,
      "form": 559,
      "ame": 560,
      "Ġfa": 561,
      "ile": 562,
      "ces": 563,
      "ick": 564,
      "Ġbet": 565,
      "ink": 566,
      "ram": 567,
      "ople": 568,
      "Ġpart": 569,
      "Ġend": 570,
      "ark": 571,
      "Ġevery": 572,
      "iz": 573,
      "ĠK": 574,
      "ating": 575,
      "Ġbeing": 576,
      "ough": 577,
      "ther": 578,
      "Ġgo": 579,
      "Ġlife": 580,
      "ian": 581,
      "Ġwere": 582,
      "Ġmuch": 583,
      "ff": 584,
      "ond": 585,
      "ves": 586,
      "Ġif": 587,
      "ting": 588,
      "rough": 589,
      "Ġmost": 590,
      "Ġtw": 591,
      "'m": 592,
      "fect": 593,
      "Ġar": 594,
      "Ġpeople": 595,
      "ict": 596,
      "Ġbl": 597,
      "ci": 598,
      "Ġoff": 599,
      "Ġwhich": 600,
      "ild": 601,
      "red": 602,
      "Ġmade": 603,
      "Ġshow": 604,
      "Ġrem": 605,
      "Ġvery": 606,
      "Ġthere": 607,
      "Ġscen": 608,
      "elf": 609,
      "hat": 610,
      "ĠCh": 611,
      "irst": 612,
      "Ġthrough": 613,
      "we": 614,
      "Ġinc": 615,
      "erest": 616,
      "Ġund": 617,
      "arr": 618,
      "ose": 619,
      "Ġent": 620,
      "Ġfilms": 621,
      "Ġdire": 622,
      "Ġem": 623,
      "ran": 624,
      "Ġknow": 625,
      "Ġdid": 626,
      "akes": 627,
      "so": 628,
      "Ġexpl": 629,
      "Ġwell": 630,
      "Ġ2": 631,
      "oc": 632,
      "get": 633,
      "Ġbeen": 634,
      "ings": 635,
      "ations": 636,
      "vid": 637,
      "Ġra": 638,
      "ty": 639,
      "ents": 640,
      "ute": 641,
      "hy": 642,
      "ise": 643,
      "ative": 644,
      "Ġcont": 645,
      "Ġtoo": 646,
      "Ġother": 647,
      "joy": 648,
      "arly": 649,
      "omet": 650,
      "Ġonly": 651,
      "int": 652,
      "It": 653,
      "Ġcomed": 654,
      "Ġlook": 655,
      "Ġreal": 656,
      "ved": 657,
      "Ġinterest": 658,
      "Ġfirst": 659,
      "other": 660,
      "Ġfeat": 661,
      "Ġexperi": 662,
      "Ġenjoy": 663,
      "Ġaf": 664,
      "Ġcould": 665,
      "ions": 666,
      "low": 667,
      "ĠY": 668,
      "ost": 669,
      "cc": 670,
      "ily": 671,
      "inem": 672,
      "Ġag": 673,
      "Ġte": 674,
      "'ve": 675,
      "Ġhor": 676,
      "ens": 677,
      "Ġway": 678,
      "Ġtra": 679,
      "Ġhum": 680,
      "ually": 681,
      "Ġwhere": 682,
      "aut": 683,
      "Ġus": 684,
      "Ġsur": 685,
      "ittle": 686,
      "Ġhim": 687,
      "ause": 688,
      "Ġye": 689,
      "ang": 690,
      "ach": 691,
      "ror": 692,
      "Ġthink": 693,
      "round": 694,
      "aw": 695,
      "ched": 696,
      "Ġunder": 697,
      "Ġdoes": 698,
      "old": 699,
      "ĠSt": 700,
      "Ġperform": 701,
      "Ġmin": 702,
      "Ġdue": 703,
      "ign": 704,
      "rit": 705,
      "Ġmake": 706,
      "Ġdirect": 707,
      "vers": 708,
      "ning": 709,
      "ace": 710,
      "Ġsub": 711,
      "Ġgen": 712,
      "Ġrel": 713,
      "Ġyour": 714,
      "Ġatt": 715,
      "Ġeven": 716,
      "Ġstill": 717,
      "Ġshe": 718,
      "ng": 719,
      "ob": 720,
      "ll": 721,
      "Ġcinem": 722,
      "Ġ19": 723,
      "ray": 724,
      "ny": 725,
      "Ġlittle": 726,
      "own": 727,
      "Ġdel": 728,
      "ures": 729,
      "mer": 730,
      "Ġwom": 731,
      "Ġsomet": 732,
      "ense": 733,
      "Ġfl": 734,
      "apt": 735,
      "du": 736,
      "Ġdon": 737,
      "Ġwant": 738,
      "Ġvis": 739,
      "Ġmus": 740,
      "Ġalso": 741,
      "Ġro": 742,
      "Ġrec": 743,
      "ious": 744,
      "ever": 745,
      "Ġco": 746,
      "pite": 747,
      "Ġbecause": 748,
      "Ġmom": 749,
      "vies": 750,
      "Ġwatching": 751,
      "uring": 752,
      "Ġexperience": 753,
      "Ġdec": 754,
      "ional": 755,
      "wn": 756,
      "ĠThis": 757,
      "Ġport": 758,
      "vel": 759,
      "Ġtwo": 760,
      "Ġafter": 761,
      "Ġpers": 762,
      "Ġwill": 763,
      "Ġcharacter": 764,
      "igh": 765,
      "les": 766,
      "Ġbeaut": 767,
      "ft": 768,
      "Ġres": 769,
      "Ġap": 770,
      "Ġcharacters": 771,
      "Ġser": 772,
      "Ġtal": 773,
      "Ġfam": 774,
      "Ġbr": 775,
      "king": 776,
      "Ġseen": 777,
      "Ġset": 778,
      "Ġmovies": 779,
      "ia": 780,
      "be": 781,
      "ree": 782,
      "rap": 783,
      "Ġinteresting": 784,
      "iful": 785,
      "rig": 786,
      "ĠâĢ": 787,
      "ors": 788,
      "Ġfind": 789,
      "Ġback": 790,
      "Ġmaking": 791,
      "ris": 792,
      "imes": 793,
      "ect": 794,
      "Ġnever": 795,
      "Ġlack": 796,
      "ertain": 797,
      "Ġcomedy": 798,
      "Ġever": 799,
      "pl": 800,
      "oot": 801,
      "ĠV": 802,
      "Ġplot": 803,
      "Ġwhile": 804,
      "thing": 805,
      "Ġart": 806,
      "inal": 807,
      "Ġins": 808,
      "Ġnarr": 809,
      "Ġmany": 810,
      "Ġplay": 811,
      "riend": 812,
      "ull": 813,
      "Ġbest": 814,
      "Ġsomething": 815,
      "Ġind": 816,
      "Ġanim": 817,
      "az": 818,
      "ought": 819,
      ".\"": 820,
      "urn": 821,
      "Ġgu": 822,
      "ath": 823,
      "Ġportray": 824,
      "ism": 825,
      "ple": 826,
      "gg": 827,
      "Ġhorror": 828,
      "ness": 829,
      "Ġdram": 830,
      "Ġaw": 831,
      "Ġworld": 832,
      "ib": 833,
      "Ġhere": 834,
      "cept": 835,
      "Ġapp": 836,
      "Ġlong": 837,
      "ffect": 838,
      "iff": 839,
      "te": 840,
      "Ġbeautiful": 841,
      "ather": 842,
      "Ġview": 843,
      "ase": 844,
      "Ġpret": 845,
      "Ġpres": 846,
      "ling": 847,
      "Ġ20": 848,
      "ately": 849,
      "Ġeffect": 850,
      "Ġbad": 851,
      "ĠU": 852,
      "cial": 853,
      "Ġspe": 854,
      "'re": 855,
      "Ġev": 856,
      "Ġseem": 857,
      "ans": 858,
      "que": 859,
      "Ġwatched": 860,
      "utes": 861,
      "uck": 862,
      "âĢĿ": 863,
      "Ġele": 864,
      "ween": 865,
      "Ġthought": 866,
      "Ġthese": 867,
      "Ġappe": 868,
      "Ġcomple": 869,
      "ount": 870,
      "Ġfound": 871,
      "Ġmusic": 872,
      "ons": 873,
      "ery": 874,
      "Ġstart": 875,
      "Ġtr": 876,
      "Ġsim": 877,
      "Ġemot": 878,
      "here": 879,
      "fore": 880,
      "Ġbetter": 881,
      "ject": 882,
      "Ġmakes": 883,
      "Ġbetween": 884,
      "Ġhigh": 885,
      "atic": 886,
      "Ġperson": 887,
      "Ġri": 888,
      "Ġvi": 889,
      "Ġsup": 890,
      "Ġlot": 891,
      "ward": 892,
      "li": 893,
      "Ġinv": 894,
      "Ġinter": 895,
      "Ġfeels": 896,
      "irl": 897,
      "Ġhist": 898,
      "Ġminutes": 899,
      "ible": 900,
      "self": 901,
      "ber": 902,
      "Ġthose": 903,
      "ex": 904,
      "...": 905,
      "der": 906,
      "Ġdiff": 907,
      "reen": 908,
      "ming": 909,
      "ments": 910,
      "Ġyears": 911,
      "Ġagain": 912,
      "icul": 913,
      "elt": 914,
      "less": 915,
      "Ġexpect": 916,
      "ograp": 917,
      "Ġcol": 918,
      "elling": 919,
      "Ġcr": 920,
      "Ġbit": 921,
      "Ġthen": 922,
      "oth": 923,
      "Ġcapt": 924,
      "Ġpretty": 925,
      "rong": 926,
      "iss": 927,
      "Ġown": 928,
      "Ġuni": 929,
      "ably": 930,
      "Ġshot": 931,
      "Ġheart": 932,
      "Ġhapp": 933,
      "Ġpr": 934,
      "ren": 935,
      "Ġchild": 936,
      "Ġsm": 937,
      "Ġnew": 938,
      "ten": 939,
      "ower": 940,
      "Ġexc": 941,
      "Ġsay": 942,
      "Ġprodu": 943,
      "hip": 944,
      "ub": 945,
      "ec": 946,
      "ances": 947,
      "ced": 948,
      "ream": 949,
      "Ġbefore": 950,
      "era": 951,
      "app": 952,
      "Ġscene": 953,
      "Ġdidn": 954,
      "Ġfriend": 955,
      "man": 956,
      "Ġkind": 957,
      "Ġneed": 958,
      "Ġsound": 959,
      "ave": 960,
      "Ġdrama": 961,
      "Ġold": 962,
      "Ġcreat": 963,
      "Ġdespite": 964,
      "Ġsl": 965,
      "Ġinst": 966,
      "Ġmay": 967,
      "Ġter": 968,
      "ater": 969,
      "Ġclass": 970,
      "Ġnow": 971,
      "Ġche": 972,
      "Ġthr": 973,
      "Ġnarrative": 974,
      "Ġquite": 975,
      "atch": 976,
      "Ġaround": 977,
      "Ġwithout": 978,
      "Ġlead": 979,
      "ways": 980,
      "ead": 981,
      "Ġscenes": 982,
      "ock": 983,
      "led": 984,
      "Ġes": 985,
      "ality": 986,
      "Ġfol": 987,
      "ĠYou": 988,
      "Ġacc": 989,
      "meric": 990,
      "ering": 991,
      "iller": 992,
      "Ġcons": 993,
      "Ġob": 994,
      "Ġsuch": 995,
      "sc": 996,
      "ail": 997,
      "Ġfamily": 998,
      "ered": 999,
      "augh": 1000,
      "fort": 1001,
      "hes": 1002,
      "ased": 1003,
      "Ġgoing": 1004,
      "Ġgot": 1005,
      "Ġhard": 1006,
      "Ġed": 1007,
      "Ġmoments": 1008,
      "Ġaction": 1009,
      "Ġthing": 1010,
      "oss": 1011,
      "Ġyoung": 1012,
      "ks": 1013,
      "Ġkid": 1014,
      "ues": 1015,
      "Ġcle": 1016,
      "Ġstru": 1017,
      "Ġop": 1018,
      "Ġcast": 1019,
      "Ġfelt": 1020,
      "Ġtri": 1021,
      "ix": 1022,
      "ird": 1023,
      "Ġke": 1024,
      "Ġacting": 1025,
      "Ġimpress": 1026,
      "hen": 1027,
      "Ġshould": 1028,
      "Ġseries": 1029,
      "ates": 1030,
      "Ġide": 1031,
      "Ġabs": 1032,
      "Ġeng": 1033,
      "Ġsurp": 1034,
      "empt": 1035,
      "Ġadd": 1036,
      "Ġdown": 1037,
      "Ġtry": 1038,
      "Ġdoesn": 1039,
      "its": 1040,
      "Ġportrayal": 1041,
      "Ġtake": 1042,
      "Ġfall": 1043,
      "Ġwoman": 1044,
      "yle": 1045,
      "ics": 1046,
      "Ġreview": 1047,
      "Ġour": 1048,
      "Ġtimes": 1049,
      "Ġalways": 1050,
      "udi": 1051,
      "Ġcam": 1052,
      "Ġdirector": 1053,
      "Ġentertain": 1054,
      "Ġdisc": 1055,
      "ĠAmeric": 1056,
      "aster": 1057,
      "Ġfunny": 1058,
      "Ġboth": 1059,
      "Ġsex": 1060,
      "rist": 1061,
      "ines": 1062,
      "Ġhuman": 1063,
      "ĠIn": 1064,
      "ĠHe": 1065,
      "Ġunique": 1066,
      "ss": 1067,
      "Ġgr": 1068,
      "Ġdeep": 1069,
      "ĠAnd": 1070,
      "Ġdeli": 1071,
      "ins": 1072,
      "Ġgirl": 1073,
      "Ġsec": 1074,
      "Ġmem": 1075,
      "Ġcomm": 1076,
      "ific": 1077,
      "Ġext": 1078,
      "Ġstand": 1079,
      "Ġlast": 1080,
      "ale": 1081,
      "ew": 1082,
      "Ġyet": 1083,
      "iting": 1084,
      "Ġpower": 1085,
      "Ġenough": 1086,
      "Ġparticul": 1087,
      "ord": 1088,
      "ked": 1089,
      "Ġpoint": 1090,
      "Ġdef": 1091,
      "ition": 1092,
      "Ġthings": 1093,
      "ities": 1094,
      "Ġpol": 1095,
      "ocus": 1096,
      "Ġdep": 1097,
      "ret": 1098,
      "tern": 1099,
      "Ġgl": 1100,
      "Ġfilmm": 1101,
      "Ġfoot": 1102,
      "istic": 1103,
      "stand": 1104,
      "Ġsame": 1105,
      "orth": 1106,
      "Ġoften": 1107,
      "ited": 1108,
      "Ġfail": 1109,
      "alf": 1110,
      "udget": 1111,
      "Ġfollow": 1112,
      "Ġbel": 1113,
      "ĠBut": 1114,
      "ography": 1115,
      "ories": 1116,
      "ool": 1117,
      "ope": 1118,
      "Ġwar": 1119,
      "Ġdist": 1120,
      "Ġattempt": 1121,
      "Ġscreen": 1122,
      "olog": 1123,
      "ĠSh": 1124,
      "av": 1125,
      "Ġcinema": 1126,
      "Ġright": 1127,
      "ying": 1128,
      "Ġcre": 1129,
      "Ġconf": 1130,
      "ney": 1131,
      "Ġactually": 1132,
      "lud": 1133,
      "ĠHow": 1134,
      "Ġrom": 1135,
      "ife": 1136,
      "ner": 1137,
      "iece": 1138,
      "ingly": 1139,
      "ences": 1140,
      "Ġfocus": 1141,
      "ĠJo": 1142,
      "Ġdiffere": 1143,
      "ĠAl": 1144,
      "Ġperformance": 1145,
      "Ġhumor": 1146,
      "An": 1147,
      "Ġlight": 1148,
      "ouse": 1149,
      "Ġguy": 1150,
      "Ġturn": 1151,
      "Ġimag": 1152,
      "Ġmain": 1153,
      "ove": 1154,
      "ane": 1155,
      "vent": 1156,
      "Ġleft": 1157,
      "ody": 1158,
      "eng": 1159,
      "00": 1160,
      "Ġhistory": 1161,
      "ilar": 1162,
      "Ġcare": 1163,
      "Ġ3": 1164,
      "cially": 1165,
      "Ġlow": 1166,
      "day": 1167,
      "Ġsense": 1168,
      "ash": 1169,
      "aging": 1170,
      "ĠChrist": 1171,
      "Ġhowever": 1172,
      "the": 1173,
      "Ġanother": 1174,
      "ron": 1175,
      "Ġwomen": 1176,
      "Ġhalf": 1177,
      "Ġexplo": 1178,
      "ef": 1179,
      "Ġday": 1180,
      "'d": 1181,
      "Ġsa": 1182,
      "Ġbig": 1183,
      "ically": 1184,
      "ains": 1185,
      "Ġunc": 1186,
      "vor": 1187,
      "rem": 1188,
      "Ġduring": 1189,
      "Ġlive": 1190,
      "xt": 1191,
      "most": 1192,
      "Ġtell": 1193,
      "Ġwhy": 1194,
      "Ġeffective": 1195,
      "Ġsk": 1196,
      "Ġparticularly": 1197,
      "Ġsomeone": 1198,
      "Ġrun": 1199,
      "ists": 1200,
      "olute": 1201,
      "Ġref": 1202,
      "ural": 1203,
      "Ġdet": 1204,
      "Ġfeatures": 1205,
      "ince": 1206,
      "Ġstrong": 1207,
      "Ġfew": 1208,
      "Ġsurpris": 1209,
      "Ġpoor": 1210,
      "ĠThere": 1211,
      "yp": 1212,
      "pecially": 1213,
      "Ġsomew": 1214,
      "Ġperformances": 1215,
      "Ġstyle": 1216,
      "Ġelements": 1217,
      "asc": 1218,
      "Ġanimation": 1219,
      "ruly": 1220,
      "Ġtit": 1221,
      "Ġmess": 1222,
      "Ġincred": 1223,
      "Ġperfect": 1224,
      "olid": 1225,
      "vide": 1226,
      "Ġtran": 1227,
      "ature": 1228,
      "Ġmon": 1229,
      "Ġproduction": 1230,
      "Ġorig": 1231,
      "ĠBl": 1232,
      "Ġgra": 1233,
      "Ġrep": 1234,
      "Ġep": 1235,
      "ening": 1236,
      "\".": 1237,
      "Ġfavor": 1238,
      "Ġcult": 1239,
      "cing": 1240,
      "gether": 1241,
      "Ġtogether": 1242,
      "Ġdark": 1243,
      "ired": 1244,
      "ident": 1245,
      "Ġfootage": 1246,
      "!!": 1247,
      "ĠTh": 1248,
      "Ġfar": 1249,
      "If": 1250,
      "Ġnice": 1251,
      "Ġinclud": 1252,
      "Ġvisual": 1253,
      "Ġ&": 1254,
      "Ġrelations": 1255,
      "min": 1256,
      "Ġconc": 1257,
      "Ġdifferent": 1258,
      "Ġsequ": 1259,
      "Ġhand": 1260,
      "Ġearly": 1261,
      "uff": 1262,
      "Ġthough": 1263,
      "Ġenjoyed": 1264,
      "arn": 1265,
      "Ġsil": 1266,
      "Ġexplor": 1267,
      "aring": 1268,
      "Ġprom": 1269,
      "Ġfeature": 1270,
      "Ġcra": 1271,
      "Ġaudi": 1272,
      "ution": 1273,
      "Ġentire": 1274,
      "Ġgets": 1275,
      "ph": 1276,
      "Ġfriends": 1277,
      "Ġfin": 1278,
      "Ġespecially": 1279,
      "Ġnothing": 1280,
      "Ġ'": 1281,
      "Ġrelationship": 1282,
      "Ġhel": 1283,
      "Ġunderstand": 1284,
      "als": 1285,
      "Ġtrying": 1286,
      "Ġsing": 1287,
      "Ġenjoyable": 1288,
      "Ġmen": 1289,
      "Ġsomewhat": 1290,
      "ason": 1291,
      "Ġtruly": 1292,
      "Ġstrugg": 1293,
      "ential": 1294,
      "Ġput": 1295,
      "per": 1296,
      "Ġel": 1297,
      "Ġdecent": 1298,
      "ye": 1299,
      "Ġbeh": 1300,
      "Ġbelie": 1301,
      "Ġcool": 1302,
      "Ġplace": 1303,
      "sy": 1304,
      "hn": 1305,
      "ract": 1306,
      "Ġanything": 1307,
      "ibly": 1308,
      "Ġcou": 1309,
      "Ġph": 1310,
      "In": 1311,
      "Ġwond": 1312,
      "Ġform": 1313,
      "Ġseems": 1314,
      "ĠBe": 1315,
      "Ġending": 1316,
      "chool": 1317,
      "Ġsecond": 1318,
      "Ġtone": 1319,
      "osp": 1320,
      "bably": 1321,
      "Ġnight": 1322,
      "Ġtakes": 1323,
      "Ġkill": 1324,
      "Ġmar": 1325,
      "Ġeverything": 1326,
      "Ġeach": 1327,
      "ok": 1328,
      "Ġthemes": 1329,
      "fully": 1330,
      ").": 1331,
      "Ġless": 1332,
      "ster": 1333,
      "ention": 1334,
      "Ġpresent": 1335,
      "orn": 1336,
      "Ġhour": 1337,
      "Ġrele": 1338,
      "âĢľ": 1339,
      "omm": 1340,
      "Ġslow": 1341,
      "ives": 1342,
      "Ġworth": 1343,
      "Ġalmost": 1344,
      "cess": 1345,
      "Ġentertaining": 1346,
      "Ġintrig": 1347,
      "Ġtrans": 1348,
      "Ġsign": 1349,
      "appo": 1350,
      "yn": 1351,
      "ĠHowever": 1352,
      "Ġstars": 1353,
      "ied": 1354,
      "Ġmight": 1355,
      "Ġwhole": 1356,
      "inite": 1357,
      "uss": 1358,
      "Ġlaugh": 1359,
      "Ġsure": 1360,
      "ĠâĢľ": 1361,
      "read": 1362,
      "Ġthree": 1363,
      "Ġac": 1364,
      "air": 1365,
      "Ġengaging": 1366,
      "Ġimpressive": 1367,
      "Ġinstead": 1368,
      "ously": 1369,
      "uing": 1370,
      "Ġmed": 1371,
      "Ġrather": 1372,
      "Ġyear": 1373,
      "Ġpass": 1374,
      "Ġquality": 1375,
      "Ġabsolute": 1376,
      "Ġquest": 1377,
      "Ġspecial": 1378,
      "ted": 1379,
      "Ġfull": 1380,
      "Ġhelp": 1381,
      "umb": 1382,
      "Ġfavorite": 1383,
      "Ġbu": 1384,
      "Ġ5": 1385,
      "Ġdisappo": 1386,
      "land": 1387,
      "Ġsong": 1388,
      "Ġprem": 1389,
      "oice": 1390,
      "Ġmean": 1391,
      "ĠAmerican": 1392,
      "Ġfeeling": 1393,
      "Ġappears": 1394,
      "Ġterri": 1395,
      "ently": 1396,
      "Ġdra": 1397,
      "ĠRe": 1398,
      "Ġcomplex": 1399,
      "Ġuse": 1400,
      "ox": 1401,
      "espite": 1402,
      "Ġhome": 1403,
      "Ġemotional": 1404,
      "ĠâĢĵ": 1405,
      "Ġoriginal": 1406,
      "ized": 1407,
      "Ġkeep": 1408,
      "fortun": 1409,
      "Ġloved": 1410,
      "initely": 1411,
      "Ġmust": 1412,
      "Ġlet": 1413,
      "Ġfalls": 1414,
      "ility": 1415,
      "ĠLe": 1416,
      "Ġhaving": 1417,
      "idd": 1418,
      "Ġisn": 1419,
      "Ġsuper": 1420,
      "Ġboy": 1421,
      "Ġsince": 1422,
      "ric": 1423,
      "Ġass": 1424,
      "Ġvers": 1425,
      "asy": 1426,
      "Ġidea": 1427,
      "Ġdream": 1428,
      "Ġcall": 1429,
      "atter": 1430,
      "ared": 1431,
      "isc": 1432,
      "ogue": 1433,
      "ĠNot": 1434,
      "onest": 1435,
      "ĠWh": 1436,
      "Ġunt": 1437,
      "ĠAn": 1438,
      "Ġple": 1439,
      "ross": 1440,
      "Ġappro": 1441,
      "Ġdial": 1442,
      "Ġiss": 1443,
      "Ġbeg": 1444,
      "oon": 1445,
      "Ġeveryone": 1446,
      "Ġtitle": 1447,
      "Ġaway": 1448,
      "Ġgi": 1449,
      "cy": 1450,
      "Ġsad": 1451,
      "Ġmaster": 1452,
      "Ġsubject": 1453,
      "Ġposs": 1454,
      "Ġviol": 1455,
      "light": 1456,
      "Ġfasc": 1457,
      "Ġret": 1458,
      "ational": 1459,
      "Ġclassic": 1460,
      "Ġschool": 1461,
      "Ġcomplete": 1462,
      "mosp": 1463,
      "Ġcome": 1464,
      "'ll": 1465,
      "estern": 1466,
      "ili": 1467,
      "son": 1468,
      "Ġgive": 1469,
      "ript": 1470,
      "Ġgener": 1471,
      "Ġcount": 1472,
      "Ġwrit": 1473,
      "Ġfilmmak": 1474,
      "oll": 1475,
      "iness": 1476,
      "Ġtrue": 1477,
      "line": 1478,
      "Ġswe": 1479,
      "Ġread": 1480,
      "Ġatmosp": 1481,
      "Ġi": 1482,
      "Ġrest": 1483,
      "Ġhead": 1484,
      "19": 1485,
      "ms": 1486,
      "fortunately": 1487,
      "Ġprot": 1488,
      "isod": 1489,
      "ĠWe": 1490,
      "de": 1491,
      "Ġfeaturing": 1492,
      "Ġdeeply": 1493,
      "Ġstun": 1494,
      "Ġinf": 1495,
      "Ġpast": 1496,
      "Ġoverall": 1497,
      "reci": 1498,
      "uine": 1499,
      "Ġvide": 1500,
      "azing": 1501,
      "urb": 1502,
      "Ġexplores": 1503,
      "ety": 1504,
      "Ġsmall": 1505,
      "Ġwonder": 1506,
      "Ġcinemat": 1507,
      "Ġmiss": 1508,
      "Ġdone": 1509,
      "ann": 1510,
      "Ġprobably": 1511,
      "Ġactors": 1512,
      "ental": 1513,
      "Ġintriguing": 1514,
      "Ġthriller": 1515,
      "Ġagainst": 1516,
      "Ġ4": 1517,
      "ĠJohn": 1518,
      "Ġconcept": 1519,
      "reak": 1520,
      "Ġfact": 1521,
      "Ġpiece": 1522,
      "und": 1523,
      "There": 1524,
      "Ġinvol": 1525,
      "Ġ9": 1526,
      "Ġval": 1527,
      "\",": 1528,
      "Ġpred": 1529,
      "Ġgay": 1530,
      "Ġreg": 1531,
      "Ġpot": 1532,
      "Ġfant": 1533,
      "mas": 1534,
      "Ġsy": 1535,
      "Ġvisually": 1536,
      "illi": 1537,
      "Ġmur": 1538,
      "Ġsupp": 1539,
      "Ġfight": 1540,
      "Ġdeliver": 1541,
      "Ġmix": 1542,
      "Ġuntil": 1543,
      "Ġwasn": 1544,
      "Ġcar": 1545,
      "ching": 1546,
      "Ġstories": 1547,
      "Ġpain": 1548,
      "Ġshowc": 1549,
      "Ġwr": 1550,
      "Ġsolid": 1551,
      "Ġprof": 1552,
      "vo": 1553,
      "ames": 1554,
      "Ġmyst": 1555,
      "att": 1556,
      "Ġfinal": 1557,
      "ĠSp": 1558,
      "Ġuns": 1559,
      "Ġfascin": 1560,
      "Ġleast": 1561,
      "ĠThat": 1562,
      ".âĢĿ": 1563,
      "Ġcamera": 1564,
      "Ġmyself": 1565,
      "Ġpowerful": 1566,
      "My": 1567,
      "Ġappreci": 1568,
      "Ġcinematography": 1569,
      "Ġgenre": 1570,
      "Ġloc": 1571,
      "Ġlives": 1572,
      "ĠUn": 1573,
      "velop": 1574,
      "Ġepisod": 1575,
      "Ġmind": 1576,
      "Ġbor": 1577,
      "arent": 1578,
      "Ġimm": 1579,
      "using": 1580,
      "Ġblack": 1581,
      "pth": 1582,
      "Ġdeath": 1583,
      "You": 1584,
      "reme": 1585,
      "Ġself": 1586,
      "Ġaspect": 1587,
      "ah": 1588,
      "br": 1589,
      "Ġbecom": 1590,
      "Ġlea": 1591,
      "Ġcharming": 1592,
      "Ġweird": 1593,
      "Ġitself": 1594,
      "Ġfan": 1595,
      "Ġdialogue": 1596,
      "One": 1597,
      "Ġpremise": 1598,
      "Ġcontent": 1599,
      "Ġfails": 1600,
      "Ġtop": 1601,
      "Ġmoment": 1602,
      "Ġexploration": 1603,
      "Ġconsid": 1604,
      "ts": 1605,
      "ork": 1606,
      "Ġstop": 1607,
      "Ġbehind": 1608,
      "Ġgenuine": 1609,
      "Ġconve": 1610,
      "ys": 1611,
      "ĠDe": 1612,
      "rop": 1613,
      "Ġcur": 1614,
      "ĠSo": 1615,
      "Ġlost": 1616,
      "ger": 1617,
      "),": 1618,
      "Ġpersonal": 1619,
      "Ġwish": 1620,
      "Ġ8": 1621,
      "ike": 1622,
      "vis": 1623,
      "Not": 1624,
      "Ġmet": 1625,
      "Ġversion": 1626,
      "ier": 1627,
      "lic": 1628,
      "ett": 1629,
      "Ġunf": 1630,
      "ug": 1631,
      "aps": 1632,
      "Ġimport": 1633,
      "Ġstar": 1634,
      "Ġnature": 1635,
      "like": 1636,
      "Ġelse": 1637,
      "As": 1638,
      "Ġgetting": 1639,
      "Ġexec": 1640,
      "Ġconne": 1641,
      "ĠCl": 1642,
      "Ġsaw": 1643,
      "over": 1644,
      "amp": 1645,
      "Ġincluding": 1646,
      "Ġdesign": 1647,
      "Ġcertain": 1648,
      "Ġliked": 1649,
      "iction": 1650,
      "Ġatmosphere": 1651,
      "het": 1652,
      "Ġblend": 1653,
      "gic": 1654,
      "Ġsaid": 1655,
      "Ġcommun": 1656,
      "Ġsat": 1657,
      "Ġbudget": 1658,
      "ĠThey": 1659,
      "chn": 1660,
      "ĠChristmas": 1661,
      "Ġviewers": 1662,
      "lect": 1663,
      "Ġthroughout": 1664,
      "ize": 1665,
      "ĠBrit": 1666,
      "antic": 1667,
      "antly": 1668,
      "Ġseeing": 1669,
      "Ġland": 1670,
      "Ġstra": 1671,
      "ets": 1672,
      "Ġpolit": 1673,
      "Ġeff": 1674,
      "Ġexist": 1675,
      "Ġimpact": 1676,
      "not": 1677,
      "ustr": 1678,
      "itive": 1679,
      "oke": 1680,
      "Ġmel": 1681,
      "Ġfuck": 1682,
      "Ġinsp": 1683,
      "ĠFilm": 1684,
      "Ġaut": 1685,
      "Ġmis": 1686,
      "ĠMar": 1687,
      "ĠAs": 1688,
      "ended": 1689,
      "Ġtale": 1690,
      "Ġdepth": 1691,
      "Ġsignific": 1692,
      "ivid": 1693,
      "ters": 1694,
      "Ġsoci": 1695,
      "Ġdefinitely": 1696,
      "Ġplays": 1697,
      "roup": 1698,
      "vol": 1699,
      "Ġamazing": 1700,
      "wards": 1701,
      "Ġeffectively": 1702,
      "Ġstuff": 1703,
      "ĠIs": 1704,
      "Ġremem": 1705,
      "Ġrole": 1706,
      "iter": 1707,
      "Ġcaptiv": 1708,
      "ĠAr": 1709,
      "ĠShe": 1710,
      "ax": 1711,
      "Ġworks": 1712,
      "olly": 1713,
      "Ġjob": 1714,
      "ival": 1715,
      "Ġused": 1716,
      "Ġmother": 1717,
      "20": 1718,
      "way": 1719,
      "orge": 1720,
      "atching": 1721,
      "Ġstri": 1722,
      "Ġstud": 1723,
      "Ġhouse": 1724,
      "ĠSc": 1725,
      "Ġleg": 1726,
      "Ġsit": 1727,
      "ange": 1728,
      "ape": 1729,
      "agon": 1730,
      "Ġadapt": 1731,
      "ĠMan": 1732,
      "ump": 1733,
      "Ġjour": 1734,
      "Ġlooks": 1735,
      "ged": 1736,
      "Ġcent": 1737,
      "Ġcut": 1738,
      "ĠNew": 1739,
      "Ġgroup": 1740,
      "Ġcomes": 1741,
      "Ġlacks": 1742,
      "Ġcouple": 1743,
      "ky": 1744,
      "Ġonce": 1745,
      "Ġstoryt": 1746,
      "Ġdirected": 1747,
      "Ġabsolutely": 1748,
      "ored": 1749,
      "ined": 1750,
      "Ġvideo": 1751,
      "Ġapproach": 1752,
      "Ġfascinating": 1753,
      "zy": 1754,
      "astic": 1755,
      "ĠIf": 1756,
      "Ġbelieve": 1757,
      "Ġrecomm": 1758,
      "Ġgiven": 1759,
      "Ġprovid": 1760,
      "ley": 1761,
      "Ġscript": 1762,
      "Ġhope": 1763,
      "Ġexcept": 1764,
      "ese": 1765,
      "ened": 1766,
      "orm": 1767,
      "ĠSe": 1768,
      "com": 1769,
      "Ġwanted": 1770,
      "Ġcor": 1771,
      "Ġfather": 1772,
      "Ġextreme": 1773,
      "minute": 1774,
      "oney": 1775,
      "ĠWar": 1776,
      "of": 1777,
      "Ġeffects": 1778,
      "Ġdevelop": 1779,
      "wood": 1780,
      "Ġeffort": 1781,
      "Ġwhite": 1782,
      "Ġshowcas": 1783,
      "Ġissues": 1784,
      "Ġmatter": 1785,
      "Ġpar": 1786,
      "Ġediting": 1787,
      "omb": 1788,
      "Ġlooking": 1789,
      "dd": 1790,
      "nce": 1791,
      "erg": 1792,
      "ular": 1793,
      "Ġstorytelling": 1794,
      "Ġstran": 1795,
      "Ġstunning": 1796,
      "Ġshows": 1797,
      "stal": 1798,
      "ĠMy": 1799,
      "Ġindivid": 1800,
      "Ġchildren": 1801,
      "aries": 1802,
      "Ġcute": 1803,
      "Wh": 1804,
      "Ġdoing": 1805,
      "Ġtou": 1806,
      "pro": 1807,
      "ĠTH": 1808,
      "Ġcrime": 1809,
      "Ġcame": 1810,
      "ĠWhat": 1811,
      "aling": 1812,
      "hel": 1813,
      "Ġincredibly": 1814,
      "Ġaudience": 1815,
      "side": 1816,
      "Ġkids": 1817,
      "Ġbas": 1818,
      "Ġvar": 1819,
      "Despite": 1820,
      "ished": 1821,
      "Ġant": 1822,
      "Ġsw": 1823,
      "ages": 1824,
      "ĠRob": 1825,
      "Ġindividual": 1826,
      "ows": 1827,
      "iel": 1828,
      "Ġdr": 1829,
      "ital": 1830,
      "Ġlist": 1831,
      "Ġboring": 1832,
      "Ġinterview": 1833,
      "Ġhonest": 1834,
      "ionally": 1835,
      "ilarious": 1836,
      "Ġdri": 1837,
      "Ġpleas": 1838,
      "ats": 1839,
      "iving": 1840,
      "Ġmusical": 1841,
      "Ġintense": 1842,
      "Ġalong": 1843,
      "Ġclear": 1844,
      "Ġpur": 1845,
      "osed": 1846,
      "Ġsweet": 1847,
      "Ġbecome": 1848,
      "Ġword": 1849,
      "Ġface": 1850,
      "Ġcompelling": 1851,
      "Ġinform": 1852,
      "iliar": 1853,
      "Ġdem": 1854,
      "Ġess": 1855,
      "budget": 1856,
      "apan": 1857,
      "avi": 1858,
      "Ġsetting": 1859,
      "ially": 1860,
      "Ġcouldn": 1861,
      "Ġtoday": 1862,
      "What": 1863,
      "arring": 1864,
      "Ġremains": 1865,
      "Ġmove": 1866,
      "Ġmag": 1867,
      "ices": 1868,
      "Ġfem": 1869,
      "Ġromantic": 1870,
      "ĠBritish": 1871,
      "Ġcart": 1872,
      "Ġtechn": 1873,
      "Ġmoder": 1874,
      "rief": 1875,
      "Ġothers": 1876,
      "Ġhold": 1877,
      "Ġcrit": 1878,
      "time": 1879,
      "Ġhistor": 1880,
      "Ġfair": 1881,
      "Ġhighlight": 1882,
      "Ġgoes": 1883,
      "owing": 1884,
      "Ġpotential": 1885,
      "Ġsimple": 1886,
      "iet": 1887,
      "aced": 1888,
      "na": 1889,
      "Ġviewing": 1890,
      "ony": 1891,
      "ott": 1892,
      "Ġdesc": 1893,
      "Ġwent": 1894,
      "yes": 1895,
      "Ġpsy": 1896,
      "Ġconst": 1897,
      "Ġocc": 1898,
      "imp": 1899,
      "Ġcinematic": 1900,
      "use": 1901,
      "Ġz": 1902,
      "ĠBr": 1903,
      "Ġworst": 1904,
      "Ġfore": 1905,
      "Ġheav": 1906,
      "tra": 1907,
      "ither": 1908,
      "Ġhilarious": 1909,
      "oles": 1910,
      "Ġ10": 1911,
      "Ġreason": 1912,
      "Ġnostal": 1913,
      "ube": 1914,
      "inting": 1915,
      "pective": 1916,
      "aces": 1917,
      "erious": 1918,
      "Ġshots": 1919,
      "but": 1920,
      "ches": 1921,
      "lish": 1922,
      "Ġcoming": 1923,
      "Ġhimself": 1924,
      "Ġbased": 1925,
      "Ġpop": 1926,
      "unch": 1927,
      "acing": 1928,
      "Ġanyone": 1929,
      "Ġmor": 1930,
      "Ġproject": 1931,
      "aged": 1932,
      "hood": 1933,
      "Ġnon": 1934,
      "my": 1935,
      "Ġmoving": 1936,
      "uc": 1937,
      "Ġcompletely": 1938,
      "ured": 1939,
      "ology": 1940,
      "ellent": 1941,
      "ĠJapan": 1942,
      "Ġbecomes": 1943,
      "sh": 1944,
      "orough": 1945,
      "Ġwithin": 1946,
      "sel": 1947,
      "Ġdirection": 1948,
      "Ġactor": 1949,
      "Ġprotagon": 1950,
      "Ġult": 1951,
      "orable": 1952,
      "Ġcountry": 1953,
      "Ġmodern": 1954,
      "ĠOne": 1955,
      "ones": 1956,
      "lection": 1957,
      "Ġstraight": 1958,
      "Ġfollows": 1959,
      "Ġbook": 1960,
      "Ġwa": 1961,
      "Ġbra": 1962,
      "Ġcontin": 1963,
      "ek": 1964,
      "Ġopp": 1965,
      "arre": 1966,
      "ude": 1967,
      "ictable": 1968,
      "Ġmostly": 1969,
      "ement": 1970,
      "Ġsocial": 1971,
      "Ġjourney": 1972,
      "Ġvoice": 1973,
      "itten": 1974,
      "rew": 1975,
      "Ġcharm": 1976,
      "ctor": 1977,
      "Ġterrible": 1978,
      "ried": 1979,
      "Ġanimated": 1980,
      "Ġfut": 1981,
      "Ġplaying": 1982,
      "imately": 1983,
      "Ġcop": 1984,
      "Ġvisuals": 1985,
      "Ġchall": 1986,
      "Ġsingle": 1987,
      "Ġremind": 1988,
      "vin": 1989,
      "to": 1990,
      "Ġmessage": 1991,
      "icult": 1992,
      "Ġtalent": 1993,
      "Ġliving": 1994,
      "Ġsimilar": 1995,
      "ĠGod": 1996,
      "Ġdog": 1997,
      "war": 1998,
      "rench": 1999,
      "ength": 2000,
      "ient": 2001,
      "Ġclose": 2002,
      "Ġliter": 2003,
      "Ġstarts": 2004,
      "illed": 2005,
      "Ġremember": 2006,
      "Ġlearn": 2007,
      "Ġful": 2008,
      "orld": 2009,
      "Ġmurder": 2010,
      "otic": 2011,
      "ĠCan": 2012,
      "70": 2013,
      "selves": 2014,
      "Ġsucc": 2015,
      "Ġobs": 2016,
      "Ġera": 2017,
      "ank": 2018,
      "Ġwild": 2019,
      "real": 2020,
      "io": 2021,
      "Ġsubt": 2022,
      "usion": 2023,
      "okes": 2024,
      "We": 2025,
      "ĠQ": 2026,
      "Ġquestion": 2027,
      "right": 2028,
      "Ġsle": 2029,
      "Ġdays": 2030,
      "Ġfamiliar": 2031,
      "ĠZ": 2032,
      "Ġdifficult": 2033,
      "Ġbuild": 2034,
      "Ġtwist": 2035,
      "Ġdisturb": 2036,
      "Ġexpectations": 2037,
      "St": 2038,
      "Ġtyp": 2039,
      "Ġculture": 2040,
      "Ġprop": 2041,
      "Ġwife": 2042,
      "Ġband": 2043,
      "Ġrecommend": 2044,
      "udd": 2045,
      "Ġbo": 2046,
      "Ġproble": 2047,
      "ollywood": 2048,
      "Ġmult": 2049,
      "Ġcaptivating": 2050,
      "enn": 2051,
      "Ġmot": 2052,
      "Ġnext": 2053,
      "fying": 2054,
      "ote": 2055,
      "Ġpict": 2056,
      "Ġthorough": 2057,
      "Ġtowards": 2058,
      "iddle": 2059,
      "unk": 2060,
      "vious": 2061,
      "Ġmystery": 2062,
      "inning": 2063,
      "Ġlater": 2064,
      "Ġbring": 2065,
      "Ġimportant": 2066,
      "ians": 2067,
      "par": 2068,
      "lin": 2069,
      "urd": 2070,
      "Ġdead": 2071,
      "els": 2072,
      "Ġwrong": 2073,
      "Ġinvest": 2074,
      "Ġextremely": 2075,
      "Ġtold": 2076,
      "Ġlevel": 2077,
      "Ġhom": 2078,
      "Ġfig": 2079,
      "ination": 2080,
      "Ġdev": 2081,
      ",\"": 2082,
      "Ġcomb": 2083,
      "ĠAll": 2084,
      "Ġtells": 2085,
      "Ġexam": 2086,
      "atural": 2087,
      "Ġattention": 2088,
      "Ġviolence": 2089,
      "When": 2090,
      "Ġlar": 2091,
      "Ġwal": 2092,
      "Ġreve": 2093,
      "onic": 2094,
      "ĠNo": 2095,
      "Ġdelivers": 2096,
      "Ġcomedic": 2097,
      "Ġident": 2098,
      "ĠInd": 2099,
      "Ġpri": 2100,
      "ern": 2101,
      "Ġexpected": 2102,
      "Ġfilmmaking": 2103,
      "Ġemb": 2104,
      "Ġcareer": 2105,
      "erman": 2106,
      "Ġbreak": 2107,
      "Ġincredible": 2108,
      "ĠAf": 2109,
      "rup": 2110,
      "Ġdetail": 2111,
      "ER": 2112,
      "Ġtook": 2113,
      "ground": 2114,
      "ising": 2115,
      "imate": 2116,
      "Ġeyes": 2117,
      "Ġnum": 2118,
      "Ġ90": 2119,
      "Ġann": 2120,
      "Tube": 2121,
      "Ġdull": 2122,
      "ball": 2123,
      "Ġromance": 2124,
      "Ġspir": 2125,
      "Ġcour": 2126,
      "Ġexcellent": 2127,
      "pped": 2128,
      "Ġoffers": 2129,
      "Ġactual": 2130,
      "Ġplayed": 2131,
      "mb": 2132,
      "ĠFrench": 2133,
      "Ġshorts": 2134,
      "Ġwriting": 2135,
      "Ġlate": 2136,
      "itting": 2137,
      "arkable": 2138,
      "Ġsuccess": 2139,
      "Ġexact": 2140,
      "Ġfour": 2141,
      "Ġdeser": 2142,
      "Ġdisappointing": 2143,
      "ĠEng": 2144,
      "Ġremin": 2145,
      "Ġprotagonist": 2146,
      "Ġtown": 2147,
      "ĠYouTube": 2148,
      "alth": 2149,
      "Ġsens": 2150,
      "ator": 2151,
      "Ġreality": 2152,
      "Ġappreciate": 2153,
      "aj": 2154,
      "rama": 2155,
      "ext": 2156,
      "ler": 2157,
      "Ġname": 2158,
      "Ġfuture": 2159,
      "ension": 2160,
      "Ġbi": 2161,
      "Ġhistorical": 2162,
      "host": 2163,
      "Ġbal": 2164,
      "Ġfram": 2165,
      "kay": 2166,
      "Ġthoroughly": 2167,
      "Ġtrad": 2168,
      "Ġpredictable": 2169,
      "Ġbody": 2170,
      "Ġtalking": 2171,
      "illing": 2172,
      "by": 2173,
      "play": 2174,
      "Ġpost": 2175,
      "ready": 2176,
      "ots": 2177,
      "Ġquick": 2178,
      "Ġ6": 2179,
      "ung": 2180,
      "ining": 2181,
      "arted": 2182,
      "Ġsever": 2183,
      "Ġpsych": 2184,
      "ury": 2185,
      "Ġut": 2186,
      "Ġmelod": 2187,
      "ĠFran": 2188,
      "Ġadaptation": 2189,
      "omp": 2190,
      "Ġchang": 2191,
      "Ġinsight": 2192,
      "Ġstrange": 2193,
      "new": 2194,
      "Ch": 2195,
      "Ġshit": 2196,
      "Ġphot": 2197,
      "Ġrece": 2198,
      "Ġstre": 2199,
      "Ġexpress": 2200,
      "cer": 2201,
      "uth": 2202,
      "eless": 2203,
      "Ġvarious": 2204,
      "por": 2205,
      "arl": 2206,
      "Ġroom": 2207,
      "Ġunex": 2208,
      "izarre": 2209,
      "Ġcred": 2210,
      "Ġlim": 2211,
      "arch": 2212,
      "ides": 2213,
      "pected": 2214,
      "Ġalready": 2215,
      "Ġepisode": 2216,
      "Ġfilmmakers": 2217,
      "Ġvill": 2218,
      "Ġcreate": 2219,
      "Ġappear": 2220,
      "Ġseveral": 2221,
      "Ġago": 2222,
      "ĠDon": 2223,
      "iple": 2224,
      "track": 2225,
      "reaking": 2226,
      "Ġwon": 2227,
      "Ġdiscuss": 2228,
      "though": 2229,
      "Ġevents": 2230,
      "pping": 2231,
      "IN": 2232,
      "Ġmark": 2233,
      "erim": 2234,
      "Ġworking": 2235,
      "Ġhaun": 2236,
      "atched": 2237,
      "ived": 2238,
      "Ġadm": 2239,
      "cted": 2240,
      "ĠAt": 2241,
      "bs": 2242,
      "Ġexperim": 2243,
      "Ġsuff": 2244,
      "uted": 2245,
      "Ã©": 2246,
      "oul": 2247,
      "Ġteen": 2248,
      "outh": 2249,
      "ĠPl": 2250,
      "ĠDa": 2251,
      "aughter": 2252,
      "Ġwestern": 2253,
      "ĠSome": 2254,
      "Ġesc": 2255,
      "ĠFor": 2256,
      "itch": 2257,
      "Ġbeautifully": 2258,
      "key": 2259,
      "Ġbro": 2260,
      "Ġeasy": 2261,
      "ending": 2262,
      "used": 2263,
      "friend": 2264,
      "Ġmater": 2265,
      "ĠHall": 2266,
      "ole": 2267,
      "Ġhours": 2268,
      "Ġscore": 2269,
      "Ġsurprisingly": 2270,
      "Ġprog": 2271,
      "izing": 2272,
      "hetic": 2273,
      "Ġbizarre": 2274,
      "ĠTV": 2275,
      "alian": 2276,
      "Ġreminisc": 2277,
      "Ġperspective": 2278,
      "Ġ201": 2279,
      "Ġside": 2280,
      "Ġgreatest": 2281,
      "hor": 2282,
      "uster": 2283,
      "Ġpat": 2284,
      "Ġmeaning": 2285,
      "Ġamb": 2286,
      "Ġsoundtrack": 2287,
      "Ġfully": 2288,
      "Ġcry": 2289,
      "eed": 2290,
      "Ġdisturbing": 2291,
      "Ġcat": 2292,
      "Ġsus": 2293,
      "aby": 2294,
      "Ġdisappoint": 2295,
      "Ġgenuinely": 2296,
      "Ġline": 2297,
      "Ġsilent": 2298,
      "Ġimages": 2299,
      "Ġattempts": 2300,
      "Ġreminiscent": 2301,
      "Ġsurvi": 2302,
      "Ġfemale": 2303,
      "Ġstarted": 2304,
      "Ġsociety": 2305,
      "Ġchange": 2306,
      "Ġsent": 2307,
      "irc": 2308,
      "Ġparts": 2309,
      "ends": 2310,
      "iod": 2311,
      "Ġultimately": 2312,
      "Ġparent": 2313,
      "Ġcity": 2314,
      "Un": 2315,
      "Ġthemselves": 2316,
      "Ġmaterial": 2317,
      "Ġresult": 2318,
      "ton": 2319,
      "ĠLove": 2320,
      "ided": 2321,
      "Ġperiod": 2322,
      "rodu": 2323,
      "Ġflaw": 2324,
      "Ġfans": 2325,
      "cl": 2326,
      "ront": 2327,
      "Ġexecution": 2328,
      "ills": 2329,
      "ele": 2330,
      "Ġmiddle": 2331,
      "âĢĶ": 2332,
      "Ġsometimes": 2333,
      "Ġevent": 2334,
      "rent": 2335,
      "Ġfr": 2336,
      "Ġupon": 2337,
      "Ġhot": 2338,
      "rison": 2339,
      "Ġmultiple": 2340,
      "Ġunsett": 2341,
      "Ġfine": 2342,
      "voking": 2343,
      "aken": 2344,
      "Ġhappy": 2345,
      "Ġways": 2346,
      "estival": 2347,
      "arth": 2348,
      "whel": 2349,
      "Ġcontr": 2350,
      "Ġwonderful": 2351,
      "Ġcreative": 2352,
      "Ġchalleng": 2353,
      "Ġdelight": 2354,
      "ma": 2355,
      "Ġdi": 2356,
      "val": 2357,
      "Ġfree": 2358,
      "Th": 2359,
      "ĠHollywood": 2360,
      "Ġknew": 2361,
      "off": 2362,
      "Ġspace": 2363,
      "ĠTHE": 2364,
      "Ġbus": 2365,
      "Ġcap": 2366,
      "resent": 2367,
      "Ġcomment": 2368,
      "ovie": 2369,
      "Ġconnection": 2370,
      "Ġemotions": 2371,
      "Ġ80": 2372,
      "yond": 2373,
      "erous": 2374,
      "Ġdocumentaries": 2375,
      "Ġ202": 2376,
      "wh": 2377,
      "ont": 2378,
      "âĢ¦": 2379,
      "Ġang": 2380,
      "Ġrelationships": 2381,
      "Ġpresents": 2382,
      "Ġcamp": 2383,
      "piece": 2384,
      "ender": 2385,
      "Ġleave": 2386,
      "Ġacross": 2387,
      "ĠMe": 2388,
      "ĠEvery": 2389,
      "ina": 2390,
      "Ġgame": 2391,
      "provoking": 2392,
      "Ġtreat": 2393,
      "ards": 2394,
      "Ġopening": 2395,
      "med": 2396,
      "Ġsurprised": 2397,
      "co": 2398,
      "ggest": 2399,
      "Ġsignificant": 2400,
      "Ġforget": 2401,
      "Ġprocess": 2402,
      "Ġpoign": 2403,
      "Ġcontext": 2404,
      "Ġbrother": 2405,
      "Ġblood": 2406,
      "ister": 2407,
      "Ġforg": 2408,
      "lu": 2409,
      "verse": 2410,
      "mp": 2411,
      "Ġfantastic": 2412,
      "Ġpos": 2413,
      "ald": 2414,
      "Ġcolor": 2415,
      "Ġtalk": 2416,
      "Ġstruggles": 2417,
      "Ġsuggest": 2418,
      "ants": 2419,
      "ĠWorld": 2420,
      "Ġodd": 2421,
      "Ġleads": 2422,
      "Ġgrand": 2423,
      "Ġperfectly": 2424,
      "Ġsupport": 2425,
      "stem": 2426,
      "ĠOn": 2427,
      "Ġmaybe": 2428,
      "Ġve": 2429,
      "Ġflat": 2430,
      "Ġstruct": 2431,
      "hys": 2432,
      "hearted": 2433,
      "Ġhate": 2434,
      "Ġfinally": 2435,
      "itation": 2436,
      "Ġcase": 2437,
      "While": 2438,
      "rib": 2439,
      "Ġbrings": 2440,
      "Be": 2441,
      "Ġrac": 2442,
      "?\"": 2443,
      "Ġinvolved": 2444,
      "ush": 2445,
      "Ġleaving": 2446,
      "Ġadvent": 2447,
      "Ġhit": 2448,
      "Ġcaptures": 2449,
      "Ġunexpected": 2450,
      "Ġhell": 2451,
      "ublic": 2452,
      "Ġage": 2453,
      "oph": 2454,
      "Ġunsettling": 2455,
      "Ġexactly": 2456,
      "ype": 2457,
      "Ġcartoon": 2458,
      "Ġpoorly": 2459,
      "Ġinspir": 2460,
      "Ġturns": 2461,
      "Ġaspects": 2462,
      "Ġsort": 2463,
      "Ġsitu": 2464,
      "Ġbeauty": 2465,
      "Ġokay": 2466,
      "ĠDis": 2467,
      "Ġdest": 2468,
      "Ġill": 2469,
      "Ġreson": 2470,
      "any": 2471,
      "ires": 2472,
      "Ġpacing": 2473,
      "ĠPe": 2474,
      "Ġalone": 2475,
      "Ġkiller": 2476,
      "Ġpoignant": 2477,
      "Some": 2478,
      "Ġbreat": 2479,
      "Ġson": 2480,
      "erv": 2481,
      "Ġknown": 2482,
      "Ġamusing": 2483,
      "ĠAm": 2484,
      "Ġdepict": 2485,
      "ĠJack": 2486,
      "Ġpresence": 2487,
      "Ġhero": 2488,
      "Ġcost": 2489,
      "Ġmoney": 2490,
      "Watching": 2491,
      "Ġtension": 2492,
      "Ġfive": 2493,
      "Ġpossible": 2494,
      "year": 2495,
      "ĠPr": 2496,
      "Ġrid": 2497,
      "ses": 2498,
      "Ġste": 2499,
      "band": 2500,
      "Ġturned": 2501,
      "Ġcreep": 2502,
      "Ġcommunity": 2503,
      "Ġsilly": 2504,
      "ield": 2505,
      "Ġflick": 2506,
      "ira": 2507,
      "Ġspirit": 2508,
      "ĠDo": 2509,
      "bb": 2510,
      "angu": 2511,
      "Ġ30": 2512,
      "vail": 2513,
      "Ġreturn": 2514,
      "Ġones": 2515,
      "Ġcraft": 2516,
      "Ġtaking": 2517,
      "Ġable": 2518,
      "Ġbrilli": 2519,
      "ael": 2520,
      "uge": 2521,
      "Ġune": 2522,
      "ĠGerman": 2523,
      "let": 2524,
      "Ġreviews": 2525,
      "Ġsongs": 2526,
      "Ġoverly": 2527,
      "aim": 2528,
      "Ġsystem": 2529,
      "oud": 2530,
      "Ġgave": 2531,
      "Ġthinking": 2532,
      "Ġlarge": 2533,
      "Ġteam": 2534,
      "Ġic": 2535,
      "Ġeither": 2536,
      "Ġinit": 2537,
      "urning": 2538,
      "che": 2539,
      "Ġsays": 2540,
      "Ġliterally": 2541,
      "Ġer": 2542,
      "Ġspec": 2543,
      "Ġque": 2544,
      "Ġstriking": 2545,
      "Ġmixed": 2546,
      "aught": 2547,
      "Ġdance": 2548,
      "ĠAd": 2549,
      "ĠGe": 2550,
      "ĠEx": 2551,
      "Ġsequences": 2552,
      "Ġrare": 2553,
      "Ġpolitical": 2554,
      "Ġrelease": 2555,
      "ply": 2556,
      "Ġfilmmaker": 2557,
      "Ġbackground": 2558,
      "Ġideas": 2559,
      "Ġslight": 2560,
      "Ġgives": 2561,
      "urt": 2562,
      "ĠAmerica": 2563,
      "Ġstarring": 2564,
      "usband": 2565,
      "ization": 2566,
      "oices": 2567,
      "Ġguess": 2568,
      "Ġhappened": 2569,
      "Ġguys": 2570,
      "Ġhighly": 2571,
      "amn": 2572,
      "nown": 2573,
      "wise": 2574,
      "Ġclever": 2575,
      "Ġmasterpiece": 2576,
      "Ġtries": 2577,
      "Ġsexual": 2578,
      "Ġshoot": 2579,
      "Ġreleased": 2580,
      "ises": 2581,
      "Ġheard": 2582,
      "Ġphys": 2583,
      "Ġfell": 2584,
      "Ġlikely": 2585,
      "Ġwritten": 2586,
      "ring": 2587,
      "ĠEnglish": 2588,
      "Ġaest": 2589,
      "Ġinn": 2590,
      "Ġvalue": 2591,
      "Ġartist": 2592,
      "Ġtot": 2593,
      "ĠJapanese": 2594,
      "onna": 2595,
      "Ġrating": 2596,
      "ergy": 2597,
      "Re": 2598,
      "Ġhop": 2599,
      "Ġgag": 2600,
      "Ġlacking": 2601,
      "back": 2602,
      "ressed": 2603,
      "Ġends": 2604,
      "Ġindust": 2605,
      "Ġjokes": 2606,
      "Ġstay": 2607,
      "Ġshowcasing": 2608,
      "Ġprovides": 2609,
      "Al": 2610,
      "arb": 2611,
      "Ġemotionally": 2612,
      "Ġwords": 2613,
      "Every": 2614,
      "So": 2615,
      "Ġsn": 2616,
      "ĠKe": 2617,
      "body": 2618,
      "Ġstage": 2619,
      "ichael": 2620,
      "Ġpicture": 2621,
      "Ġpick": 2622,
      "Ġjoy": 2623,
      "ĠMay": 2624,
      "Ġabsurd": 2625,
      "Ġchildhood": 2626,
      "itional": 2627,
      "ene": 2628,
      "Ġusing": 2629,
      "ĠRobert": 2630,
      "ĠGreat": 2631,
      "Ġmedi": 2632,
      "Ġfre": 2633,
      "ares": 2634,
      "haps": 2635,
      "Ġrepresent": 2636,
      "ov": 2637,
      "ries": 2638,
      "ĠEd": 2639,
      "Ġbrief": 2640,
      "Ġglad": 2641,
      "Ġidentity": 2642,
      "Ġconvey": 2643,
      "lying": 2644,
      "Ġgang": 2645,
      "Ġsimply": 2646,
      "Ġrock": 2647,
      "venge": 2648,
      "warming": 2649,
      "ades": 2650,
      "Ġoffering": 2651,
      "Ġnovel": 2652,
      "Ġghost": 2653,
      "chie": 2654,
      "ĠJames": 2655,
      "ges": 2656,
      "rupt": 2657,
      "ik": 2658,
      "Ġactress": 2659,
      "ĠJust": 2660,
      "Ġfinds": 2661,
      "Ġkinda": 2662,
      "wo": 2663,
      "Ġir": 2664,
      "Ġshock": 2665,
      "Ġsets": 2666,
      "Ġindividuals": 2667,
      "Ġbeyond": 2668,
      "Ġmeans": 2669,
      "Ġdou": 2670,
      "Ġcannot": 2671,
      "Ġpassion": 2672,
      "Ġstoryline": 2673,
      "He": 2674,
      "Ġlocal": 2675,
      "ĠTo": 2676,
      "ishing": 2677,
      "oved": 2678,
      "how": 2679,
      "Ġavail": 2680,
      "Ġmemorable": 2681,
      "Ġrecently": 2682,
      "anda": 2683,
      "Ġpolice": 2684,
      "ĠCar": 2685,
      "Ġwit": 2686,
      "Ġrecord": 2687,
      "Ġmaj": 2688,
      "Ġdevelopment": 2689,
      "Ġparents": 2690,
      "Ġrevol": 2691,
      "itions": 2692,
      "Ġmemories": 2693,
      "ĠBlack": 2694,
      "Ġnostalgic": 2695,
      "Ġmeet": 2696,
      "Ġbeginning": 2697,
      "sequ": 2698,
      "Ġleaves": 2699,
      "ĠRuss": 2700,
      "Ġsurreal": 2701,
      "yl": 2702,
      "Ġpromise": 2703,
      "!\"": 2704,
      "Ġlonger": 2705,
      "Ġenergy": 2706,
      "Ġred": 2707,
      "Ġresp": 2708,
      "Ġinflu": 2709,
      "anced": 2710,
      "Ġtravel": 2711,
      "Ġcheck": 2712,
      "enty": 2713,
      "Ġcalled": 2714,
      "mark": 2715,
      "Ġhusband": 2716,
      "Ġcirc": 2717,
      "esome": 2718,
      "oof": 2719,
      "Ġdramatic": 2720,
      "hic": 2721,
      "Ġcertainly": 2722,
      "Ġsum": 2723,
      "ological": 2724,
      "Ġtypical": 2725,
      "Ġtheat": 2726,
      "oose": 2727,
      "Ġapart": 2728,
      "Ġsequel": 2729,
      "illiam": 2730,
      "Ġchoice": 2731,
      "For": 2732,
      "Ġinsane": 2733,
      "unt": 2734,
      "Ġwants": 2735,
      "Ġserious": 2736,
      "ips": 2737,
      "gan": 2738,
      "Ġmid": 2739,
      "Ġdad": 2740,
      "Ġunfortunately": 2741,
      "Ġplan": 2742,
      "ynam": 2743,
      "Ġinformation": 2744,
      "Ġbare": 2745,
      "ressive": 2746,
      "Ġeye": 2747,
      "Ġexpecting": 2748,
      "Ġ196": 2749,
      "aul": 2750,
      "Ġfucking": 2751,
      "Ġamount": 2752,
      "ĠSw": 2753,
      "edy": 2754,
      "Ġhaven": 2755,
      "rought": 2756,
      "Ġneeded": 2757,
      "Ġprofound": 2758,
      "Ġcha": 2759,
      "ĠPh": 2760,
      "Ġnotable": 2761,
      "Ġimpro": 2762,
      "itty": 2763,
      "lusion": 2764,
      "Ġdaughter": 2765,
      "Ġinterviews": 2766,
      "Ġmil": 2767,
      "Ġquestions": 2768,
      "Ġmale": 2769,
      "anguage": 2770,
      "Ġenc": 2771,
      "erry": 2772,
      "Ġheartwarming": 2773,
      "Ġrand": 2774,
      "Ġneeds": 2775,
      "Ġavailable": 2776,
      "Ġgiving": 2777,
      "ĠCon": 2778,
      "Ġcond": 2779,
      "Ġrespect": 2780,
      "Ġgirls": 2781,
      "Ġbrut": 2782,
      "ĠPet": 2783,
      "Ġcele": 2784,
      "upid": 2785,
      "ral": 2786,
      "Ġlovely": 2787,
      "verage": 2788,
      "orthy": 2789,
      "Ġintrodu": 2790,
      "Ġhorri": 2791,
      "lict": 2792,
      "ady": 2793,
      "Ġhear": 2794,
      "Ġadult": 2795,
      "Ġannoy": 2796,
      "acy": 2797,
      "Ġrandom": 2798,
      "Ġrequ": 2799,
      "Ġ193": 2800,
      "Ġproblem": 2801,
      "ĠDisney": 2802,
      "ĠTom": 2803,
      "Ġexcess": 2804,
      "oint": 2805,
      "Ġthird": 2806,
      "Ġtype": 2807,
      "fic": 2808,
      "oun": 2809,
      "Ġfeelings": 2810,
      "action": 2811,
      "Ġ198": 2812,
      "ability": 2813,
      "Ġ199": 2814,
      "Ġindeed": 2815,
      "Ġcheap": 2816,
      "arry": 2817,
      "Ġleading": 2818,
      "Ġcommentary": 2819,
      "Ġsol": 2820,
      "known": 2821,
      "Ġcourse": 2822,
      "Ġgod": 2823,
      "Ġpoet": 2824,
      "Ġeas": 2825,
      "Ġweek": 2826,
      "rag": 2827,
      "omen": 2828,
      "Ġsaying": 2829,
      "ression": 2830,
      "ĠâĢĶ": 2831,
      "Ġdie": 2832,
      "irth": 2833,
      "Ġworked": 2834,
      "Ġheavy": 2835,
      "vil": 2836,
      "aid": 2837,
      "con": 2838,
      "ĠHis": 2839,
      "Ġdynam": 2840,
      "Ġseemed": 2841,
      "Ġfocusing": 2842,
      "Ġentirely": 2843,
      "ino": 2844,
      "Ġpure": 2845,
      "Ġadds": 2846,
      "Ġamong": 2847,
      "Ġtraum": 2848,
      "Ġtheme": 2849,
      "Ġsusp": 2850,
      "kward": 2851,
      "inc": 2852,
      "10": 2853,
      "Ġunus": 2854,
      "Ġpay": 2855,
      "Ġextra": 2856,
      "AT": 2857,
      "row": 2858,
      "ilt": 2859,
      "orts": 2860,
      "ĠAlso": 2861,
      "ĠMc": 2862,
      "Ġstat": 2863,
      "ĠWestern": 2864,
      "Ġsoon": 2865,
      "Ġwater": 2866,
      "Ġcrazy": 2867,
      "Ġfairly": 2868,
      "go": 2869,
      "Ġclearly": 2870,
      "Ġmajor": 2871,
      "ained": 2872,
      "Ġrich": 2873,
      "Ġhands": 2874,
      "Ġquickly": 2875,
      "Ġexample": 2876,
      "Ġequ": 2877,
      "Ġstruggle": 2878,
      "ze": 2879,
      "Ġopen": 2880,
      "orgeous": 2881,
      "arm": 2882,
      "acked": 2883,
      "Ġadventure": 2884,
      "AN": 2885,
      "ĠFl": 2886,
      "ĠHer": 2887,
      "ai": 2888,
      "rated": 2889,
      "rest": 2890,
      "Ġarch": 2891,
      "Ġsleep": 2892,
      "Ġsoul": 2893,
      "ĠDavid": 2894,
      "ien": 2895,
      "Ġ7": 2896,
      "breaking": 2897,
      "Ġexperiences": 2898,
      "Ġawkward": 2899,
      "Ġsatis": 2900,
      "Ġhappens": 2901,
      "Ġfigure": 2902,
      "RE": 2903,
      "Ġtest": 2904,
      "Ġdebut": 2905,
      "Ġgun": 2906,
      "Ġground": 2907,
      "Ġfrustr": 2908,
      "Ġprison": 2909,
      "ĠBra": 2910,
      "Ġtaken": 2911,
      "Ġstate": 2912,
      "Ġlength": 2913,
      "Ġspeak": 2914,
      "Ġwouldn": 2915,
      "Ġmelodrama": 2916,
      "ĠDan": 2917,
      "avig": 2918,
      "life": 2919,
      "Ġble": 2920,
      "Ġconvers": 2921,
      "Ġgonna": 2922,
      "Ġbox": 2923,
      "cessary": 2924,
      "ĠDay": 2925,
      "ivity": 2926,
      "ĠWith": 2927,
      "ĠCol": 2928,
      "Ġachie": 2929,
      "Ġ200": 2930,
      "Ġstupid": 2931,
      "rise": 2932,
      "Ġtrou": 2933,
      "Ġnu": 2934,
      "amed": 2935,
      "mist": 2936,
      "Ġevil": 2937,
      "sw": 2938,
      "Ġsequence": 2939,
      "Ġnavig": 2940,
      "attle": 2941,
      "Ġunusual": 2942,
      "Ġterms": 2943,
      "iest": 2944,
      "aining": 2945,
      "Ġcelebr": 2946,
      "ressing": 2947,
      "Ġworse": 2948,
      "Ġcreepy": 2949,
      "reas": 2950,
      "ventional": 2951,
      "Ġtele": 2952,
      "Ġwhose": 2953,
      "Ġweak": 2954,
      "Ġobsess": 2955,
      "Ġrunning": 2956,
      "ĠWhen": 2957,
      "Ġnearly": 2958,
      "Ġconcert": 2959,
      "vision": 2960,
      "Ġpull": 2961,
      "ĠMichael": 2962,
      "Ġmedia": 2963,
      "Ġkept": 2964,
      "head": 2965,
      "abor": 2966,
      "Ġmemory": 2967,
      "Ġdecis": 2968,
      "Ġgem": 2969,
      "Ġcomfort": 2970,
      "Ġcru": 2971,
      "Ġportrays": 2972,
      "Ġbreath": 2973,
      "Ġvict": 2974,
      "Ġrese": 2975,
      "Ġfinding": 2976,
      "Ġprofess": 2977,
      "ken": 2978,
      "Ġpublic": 2979,
      "unny": 2980,
      "Ġposter": 2981,
      "Ġinterested": 2982,
      "Ġbrought": 2983,
      "Ġlooked": 2984,
      "luster": 2985,
      "Ġuncon": 2986,
      "Ġbrilliant": 2987,
      "Ġexploring": 2988,
      "table": 2989,
      "Ġear": 2990,
      "Ġsubst": 2991,
      "viously": 2992,
      "Ġutter": 2993,
      "Ġquiet": 2994,
      "Ġpoints": 2995,
      "Ġpurp": 2996,
      "lear": 2997,
      "Ġelev": 2998,
      "Ġtruth": 2999,
      "Ġfran": 3000,
      "Ġsounds": 3001,
      "Ġtrip": 3002,
      "Ġunderstanding": 3003,
      "Ġaccept": 3004,
      "Ġforgot": 3005,
      "Another": 3006,
      "Ġwind": 3007,
      "Ġdig": 3008,
      "ively": 3009,
      "Ġfire": 3010,
      "omin": 3011,
      "ĠWilliam": 3012,
      "ĠDespite": 3013,
      "Ġshowing": 3014,
      "whelming": 3015,
      "Ġspecific": 3016,
      "Ġrevenge": 3017,
      "Ġmonth": 3018,
      "acher": 3019,
      "Ġreceived": 3020,
      "omfort": 3021,
      "Ġnatural": 3022,
      "Sh": 3023,
      "sp": 3024,
      "Ġforced": 3025,
      "Ġtack": 3026,
      "ĠNight": 3027,
      "Ġpropag": 3028,
      "Ġotherwise": 3029,
      "Ġregard": 3030,
      "retty": 3031,
      "fter": 3032,
      "Ġloss": 3033,
      "herent": 3034,
      "Ġpresented": 3035,
      "Ġroles": 3036,
      "Ġcompet": 3037,
      "Ġclim": 3038,
      "Ġwin": 3039,
      "ĠSm": 3040,
      "Ġclos": 3041,
      "room": 3042,
      "ceed": 3043,
      "cle": 3044,
      "Ġfilmed": 3045,
      "Ġcultural": 3046,
      "Ġdan": 3047,
      "Ġbecame": 3048,
      "Ġlackluster": 3049,
      "Ġcreating": 3050,
      "Ġspent": 3051,
      "Ġlanguage": 3052,
      "Ġtalented": 3053,
      "Ġevid": 3054,
      "eth": 3055,
      "Ġremarkable": 3056,
      "Ġru": 3057,
      "Ġ15": 3058,
      "rug": 3059,
      "Ġanime": 3060,
      "ĠEl": 3061,
      "Ġmissing": 3062,
      "Ġgri": 3063,
      "ĠYork": 3064,
      "Ġdecided": 3065,
      "Ġnear": 3066,
      "Ġfantasy": 3067,
      "ĠJe": 3068,
      "Ġconflict": 3069,
      "Ġended": 3070,
      "Ġexperimental": 3071,
      "Ġbaby": 3072,
      "Ġviolent": 3073,
      "edi": 3074,
      "oman": 3075,
      "ĠCanad": 3076,
      "Ġlaw": 3077,
      "Ġsecret": 3078,
      "Ġwarm": 3079,
      "Ġdraw": 3080,
      "sing": 3081,
      "Ġviewer": 3082,
      "Ġadv": 3083,
      "Ġintern": 3084,
      "oly": 3085,
      "Ġrad": 3086,
      "Ġrelig": 3087,
      "Ġlandsc": 3088,
      "Ġdepiction": 3089,
      "oes": 3090,
      "ĠMon": 3091,
      "ĠGu": 3092,
      "Ġtraditional": 3093,
      "Ġindie": 3094,
      "Ġcoll": 3095,
      "Ġsurround": 3096,
      "ims": 3097,
      "Ġgorgeous": 3098,
      "Ġprevious": 3099,
      "cra": 3100,
      "Ġcurrent": 3101,
      "Unfortunately": 3102,
      "Ġfear": 3103,
      "olic": 3104,
      "Ġruntime": 3105,
      "Ġquir": 3106,
      "Ġslightly": 3107,
      "Ġmad": 3108,
      "Ġfilled": 3109,
      "ieces": 3110,
      "ĠKing": 3111,
      "Ġindustry": 3112,
      "oe": 3113,
      "ĠOr": 3114,
      "Ġshowcases": 3115,
      "ped": 3116,
      "Ġstructure": 3117,
      "esb": 3118,
      "Ġsupposed": 3119,
      "Ġaesthetic": 3120,
      "Ġhuge": 3121,
      "Ġnumerous": 3122,
      "inct": 3123,
      "Ġ100": 3124,
      "ume": 3125,
      "Ġconsider": 3126,
      "Ġflaws": 3127,
      "idden": 3128,
      "ison": 3129,
      "enced": 3130,
      "Ġiconic": 3131,
      "hent": 3132,
      "ros": 3133,
      "Ġridicul": 3134,
      "Ġair": 3135,
      "ĠWhile": 3136,
      "ĠAustr": 3137,
      "mistry": 3138,
      "Ġsci": 3139,
      "cious": 3140,
      "ding": 3141,
      "Ġoutside": 3142,
      "cks": 3143,
      "ĠLee": 3144,
      "Ġmanner": 3145,
      "Ġentertainment": 3146,
      "ogn": 3147,
      "Ġepisodes": 3148,
      "gia": 3149,
      "Ġimage": 3150,
      "Ġcollection": 3151,
      "Ġinstall": 3152,
      "Ġawful": 3153,
      "ĠSte": 3154,
      "IS": 3155,
      "amb": 3156,
      "Ġconclusion": 3157,
      "Ġshare": 3158,
      "ĠKore": 3159,
      "Ġexceptional": 3160,
      "ĠLike": 3161,
      "Ġfur": 3162,
      "ON": 3163,
      "arily": 3164,
      "They": 3165,
      "Ġchemistry": 3166,
      "look": 3167,
      "Ġtelling": 3168,
      "ĠGra": 3169,
      "oking": 3170,
      "vement": 3171,
      "Ġpropaganda": 3172,
      "Ġusual": 3173,
      "ĠGood": 3174,
      "Ġlighthearted": 3175,
      "Ġpace": 3176,
      "Ġpract": 3177,
      "icit": 3178,
      "Ġmagic": 3179,
      "rait": 3180,
      "Ġoccas": 3181,
      "eriously": 3182,
      "ING": 3183,
      "een": 3184,
      "olf": 3185,
      "ĠOsc": 3186,
      "ĠRich": 3187,
      "Ġdesper": 3188,
      "Ġminute": 3189,
      "kes": 3190,
      "come": 3191,
      "Ġanti": 3192,
      "Ġmental": 3193,
      "Ġreviewer": 3194,
      "Ġinside": 3195,
      "Ġca": 3196,
      "Ġseg": 3197,
      "Ġdefies": 3198,
      "upp": 3199,
      "Ġtheater": 3200,
      "Ġride": 3201,
      "enge": 3202,
      "erson": 3203,
      "ift": 3204,
      "ĠUS": 3205,
      "ES": 3206,
      "vern": 3207,
      "eni": 3208,
      "Ġintimate": 3209,
      "Ġhonestly": 3210,
      "Ġconsist": 3211,
      "Ġqueer": 3212,
      "watch": 3213,
      "ometimes": 3214,
      "Ġsold": 3215,
      "Ġjoke": 3216,
      "Ġ195": 3217,
      "Ġdisappointed": 3218,
      "icks": 3219,
      "gu": 3220,
      "Ġphysical": 3221,
      "Ġyourself": 3222,
      "inn": 3223,
      "Ġneg": 3224,
      "Ġnarration": 3225,
      "Ġadded": 3226,
      "Ġfailed": 3227,
      "ĠGirl": 3228,
      "ĠStill": 3229,
      "entially": 3230,
      "Ġbarely": 3231,
      "Ġaverage": 3232,
      "Ġbar": 3233,
      "Ġest": 3234,
      "Ġeduc": 3235,
      "Ġauthent": 3236,
      "ortun": 3237,
      "aked": 3238,
      "Ġemp": 3239,
      "Ġmass": 3240,
      "apes": 3241,
      "Ġsituation": 3242,
      "ara": 3243,
      "Ġeasily": 3244,
      "Ġtast": 3245,
      "Ġcreated": 3246,
      "Ġbusiness": 3247,
      "ĠGl": 3248,
      "ula": 3249,
      "Ġcredits": 3250,
      "Ġcrew": 3251,
      "Ġwitness": 3252,
      "ruction": 3253,
      "ĠVery": 3254,
      "void": 3255,
      "Ġfront": 3256,
      "Ġlimited": 3257,
      "iny": 3258,
      "where": 3259,
      "Ġhealth": 3260,
      "Ġchoices": 3261,
      "izes": 3262,
      "ĠPar": 3263,
      "Ġhappen": 3264,
      "ĠWell": 3265,
      "ĠGeorge": 3266,
      "Ġcontrol": 3267,
      "Don": 3268,
      "aly": 3269,
      "ĠHor": 3270,
      "Ġhyp": 3271,
      "Ġchance": 3272,
      "inary": 3273,
      "ised": 3274,
      "Ġlay": 3275,
      "Ġsubtit": 3276,
      "ĠTra": 3277,
      "Ġmist": 3278,
      "Ġ#": 3279,
      "ager": 3280,
      "Ġsurprise": 3281,
      "bers": 3282,
      "No": 3283,
      "Ġcover": 3284,
      "How": 3285,
      "ĠPer": 3286,
      "Ġtwists": 3287,
      "Ġopin": 3288,
      "Ġdang": 3289,
      "OU": 3290,
      "asher": 3291,
      "Ġimagine": 3292,
      "Ġstudi": 3293,
      "ĠTr": 3294,
      "At": 3295,
      "ĠPro": 3296,
      "ĠItalian": 3297,
      "Ġheavily": 3298,
      "resh": 3299,
      "ĠAfric": 3300,
      "Ġjump": 3301,
      "Ġdelightful": 3302,
      "Ġunfold": 3303,
      "asts": 3304,
      "aper": 3305,
      "alls": 3306,
      "Ġparty": 3307,
      "Ġdreams": 3308,
      "Ġspect": 3309,
      "Ġconsidering": 3310,
      "Ġstudent": 3311,
      "Ġannoying": 3312,
      "bum": 3313,
      "Ġshines": 3314,
      "Ġquirky": 3315,
      "Ġhumorous": 3316,
      "Ġolder": 3317,
      "Ġlesb": 3318,
      "Ġtrain": 3319,
      "Ġcolle": 3320,
      "Ġpleasant": 3321,
      "made": 3322,
      "Ġauthentic": 3323,
      "Ġraw": 3324,
      "Ġlines": 3325,
      "lessly": 3326,
      "gest": 3327,
      "Ġinvestig": 3328,
      "Ġmention": 3329,
      "ee": 3330,
      "illy": 3331,
      "ledge": 3332,
      "Ġuses": 3333,
      "LL": 3334,
      "Ġton": 3335,
      "Ġdrug": 3336,
      "Ġtim": 3337,
      "ĠQu": 3338,
      "urs": 3339,
      "Ġprim": 3340,
      "inese": 3341,
      "Ġimmedi": 3342,
      "Ġbunch": 3343,
      "ĠRo": 3344,
      "Ġglimp": 3345,
      "Ġdeserves": 3346,
      "Ġsuit": 3347,
      "Ġsomehow": 3348,
      "Ġkn": 3349,
      "Ġhaunting": 3350,
      "Ġzomb": 3351,
      "viron": 3352,
      "Ġmovement": 3353,
      "top": 3354,
      "Ġfast": 3355,
      "ĠEur": 3356,
      "Ġconveys": 3357,
      "Ġcontem": 3358,
      "Ġfinish": 3359,
      "Ġwrite": 3360,
      "Ġforever": 3361,
      "Very": 3362,
      "Ġanth": 3363,
      "Ġtransform": 3364,
      "Ġexcessive": 3365,
      "gy": 3366,
      "Ġdamn": 3367,
      "Ġ1970": 3368,
      "owed": 3369,
      "ĠBoy": 3370,
      "ĠMovie": 3371,
      "Ġtext": 3372,
      "Ġroad": 3373,
      "Ġserial": 3374,
      "Watched": 3375,
      "Ġrepe": 3376,
      "arsh": 3377,
      "Ġgovern": 3378,
      "Ġ50": 3379,
      "Ġdeal": 3380,
      "Ġ194": 3381,
      "Ġstands": 3382,
      "Ġmurd": 3383,
      "aust": 3384,
      "face": 3385,
      "ĠNet": 3386,
      "bo": 3387,
      "Ġalthough": 3388,
      "Ġcompared": 3389,
      "Ġvision": 3390,
      "forward": 3391,
      "uz": 3392,
      "etime": 3393,
      "Ġaccur": 3394,
      "ormal": 3395,
      "ĠSouth": 3396,
      "Why": 3397,
      "Ġalbum": 3398,
      "Ġwhether": 3399,
      "Ġwood": 3400,
      "ĠOver": 3401,
      "ued": 3402,
      "Ġforward": 3403,
      "Ġvalues": 3404,
      "riage": 3405,
      "EN": 3406,
      "Ġenviron": 3407,
      "AR": 3408,
      "plic": 3409,
      "ĠLet": 3410,
      "af": 3411,
      "Ġtouch": 3412,
      "Ġkilled": 3413,
      "ĠFestival": 3414,
      "set": 3415,
      "Ġessence": 3416,
      "Ġende": 3417,
      "Ġknows": 3418,
      "Ġinspired": 3419,
      "Ġbrain": 3420,
      "eg": 3421,
      "Ġten": 3422,
      "On": 3423,
      "Ġpun": 3424,
      "icip": 3425,
      "ateur": 3426,
      "Ġpurpose": 3427,
      "Ġability": 3428,
      "Oh": 3429,
      "odies": 3430,
      "ĠChar": 3431,
      "Ġrealize": 3432,
      "Ġsix": 3433,
      "Ġflow": 3434,
      "Ġenth": 3435,
      "Ġtragic": 3436,
      "eresting": 3437,
      "Ġawesome": 3438,
      "ĠWho": 3439,
      "fer": 3440,
      "atable": 3441,
      "OR": 3442,
      "Ġansw": 3443,
      "ĠFe": 3444,
      "Ġmanages": 3445,
      "ĠNaz": 3446,
      "Ġkeeps": 3447,
      "ĠEven": 3448,
      "Ġrecogn": 3449,
      "Ġcaught": 3450,
      "lix": 3451,
      "rey": 3452,
      "Ġdiscover": 3453,
      "Ġpositive": 3454,
      "ĠBig": 3455,
      "Ġhair": 3456,
      "Ġconsequ": 3457,
      "epend": 3458,
      "Ġobject": 3459,
      "ique": 3460,
      "ĠCity": 3461,
      "standing": 3462,
      "Ġmoved": 3463,
      "Ġimagery": 3464,
      "Ġskill": 3465,
      "ĠMor": 3466,
      "Ġearli": 3467,
      "Ġaffect": 3468,
      "Ġfollowing": 3469,
      "Ġseason": 3470,
      "Ġsubtle": 3471,
      "Just": 3472,
      "Ġbur": 3473,
      "oor": 3474,
      "Ġbirth": 3475,
      "Ġfriendship": 3476,
      "Ġbasically": 3477,
      "Ġsuspense": 3478,
      "Ġcapital": 3479,
      "ĠOf": 3480,
      "Ġhumanity": 3481,
      "After": 3482,
      "Ġperhaps": 3483,
      "Ġserv": 3484,
      "That": 3485,
      "Ġtour": 3486,
      "Ġast": 3487,
      "irector": 3488,
      "more": 3489,
      "Ġlegend": 3490,
      "ero": 3491,
      "Ġmild": 3492,
      "Ġdesire": 3493,
      "Ġwriter": 3494,
      "opp": 3495,
      "Ġportrait": 3496,
      "ĠWal": 3497,
      "onestly": 3498,
      "Ġcomplexities": 3499,
      "Ġreading": 3500,
      "anch": 3501,
      "ĠMr": 3502,
      "ĠChinese": 3503,
      "Ġexciting": 3504,
      "Ġstruggling": 3505,
      "Ġgags": 3506,
      "Ġcapture": 3507,
      "Ġnostalgia": 3508,
      "Ġsave": 3509,
      "autiful": 3510,
      "me": 3511,
      "Ġremake": 3512,
      "ider": 3513,
      "Ġdrink": 3514,
      "Ġutterly": 3515,
      "Ġpromising": 3516,
      "Ġopportun": 3517,
      "aven": 3518,
      "Ġconvin": 3519,
      "ĠKong": 3520,
      "Ġthoughts": 3521,
      "Ġdrag": 3522,
      "Bl": 3523,
      "Ġaren": 3524,
      "Ġalive": 3525,
      "Ġclaim": 3526,
      "ĠPaul": 3527,
      "Ġsubtitles": 3528,
      "Ġmood": 3529,
      "Ġframe": 3530,
      "asons": 3531,
      "Ġstandard": 3532,
      "iety": 3533,
      "ura": 3534,
      "Ġbed": 3535,
      "roud": 3536,
      "Ġpieces": 3537,
      "ĠWood": 3538,
      "Ġpopular": 3539,
      "flix": 3540,
      "Ġrealistic": 3541,
      "Ġartistic": 3542,
      "Ġwait": 3543,
      "Ġfood": 3544,
      "Ġorder": 3545,
      "Ġcapturing": 3546,
      "Ġhang": 3547,
      "ĠAng": 3548,
      "Ġintended": 3549,
      "Ġexistence": 3550,
      "ency": 3551,
      "Ġreflect": 3552,
      "Ġvibe": 3553,
      "Ġslasher": 3554,
      "Ġshame": 3555,
      "Ġsentim": 3556,
      "Ġtelevision": 3557,
      "Ġfranch": 3558,
      "Ġpolitics": 3559,
      "orry": 3560,
      "Ġissue": 3561,
      "anks": 3562,
      "Ġoffic": 3563,
      "Ġnor": 3564,
      "Ġgrow": 3565,
      "Ġuncomfort": 3566,
      "Ġtouching": 3567,
      "Ġdevast": 3568,
      "Ġcritic": 3569,
      "Ġbleak": 3570,
      "Ġimpression": 3571,
      "Ġrefere": 3572,
      "ĠChristian": 3573,
      "Ġbegins": 3574,
      "Ġstep": 3575,
      "Ġconfusing": 3576,
      "Ġridiculous": 3577,
      "ĠOscar": 3578,
      "Ġprovide": 3579,
      "Ġreveal": 3580,
      "Ġrough": 3581,
      "Ġvamp": 3582,
      "Ġhappening": 3583,
      "Ġmill": 3584,
      "imal": 3585,
      "Ġamateur": 3586,
      "Ġaudiences": 3587,
      "osition": 3588,
      "Ġmedioc": 3589,
      "Ġescape": 3590,
      "Ġfaces": 3591,
      "Ġcring": 3592,
      "Ġkey": 3593,
      "Ġgent": 3594,
      "Ġaccident": 3595,
      "Ġstandout": 3596,
      "ĠFr": 3597,
      "Ġparticular": 3598,
      "Ġloud": 3599,
      "Ġyouth": 3600,
      "Ġshown": 3601,
      "oofy": 3602,
      "Ġtrauma": 3603,
      "oliday": 3604,
      "ĠHallmark": 3605,
      "Ġporn": 3606,
      "ases": 3607,
      "Ġben": 3608,
      "length": 3609,
      "irt": 3610,
      "ĠWest": 3611,
      "Ġactions": 3612,
      "ford": 3613,
      "Ġchallenges": 3614,
      "Ġinstallment": 3615,
      "Love": 3616,
      "vert": 3617,
      "Ġconsidered": 3618,
      "Ġfocuses": 3619,
      "ossible": 3620,
      "Ġslowly": 3621,
      "Ġnumber": 3622,
      "class": 3623,
      "rel": 3624,
      "Ġportrayed": 3625,
      "boy": 3626,
      "taking": 3627,
      "Ġusually": 3628,
      "insp": 3629,
      "Ġentry": 3630,
      "ĠSam": 3631,
      "Ġholds": 3632,
      "ified": 3633,
      "Ġfighting": 3634,
      "Ġfresh": 3635,
      "urp": 3636,
      "ĠStory": 3637,
      "All": 3638,
      "Ġmembers": 3639,
      "Ġsinging": 3640,
      "Ġine": 3641,
      "Ġstraightforward": 3642,
      "Ġteacher": 3643,
      "ĠRichard": 3644,
      "Ġgovernment": 3645,
      "ius": 3646,
      "Ġpossibly": 3647,
      "OV": 3648,
      "Ġtried": 3649,
      "ging": 3650,
      "lo": 3651,
      "ĠHong": 3652,
      "Ġroll": 3653,
      "Ġinvolving": 3654,
      "Ġtotally": 3655,
      "vable": 3656,
      "Ġtrib": 3657,
      "esy": 3658,
      "ĠUnfortunately": 3659,
      "Ġbrutal": 3660,
      "Ġdumb": 3661,
      "ushed": 3662,
      "Ġthanks": 3663,
      "Ġexecuted": 3664,
      "Ġ70": 3665,
      "ashing": 3666,
      "Ġepic": 3667,
      "Ġracist": 3668,
      "Ġsatisfying": 3669,
      "Ġaff": 3670,
      "Ġfaith": 3671,
      "ĠEurope": 3672,
      "reaming": 3673,
      "cent": 3674,
      "ette": 3675,
      "Ġlif": 3676,
      "Ġlau": 3677,
      "itted": 3678,
      "Ġopt": 3679,
      "star": 3680,
      "Ġconsequences": 3681,
      "Ġrecent": 3682,
      "Ġalien": 3683,
      "Ġqual": 3684,
      "ashion": 3685,
      "Ġlaughs": 3686,
      "Ġsister": 3687,
      "Ġseriously": 3688,
      "otion": 3689,
      "Ġexh": 3690,
      "ĠYe": 3691,
      "hand": 3692,
      "Ġjustice": 3693,
      "ective": 3694,
      "Ġenvironment": 3695,
      "ites": 3696,
      "Ġtears": 3697,
      "exic": 3698,
      "Ġknowing": 3699,
      "Ġfranchise": 3700,
      "Ġsoft": 3701,
      "Ġfeatured": 3702,
      "Ġdancing": 3703,
      "craft": 3704,
      "Ġsurprising": 3705,
      "erie": 3706,
      "Ġcollege": 3707,
      "ify": 3708,
      "ĠDead": 3709,
      "Ġbuilding": 3710,
      "Ġpal": 3711,
      "Ġrepet": 3712,
      "Ġchanged": 3713,
      "Ġuncomfortable": 3714,
      "itary": 3715,
      "ĠCom": 3716,
      "gn": 3717,
      "To": 3718,
      "Ġgold": 3719,
      "ĠJim": 3720,
      "Ġunlike": 3721,
      "azy": 3722,
      "Ġaudio": 3723,
      "With": 3724,
      "ĠRed": 3725,
      "Ġfurther": 3726,
      "ĠLife": 3727,
      "Ġtraged": 3728,
      "Ġcow": 3729,
      "Ġmod": 3730,
      "Ġfiction": 3731,
      "leg": 3732,
      "ĠPal": 3733,
      "Ġpriv": 3734,
      "Ġnons": 3735,
      "Ġju": 3736,
      "oons": 3737,
      "style": 3738,
      "fection": 3739,
      "Ġexplicit": 3740,
      "Ġtrack": 3741,
      "Ġvillain": 3742,
      "bel": 3743,
      "Ġcold": 3744,
      "Ġmotion": 3745,
      "Ġimmediately": 3746,
      "ĠWill": 3747,
      "Ġplenty": 3748,
      "efinitely": 3749,
      "men": 3750,
      "Ġyes": 3751,
      "ĠPart": 3752,
      "ubb": 3753,
      "aving": 3754,
      "Ġmonster": 3755,
      "Ġbringing": 3756,
      "Ġheartbreaking": 3757,
      "ĠJoe": 3758,
      "Ġbecoming": 3759,
      "Ġstuck": 3760,
      "usi": 3761,
      "Ġproduced": 3762,
      "night": 3763,
      "Ġanimals": 3764,
      "Ġbreathtaking": 3765,
      "aff": 3766,
      "Ġminor": 3767,
      "Ġ$": 3768,
      "ask": 3769,
      "Ġgore": 3770,
      "ios": 3771,
      "leep": 3772,
      "ief": 3773,
      "ĠPol": 3774,
      "ED": 3775,
      "lex": 3776,
      "Ġinnoc": 3777,
      "bert": 3778,
      "dy": 3779,
      "Ġgone": 3780,
      "Well": 3781,
      "Ġsour": 3782,
      "ogy": 3783,
      "Ġserves": 3784,
      "Ġobvious": 3785,
      "Ġbasic": 3786,
      "Ġmeant": 3787,
      "nter": 3788,
      "Ġcreates": 3789,
      "Ġdetails": 3790,
      "Jo": 3791,
      "ethe": 3792,
      "une": 3793,
      "ensive": 3794,
      "Ġscreening": 3795,
      "Ġmediocre": 3796,
      "ĠMaybe": 3797,
      "Ġnamed": 3798,
      "ivers": 3799,
      "Really": 3800,
      "Ġfunn": 3801,
      "Ġboys": 3802,
      "ĠPeter": 3803,
      "ament": 3804,
      "Ġexplore": 3805,
      "Ġhighlights": 3806,
      "oil": 3807,
      "Ġgrief": 3808,
      "ivil": 3809,
      "Ġavoid": 3810,
      "ĠNow": 3811,
      "Ġlies": 3812,
      "Ġbehavi": 3813,
      "ĠII": 3814,
      "iminal": 3815,
      "uper": 3816,
      "atever": 3817,
      "Ġdisplay": 3818,
      "annel": 3819,
      "ĠIndian": 3820,
      "Ġrepresentation": 3821,
      "athy": 3822,
      "Ġexists": 3823,
      "Ġdirectors": 3824,
      "Ġrelatable": 3825,
      "ps": 3826,
      "ĠMart": 3827,
      "Ġundeni": 3828,
      "Ġapparent": 3829,
      "ĠScott": 3830,
      "Ġglimpse": 3831,
      "Ġgeneral": 3832,
      "ĠMexic": 3833,
      "Ġopinion": 3834,
      "ibility": 3835,
      "hens": 3836,
      "Ġdetract": 3837,
      "remarkable": 3838,
      "udden": 3839,
      "Ġrelies": 3840,
      "Ġindepend": 3841,
      "Ġdrawn": 3842,
      "Ġconnect": 3843,
      "ĠNetflix": 3844,
      "nces": 3845,
      "ĠTw": 3846,
      "Ġprior": 3847,
      "ĠChe": 3848,
      "ĠHard": 3849,
      "overed": 3850,
      "Ġ12": 3851,
      "De": 3852,
      "Ġstere": 3853,
      "gged": 3854,
      "Ġinspiring": 3855,
      "!!!": 3856,
      "Ġdelivering": 3857,
      "Ġtopic": 3858,
      "Ġinformative": 3859,
      "Ġlived": 3860,
      "Ġ18": 3861,
      "ipp": 3862,
      "Ġcross": 3863,
      "Ġmoral": 3864,
      "Ġdecision": 3865,
      "Ġcatch": 3866,
      "arning": 3867,
      "irror": 3868,
      "Ġherself": 3869,
      "inema": 3870,
      "Ġcentury": 3871,
      "Ġmaint": 3872,
      "reg": 3873,
      "Ġled": 3874,
      "iqu": 3875,
      "ĠAb": 3876,
      "Ġsports": 3877,
      "Ġexcited": 3878,
      "Ġexploitation": 3879,
      "Ġappearance": 3880,
      "Ġimpossible": 3881,
      "ĠHouse": 3882,
      "igr": 3883,
      "natural": 3884,
      "Ġsty": 3885,
      "Ġspectac": 3886,
      "kin": 3887,
      "onst": 3888,
      "Ġplaces": 3889,
      "ĠJones": 3890,
      "ghed": 3891,
      "mare": 3892,
      "Ġcomic": 3893,
      "Ġspot": 3894,
      "box": 3895,
      "umes": 3896,
      "ĠPat": 3897,
      "Ġforce": 3898,
      "Ġunremarkable": 3899,
      "Ġemotion": 3900,
      "Ġlocation": 3901,
      "arlie": 3902,
      "atur": 3903,
      "Ġhidden": 3904,
      "etal": 3905,
      "Ġunderrated": 3906,
      "AS": 3907,
      "pret": 3908,
      "ĠLo": 3909,
      "Ġdistinct": 3910,
      "Ġlighting": 3911,
      "Ġbiggest": 3912,
      "Ġproblems": 3913,
      "TH": 3914,
      "uit": 3915,
      "ĠLa": 3916,
      "uous": 3917,
      "edom": 3918,
      "ondon": 3919,
      "Ġkilling": 3920,
      "Ġbenef": 3921,
      "Ġunclear": 3922,
      "Ġid": 3923,
      "Ġmach": 3924,
      "Ġign": 3925,
      "Ġspend": 3926,
      "Ġstereot": 3927,
      "ĠBro": 3928,
      "Ġ--": 3929,
      "edic": 3930,
      "ĠBill": 3931,
      "Ġintent": 3932,
      "ops": 3933,
      "ands": 3934,
      "ograph": 3935,
      "Ġlearned": 3936,
      "vant": 3937,
      "Ġfestival": 3938,
      "Ġsuck": 3939,
      "arks": 3940,
      "bsolute": 3941,
      "riter": 3942,
      "Ġhost": 3943,
      "ague": 3944,
      "Ġmysterious": 3945,
      "Ġproud": 3946,
      "Ġhorse": 3947,
      "gra": 3948,
      "Ġmoves": 3949,
      "Ġknowledge": 3950,
      "Ġcrafted": 3951,
      "itious": 3952,
      "Ġbattle": 3953,
      "ĠGr": 3954,
      "ker": 3955,
      "Ġtrop": 3956,
      "Ġpath": 3957,
      "Ġmarred": 3958,
      "work": 3959,
      "Ġenthusi": 3960,
      "Ġhits": 3961,
      "istent": 3962,
      "aches": 3963,
      "azz": 3964,
      "Ġ40": 3965,
      "Ġrural": 3966,
      "Ġmarriage": 3967,
      "Ġtaste": 3968,
      "Ġlesbian": 3969,
      "umbers": 3970,
      "Ġconcern": 3971,
      "Ġcomedies": 3972,
      "Ġinitially": 3973,
      "Ġonline": 3974,
      "iring": 3975,
      "Ġchallenging": 3976,
      "Ġforgotten": 3977,
      "ĠLittle": 3978,
      "ruct": 3979,
      "Ġappeal": 3980,
      "Ġanx": 3981,
      "Ġunint": 3982,
      "Ġsick": 3983,
      "appy": 3984,
      "ilities": 3985,
      "Ġformer": 3986,
      "Ġbehavior": 3987,
      "Ġaim": 3988,
      "bes": 3989,
      "ploy": 3990,
      "Ġcheesy": 3991,
      "Ġstudio": 3992,
      "Ġmildly": 3993,
      "Ġtragedy": 3994,
      "ĠBen": 3995,
      "Ġearth": 3996,
      "Ġ197": 3997,
      "Ġ60": 3998,
      "Ġgentle": 3999
    },
    "merges": [
      [
        "Ġ",
        "t"
      ],
      [
        "Ġ",
        "a"
      ],
      [
        "i",
        "n"
      ],
      [
        "h",
        "e"
      ],
      [
        "Ġ",
        "s"
      ],
      [
        "r",
        "e"
      ],
      [
        "Ġ",
        "w"
      ],
      [
        "Ġ",
        "o"
      ],
      [
        "i",
        "s"
      ],
      [
        "e",
        "r"
      ],
      [
        "Ġ",
        "f"
      ],
      [
        "i",
        "t"
      ],
      [
        "in",
        "g"
      ],
      [
        "Ġt",
        "he"
      ],
      [
        "a",
        "t"
      ],
      [
        "e",
        "n"
      ],
      [
        "Ġ",
        "m"
      ],
      [
        "Ġ",
        "b"
      ],
      [
        "o",
        "n"
      ],
      [
        "o",
        "r"
      ],
      [
        "Ġ",
        "c"
      ],
      [
        "e",
        "s"
      ],
      [
        "n",
        "d"
      ],
      [
        "o",
        "u"
      ],
      [
        "a",
        "r"
      ],
      [
        "a",
        "l"
      ],
      [
        "Ġ",
        "d"
      ],
      [
        "Ġt",
        "h"
      ],
      [
        "Ġ",
        "p"
      ],
      [
        "i",
        "l"
      ],
      [
        "a",
        "n"
      ],
      [
        "Ġo",
        "f"
      ],
      [
        "e",
        "d"
      ],
      [
        "Ġ",
        "h"
      ],
      [
        "Ġa",
        "nd"
      ],
      [
        "Ġ",
        "in"
      ],
      [
        "Ġt",
        "o"
      ],
      [
        "Ġ",
        "l"
      ],
      [
        "a",
        "s"
      ],
      [
        "o",
        "m"
      ],
      [
        "l",
        "y"
      ],
      [
        "i",
        "c"
      ],
      [
        "Ġ",
        "e"
      ],
      [
        "Ġ",
        "it"
      ],
      [
        "l",
        "e"
      ],
      [
        "Ġ",
        "I"
      ],
      [
        "u",
        "t"
      ],
      [
        "Ġ",
        "is"
      ],
      [
        "Ġ",
        "g"
      ],
      [
        "en",
        "t"
      ],
      [
        "v",
        "e"
      ],
      [
        "i",
        "on"
      ],
      [
        "c",
        "t"
      ],
      [
        "s",
        "t"
      ],
      [
        "o",
        "t"
      ],
      [
        "T",
        "he"
      ],
      [
        "Ġ",
        "n"
      ],
      [
        "Ġb",
        "e"
      ],
      [
        "Ġ",
        "re"
      ],
      [
        "il",
        "m"
      ],
      [
        "Ġf",
        "ilm"
      ],
      [
        "e",
        "l"
      ],
      [
        "i",
        "m"
      ],
      [
        "Ġs",
        "t"
      ],
      [
        "o",
        "w"
      ],
      [
        "'",
        "s"
      ],
      [
        "Ġo",
        "n"
      ],
      [
        "v",
        "er"
      ],
      [
        "Ġm",
        "o"
      ],
      [
        "e",
        "t"
      ],
      [
        "v",
        "i"
      ],
      [
        "r",
        "a"
      ],
      [
        "Ġth",
        "at"
      ],
      [
        "it",
        "h"
      ],
      [
        "c",
        "h"
      ],
      [
        "g",
        "h"
      ],
      [
        "Ġw",
        "ith"
      ],
      [
        "u",
        "n"
      ],
      [
        "Ġth",
        "is"
      ],
      [
        "Ġa",
        "n"
      ],
      [
        "a",
        "d"
      ],
      [
        "c",
        "e"
      ],
      [
        "o",
        "l"
      ],
      [
        "a",
        "y"
      ],
      [
        "Ġf",
        "or"
      ],
      [
        "Ġw",
        "h"
      ],
      [
        "i",
        "d"
      ],
      [
        "u",
        "l"
      ],
      [
        "Ġ",
        "y"
      ],
      [
        "u",
        "r"
      ],
      [
        "k",
        "e"
      ],
      [
        "Ġ",
        "he"
      ],
      [
        "Ġb",
        "ut"
      ],
      [
        "Ġw",
        "as"
      ],
      [
        "s",
        "e"
      ],
      [
        "i",
        "r"
      ],
      [
        "Ġl",
        "i"
      ],
      [
        "r",
        "o"
      ],
      [
        "Ġa",
        "s"
      ],
      [
        "vi",
        "e"
      ],
      [
        "r",
        "i"
      ],
      [
        "a",
        "m"
      ],
      [
        "Ġe",
        "x"
      ],
      [
        "â",
        "Ģ"
      ],
      [
        "Ġs",
        "h"
      ],
      [
        "Ġ",
        "S"
      ],
      [
        "Ġ",
        "A"
      ],
      [
        "o",
        "o"
      ],
      [
        "or",
        "t"
      ],
      [
        "Ġs",
        "e"
      ],
      [
        "Ġy",
        "ou"
      ],
      [
        "c",
        "k"
      ],
      [
        "u",
        "s"
      ],
      [
        "Ġa",
        "l"
      ],
      [
        "t",
        "er"
      ],
      [
        "u",
        "m"
      ],
      [
        "l",
        "d"
      ],
      [
        "at",
        "ion"
      ],
      [
        "ou",
        "t"
      ],
      [
        "al",
        "ly"
      ],
      [
        "is",
        "t"
      ],
      [
        "a",
        "g"
      ],
      [
        "il",
        "l"
      ],
      [
        "p",
        "e"
      ],
      [
        "gh",
        "t"
      ],
      [
        "Ġ",
        "The"
      ],
      [
        "e",
        "m"
      ],
      [
        "Ġc",
        "h"
      ],
      [
        "Ġ",
        "B"
      ],
      [
        "Ġa",
        "b"
      ],
      [
        "Ġmo",
        "vie"
      ],
      [
        "Ġc",
        "om"
      ],
      [
        "Ġ",
        "\""
      ],
      [
        "Ġ",
        "C"
      ],
      [
        "he",
        "r"
      ],
      [
        "i",
        "f"
      ],
      [
        "Ġa",
        "t"
      ],
      [
        "Ġh",
        "a"
      ],
      [
        "r",
        "om"
      ],
      [
        "er",
        "s"
      ],
      [
        "Ġd",
        "o"
      ],
      [
        "i",
        "ve"
      ],
      [
        "a",
        "b"
      ],
      [
        "re",
        "s"
      ],
      [
        "es",
        "s"
      ],
      [
        "Ġ",
        "M"
      ],
      [
        "om",
        "e"
      ],
      [
        "Ġin",
        "t"
      ],
      [
        "Ġ",
        "T"
      ],
      [
        "a",
        "k"
      ],
      [
        "Ġc",
        "on"
      ],
      [
        "Ġit",
        "s"
      ],
      [
        "Ġ",
        "en"
      ],
      [
        "Ġd",
        "e"
      ],
      [
        "ar",
        "t"
      ],
      [
        "e",
        "re"
      ],
      [
        "es",
        "t"
      ],
      [
        "q",
        "u"
      ],
      [
        "Ġ",
        "un"
      ],
      [
        "an",
        "t"
      ],
      [
        "Ġn",
        "ot"
      ],
      [
        "Ġ",
        "H"
      ],
      [
        "âĢ",
        "Ļ"
      ],
      [
        "Ġm",
        "y"
      ],
      [
        "Ġm",
        "e"
      ],
      [
        "Ġ",
        "W"
      ],
      [
        "Ġf",
        "e"
      ],
      [
        "u",
        "p"
      ],
      [
        "a",
        "in"
      ],
      [
        "u",
        "st"
      ],
      [
        "Ġab",
        "out"
      ],
      [
        "Ġ",
        "j"
      ],
      [
        "el",
        "l"
      ],
      [
        "Ġf",
        "rom"
      ],
      [
        "o",
        "p"
      ],
      [
        "at",
        "e"
      ],
      [
        "Ġ",
        "k"
      ],
      [
        "Ġli",
        "ke"
      ],
      [
        "Ġ",
        "D"
      ],
      [
        "Ġs",
        "o"
      ],
      [
        "p",
        "t"
      ],
      [
        "Ġa",
        "re"
      ],
      [
        "ou",
        "ld"
      ],
      [
        "Ġb",
        "y"
      ],
      [
        "a",
        "nd"
      ],
      [
        "Ġl",
        "o"
      ],
      [
        "or",
        "y"
      ],
      [
        "Ġw",
        "at"
      ],
      [
        "Ġon",
        "e"
      ],
      [
        "u",
        "re"
      ],
      [
        "'",
        "t"
      ],
      [
        "ver",
        "y"
      ],
      [
        "Ġs",
        "ome"
      ],
      [
        "Ġh",
        "is"
      ],
      [
        "it",
        "y"
      ],
      [
        "oo",
        "d"
      ],
      [
        "a",
        "ct"
      ],
      [
        "h",
        "is"
      ],
      [
        "r",
        "ou"
      ],
      [
        "a",
        "ck"
      ],
      [
        "al",
        "l"
      ],
      [
        "Ġ",
        "P"
      ],
      [
        "i",
        "es"
      ],
      [
        "Ġs",
        "c"
      ],
      [
        "it",
        "e"
      ],
      [
        "as",
        "t"
      ],
      [
        "ou",
        "s"
      ],
      [
        "Ġ",
        "F"
      ],
      [
        "f",
        "e"
      ],
      [
        "Ġ",
        "L"
      ],
      [
        "Ġw",
        "or"
      ],
      [
        "Ġn",
        "e"
      ],
      [
        "Ġex",
        "p"
      ],
      [
        "Ġp",
        "l"
      ],
      [
        "i",
        "g"
      ],
      [
        "p",
        "p"
      ],
      [
        "Ġa",
        "ct"
      ],
      [
        "Ġp",
        "ro"
      ],
      [
        "in",
        "d"
      ],
      [
        "im",
        "e"
      ],
      [
        "ab",
        "le"
      ],
      [
        "ĠI",
        "t"
      ],
      [
        "Ġha",
        "ve"
      ],
      [
        "Ġw",
        "he"
      ],
      [
        "i",
        "re"
      ],
      [
        "on",
        "e"
      ],
      [
        "i",
        "ght"
      ],
      [
        "Ġ",
        "v"
      ],
      [
        "re",
        "at"
      ],
      [
        "en",
        "d"
      ],
      [
        "Ġwh",
        "o"
      ],
      [
        "ar",
        "y"
      ],
      [
        "t",
        "h"
      ],
      [
        "u",
        "d"
      ],
      [
        "Ġ",
        "G"
      ],
      [
        "Ġ",
        "R"
      ],
      [
        "on",
        "g"
      ],
      [
        "ar",
        "d"
      ],
      [
        "Ġ",
        "r"
      ],
      [
        "Ġl",
        "e"
      ],
      [
        "o",
        "s"
      ],
      [
        "u",
        "e"
      ],
      [
        "Ġch",
        "ar"
      ],
      [
        "Ġmo",
        "re"
      ],
      [
        "i",
        "e"
      ],
      [
        "Ġs",
        "u"
      ],
      [
        "Ġwat",
        "ch"
      ],
      [
        "Ġ",
        "im"
      ],
      [
        "en",
        "ce"
      ],
      [
        "Ġal",
        "l"
      ],
      [
        "Ġo",
        "ut"
      ],
      [
        "Ġh",
        "as"
      ],
      [
        "Ġ",
        "J"
      ],
      [
        "o",
        "re"
      ],
      [
        "Ġst",
        "ory"
      ],
      [
        "i",
        "al"
      ],
      [
        "m",
        "ent"
      ],
      [
        "Ġm",
        "an"
      ],
      [
        "o",
        "y"
      ],
      [
        "Ġ",
        "N"
      ],
      [
        "o",
        "d"
      ],
      [
        "r",
        "y"
      ],
      [
        "Ġthe",
        "y"
      ],
      [
        "v",
        "en"
      ],
      [
        "Ġo",
        "r"
      ],
      [
        "Ġw",
        "e"
      ],
      [
        "T",
        "his"
      ],
      [
        "Ġ",
        "E"
      ],
      [
        "o",
        "g"
      ],
      [
        "Ġ",
        "qu"
      ],
      [
        "Ġj",
        "ust"
      ],
      [
        "n",
        "t"
      ],
      [
        "a",
        "ke"
      ],
      [
        "ag",
        "e"
      ],
      [
        "Ġc",
        "an"
      ],
      [
        "g",
        "e"
      ],
      [
        "Ġint",
        "o"
      ],
      [
        "a",
        "u"
      ],
      [
        "Ġ",
        "up"
      ],
      [
        "Ġthe",
        "ir"
      ],
      [
        "Ġp",
        "er"
      ],
      [
        "Ġh",
        "ow"
      ],
      [
        "Ġp",
        "re"
      ],
      [
        "Ġdo",
        "c"
      ],
      [
        "um",
        "ent"
      ],
      [
        "Ġfe",
        "el"
      ],
      [
        "ar",
        "s"
      ],
      [
        "f",
        "ul"
      ],
      [
        "Ġ",
        "1"
      ],
      [
        "Ġsh",
        "ort"
      ],
      [
        "a",
        "re"
      ],
      [
        "n",
        "e"
      ],
      [
        "Ġt",
        "ime"
      ],
      [
        "ic",
        "h"
      ],
      [
        "Ġhe",
        "r"
      ],
      [
        "an",
        "ce"
      ],
      [
        "in",
        "e"
      ],
      [
        "Ġchar",
        "act"
      ],
      [
        "Ġwh",
        "at"
      ],
      [
        "h",
        "ing"
      ],
      [
        "Ġdoc",
        "ument"
      ],
      [
        "a",
        "p"
      ],
      [
        "f",
        "or"
      ],
      [
        "oo",
        "k"
      ],
      [
        "Ġg",
        "ood"
      ],
      [
        "Ġcom",
        "p"
      ],
      [
        "a",
        "c"
      ],
      [
        "Ġo",
        "ver"
      ],
      [
        "Ġc",
        "l"
      ],
      [
        "i",
        "v"
      ],
      [
        "it",
        "t"
      ],
      [
        "Ġ",
        "("
      ],
      [
        "Ġth",
        "an"
      ],
      [
        "e",
        "p"
      ],
      [
        "ic",
        "al"
      ],
      [
        "ou",
        "nd"
      ],
      [
        "Ġthe",
        "m"
      ],
      [
        "pe",
        "ct"
      ],
      [
        "Ġd",
        "is"
      ],
      [
        "Ġ",
        "O"
      ],
      [
        "Ġa",
        "d"
      ],
      [
        "Ġp",
        "o"
      ],
      [
        "he",
        "d"
      ],
      [
        "ic",
        "e"
      ],
      [
        "r",
        "u"
      ],
      [
        "Ġlo",
        "ve"
      ],
      [
        "res",
        "s"
      ],
      [
        "Ġ",
        "u"
      ],
      [
        "ad",
        "e"
      ],
      [
        "ou",
        "r"
      ],
      [
        "id",
        "e"
      ],
      [
        "as",
        "s"
      ],
      [
        "er",
        "i"
      ],
      [
        "Ġg",
        "et"
      ],
      [
        "Ġd",
        "es"
      ],
      [
        "ak",
        "ing"
      ],
      [
        "Ġdocument",
        "ary"
      ],
      [
        "vie",
        "w"
      ],
      [
        "Ġwhe",
        "n"
      ],
      [
        "Ġp",
        "e"
      ],
      [
        "Ġn",
        "o"
      ],
      [
        "ct",
        "ion"
      ],
      [
        "Ġbe",
        "c"
      ],
      [
        "n",
        "ow"
      ],
      [
        "is",
        "h"
      ],
      [
        "Ġ",
        "-"
      ],
      [
        "Ġwor",
        "k"
      ],
      [
        "Ġse",
        "e"
      ],
      [
        "ay",
        "s"
      ],
      [
        "ul",
        "t"
      ],
      [
        "Ġre",
        "ally"
      ],
      [
        "Ġw",
        "ould"
      ],
      [
        ".",
        "."
      ],
      [
        "u",
        "ch"
      ],
      [
        "u",
        "al"
      ],
      [
        "i",
        "p"
      ],
      [
        "Ġim",
        "p"
      ],
      [
        "Ġg",
        "reat"
      ],
      [
        "Ġa",
        "m"
      ],
      [
        "b",
        "le"
      ],
      [
        "Ġs",
        "p"
      ],
      [
        "at",
        "ed"
      ],
      [
        "Ġf",
        "un"
      ],
      [
        "er",
        "t"
      ],
      [
        "v",
        "ing"
      ],
      [
        "Ġh",
        "ad"
      ],
      [
        "Ġan",
        "y"
      ],
      [
        "for",
        "m"
      ],
      [
        "am",
        "e"
      ],
      [
        "Ġf",
        "a"
      ],
      [
        "il",
        "e"
      ],
      [
        "c",
        "es"
      ],
      [
        "ic",
        "k"
      ],
      [
        "Ġbe",
        "t"
      ],
      [
        "in",
        "k"
      ],
      [
        "ra",
        "m"
      ],
      [
        "op",
        "le"
      ],
      [
        "Ġp",
        "art"
      ],
      [
        "Ġen",
        "d"
      ],
      [
        "ar",
        "k"
      ],
      [
        "Ġe",
        "very"
      ],
      [
        "i",
        "z"
      ],
      [
        "Ġ",
        "K"
      ],
      [
        "at",
        "ing"
      ],
      [
        "Ġbe",
        "ing"
      ],
      [
        "ou",
        "gh"
      ],
      [
        "t",
        "her"
      ],
      [
        "Ġg",
        "o"
      ],
      [
        "Ġli",
        "fe"
      ],
      [
        "i",
        "an"
      ],
      [
        "Ġw",
        "ere"
      ],
      [
        "Ġm",
        "uch"
      ],
      [
        "f",
        "f"
      ],
      [
        "on",
        "d"
      ],
      [
        "v",
        "es"
      ],
      [
        "Ġ",
        "if"
      ],
      [
        "t",
        "ing"
      ],
      [
        "rou",
        "gh"
      ],
      [
        "Ġmo",
        "st"
      ],
      [
        "Ġt",
        "w"
      ],
      [
        "'",
        "m"
      ],
      [
        "fe",
        "ct"
      ],
      [
        "Ġa",
        "r"
      ],
      [
        "Ġpe",
        "ople"
      ],
      [
        "ic",
        "t"
      ],
      [
        "Ġb",
        "l"
      ],
      [
        "c",
        "i"
      ],
      [
        "Ġof",
        "f"
      ],
      [
        "Ġwh",
        "ich"
      ],
      [
        "il",
        "d"
      ],
      [
        "re",
        "d"
      ],
      [
        "Ġm",
        "ade"
      ],
      [
        "Ġsh",
        "ow"
      ],
      [
        "Ġre",
        "m"
      ],
      [
        "Ġ",
        "very"
      ],
      [
        "Ġthe",
        "re"
      ],
      [
        "Ġsc",
        "en"
      ],
      [
        "el",
        "f"
      ],
      [
        "h",
        "at"
      ],
      [
        "ĠC",
        "h"
      ],
      [
        "ir",
        "st"
      ],
      [
        "Ġth",
        "rough"
      ],
      [
        "w",
        "e"
      ],
      [
        "Ġin",
        "c"
      ],
      [
        "ere",
        "st"
      ],
      [
        "Ġu",
        "nd"
      ],
      [
        "ar",
        "r"
      ],
      [
        "o",
        "se"
      ],
      [
        "Ġ",
        "ent"
      ],
      [
        "Ġfilm",
        "s"
      ],
      [
        "Ġd",
        "ire"
      ],
      [
        "Ġe",
        "m"
      ],
      [
        "r",
        "an"
      ],
      [
        "Ġk",
        "now"
      ],
      [
        "Ġd",
        "id"
      ],
      [
        "ak",
        "es"
      ],
      [
        "s",
        "o"
      ],
      [
        "Ġexp",
        "l"
      ],
      [
        "Ġw",
        "ell"
      ],
      [
        "Ġ",
        "2"
      ],
      [
        "o",
        "c"
      ],
      [
        "g",
        "et"
      ],
      [
        "Ġbe",
        "en"
      ],
      [
        "ing",
        "s"
      ],
      [
        "ation",
        "s"
      ],
      [
        "vi",
        "d"
      ],
      [
        "Ġ",
        "ra"
      ],
      [
        "t",
        "y"
      ],
      [
        "ent",
        "s"
      ],
      [
        "ut",
        "e"
      ],
      [
        "h",
        "y"
      ],
      [
        "is",
        "e"
      ],
      [
        "at",
        "ive"
      ],
      [
        "Ġcon",
        "t"
      ],
      [
        "Ġto",
        "o"
      ],
      [
        "Ġo",
        "ther"
      ],
      [
        "j",
        "oy"
      ],
      [
        "ar",
        "ly"
      ],
      [
        "om",
        "et"
      ],
      [
        "Ġon",
        "ly"
      ],
      [
        "in",
        "t"
      ],
      [
        "I",
        "t"
      ],
      [
        "Ġcom",
        "ed"
      ],
      [
        "Ġl",
        "ook"
      ],
      [
        "Ġre",
        "al"
      ],
      [
        "v",
        "ed"
      ],
      [
        "Ġint",
        "erest"
      ],
      [
        "Ġf",
        "irst"
      ],
      [
        "ot",
        "her"
      ],
      [
        "Ġfe",
        "at"
      ],
      [
        "Ġexp",
        "eri"
      ],
      [
        "Ġen",
        "joy"
      ],
      [
        "Ġa",
        "f"
      ],
      [
        "Ġc",
        "ould"
      ],
      [
        "ion",
        "s"
      ],
      [
        "l",
        "ow"
      ],
      [
        "Ġ",
        "Y"
      ],
      [
        "o",
        "st"
      ],
      [
        "c",
        "c"
      ],
      [
        "il",
        "y"
      ],
      [
        "in",
        "em"
      ],
      [
        "Ġa",
        "g"
      ],
      [
        "Ġt",
        "e"
      ],
      [
        "'",
        "ve"
      ],
      [
        "Ġh",
        "or"
      ],
      [
        "en",
        "s"
      ],
      [
        "Ġw",
        "ay"
      ],
      [
        "Ġt",
        "ra"
      ],
      [
        "Ġh",
        "um"
      ],
      [
        "u",
        "ally"
      ],
      [
        "Ġwhe",
        "re"
      ],
      [
        "a",
        "ut"
      ],
      [
        "Ġ",
        "us"
      ],
      [
        "Ġs",
        "ur"
      ],
      [
        "itt",
        "le"
      ],
      [
        "Ġh",
        "im"
      ],
      [
        "au",
        "se"
      ],
      [
        "Ġy",
        "e"
      ],
      [
        "an",
        "g"
      ],
      [
        "a",
        "ch"
      ],
      [
        "r",
        "or"
      ],
      [
        "Ġth",
        "ink"
      ],
      [
        "rou",
        "nd"
      ],
      [
        "a",
        "w"
      ],
      [
        "c",
        "hed"
      ],
      [
        "Ġund",
        "er"
      ],
      [
        "Ġdo",
        "es"
      ],
      [
        "ol",
        "d"
      ],
      [
        "ĠS",
        "t"
      ],
      [
        "Ġper",
        "form"
      ],
      [
        "Ġm",
        "in"
      ],
      [
        "Ġd",
        "ue"
      ],
      [
        "ig",
        "n"
      ],
      [
        "r",
        "it"
      ],
      [
        "Ġm",
        "ake"
      ],
      [
        "Ġdire",
        "ct"
      ],
      [
        "ver",
        "s"
      ],
      [
        "n",
        "ing"
      ],
      [
        "a",
        "ce"
      ],
      [
        "Ġsu",
        "b"
      ],
      [
        "Ġg",
        "en"
      ],
      [
        "Ġre",
        "l"
      ],
      [
        "Ġyou",
        "r"
      ],
      [
        "Ġat",
        "t"
      ],
      [
        "Ġe",
        "ven"
      ],
      [
        "Ġst",
        "ill"
      ],
      [
        "Ġs",
        "he"
      ],
      [
        "n",
        "g"
      ],
      [
        "o",
        "b"
      ],
      [
        "l",
        "l"
      ],
      [
        "Ġc",
        "inem"
      ],
      [
        "Ġ1",
        "9"
      ],
      [
        "ra",
        "y"
      ],
      [
        "n",
        "y"
      ],
      [
        "Ġl",
        "ittle"
      ],
      [
        "ow",
        "n"
      ],
      [
        "Ġd",
        "el"
      ],
      [
        "u",
        "res"
      ],
      [
        "m",
        "er"
      ],
      [
        "Ġw",
        "om"
      ],
      [
        "Ġs",
        "omet"
      ],
      [
        "en",
        "se"
      ],
      [
        "Ġf",
        "l"
      ],
      [
        "a",
        "pt"
      ],
      [
        "d",
        "u"
      ],
      [
        "Ġd",
        "on"
      ],
      [
        "Ġw",
        "ant"
      ],
      [
        "Ġv",
        "is"
      ],
      [
        "Ġm",
        "us"
      ],
      [
        "Ġal",
        "so"
      ],
      [
        "Ġ",
        "ro"
      ],
      [
        "Ġre",
        "c"
      ],
      [
        "i",
        "ous"
      ],
      [
        "e",
        "ver"
      ],
      [
        "Ġc",
        "o"
      ],
      [
        "p",
        "ite"
      ],
      [
        "Ġbec",
        "ause"
      ],
      [
        "Ġm",
        "om"
      ],
      [
        "vi",
        "es"
      ],
      [
        "Ġwatch",
        "ing"
      ],
      [
        "ur",
        "ing"
      ],
      [
        "Ġexperi",
        "ence"
      ],
      [
        "Ġde",
        "c"
      ],
      [
        "ion",
        "al"
      ],
      [
        "w",
        "n"
      ],
      [
        "ĠT",
        "his"
      ],
      [
        "Ġp",
        "ort"
      ],
      [
        "ve",
        "l"
      ],
      [
        "Ġtw",
        "o"
      ],
      [
        "Ġaf",
        "ter"
      ],
      [
        "Ġp",
        "ers"
      ],
      [
        "Ġw",
        "ill"
      ],
      [
        "Ġcharact",
        "er"
      ],
      [
        "i",
        "gh"
      ],
      [
        "l",
        "es"
      ],
      [
        "Ġbe",
        "aut"
      ],
      [
        "f",
        "t"
      ],
      [
        "Ġre",
        "s"
      ],
      [
        "Ġa",
        "p"
      ],
      [
        "Ġcharact",
        "ers"
      ],
      [
        "Ġs",
        "er"
      ],
      [
        "Ġt",
        "al"
      ],
      [
        "Ġf",
        "am"
      ],
      [
        "Ġb",
        "r"
      ],
      [
        "k",
        "ing"
      ],
      [
        "Ġse",
        "en"
      ],
      [
        "Ġs",
        "et"
      ],
      [
        "Ġmo",
        "vies"
      ],
      [
        "i",
        "a"
      ],
      [
        "b",
        "e"
      ],
      [
        "re",
        "e"
      ],
      [
        "ra",
        "p"
      ],
      [
        "Ġinterest",
        "ing"
      ],
      [
        "if",
        "ul"
      ],
      [
        "ri",
        "g"
      ],
      [
        "Ġ",
        "âĢ"
      ],
      [
        "or",
        "s"
      ],
      [
        "Ġf",
        "ind"
      ],
      [
        "Ġb",
        "ack"
      ],
      [
        "Ġm",
        "aking"
      ],
      [
        "r",
        "is"
      ],
      [
        "im",
        "es"
      ],
      [
        "e",
        "ct"
      ],
      [
        "Ġne",
        "ver"
      ],
      [
        "Ġl",
        "ack"
      ],
      [
        "ert",
        "ain"
      ],
      [
        "Ġcomed",
        "y"
      ],
      [
        "Ġe",
        "ver"
      ],
      [
        "p",
        "l"
      ],
      [
        "o",
        "ot"
      ],
      [
        "Ġ",
        "V"
      ],
      [
        "Ġpl",
        "ot"
      ],
      [
        "Ġwh",
        "ile"
      ],
      [
        "th",
        "ing"
      ],
      [
        "Ġar",
        "t"
      ],
      [
        "in",
        "al"
      ],
      [
        "Ġin",
        "s"
      ],
      [
        "Ġn",
        "arr"
      ],
      [
        "Ġman",
        "y"
      ],
      [
        "Ġpl",
        "ay"
      ],
      [
        "ri",
        "end"
      ],
      [
        "ul",
        "l"
      ],
      [
        "Ġb",
        "est"
      ],
      [
        "Ġsomet",
        "hing"
      ],
      [
        "Ġin",
        "d"
      ],
      [
        "Ġan",
        "im"
      ],
      [
        "a",
        "z"
      ],
      [
        "ou",
        "ght"
      ],
      [
        ".",
        "\""
      ],
      [
        "ur",
        "n"
      ],
      [
        "Ġg",
        "u"
      ],
      [
        "at",
        "h"
      ],
      [
        "Ġport",
        "ray"
      ],
      [
        "is",
        "m"
      ],
      [
        "p",
        "le"
      ],
      [
        "g",
        "g"
      ],
      [
        "Ġhor",
        "ror"
      ],
      [
        "n",
        "ess"
      ],
      [
        "Ġd",
        "ram"
      ],
      [
        "Ġa",
        "w"
      ],
      [
        "Ġwor",
        "ld"
      ],
      [
        "i",
        "b"
      ],
      [
        "Ġhe",
        "re"
      ],
      [
        "ce",
        "pt"
      ],
      [
        "Ġa",
        "pp"
      ],
      [
        "Ġl",
        "ong"
      ],
      [
        "f",
        "fect"
      ],
      [
        "if",
        "f"
      ],
      [
        "t",
        "e"
      ],
      [
        "Ġbeaut",
        "iful"
      ],
      [
        "at",
        "her"
      ],
      [
        "Ġ",
        "view"
      ],
      [
        "as",
        "e"
      ],
      [
        "Ġpre",
        "t"
      ],
      [
        "Ġp",
        "res"
      ],
      [
        "l",
        "ing"
      ],
      [
        "Ġ2",
        "0"
      ],
      [
        "ate",
        "ly"
      ],
      [
        "Ġe",
        "ffect"
      ],
      [
        "Ġb",
        "ad"
      ],
      [
        "Ġ",
        "U"
      ],
      [
        "c",
        "ial"
      ],
      [
        "Ġs",
        "pe"
      ],
      [
        "'",
        "re"
      ],
      [
        "Ġe",
        "v"
      ],
      [
        "Ġse",
        "em"
      ],
      [
        "an",
        "s"
      ],
      [
        "qu",
        "e"
      ],
      [
        "Ġwat",
        "ched"
      ],
      [
        "ut",
        "es"
      ],
      [
        "u",
        "ck"
      ],
      [
        "âĢ",
        "Ŀ"
      ],
      [
        "Ġe",
        "le"
      ],
      [
        "we",
        "en"
      ],
      [
        "Ġth",
        "ought"
      ],
      [
        "Ġthe",
        "se"
      ],
      [
        "Ġap",
        "pe"
      ],
      [
        "Ġcomp",
        "le"
      ],
      [
        "ou",
        "nt"
      ],
      [
        "Ġf",
        "ound"
      ],
      [
        "Ġmus",
        "ic"
      ],
      [
        "on",
        "s"
      ],
      [
        "er",
        "y"
      ],
      [
        "Ġst",
        "art"
      ],
      [
        "Ġt",
        "r"
      ],
      [
        "Ġs",
        "im"
      ],
      [
        "Ġem",
        "ot"
      ],
      [
        "he",
        "re"
      ],
      [
        "f",
        "ore"
      ],
      [
        "Ġbet",
        "ter"
      ],
      [
        "j",
        "ect"
      ],
      [
        "Ġm",
        "akes"
      ],
      [
        "Ġbet",
        "ween"
      ],
      [
        "Ġh",
        "igh"
      ],
      [
        "at",
        "ic"
      ],
      [
        "Ġpers",
        "on"
      ],
      [
        "Ġ",
        "ri"
      ],
      [
        "Ġ",
        "vi"
      ],
      [
        "Ġs",
        "up"
      ],
      [
        "Ġl",
        "ot"
      ],
      [
        "w",
        "ard"
      ],
      [
        "l",
        "i"
      ],
      [
        "Ġin",
        "v"
      ],
      [
        "Ġin",
        "ter"
      ],
      [
        "Ġfeel",
        "s"
      ],
      [
        "ir",
        "l"
      ],
      [
        "Ġh",
        "ist"
      ],
      [
        "Ġmin",
        "utes"
      ],
      [
        "i",
        "ble"
      ],
      [
        "s",
        "elf"
      ],
      [
        "b",
        "er"
      ],
      [
        "Ġth",
        "ose"
      ],
      [
        "e",
        "x"
      ],
      [
        "..",
        "."
      ],
      [
        "d",
        "er"
      ],
      [
        "Ġd",
        "iff"
      ],
      [
        "re",
        "en"
      ],
      [
        "m",
        "ing"
      ],
      [
        "ment",
        "s"
      ],
      [
        "Ġye",
        "ars"
      ],
      [
        "Ġag",
        "ain"
      ],
      [
        "ic",
        "ul"
      ],
      [
        "el",
        "t"
      ],
      [
        "l",
        "ess"
      ],
      [
        "Ġex",
        "pect"
      ],
      [
        "og",
        "rap"
      ],
      [
        "Ġc",
        "ol"
      ],
      [
        "ell",
        "ing"
      ],
      [
        "Ġc",
        "r"
      ],
      [
        "Ġb",
        "it"
      ],
      [
        "Ġthe",
        "n"
      ],
      [
        "ot",
        "h"
      ],
      [
        "Ġc",
        "apt"
      ],
      [
        "Ġpret",
        "ty"
      ],
      [
        "r",
        "ong"
      ],
      [
        "is",
        "s"
      ],
      [
        "Ġo",
        "wn"
      ],
      [
        "Ġun",
        "i"
      ],
      [
        "ab",
        "ly"
      ],
      [
        "Ġsh",
        "ot"
      ],
      [
        "Ġhe",
        "art"
      ],
      [
        "Ġha",
        "pp"
      ],
      [
        "Ġp",
        "r"
      ],
      [
        "re",
        "n"
      ],
      [
        "Ġch",
        "ild"
      ],
      [
        "Ġs",
        "m"
      ],
      [
        "Ġne",
        "w"
      ],
      [
        "t",
        "en"
      ],
      [
        "ow",
        "er"
      ],
      [
        "Ġex",
        "c"
      ],
      [
        "Ġs",
        "ay"
      ],
      [
        "Ġpro",
        "du"
      ],
      [
        "h",
        "ip"
      ],
      [
        "u",
        "b"
      ],
      [
        "e",
        "c"
      ],
      [
        "an",
        "ces"
      ],
      [
        "c",
        "ed"
      ],
      [
        "re",
        "am"
      ],
      [
        "Ġbe",
        "fore"
      ],
      [
        "er",
        "a"
      ],
      [
        "a",
        "pp"
      ],
      [
        "Ġscen",
        "e"
      ],
      [
        "Ġdid",
        "n"
      ],
      [
        "Ġf",
        "riend"
      ],
      [
        "m",
        "an"
      ],
      [
        "Ġk",
        "ind"
      ],
      [
        "Ġne",
        "ed"
      ],
      [
        "Ġs",
        "ound"
      ],
      [
        "a",
        "ve"
      ],
      [
        "Ġdram",
        "a"
      ],
      [
        "Ġo",
        "ld"
      ],
      [
        "Ġc",
        "reat"
      ],
      [
        "Ġdes",
        "pite"
      ],
      [
        "Ġs",
        "l"
      ],
      [
        "Ġin",
        "st"
      ],
      [
        "Ġm",
        "ay"
      ],
      [
        "Ġt",
        "er"
      ],
      [
        "at",
        "er"
      ],
      [
        "Ġcl",
        "ass"
      ],
      [
        "Ġn",
        "ow"
      ],
      [
        "Ġc",
        "he"
      ],
      [
        "Ġth",
        "r"
      ],
      [
        "Ġnarr",
        "ative"
      ],
      [
        "Ġqu",
        "ite"
      ],
      [
        "at",
        "ch"
      ],
      [
        "Ġa",
        "round"
      ],
      [
        "Ġwith",
        "out"
      ],
      [
        "Ġle",
        "ad"
      ],
      [
        "w",
        "ays"
      ],
      [
        "e",
        "ad"
      ],
      [
        "Ġscen",
        "es"
      ],
      [
        "o",
        "ck"
      ],
      [
        "l",
        "ed"
      ],
      [
        "Ġ",
        "es"
      ],
      [
        "al",
        "ity"
      ],
      [
        "Ġf",
        "ol"
      ],
      [
        "ĠY",
        "ou"
      ],
      [
        "Ġa",
        "cc"
      ],
      [
        "mer",
        "ic"
      ],
      [
        "er",
        "ing"
      ],
      [
        "ill",
        "er"
      ],
      [
        "Ġcon",
        "s"
      ],
      [
        "Ġo",
        "b"
      ],
      [
        "Ġsu",
        "ch"
      ],
      [
        "s",
        "c"
      ],
      [
        "a",
        "il"
      ],
      [
        "Ġfam",
        "ily"
      ],
      [
        "ere",
        "d"
      ],
      [
        "au",
        "gh"
      ],
      [
        "f",
        "ort"
      ],
      [
        "he",
        "s"
      ],
      [
        "as",
        "ed"
      ],
      [
        "Ġgo",
        "ing"
      ],
      [
        "Ġg",
        "ot"
      ],
      [
        "Ġh",
        "ard"
      ],
      [
        "Ġ",
        "ed"
      ],
      [
        "Ġmom",
        "ents"
      ],
      [
        "Ġact",
        "ion"
      ],
      [
        "Ġth",
        "ing"
      ],
      [
        "os",
        "s"
      ],
      [
        "Ġyou",
        "ng"
      ],
      [
        "k",
        "s"
      ],
      [
        "Ġk",
        "id"
      ],
      [
        "u",
        "es"
      ],
      [
        "Ġc",
        "le"
      ],
      [
        "Ġst",
        "ru"
      ],
      [
        "Ġo",
        "p"
      ],
      [
        "Ġc",
        "ast"
      ],
      [
        "Ġf",
        "elt"
      ],
      [
        "Ġt",
        "ri"
      ],
      [
        "i",
        "x"
      ],
      [
        "ir",
        "d"
      ],
      [
        "Ġ",
        "ke"
      ],
      [
        "Ġact",
        "ing"
      ],
      [
        "Ġimp",
        "ress"
      ],
      [
        "he",
        "n"
      ],
      [
        "Ġsh",
        "ould"
      ],
      [
        "Ġser",
        "ies"
      ],
      [
        "at",
        "es"
      ],
      [
        "Ġ",
        "ide"
      ],
      [
        "Ġab",
        "s"
      ],
      [
        "Ġen",
        "g"
      ],
      [
        "Ġsur",
        "p"
      ],
      [
        "em",
        "pt"
      ],
      [
        "Ġad",
        "d"
      ],
      [
        "Ġd",
        "own"
      ],
      [
        "Ġt",
        "ry"
      ],
      [
        "Ġdoes",
        "n"
      ],
      [
        "it",
        "s"
      ],
      [
        "Ġportray",
        "al"
      ],
      [
        "Ġt",
        "ake"
      ],
      [
        "Ġf",
        "all"
      ],
      [
        "Ġwom",
        "an"
      ],
      [
        "y",
        "le"
      ],
      [
        "ic",
        "s"
      ],
      [
        "Ġre",
        "view"
      ],
      [
        "Ġo",
        "ur"
      ],
      [
        "Ġt",
        "imes"
      ],
      [
        "Ġal",
        "ways"
      ],
      [
        "ud",
        "i"
      ],
      [
        "Ġc",
        "am"
      ],
      [
        "Ġdirect",
        "or"
      ],
      [
        "Ġent",
        "ertain"
      ],
      [
        "Ġdis",
        "c"
      ],
      [
        "ĠA",
        "meric"
      ],
      [
        "as",
        "ter"
      ],
      [
        "Ġfun",
        "ny"
      ],
      [
        "Ġb",
        "oth"
      ],
      [
        "Ġse",
        "x"
      ],
      [
        "r",
        "ist"
      ],
      [
        "in",
        "es"
      ],
      [
        "Ġhum",
        "an"
      ],
      [
        "ĠI",
        "n"
      ],
      [
        "ĠH",
        "e"
      ],
      [
        "Ġuni",
        "que"
      ],
      [
        "s",
        "s"
      ],
      [
        "Ġg",
        "r"
      ],
      [
        "Ġde",
        "ep"
      ],
      [
        "ĠA",
        "nd"
      ],
      [
        "Ġdel",
        "i"
      ],
      [
        "in",
        "s"
      ],
      [
        "Ġg",
        "irl"
      ],
      [
        "Ġse",
        "c"
      ],
      [
        "Ġm",
        "em"
      ],
      [
        "Ġcom",
        "m"
      ],
      [
        "if",
        "ic"
      ],
      [
        "Ġex",
        "t"
      ],
      [
        "Ġst",
        "and"
      ],
      [
        "Ġl",
        "ast"
      ],
      [
        "al",
        "e"
      ],
      [
        "e",
        "w"
      ],
      [
        "Ġy",
        "et"
      ],
      [
        "it",
        "ing"
      ],
      [
        "Ġp",
        "ower"
      ],
      [
        "Ġen",
        "ough"
      ],
      [
        "Ġpart",
        "icul"
      ],
      [
        "or",
        "d"
      ],
      [
        "k",
        "ed"
      ],
      [
        "Ġpo",
        "int"
      ],
      [
        "Ġde",
        "f"
      ],
      [
        "it",
        "ion"
      ],
      [
        "Ġth",
        "ings"
      ],
      [
        "it",
        "ies"
      ],
      [
        "Ġp",
        "ol"
      ],
      [
        "oc",
        "us"
      ],
      [
        "Ġde",
        "p"
      ],
      [
        "re",
        "t"
      ],
      [
        "ter",
        "n"
      ],
      [
        "Ġg",
        "l"
      ],
      [
        "Ġfilm",
        "m"
      ],
      [
        "Ġf",
        "oot"
      ],
      [
        "ist",
        "ic"
      ],
      [
        "st",
        "and"
      ],
      [
        "Ġs",
        "ame"
      ],
      [
        "ort",
        "h"
      ],
      [
        "Ġof",
        "ten"
      ],
      [
        "it",
        "ed"
      ],
      [
        "Ġfa",
        "il"
      ],
      [
        "al",
        "f"
      ],
      [
        "ud",
        "get"
      ],
      [
        "Ġfol",
        "low"
      ],
      [
        "Ġbe",
        "l"
      ],
      [
        "ĠB",
        "ut"
      ],
      [
        "ograp",
        "hy"
      ],
      [
        "or",
        "ies"
      ],
      [
        "o",
        "ol"
      ],
      [
        "o",
        "pe"
      ],
      [
        "Ġw",
        "ar"
      ],
      [
        "Ġd",
        "ist"
      ],
      [
        "Ġatt",
        "empt"
      ],
      [
        "Ġsc",
        "reen"
      ],
      [
        "ol",
        "og"
      ],
      [
        "ĠS",
        "h"
      ],
      [
        "a",
        "v"
      ],
      [
        "Ġcinem",
        "a"
      ],
      [
        "Ġri",
        "ght"
      ],
      [
        "y",
        "ing"
      ],
      [
        "Ġc",
        "re"
      ],
      [
        "Ġcon",
        "f"
      ],
      [
        "ne",
        "y"
      ],
      [
        "Ġact",
        "ually"
      ],
      [
        "l",
        "ud"
      ],
      [
        "ĠH",
        "ow"
      ],
      [
        "Ġ",
        "rom"
      ],
      [
        "if",
        "e"
      ],
      [
        "n",
        "er"
      ],
      [
        "ie",
        "ce"
      ],
      [
        "ing",
        "ly"
      ],
      [
        "en",
        "ces"
      ],
      [
        "Ġf",
        "ocus"
      ],
      [
        "ĠJ",
        "o"
      ],
      [
        "Ġdiff",
        "ere"
      ],
      [
        "ĠA",
        "l"
      ],
      [
        "Ġperform",
        "ance"
      ],
      [
        "Ġhum",
        "or"
      ],
      [
        "A",
        "n"
      ],
      [
        "Ġli",
        "ght"
      ],
      [
        "ou",
        "se"
      ],
      [
        "Ġgu",
        "y"
      ],
      [
        "Ġt",
        "urn"
      ],
      [
        "Ġim",
        "ag"
      ],
      [
        "Ġm",
        "ain"
      ],
      [
        "o",
        "ve"
      ],
      [
        "an",
        "e"
      ],
      [
        "v",
        "ent"
      ],
      [
        "Ġle",
        "ft"
      ],
      [
        "od",
        "y"
      ],
      [
        "en",
        "g"
      ],
      [
        "0",
        "0"
      ],
      [
        "Ġhist",
        "ory"
      ],
      [
        "il",
        "ar"
      ],
      [
        "Ġc",
        "are"
      ],
      [
        "Ġ",
        "3"
      ],
      [
        "ci",
        "ally"
      ],
      [
        "Ġl",
        "ow"
      ],
      [
        "d",
        "ay"
      ],
      [
        "Ġs",
        "ense"
      ],
      [
        "as",
        "h"
      ],
      [
        "ag",
        "ing"
      ],
      [
        "ĠCh",
        "rist"
      ],
      [
        "Ġhow",
        "ever"
      ],
      [
        "t",
        "he"
      ],
      [
        "Ġan",
        "other"
      ],
      [
        "r",
        "on"
      ],
      [
        "Ġwom",
        "en"
      ],
      [
        "Ġh",
        "alf"
      ],
      [
        "Ġexpl",
        "o"
      ],
      [
        "e",
        "f"
      ],
      [
        "Ġd",
        "ay"
      ],
      [
        "'",
        "d"
      ],
      [
        "Ġs",
        "a"
      ],
      [
        "Ġb",
        "ig"
      ],
      [
        "ic",
        "ally"
      ],
      [
        "ain",
        "s"
      ],
      [
        "Ġun",
        "c"
      ],
      [
        "v",
        "or"
      ],
      [
        "re",
        "m"
      ],
      [
        "Ġd",
        "uring"
      ],
      [
        "Ġli",
        "ve"
      ],
      [
        "x",
        "t"
      ],
      [
        "m",
        "ost"
      ],
      [
        "Ġt",
        "ell"
      ],
      [
        "Ġwh",
        "y"
      ],
      [
        "Ġeffect",
        "ive"
      ],
      [
        "Ġs",
        "k"
      ],
      [
        "Ġparticul",
        "arly"
      ],
      [
        "Ġsome",
        "one"
      ],
      [
        "Ġr",
        "un"
      ],
      [
        "ist",
        "s"
      ],
      [
        "ol",
        "ute"
      ],
      [
        "Ġre",
        "f"
      ],
      [
        "ur",
        "al"
      ],
      [
        "Ġd",
        "et"
      ],
      [
        "Ġfeat",
        "ures"
      ],
      [
        "in",
        "ce"
      ],
      [
        "Ġst",
        "rong"
      ],
      [
        "Ġfe",
        "w"
      ],
      [
        "Ġsurp",
        "ris"
      ],
      [
        "Ġpo",
        "or"
      ],
      [
        "ĠThe",
        "re"
      ],
      [
        "y",
        "p"
      ],
      [
        "pe",
        "cially"
      ],
      [
        "Ġsome",
        "w"
      ],
      [
        "Ġperform",
        "ances"
      ],
      [
        "Ġst",
        "yle"
      ],
      [
        "Ġele",
        "ments"
      ],
      [
        "as",
        "c"
      ],
      [
        "Ġanim",
        "ation"
      ],
      [
        "ru",
        "ly"
      ],
      [
        "Ġt",
        "it"
      ],
      [
        "Ġm",
        "ess"
      ],
      [
        "Ġinc",
        "red"
      ],
      [
        "Ġper",
        "fect"
      ],
      [
        "ol",
        "id"
      ],
      [
        "vid",
        "e"
      ],
      [
        "Ġt",
        "ran"
      ],
      [
        "at",
        "ure"
      ],
      [
        "Ġm",
        "on"
      ],
      [
        "Ġprodu",
        "ction"
      ],
      [
        "Ġo",
        "rig"
      ],
      [
        "ĠB",
        "l"
      ],
      [
        "Ġg",
        "ra"
      ],
      [
        "Ġre",
        "p"
      ],
      [
        "Ġe",
        "p"
      ],
      [
        "en",
        "ing"
      ],
      [
        "\"",
        "."
      ],
      [
        "Ġfa",
        "vor"
      ],
      [
        "Ġc",
        "ult"
      ],
      [
        "c",
        "ing"
      ],
      [
        "get",
        "her"
      ],
      [
        "Ġto",
        "gether"
      ],
      [
        "Ġd",
        "ark"
      ],
      [
        "ire",
        "d"
      ],
      [
        "id",
        "ent"
      ],
      [
        "Ġfoot",
        "age"
      ],
      [
        "!",
        "!"
      ],
      [
        "ĠT",
        "h"
      ],
      [
        "Ġf",
        "ar"
      ],
      [
        "I",
        "f"
      ],
      [
        "Ġn",
        "ice"
      ],
      [
        "Ġinc",
        "lud"
      ],
      [
        "Ġvis",
        "ual"
      ],
      [
        "Ġ",
        "&"
      ],
      [
        "Ġrel",
        "ations"
      ],
      [
        "m",
        "in"
      ],
      [
        "Ġcon",
        "c"
      ],
      [
        "Ġdiffere",
        "nt"
      ],
      [
        "Ġse",
        "qu"
      ],
      [
        "Ġha",
        "nd"
      ],
      [
        "Ġe",
        "arly"
      ],
      [
        "u",
        "ff"
      ],
      [
        "Ġth",
        "ough"
      ],
      [
        "Ġenjoy",
        "ed"
      ],
      [
        "ar",
        "n"
      ],
      [
        "Ġs",
        "il"
      ],
      [
        "Ġexpl",
        "or"
      ],
      [
        "ar",
        "ing"
      ],
      [
        "Ġp",
        "rom"
      ],
      [
        "Ġfeat",
        "ure"
      ],
      [
        "Ġc",
        "ra"
      ],
      [
        "Ġa",
        "udi"
      ],
      [
        "ut",
        "ion"
      ],
      [
        "Ġent",
        "ire"
      ],
      [
        "Ġget",
        "s"
      ],
      [
        "p",
        "h"
      ],
      [
        "Ġfriend",
        "s"
      ],
      [
        "Ġf",
        "in"
      ],
      [
        "Ġes",
        "pecially"
      ],
      [
        "Ġnot",
        "hing"
      ],
      [
        "Ġ",
        "'"
      ],
      [
        "Ġrelations",
        "hip"
      ],
      [
        "Ġhe",
        "l"
      ],
      [
        "Ġunder",
        "stand"
      ],
      [
        "al",
        "s"
      ],
      [
        "Ġtry",
        "ing"
      ],
      [
        "Ġs",
        "ing"
      ],
      [
        "Ġenjoy",
        "able"
      ],
      [
        "Ġm",
        "en"
      ],
      [
        "Ġsomew",
        "hat"
      ],
      [
        "as",
        "on"
      ],
      [
        "Ġt",
        "ruly"
      ],
      [
        "Ġstru",
        "gg"
      ],
      [
        "ent",
        "ial"
      ],
      [
        "Ġp",
        "ut"
      ],
      [
        "p",
        "er"
      ],
      [
        "Ġe",
        "l"
      ],
      [
        "Ġdec",
        "ent"
      ],
      [
        "y",
        "e"
      ],
      [
        "Ġbe",
        "h"
      ],
      [
        "Ġbel",
        "ie"
      ],
      [
        "Ġco",
        "ol"
      ],
      [
        "Ġpl",
        "ace"
      ],
      [
        "s",
        "y"
      ],
      [
        "h",
        "n"
      ],
      [
        "ra",
        "ct"
      ],
      [
        "Ġany",
        "thing"
      ],
      [
        "ib",
        "ly"
      ],
      [
        "Ġc",
        "ou"
      ],
      [
        "Ġp",
        "h"
      ],
      [
        "I",
        "n"
      ],
      [
        "Ġw",
        "ond"
      ],
      [
        "Ġfor",
        "m"
      ],
      [
        "Ġseem",
        "s"
      ],
      [
        "ĠB",
        "e"
      ],
      [
        "Ġend",
        "ing"
      ],
      [
        "ch",
        "ool"
      ],
      [
        "Ġsec",
        "ond"
      ],
      [
        "Ġt",
        "one"
      ],
      [
        "os",
        "p"
      ],
      [
        "b",
        "ably"
      ],
      [
        "Ġn",
        "ight"
      ],
      [
        "Ġt",
        "akes"
      ],
      [
        "Ġk",
        "ill"
      ],
      [
        "Ġm",
        "ar"
      ],
      [
        "Ġevery",
        "thing"
      ],
      [
        "Ġe",
        "ach"
      ],
      [
        "o",
        "k"
      ],
      [
        "Ġthem",
        "es"
      ],
      [
        "ful",
        "ly"
      ],
      [
        ")",
        "."
      ],
      [
        "Ġl",
        "ess"
      ],
      [
        "st",
        "er"
      ],
      [
        "ent",
        "ion"
      ],
      [
        "Ġpres",
        "ent"
      ],
      [
        "or",
        "n"
      ],
      [
        "Ġh",
        "our"
      ],
      [
        "Ġre",
        "le"
      ],
      [
        "âĢ",
        "ľ"
      ],
      [
        "om",
        "m"
      ],
      [
        "Ġs",
        "low"
      ],
      [
        "iv",
        "es"
      ],
      [
        "Ġw",
        "orth"
      ],
      [
        "Ġal",
        "most"
      ],
      [
        "c",
        "ess"
      ],
      [
        "Ġentertain",
        "ing"
      ],
      [
        "Ġint",
        "rig"
      ],
      [
        "Ġtran",
        "s"
      ],
      [
        "Ġs",
        "ign"
      ],
      [
        "app",
        "o"
      ],
      [
        "y",
        "n"
      ],
      [
        "ĠHow",
        "ever"
      ],
      [
        "Ġst",
        "ars"
      ],
      [
        "i",
        "ed"
      ],
      [
        "Ġm",
        "ight"
      ],
      [
        "Ġwho",
        "le"
      ],
      [
        "in",
        "ite"
      ],
      [
        "us",
        "s"
      ],
      [
        "Ġl",
        "augh"
      ],
      [
        "Ġs",
        "ure"
      ],
      [
        "ĠâĢ",
        "ľ"
      ],
      [
        "re",
        "ad"
      ],
      [
        "Ġth",
        "ree"
      ],
      [
        "Ġa",
        "c"
      ],
      [
        "a",
        "ir"
      ],
      [
        "Ġeng",
        "aging"
      ],
      [
        "Ġimpress",
        "ive"
      ],
      [
        "Ġinst",
        "ead"
      ],
      [
        "ous",
        "ly"
      ],
      [
        "u",
        "ing"
      ],
      [
        "Ġm",
        "ed"
      ],
      [
        "Ġr",
        "ather"
      ],
      [
        "Ġye",
        "ar"
      ],
      [
        "Ġp",
        "ass"
      ],
      [
        "Ġqu",
        "ality"
      ],
      [
        "Ġabs",
        "olute"
      ],
      [
        "Ġqu",
        "est"
      ],
      [
        "Ġspe",
        "cial"
      ],
      [
        "t",
        "ed"
      ],
      [
        "Ġf",
        "ull"
      ],
      [
        "Ġhel",
        "p"
      ],
      [
        "um",
        "b"
      ],
      [
        "Ġfavor",
        "ite"
      ],
      [
        "Ġb",
        "u"
      ],
      [
        "Ġ",
        "5"
      ],
      [
        "Ġdis",
        "appo"
      ],
      [
        "l",
        "and"
      ],
      [
        "Ġs",
        "ong"
      ],
      [
        "Ġpre",
        "m"
      ],
      [
        "o",
        "ice"
      ],
      [
        "Ġme",
        "an"
      ],
      [
        "ĠAmeric",
        "an"
      ],
      [
        "Ġfeel",
        "ing"
      ],
      [
        "Ġappe",
        "ars"
      ],
      [
        "Ġter",
        "ri"
      ],
      [
        "ent",
        "ly"
      ],
      [
        "Ġd",
        "ra"
      ],
      [
        "ĠR",
        "e"
      ],
      [
        "Ġcomple",
        "x"
      ],
      [
        "Ġu",
        "se"
      ],
      [
        "o",
        "x"
      ],
      [
        "es",
        "pite"
      ],
      [
        "Ġh",
        "ome"
      ],
      [
        "Ġemot",
        "ional"
      ],
      [
        "ĠâĢ",
        "ĵ"
      ],
      [
        "Ġorig",
        "inal"
      ],
      [
        "iz",
        "ed"
      ],
      [
        "Ġke",
        "ep"
      ],
      [
        "fort",
        "un"
      ],
      [
        "Ġlo",
        "ved"
      ],
      [
        "inite",
        "ly"
      ],
      [
        "Ġm",
        "ust"
      ],
      [
        "Ġl",
        "et"
      ],
      [
        "Ġfall",
        "s"
      ],
      [
        "il",
        "ity"
      ],
      [
        "ĠL",
        "e"
      ],
      [
        "Ġha",
        "ving"
      ],
      [
        "id",
        "d"
      ],
      [
        "Ġis",
        "n"
      ],
      [
        "Ġsup",
        "er"
      ],
      [
        "Ġb",
        "oy"
      ],
      [
        "Ġs",
        "ince"
      ],
      [
        "r",
        "ic"
      ],
      [
        "Ġas",
        "s"
      ],
      [
        "Ġ",
        "vers"
      ],
      [
        "as",
        "y"
      ],
      [
        "Ġide",
        "a"
      ],
      [
        "Ġd",
        "ream"
      ],
      [
        "Ġc",
        "all"
      ],
      [
        "at",
        "ter"
      ],
      [
        "are",
        "d"
      ],
      [
        "is",
        "c"
      ],
      [
        "og",
        "ue"
      ],
      [
        "ĠN",
        "ot"
      ],
      [
        "on",
        "est"
      ],
      [
        "ĠW",
        "h"
      ],
      [
        "Ġun",
        "t"
      ],
      [
        "ĠA",
        "n"
      ],
      [
        "Ġp",
        "le"
      ],
      [
        "ro",
        "ss"
      ],
      [
        "Ġapp",
        "ro"
      ],
      [
        "Ġd",
        "ial"
      ],
      [
        "Ġis",
        "s"
      ],
      [
        "Ġbe",
        "g"
      ],
      [
        "o",
        "on"
      ],
      [
        "Ġevery",
        "one"
      ],
      [
        "Ġtit",
        "le"
      ],
      [
        "Ġaw",
        "ay"
      ],
      [
        "Ġg",
        "i"
      ],
      [
        "c",
        "y"
      ],
      [
        "Ġs",
        "ad"
      ],
      [
        "Ġm",
        "aster"
      ],
      [
        "Ġsub",
        "ject"
      ],
      [
        "Ġp",
        "oss"
      ],
      [
        "Ġvi",
        "ol"
      ],
      [
        "l",
        "ight"
      ],
      [
        "Ġf",
        "asc"
      ],
      [
        "Ġre",
        "t"
      ],
      [
        "ation",
        "al"
      ],
      [
        "Ġclass",
        "ic"
      ],
      [
        "Ġs",
        "chool"
      ],
      [
        "Ġcomple",
        "te"
      ],
      [
        "m",
        "osp"
      ],
      [
        "Ġcom",
        "e"
      ],
      [
        "'",
        "ll"
      ],
      [
        "es",
        "tern"
      ],
      [
        "il",
        "i"
      ],
      [
        "s",
        "on"
      ],
      [
        "Ġg",
        "ive"
      ],
      [
        "ri",
        "pt"
      ],
      [
        "Ġgen",
        "er"
      ],
      [
        "Ġc",
        "ount"
      ],
      [
        "Ġw",
        "rit"
      ],
      [
        "Ġfilmm",
        "ak"
      ],
      [
        "ol",
        "l"
      ],
      [
        "in",
        "ess"
      ],
      [
        "Ġtr",
        "ue"
      ],
      [
        "l",
        "ine"
      ],
      [
        "Ġs",
        "we"
      ],
      [
        "Ġre",
        "ad"
      ],
      [
        "Ġat",
        "mosp"
      ],
      [
        "Ġ",
        "i"
      ],
      [
        "Ġre",
        "st"
      ],
      [
        "Ġhe",
        "ad"
      ],
      [
        "1",
        "9"
      ],
      [
        "m",
        "s"
      ],
      [
        "fortun",
        "ately"
      ],
      [
        "Ġpr",
        "ot"
      ],
      [
        "is",
        "od"
      ],
      [
        "ĠW",
        "e"
      ],
      [
        "d",
        "e"
      ],
      [
        "Ġfeat",
        "uring"
      ],
      [
        "Ġdeep",
        "ly"
      ],
      [
        "Ġst",
        "un"
      ],
      [
        "Ġin",
        "f"
      ],
      [
        "Ġp",
        "ast"
      ],
      [
        "Ġover",
        "all"
      ],
      [
        "re",
        "ci"
      ],
      [
        "u",
        "ine"
      ],
      [
        "Ġ",
        "vide"
      ],
      [
        "az",
        "ing"
      ],
      [
        "ur",
        "b"
      ],
      [
        "Ġexplo",
        "res"
      ],
      [
        "et",
        "y"
      ],
      [
        "Ġsm",
        "all"
      ],
      [
        "Ġwond",
        "er"
      ],
      [
        "Ġcinem",
        "at"
      ],
      [
        "Ġm",
        "iss"
      ],
      [
        "Ġd",
        "one"
      ],
      [
        "an",
        "n"
      ],
      [
        "Ġpro",
        "bably"
      ],
      [
        "Ġact",
        "ors"
      ],
      [
        "ent",
        "al"
      ],
      [
        "Ġintrig",
        "uing"
      ],
      [
        "Ġthr",
        "iller"
      ],
      [
        "Ġagain",
        "st"
      ],
      [
        "Ġ",
        "4"
      ],
      [
        "ĠJo",
        "hn"
      ],
      [
        "Ġcon",
        "cept"
      ],
      [
        "re",
        "ak"
      ],
      [
        "Ġf",
        "act"
      ],
      [
        "Ġp",
        "iece"
      ],
      [
        "u",
        "nd"
      ],
      [
        "The",
        "re"
      ],
      [
        "Ġinv",
        "ol"
      ],
      [
        "Ġ",
        "9"
      ],
      [
        "Ġv",
        "al"
      ],
      [
        "\"",
        ","
      ],
      [
        "Ġpre",
        "d"
      ],
      [
        "Ġg",
        "ay"
      ],
      [
        "Ġre",
        "g"
      ],
      [
        "Ġp",
        "ot"
      ],
      [
        "Ġf",
        "ant"
      ],
      [
        "m",
        "as"
      ],
      [
        "Ġs",
        "y"
      ],
      [
        "Ġvis",
        "ually"
      ],
      [
        "ill",
        "i"
      ],
      [
        "Ġm",
        "ur"
      ],
      [
        "Ġsup",
        "p"
      ],
      [
        "Ġf",
        "ight"
      ],
      [
        "Ġdeli",
        "ver"
      ],
      [
        "Ġm",
        "ix"
      ],
      [
        "Ġunt",
        "il"
      ],
      [
        "Ġwas",
        "n"
      ],
      [
        "Ġc",
        "ar"
      ],
      [
        "ch",
        "ing"
      ],
      [
        "Ġst",
        "ories"
      ],
      [
        "Ġp",
        "ain"
      ],
      [
        "Ġshow",
        "c"
      ],
      [
        "Ġw",
        "r"
      ],
      [
        "Ġs",
        "olid"
      ],
      [
        "Ġpro",
        "f"
      ],
      [
        "v",
        "o"
      ],
      [
        "am",
        "es"
      ],
      [
        "Ġmy",
        "st"
      ],
      [
        "at",
        "t"
      ],
      [
        "Ġf",
        "inal"
      ],
      [
        "ĠS",
        "p"
      ],
      [
        "Ġun",
        "s"
      ],
      [
        "Ġfasc",
        "in"
      ],
      [
        "Ġle",
        "ast"
      ],
      [
        "ĠT",
        "hat"
      ],
      [
        ".",
        "âĢĿ"
      ],
      [
        "Ġcam",
        "era"
      ],
      [
        "Ġmy",
        "self"
      ],
      [
        "Ġpower",
        "ful"
      ],
      [
        "M",
        "y"
      ],
      [
        "Ġapp",
        "reci"
      ],
      [
        "Ġcinemat",
        "ography"
      ],
      [
        "Ġgen",
        "re"
      ],
      [
        "Ġlo",
        "c"
      ],
      [
        "Ġli",
        "ves"
      ],
      [
        "ĠU",
        "n"
      ],
      [
        "vel",
        "op"
      ],
      [
        "Ġep",
        "isod"
      ],
      [
        "Ġm",
        "ind"
      ],
      [
        "Ġb",
        "or"
      ],
      [
        "are",
        "nt"
      ],
      [
        "Ġim",
        "m"
      ],
      [
        "us",
        "ing"
      ],
      [
        "Ġbl",
        "ack"
      ],
      [
        "pt",
        "h"
      ],
      [
        "Ġde",
        "ath"
      ],
      [
        "Y",
        "ou"
      ],
      [
        "rem",
        "e"
      ],
      [
        "Ġs",
        "elf"
      ],
      [
        "Ġas",
        "pect"
      ],
      [
        "a",
        "h"
      ],
      [
        "b",
        "r"
      ],
      [
        "Ġbec",
        "om"
      ],
      [
        "Ġle",
        "a"
      ],
      [
        "Ġchar",
        "ming"
      ],
      [
        "Ġwe",
        "ird"
      ],
      [
        "Ġits",
        "elf"
      ],
      [
        "Ġf",
        "an"
      ],
      [
        "Ġdial",
        "ogue"
      ],
      [
        "O",
        "ne"
      ],
      [
        "Ġprem",
        "ise"
      ],
      [
        "Ġcont",
        "ent"
      ],
      [
        "Ġfail",
        "s"
      ],
      [
        "Ġto",
        "p"
      ],
      [
        "Ġmom",
        "ent"
      ],
      [
        "Ġexplor",
        "ation"
      ],
      [
        "Ġcons",
        "id"
      ],
      [
        "t",
        "s"
      ],
      [
        "or",
        "k"
      ],
      [
        "Ġst",
        "op"
      ],
      [
        "Ġbeh",
        "ind"
      ],
      [
        "Ġgen",
        "uine"
      ],
      [
        "Ġcon",
        "ve"
      ],
      [
        "y",
        "s"
      ],
      [
        "ĠD",
        "e"
      ],
      [
        "ro",
        "p"
      ],
      [
        "Ġc",
        "ur"
      ],
      [
        "ĠS",
        "o"
      ],
      [
        "Ġlo",
        "st"
      ],
      [
        "g",
        "er"
      ],
      [
        ")",
        ","
      ],
      [
        "Ġperson",
        "al"
      ],
      [
        "Ġw",
        "ish"
      ],
      [
        "Ġ",
        "8"
      ],
      [
        "i",
        "ke"
      ],
      [
        "v",
        "is"
      ],
      [
        "N",
        "ot"
      ],
      [
        "Ġm",
        "et"
      ],
      [
        "Ġvers",
        "ion"
      ],
      [
        "i",
        "er"
      ],
      [
        "l",
        "ic"
      ],
      [
        "et",
        "t"
      ],
      [
        "Ġun",
        "f"
      ],
      [
        "u",
        "g"
      ],
      [
        "ap",
        "s"
      ],
      [
        "Ġimp",
        "ort"
      ],
      [
        "Ġst",
        "ar"
      ],
      [
        "Ġn",
        "ature"
      ],
      [
        "li",
        "ke"
      ],
      [
        "Ġel",
        "se"
      ],
      [
        "A",
        "s"
      ],
      [
        "Ġget",
        "ting"
      ],
      [
        "Ġex",
        "ec"
      ],
      [
        "Ġcon",
        "ne"
      ],
      [
        "ĠC",
        "l"
      ],
      [
        "Ġs",
        "aw"
      ],
      [
        "o",
        "ver"
      ],
      [
        "am",
        "p"
      ],
      [
        "Ġinclud",
        "ing"
      ],
      [
        "Ġdes",
        "ign"
      ],
      [
        "Ġc",
        "ertain"
      ],
      [
        "Ġli",
        "ked"
      ],
      [
        "ict",
        "ion"
      ],
      [
        "Ġatmosp",
        "here"
      ],
      [
        "he",
        "t"
      ],
      [
        "Ġbl",
        "end"
      ],
      [
        "g",
        "ic"
      ],
      [
        "Ġsa",
        "id"
      ],
      [
        "Ġcomm",
        "un"
      ],
      [
        "Ġs",
        "at"
      ],
      [
        "Ġb",
        "udget"
      ],
      [
        "ĠThe",
        "y"
      ],
      [
        "ch",
        "n"
      ],
      [
        "ĠChrist",
        "mas"
      ],
      [
        "Ġview",
        "ers"
      ],
      [
        "le",
        "ct"
      ],
      [
        "Ġthrough",
        "out"
      ],
      [
        "iz",
        "e"
      ],
      [
        "ĠB",
        "rit"
      ],
      [
        "ant",
        "ic"
      ],
      [
        "ant",
        "ly"
      ],
      [
        "Ġsee",
        "ing"
      ],
      [
        "Ġl",
        "and"
      ],
      [
        "Ġst",
        "ra"
      ],
      [
        "et",
        "s"
      ],
      [
        "Ġpol",
        "it"
      ],
      [
        "Ġe",
        "ff"
      ],
      [
        "Ġex",
        "ist"
      ],
      [
        "Ġimp",
        "act"
      ],
      [
        "n",
        "ot"
      ],
      [
        "ust",
        "r"
      ],
      [
        "it",
        "ive"
      ],
      [
        "o",
        "ke"
      ],
      [
        "Ġm",
        "el"
      ],
      [
        "Ġf",
        "uck"
      ],
      [
        "Ġins",
        "p"
      ],
      [
        "ĠF",
        "ilm"
      ],
      [
        "Ġa",
        "ut"
      ],
      [
        "Ġm",
        "is"
      ],
      [
        "ĠM",
        "ar"
      ],
      [
        "ĠA",
        "s"
      ],
      [
        "end",
        "ed"
      ],
      [
        "Ġtal",
        "e"
      ],
      [
        "Ġde",
        "pth"
      ],
      [
        "Ġsign",
        "ific"
      ],
      [
        "i",
        "vid"
      ],
      [
        "ter",
        "s"
      ],
      [
        "Ġso",
        "ci"
      ],
      [
        "Ġdef",
        "initely"
      ],
      [
        "Ġpl",
        "ays"
      ],
      [
        "rou",
        "p"
      ],
      [
        "v",
        "ol"
      ],
      [
        "Ġam",
        "azing"
      ],
      [
        "ward",
        "s"
      ],
      [
        "Ġeffective",
        "ly"
      ],
      [
        "Ġst",
        "uff"
      ],
      [
        "ĠI",
        "s"
      ],
      [
        "Ġrem",
        "em"
      ],
      [
        "Ġro",
        "le"
      ],
      [
        "it",
        "er"
      ],
      [
        "Ġcapt",
        "iv"
      ],
      [
        "ĠA",
        "r"
      ],
      [
        "ĠS",
        "he"
      ],
      [
        "a",
        "x"
      ],
      [
        "Ġwork",
        "s"
      ],
      [
        "ol",
        "ly"
      ],
      [
        "Ġj",
        "ob"
      ],
      [
        "iv",
        "al"
      ],
      [
        "Ġus",
        "ed"
      ],
      [
        "Ġm",
        "other"
      ],
      [
        "2",
        "0"
      ],
      [
        "w",
        "ay"
      ],
      [
        "or",
        "ge"
      ],
      [
        "atch",
        "ing"
      ],
      [
        "Ġst",
        "ri"
      ],
      [
        "Ġst",
        "ud"
      ],
      [
        "Ġh",
        "ouse"
      ],
      [
        "ĠS",
        "c"
      ],
      [
        "Ġle",
        "g"
      ],
      [
        "Ġs",
        "it"
      ],
      [
        "an",
        "ge"
      ],
      [
        "a",
        "pe"
      ],
      [
        "ag",
        "on"
      ],
      [
        "Ġad",
        "apt"
      ],
      [
        "ĠM",
        "an"
      ],
      [
        "um",
        "p"
      ],
      [
        "Ġj",
        "our"
      ],
      [
        "Ġlook",
        "s"
      ],
      [
        "g",
        "ed"
      ],
      [
        "Ġc",
        "ent"
      ],
      [
        "Ġc",
        "ut"
      ],
      [
        "ĠN",
        "ew"
      ],
      [
        "Ġg",
        "roup"
      ],
      [
        "Ġcom",
        "es"
      ],
      [
        "Ġlack",
        "s"
      ],
      [
        "Ġcou",
        "ple"
      ],
      [
        "k",
        "y"
      ],
      [
        "Ġon",
        "ce"
      ],
      [
        "Ġstory",
        "t"
      ],
      [
        "Ġdirect",
        "ed"
      ],
      [
        "Ġabsolute",
        "ly"
      ],
      [
        "ore",
        "d"
      ],
      [
        "in",
        "ed"
      ],
      [
        "Ġvide",
        "o"
      ],
      [
        "Ġappro",
        "ach"
      ],
      [
        "Ġfascin",
        "ating"
      ],
      [
        "z",
        "y"
      ],
      [
        "ast",
        "ic"
      ],
      [
        "ĠI",
        "f"
      ],
      [
        "Ġbelie",
        "ve"
      ],
      [
        "Ġrec",
        "omm"
      ],
      [
        "Ġgi",
        "ven"
      ],
      [
        "Ġpro",
        "vid"
      ],
      [
        "le",
        "y"
      ],
      [
        "Ġsc",
        "ript"
      ],
      [
        "Ġh",
        "ope"
      ],
      [
        "Ġex",
        "cept"
      ],
      [
        "es",
        "e"
      ],
      [
        "en",
        "ed"
      ],
      [
        "or",
        "m"
      ],
      [
        "ĠS",
        "e"
      ],
      [
        "c",
        "om"
      ],
      [
        "Ġwant",
        "ed"
      ],
      [
        "Ġc",
        "or"
      ],
      [
        "Ġf",
        "ather"
      ],
      [
        "Ġext",
        "reme"
      ],
      [
        "min",
        "ute"
      ],
      [
        "one",
        "y"
      ],
      [
        "ĠW",
        "ar"
      ],
      [
        "o",
        "f"
      ],
      [
        "Ġeffect",
        "s"
      ],
      [
        "Ġde",
        "velop"
      ],
      [
        "w",
        "ood"
      ],
      [
        "Ġeff",
        "ort"
      ],
      [
        "Ġwh",
        "ite"
      ],
      [
        "Ġshowc",
        "as"
      ],
      [
        "Ġiss",
        "ues"
      ],
      [
        "Ġm",
        "atter"
      ],
      [
        "Ġp",
        "ar"
      ],
      [
        "Ġed",
        "iting"
      ],
      [
        "om",
        "b"
      ],
      [
        "Ġlook",
        "ing"
      ],
      [
        "d",
        "d"
      ],
      [
        "n",
        "ce"
      ],
      [
        "er",
        "g"
      ],
      [
        "ul",
        "ar"
      ],
      [
        "Ġstoryt",
        "elling"
      ],
      [
        "Ġst",
        "ran"
      ],
      [
        "Ġstun",
        "ning"
      ],
      [
        "Ġshow",
        "s"
      ],
      [
        "st",
        "al"
      ],
      [
        "ĠM",
        "y"
      ],
      [
        "Ġind",
        "ivid"
      ],
      [
        "Ġchild",
        "ren"
      ],
      [
        "ar",
        "ies"
      ],
      [
        "Ġc",
        "ute"
      ],
      [
        "W",
        "h"
      ],
      [
        "Ġdo",
        "ing"
      ],
      [
        "Ġt",
        "ou"
      ],
      [
        "p",
        "ro"
      ],
      [
        "ĠT",
        "H"
      ],
      [
        "Ġcr",
        "ime"
      ],
      [
        "Ġc",
        "ame"
      ],
      [
        "ĠW",
        "hat"
      ],
      [
        "al",
        "ing"
      ],
      [
        "he",
        "l"
      ],
      [
        "Ġincred",
        "ibly"
      ],
      [
        "Ġaudi",
        "ence"
      ],
      [
        "s",
        "ide"
      ],
      [
        "Ġkid",
        "s"
      ],
      [
        "Ġb",
        "as"
      ],
      [
        "Ġv",
        "ar"
      ],
      [
        "D",
        "espite"
      ],
      [
        "is",
        "hed"
      ],
      [
        "Ġan",
        "t"
      ],
      [
        "Ġs",
        "w"
      ],
      [
        "ag",
        "es"
      ],
      [
        "ĠR",
        "ob"
      ],
      [
        "Ġindivid",
        "ual"
      ],
      [
        "ow",
        "s"
      ],
      [
        "i",
        "el"
      ],
      [
        "Ġd",
        "r"
      ],
      [
        "it",
        "al"
      ],
      [
        "Ġl",
        "ist"
      ],
      [
        "Ġbor",
        "ing"
      ],
      [
        "Ġinter",
        "view"
      ],
      [
        "Ġh",
        "onest"
      ],
      [
        "ion",
        "ally"
      ],
      [
        "ilar",
        "ious"
      ],
      [
        "Ġd",
        "ri"
      ],
      [
        "Ġple",
        "as"
      ],
      [
        "at",
        "s"
      ],
      [
        "iv",
        "ing"
      ],
      [
        "Ġmus",
        "ical"
      ],
      [
        "Ġint",
        "ense"
      ],
      [
        "Ġal",
        "ong"
      ],
      [
        "Ġcle",
        "ar"
      ],
      [
        "Ġp",
        "ur"
      ],
      [
        "os",
        "ed"
      ],
      [
        "Ġswe",
        "et"
      ],
      [
        "Ġbec",
        "ome"
      ],
      [
        "Ġwor",
        "d"
      ],
      [
        "Ġfa",
        "ce"
      ],
      [
        "Ġcomp",
        "elling"
      ],
      [
        "Ġin",
        "form"
      ],
      [
        "ili",
        "ar"
      ],
      [
        "Ġd",
        "em"
      ],
      [
        "Ġ",
        "ess"
      ],
      [
        "b",
        "udget"
      ],
      [
        "ap",
        "an"
      ],
      [
        "a",
        "vi"
      ],
      [
        "Ġset",
        "ting"
      ],
      [
        "i",
        "ally"
      ],
      [
        "Ġcould",
        "n"
      ],
      [
        "Ġto",
        "day"
      ],
      [
        "W",
        "hat"
      ],
      [
        "arr",
        "ing"
      ],
      [
        "Ġrem",
        "ains"
      ],
      [
        "Ġmo",
        "ve"
      ],
      [
        "Ġm",
        "ag"
      ],
      [
        "ic",
        "es"
      ],
      [
        "Ġf",
        "em"
      ],
      [
        "Ġrom",
        "antic"
      ],
      [
        "ĠBrit",
        "ish"
      ],
      [
        "Ġc",
        "art"
      ],
      [
        "Ġte",
        "chn"
      ],
      [
        "Ġmo",
        "der"
      ],
      [
        "ri",
        "ef"
      ],
      [
        "Ġother",
        "s"
      ],
      [
        "Ġh",
        "old"
      ],
      [
        "Ġc",
        "rit"
      ],
      [
        "t",
        "ime"
      ],
      [
        "Ġhist",
        "or"
      ],
      [
        "Ġfa",
        "ir"
      ],
      [
        "Ġhigh",
        "light"
      ],
      [
        "Ġgo",
        "es"
      ],
      [
        "ow",
        "ing"
      ],
      [
        "Ġpot",
        "ential"
      ],
      [
        "Ġsim",
        "ple"
      ],
      [
        "i",
        "et"
      ],
      [
        "ac",
        "ed"
      ],
      [
        "n",
        "a"
      ],
      [
        "Ġview",
        "ing"
      ],
      [
        "on",
        "y"
      ],
      [
        "ot",
        "t"
      ],
      [
        "Ġdes",
        "c"
      ],
      [
        "Ġw",
        "ent"
      ],
      [
        "y",
        "es"
      ],
      [
        "Ġp",
        "sy"
      ],
      [
        "Ġcon",
        "st"
      ],
      [
        "Ġo",
        "cc"
      ],
      [
        "im",
        "p"
      ],
      [
        "Ġcinem",
        "atic"
      ],
      [
        "u",
        "se"
      ],
      [
        "Ġ",
        "z"
      ],
      [
        "ĠB",
        "r"
      ],
      [
        "Ġwor",
        "st"
      ],
      [
        "Ġf",
        "ore"
      ],
      [
        "Ġhe",
        "av"
      ],
      [
        "t",
        "ra"
      ],
      [
        "it",
        "her"
      ],
      [
        "Ġh",
        "ilarious"
      ],
      [
        "ol",
        "es"
      ],
      [
        "Ġ1",
        "0"
      ],
      [
        "Ġre",
        "ason"
      ],
      [
        "Ġno",
        "stal"
      ],
      [
        "u",
        "be"
      ],
      [
        "in",
        "ting"
      ],
      [
        "pect",
        "ive"
      ],
      [
        "ac",
        "es"
      ],
      [
        "eri",
        "ous"
      ],
      [
        "Ġshot",
        "s"
      ],
      [
        "b",
        "ut"
      ],
      [
        "c",
        "hes"
      ],
      [
        "l",
        "ish"
      ],
      [
        "Ġcom",
        "ing"
      ],
      [
        "Ġhim",
        "self"
      ],
      [
        "Ġb",
        "ased"
      ],
      [
        "Ġp",
        "op"
      ],
      [
        "un",
        "ch"
      ],
      [
        "ac",
        "ing"
      ],
      [
        "Ġany",
        "one"
      ],
      [
        "Ġm",
        "or"
      ],
      [
        "Ġpro",
        "ject"
      ],
      [
        "ag",
        "ed"
      ],
      [
        "h",
        "ood"
      ],
      [
        "Ġn",
        "on"
      ],
      [
        "m",
        "y"
      ],
      [
        "Ġmo",
        "ving"
      ],
      [
        "u",
        "c"
      ],
      [
        "Ġcomplete",
        "ly"
      ],
      [
        "ure",
        "d"
      ],
      [
        "olog",
        "y"
      ],
      [
        "ell",
        "ent"
      ],
      [
        "ĠJ",
        "apan"
      ],
      [
        "Ġbecom",
        "es"
      ],
      [
        "s",
        "h"
      ],
      [
        "or",
        "ough"
      ],
      [
        "Ġwith",
        "in"
      ],
      [
        "s",
        "el"
      ],
      [
        "Ġdire",
        "ction"
      ],
      [
        "Ġact",
        "or"
      ],
      [
        "Ġprot",
        "agon"
      ],
      [
        "Ġ",
        "ult"
      ],
      [
        "or",
        "able"
      ],
      [
        "Ġcount",
        "ry"
      ],
      [
        "Ġmoder",
        "n"
      ],
      [
        "ĠO",
        "ne"
      ],
      [
        "on",
        "es"
      ],
      [
        "le",
        "ction"
      ],
      [
        "Ġstra",
        "ight"
      ],
      [
        "Ġfollow",
        "s"
      ],
      [
        "Ġb",
        "ook"
      ],
      [
        "Ġw",
        "a"
      ],
      [
        "Ġb",
        "ra"
      ],
      [
        "Ġcont",
        "in"
      ],
      [
        "e",
        "k"
      ],
      [
        "Ġo",
        "pp"
      ],
      [
        "ar",
        "re"
      ],
      [
        "ud",
        "e"
      ],
      [
        "ict",
        "able"
      ],
      [
        "Ġmost",
        "ly"
      ],
      [
        "em",
        "ent"
      ],
      [
        "Ġso",
        "cial"
      ],
      [
        "Ġjour",
        "ney"
      ],
      [
        "Ġv",
        "oice"
      ],
      [
        "itt",
        "en"
      ],
      [
        "re",
        "w"
      ],
      [
        "Ġchar",
        "m"
      ],
      [
        "ct",
        "or"
      ],
      [
        "Ġterri",
        "ble"
      ],
      [
        "ri",
        "ed"
      ],
      [
        "Ġanim",
        "ated"
      ],
      [
        "Ġf",
        "ut"
      ],
      [
        "Ġplay",
        "ing"
      ],
      [
        "im",
        "ately"
      ],
      [
        "Ġc",
        "op"
      ],
      [
        "Ġvisual",
        "s"
      ],
      [
        "Ġch",
        "all"
      ],
      [
        "Ġsing",
        "le"
      ],
      [
        "Ġrem",
        "ind"
      ],
      [
        "v",
        "in"
      ],
      [
        "t",
        "o"
      ],
      [
        "Ġmess",
        "age"
      ],
      [
        "ic",
        "ult"
      ],
      [
        "Ġtal",
        "ent"
      ],
      [
        "Ġli",
        "ving"
      ],
      [
        "Ġsim",
        "ilar"
      ],
      [
        "ĠG",
        "od"
      ],
      [
        "Ġdo",
        "g"
      ],
      [
        "w",
        "ar"
      ],
      [
        "ren",
        "ch"
      ],
      [
        "eng",
        "th"
      ],
      [
        "i",
        "ent"
      ],
      [
        "Ġcl",
        "ose"
      ],
      [
        "Ġl",
        "iter"
      ],
      [
        "Ġstart",
        "s"
      ],
      [
        "ill",
        "ed"
      ],
      [
        "Ġremem",
        "ber"
      ],
      [
        "Ġle",
        "arn"
      ],
      [
        "Ġf",
        "ul"
      ],
      [
        "or",
        "ld"
      ],
      [
        "Ġmur",
        "der"
      ],
      [
        "ot",
        "ic"
      ],
      [
        "ĠC",
        "an"
      ],
      [
        "7",
        "0"
      ],
      [
        "sel",
        "ves"
      ],
      [
        "Ġsu",
        "cc"
      ],
      [
        "Ġob",
        "s"
      ],
      [
        "Ġ",
        "era"
      ],
      [
        "an",
        "k"
      ],
      [
        "Ġw",
        "ild"
      ],
      [
        "re",
        "al"
      ],
      [
        "i",
        "o"
      ],
      [
        "Ġsub",
        "t"
      ],
      [
        "us",
        "ion"
      ],
      [
        "ok",
        "es"
      ],
      [
        "W",
        "e"
      ],
      [
        "Ġ",
        "Q"
      ],
      [
        "Ġquest",
        "ion"
      ],
      [
        "ri",
        "ght"
      ],
      [
        "Ġs",
        "le"
      ],
      [
        "Ġd",
        "ays"
      ],
      [
        "Ġfam",
        "iliar"
      ],
      [
        "Ġ",
        "Z"
      ],
      [
        "Ġdiff",
        "icult"
      ],
      [
        "Ġbu",
        "ild"
      ],
      [
        "Ġtw",
        "ist"
      ],
      [
        "Ġdist",
        "urb"
      ],
      [
        "Ġexpect",
        "ations"
      ],
      [
        "S",
        "t"
      ],
      [
        "Ġt",
        "yp"
      ],
      [
        "Ġcult",
        "ure"
      ],
      [
        "Ġpro",
        "p"
      ],
      [
        "Ġw",
        "ife"
      ],
      [
        "Ġb",
        "and"
      ],
      [
        "Ġrecomm",
        "end"
      ],
      [
        "ud",
        "d"
      ],
      [
        "Ġb",
        "o"
      ],
      [
        "Ġpro",
        "ble"
      ],
      [
        "olly",
        "wood"
      ],
      [
        "Ġm",
        "ult"
      ],
      [
        "Ġcaptiv",
        "ating"
      ],
      [
        "en",
        "n"
      ],
      [
        "Ġm",
        "ot"
      ],
      [
        "Ġne",
        "xt"
      ],
      [
        "f",
        "ying"
      ],
      [
        "ot",
        "e"
      ],
      [
        "Ġp",
        "ict"
      ],
      [
        "Ġth",
        "orough"
      ],
      [
        "Ġto",
        "wards"
      ],
      [
        "idd",
        "le"
      ],
      [
        "un",
        "k"
      ],
      [
        "vi",
        "ous"
      ],
      [
        "Ġmyst",
        "ery"
      ],
      [
        "in",
        "ning"
      ],
      [
        "Ġl",
        "ater"
      ],
      [
        "Ġbr",
        "ing"
      ],
      [
        "Ġimport",
        "ant"
      ],
      [
        "ian",
        "s"
      ],
      [
        "p",
        "ar"
      ],
      [
        "l",
        "in"
      ],
      [
        "ur",
        "d"
      ],
      [
        "Ġde",
        "ad"
      ],
      [
        "el",
        "s"
      ],
      [
        "Ġw",
        "rong"
      ],
      [
        "Ġinv",
        "est"
      ],
      [
        "Ġextreme",
        "ly"
      ],
      [
        "Ġto",
        "ld"
      ],
      [
        "Ġle",
        "vel"
      ],
      [
        "Ġh",
        "om"
      ],
      [
        "Ġf",
        "ig"
      ],
      [
        "in",
        "ation"
      ],
      [
        "Ġde",
        "v"
      ],
      [
        ",",
        "\""
      ],
      [
        "Ġcom",
        "b"
      ],
      [
        "ĠA",
        "ll"
      ],
      [
        "Ġtell",
        "s"
      ],
      [
        "Ġex",
        "am"
      ],
      [
        "at",
        "ural"
      ],
      [
        "Ġatt",
        "ention"
      ],
      [
        "Ġviol",
        "ence"
      ],
      [
        "W",
        "hen"
      ],
      [
        "Ġl",
        "ar"
      ],
      [
        "Ġw",
        "al"
      ],
      [
        "Ġre",
        "ve"
      ],
      [
        "on",
        "ic"
      ],
      [
        "ĠN",
        "o"
      ],
      [
        "Ġdeli",
        "vers"
      ],
      [
        "Ġcomed",
        "ic"
      ],
      [
        "Ġ",
        "ident"
      ],
      [
        "ĠI",
        "nd"
      ],
      [
        "Ġp",
        "ri"
      ],
      [
        "er",
        "n"
      ],
      [
        "Ġexpect",
        "ed"
      ],
      [
        "Ġfilmm",
        "aking"
      ],
      [
        "Ġem",
        "b"
      ],
      [
        "Ġcare",
        "er"
      ],
      [
        "er",
        "man"
      ],
      [
        "Ġb",
        "reak"
      ],
      [
        "Ġincred",
        "ible"
      ],
      [
        "ĠA",
        "f"
      ],
      [
        "r",
        "up"
      ],
      [
        "Ġdet",
        "ail"
      ],
      [
        "E",
        "R"
      ],
      [
        "Ġtoo",
        "k"
      ],
      [
        "g",
        "round"
      ],
      [
        "is",
        "ing"
      ],
      [
        "im",
        "ate"
      ],
      [
        "Ġe",
        "yes"
      ],
      [
        "Ġn",
        "um"
      ],
      [
        "Ġ9",
        "0"
      ],
      [
        "Ġan",
        "n"
      ],
      [
        "T",
        "ube"
      ],
      [
        "Ġd",
        "ull"
      ],
      [
        "b",
        "all"
      ],
      [
        "Ġrom",
        "ance"
      ],
      [
        "Ġsp",
        "ir"
      ],
      [
        "Ġc",
        "our"
      ],
      [
        "Ġexc",
        "ellent"
      ],
      [
        "pp",
        "ed"
      ],
      [
        "Ġoff",
        "ers"
      ],
      [
        "Ġact",
        "ual"
      ],
      [
        "Ġplay",
        "ed"
      ],
      [
        "m",
        "b"
      ],
      [
        "ĠF",
        "rench"
      ],
      [
        "Ġshort",
        "s"
      ],
      [
        "Ġwrit",
        "ing"
      ],
      [
        "Ġl",
        "ate"
      ],
      [
        "itt",
        "ing"
      ],
      [
        "ark",
        "able"
      ],
      [
        "Ġsucc",
        "ess"
      ],
      [
        "Ġex",
        "act"
      ],
      [
        "Ġf",
        "our"
      ],
      [
        "Ġdes",
        "er"
      ],
      [
        "Ġdisappo",
        "inting"
      ],
      [
        "ĠE",
        "ng"
      ],
      [
        "Ġrem",
        "in"
      ],
      [
        "Ġprotagon",
        "ist"
      ],
      [
        "Ġto",
        "wn"
      ],
      [
        "ĠYou",
        "Tube"
      ],
      [
        "al",
        "th"
      ],
      [
        "Ġs",
        "ens"
      ],
      [
        "at",
        "or"
      ],
      [
        "Ġreal",
        "ity"
      ],
      [
        "Ġappreci",
        "ate"
      ],
      [
        "a",
        "j"
      ],
      [
        "ram",
        "a"
      ],
      [
        "ex",
        "t"
      ],
      [
        "l",
        "er"
      ],
      [
        "Ġn",
        "ame"
      ],
      [
        "Ġfut",
        "ure"
      ],
      [
        "ens",
        "ion"
      ],
      [
        "Ġb",
        "i"
      ],
      [
        "Ġhistor",
        "ical"
      ],
      [
        "h",
        "ost"
      ],
      [
        "Ġb",
        "al"
      ],
      [
        "Ġf",
        "ram"
      ],
      [
        "k",
        "ay"
      ],
      [
        "Ġthorough",
        "ly"
      ],
      [
        "Ġtra",
        "d"
      ],
      [
        "Ġpred",
        "ictable"
      ],
      [
        "Ġb",
        "ody"
      ],
      [
        "Ġtal",
        "king"
      ],
      [
        "ill",
        "ing"
      ],
      [
        "b",
        "y"
      ],
      [
        "pl",
        "ay"
      ],
      [
        "Ġpo",
        "st"
      ],
      [
        "read",
        "y"
      ],
      [
        "ot",
        "s"
      ],
      [
        "Ġqu",
        "ick"
      ],
      [
        "Ġ",
        "6"
      ],
      [
        "un",
        "g"
      ],
      [
        "in",
        "ing"
      ],
      [
        "art",
        "ed"
      ],
      [
        "Ġse",
        "ver"
      ],
      [
        "Ġpsy",
        "ch"
      ],
      [
        "ur",
        "y"
      ],
      [
        "Ġ",
        "ut"
      ],
      [
        "Ġmel",
        "od"
      ],
      [
        "ĠF",
        "ran"
      ],
      [
        "Ġadapt",
        "ation"
      ],
      [
        "om",
        "p"
      ],
      [
        "Ġch",
        "ang"
      ],
      [
        "Ġins",
        "ight"
      ],
      [
        "Ġstran",
        "ge"
      ],
      [
        "ne",
        "w"
      ],
      [
        "C",
        "h"
      ],
      [
        "Ġsh",
        "it"
      ],
      [
        "Ġph",
        "ot"
      ],
      [
        "Ġre",
        "ce"
      ],
      [
        "Ġst",
        "re"
      ],
      [
        "Ġexp",
        "ress"
      ],
      [
        "c",
        "er"
      ],
      [
        "ut",
        "h"
      ],
      [
        "el",
        "ess"
      ],
      [
        "Ġvar",
        "ious"
      ],
      [
        "p",
        "or"
      ],
      [
        "ar",
        "l"
      ],
      [
        "Ġro",
        "om"
      ],
      [
        "Ġun",
        "ex"
      ],
      [
        "iz",
        "arre"
      ],
      [
        "Ġc",
        "red"
      ],
      [
        "Ġl",
        "im"
      ],
      [
        "ar",
        "ch"
      ],
      [
        "id",
        "es"
      ],
      [
        "pect",
        "ed"
      ],
      [
        "Ġal",
        "ready"
      ],
      [
        "Ġepisod",
        "e"
      ],
      [
        "Ġfilmmak",
        "ers"
      ],
      [
        "Ġv",
        "ill"
      ],
      [
        "Ġcre",
        "ate"
      ],
      [
        "Ġappe",
        "ar"
      ],
      [
        "Ġsever",
        "al"
      ],
      [
        "Ġag",
        "o"
      ],
      [
        "ĠD",
        "on"
      ],
      [
        "ip",
        "le"
      ],
      [
        "tra",
        "ck"
      ],
      [
        "re",
        "aking"
      ],
      [
        "Ġw",
        "on"
      ],
      [
        "Ġdisc",
        "uss"
      ],
      [
        "th",
        "ough"
      ],
      [
        "Ġev",
        "ents"
      ],
      [
        "pp",
        "ing"
      ],
      [
        "I",
        "N"
      ],
      [
        "Ġm",
        "ark"
      ],
      [
        "er",
        "im"
      ],
      [
        "Ġwork",
        "ing"
      ],
      [
        "Ġha",
        "un"
      ],
      [
        "at",
        "ched"
      ],
      [
        "iv",
        "ed"
      ],
      [
        "Ġad",
        "m"
      ],
      [
        "ct",
        "ed"
      ],
      [
        "ĠA",
        "t"
      ],
      [
        "b",
        "s"
      ],
      [
        "Ġexp",
        "erim"
      ],
      [
        "Ġsu",
        "ff"
      ],
      [
        "ut",
        "ed"
      ],
      [
        "Ã",
        "©"
      ],
      [
        "ou",
        "l"
      ],
      [
        "Ġte",
        "en"
      ],
      [
        "out",
        "h"
      ],
      [
        "ĠP",
        "l"
      ],
      [
        "ĠD",
        "a"
      ],
      [
        "augh",
        "ter"
      ],
      [
        "Ġw",
        "estern"
      ],
      [
        "ĠS",
        "ome"
      ],
      [
        "Ġes",
        "c"
      ],
      [
        "ĠF",
        "or"
      ],
      [
        "it",
        "ch"
      ],
      [
        "Ġbeautiful",
        "ly"
      ],
      [
        "ke",
        "y"
      ],
      [
        "Ġb",
        "ro"
      ],
      [
        "Ġe",
        "asy"
      ],
      [
        "end",
        "ing"
      ],
      [
        "us",
        "ed"
      ],
      [
        "f",
        "riend"
      ],
      [
        "Ġm",
        "ater"
      ],
      [
        "ĠH",
        "all"
      ],
      [
        "o",
        "le"
      ],
      [
        "Ġhour",
        "s"
      ],
      [
        "Ġsc",
        "ore"
      ],
      [
        "Ġsurpris",
        "ingly"
      ],
      [
        "Ġpro",
        "g"
      ],
      [
        "iz",
        "ing"
      ],
      [
        "het",
        "ic"
      ],
      [
        "Ġb",
        "izarre"
      ],
      [
        "ĠT",
        "V"
      ],
      [
        "al",
        "ian"
      ],
      [
        "Ġremin",
        "isc"
      ],
      [
        "Ġpers",
        "pective"
      ],
      [
        "Ġ20",
        "1"
      ],
      [
        "Ġs",
        "ide"
      ],
      [
        "Ġgreat",
        "est"
      ],
      [
        "h",
        "or"
      ],
      [
        "ust",
        "er"
      ],
      [
        "Ġp",
        "at"
      ],
      [
        "Ġmean",
        "ing"
      ],
      [
        "Ġam",
        "b"
      ],
      [
        "Ġsound",
        "track"
      ],
      [
        "Ġful",
        "ly"
      ],
      [
        "Ġc",
        "ry"
      ],
      [
        "e",
        "ed"
      ],
      [
        "Ġdisturb",
        "ing"
      ],
      [
        "Ġc",
        "at"
      ],
      [
        "Ġs",
        "us"
      ],
      [
        "ab",
        "y"
      ],
      [
        "Ġdisappo",
        "int"
      ],
      [
        "Ġgenuine",
        "ly"
      ],
      [
        "Ġl",
        "ine"
      ],
      [
        "Ġsil",
        "ent"
      ],
      [
        "Ġimag",
        "es"
      ],
      [
        "Ġattempt",
        "s"
      ],
      [
        "Ġreminisc",
        "ent"
      ],
      [
        "Ġsur",
        "vi"
      ],
      [
        "Ġfem",
        "ale"
      ],
      [
        "Ġstart",
        "ed"
      ],
      [
        "Ġsoci",
        "ety"
      ],
      [
        "Ġch",
        "ange"
      ],
      [
        "Ġs",
        "ent"
      ],
      [
        "ir",
        "c"
      ],
      [
        "Ġpart",
        "s"
      ],
      [
        "end",
        "s"
      ],
      [
        "i",
        "od"
      ],
      [
        "Ġult",
        "imately"
      ],
      [
        "Ġp",
        "arent"
      ],
      [
        "Ġc",
        "ity"
      ],
      [
        "U",
        "n"
      ],
      [
        "Ġthem",
        "selves"
      ],
      [
        "Ġmater",
        "ial"
      ],
      [
        "Ġres",
        "ult"
      ],
      [
        "t",
        "on"
      ],
      [
        "ĠL",
        "ove"
      ],
      [
        "id",
        "ed"
      ],
      [
        "Ġper",
        "iod"
      ],
      [
        "ro",
        "du"
      ],
      [
        "Ġfl",
        "aw"
      ],
      [
        "Ġf",
        "ans"
      ],
      [
        "c",
        "l"
      ],
      [
        "ron",
        "t"
      ],
      [
        "Ġexec",
        "ution"
      ],
      [
        "ill",
        "s"
      ],
      [
        "e",
        "le"
      ],
      [
        "Ġm",
        "iddle"
      ],
      [
        "âĢ",
        "Ķ"
      ],
      [
        "Ġsomet",
        "imes"
      ],
      [
        "Ġev",
        "ent"
      ],
      [
        "re",
        "nt"
      ],
      [
        "Ġf",
        "r"
      ],
      [
        "Ġup",
        "on"
      ],
      [
        "Ġh",
        "ot"
      ],
      [
        "ris",
        "on"
      ],
      [
        "Ġmult",
        "iple"
      ],
      [
        "Ġuns",
        "ett"
      ],
      [
        "Ġf",
        "ine"
      ],
      [
        "vo",
        "king"
      ],
      [
        "ak",
        "en"
      ],
      [
        "Ġhapp",
        "y"
      ],
      [
        "Ġw",
        "ays"
      ],
      [
        "est",
        "ival"
      ],
      [
        "art",
        "h"
      ],
      [
        "w",
        "hel"
      ],
      [
        "Ġcont",
        "r"
      ],
      [
        "Ġwonder",
        "ful"
      ],
      [
        "Ġcreat",
        "ive"
      ],
      [
        "Ġchall",
        "eng"
      ],
      [
        "Ġdel",
        "ight"
      ],
      [
        "m",
        "a"
      ],
      [
        "Ġd",
        "i"
      ],
      [
        "v",
        "al"
      ],
      [
        "Ġf",
        "ree"
      ],
      [
        "T",
        "h"
      ],
      [
        "ĠH",
        "ollywood"
      ],
      [
        "Ġk",
        "new"
      ],
      [
        "o",
        "ff"
      ],
      [
        "Ġsp",
        "ace"
      ],
      [
        "ĠTH",
        "E"
      ],
      [
        "Ġb",
        "us"
      ],
      [
        "Ġc",
        "ap"
      ],
      [
        "res",
        "ent"
      ],
      [
        "Ġcom",
        "ment"
      ],
      [
        "o",
        "vie"
      ],
      [
        "Ġconne",
        "ction"
      ],
      [
        "Ġemot",
        "ions"
      ],
      [
        "Ġ8",
        "0"
      ],
      [
        "y",
        "ond"
      ],
      [
        "er",
        "ous"
      ],
      [
        "Ġdocument",
        "aries"
      ],
      [
        "Ġ20",
        "2"
      ],
      [
        "w",
        "h"
      ],
      [
        "on",
        "t"
      ],
      [
        "âĢ",
        "¦"
      ],
      [
        "Ġan",
        "g"
      ],
      [
        "Ġrelationship",
        "s"
      ],
      [
        "Ġpres",
        "ents"
      ],
      [
        "Ġcam",
        "p"
      ],
      [
        "p",
        "iece"
      ],
      [
        "end",
        "er"
      ],
      [
        "Ġle",
        "ave"
      ],
      [
        "Ġac",
        "ross"
      ],
      [
        "ĠM",
        "e"
      ],
      [
        "ĠE",
        "very"
      ],
      [
        "in",
        "a"
      ],
      [
        "Ġg",
        "ame"
      ],
      [
        "pro",
        "voking"
      ],
      [
        "Ġt",
        "reat"
      ],
      [
        "ard",
        "s"
      ],
      [
        "Ġop",
        "ening"
      ],
      [
        "m",
        "ed"
      ],
      [
        "Ġsurpris",
        "ed"
      ],
      [
        "c",
        "o"
      ],
      [
        "gg",
        "est"
      ],
      [
        "Ġsignific",
        "ant"
      ],
      [
        "Ġfor",
        "get"
      ],
      [
        "Ġpro",
        "cess"
      ],
      [
        "Ġpo",
        "ign"
      ],
      [
        "Ġcont",
        "ext"
      ],
      [
        "Ġbr",
        "other"
      ],
      [
        "Ġbl",
        "ood"
      ],
      [
        "is",
        "ter"
      ],
      [
        "Ġfor",
        "g"
      ],
      [
        "l",
        "u"
      ],
      [
        "ver",
        "se"
      ],
      [
        "m",
        "p"
      ],
      [
        "Ġfant",
        "astic"
      ],
      [
        "Ġp",
        "os"
      ],
      [
        "al",
        "d"
      ],
      [
        "Ġcol",
        "or"
      ],
      [
        "Ġtal",
        "k"
      ],
      [
        "Ġstrugg",
        "les"
      ],
      [
        "Ġsu",
        "ggest"
      ],
      [
        "ant",
        "s"
      ],
      [
        "ĠW",
        "orld"
      ],
      [
        "Ġo",
        "dd"
      ],
      [
        "Ġlead",
        "s"
      ],
      [
        "Ġgra",
        "nd"
      ],
      [
        "Ġperfect",
        "ly"
      ],
      [
        "Ġsupp",
        "ort"
      ],
      [
        "st",
        "em"
      ],
      [
        "ĠO",
        "n"
      ],
      [
        "Ġmay",
        "be"
      ],
      [
        "Ġ",
        "ve"
      ],
      [
        "Ġfl",
        "at"
      ],
      [
        "Ġstru",
        "ct"
      ],
      [
        "hy",
        "s"
      ],
      [
        "he",
        "arted"
      ],
      [
        "Ġh",
        "ate"
      ],
      [
        "Ġfin",
        "ally"
      ],
      [
        "it",
        "ation"
      ],
      [
        "Ġc",
        "ase"
      ],
      [
        "Wh",
        "ile"
      ],
      [
        "ri",
        "b"
      ],
      [
        "Ġbr",
        "ings"
      ],
      [
        "B",
        "e"
      ],
      [
        "Ġra",
        "c"
      ],
      [
        "?",
        "\""
      ],
      [
        "Ġinvol",
        "ved"
      ],
      [
        "us",
        "h"
      ],
      [
        "Ġlea",
        "ving"
      ],
      [
        "Ġad",
        "vent"
      ],
      [
        "Ġh",
        "it"
      ],
      [
        "Ġcapt",
        "ures"
      ],
      [
        "Ġunex",
        "pected"
      ],
      [
        "Ġhe",
        "ll"
      ],
      [
        "ub",
        "lic"
      ],
      [
        "Ġa",
        "ge"
      ],
      [
        "op",
        "h"
      ],
      [
        "Ġunsett",
        "ling"
      ],
      [
        "Ġexact",
        "ly"
      ],
      [
        "y",
        "pe"
      ],
      [
        "Ġcart",
        "oon"
      ],
      [
        "Ġpoor",
        "ly"
      ],
      [
        "Ġinsp",
        "ir"
      ],
      [
        "Ġturn",
        "s"
      ],
      [
        "Ġaspect",
        "s"
      ],
      [
        "Ġs",
        "ort"
      ],
      [
        "Ġsit",
        "u"
      ],
      [
        "Ġbeaut",
        "y"
      ],
      [
        "Ġo",
        "kay"
      ],
      [
        "ĠD",
        "is"
      ],
      [
        "Ġd",
        "est"
      ],
      [
        "Ġ",
        "ill"
      ],
      [
        "Ġres",
        "on"
      ],
      [
        "an",
        "y"
      ],
      [
        "i",
        "res"
      ],
      [
        "Ġp",
        "acing"
      ],
      [
        "ĠP",
        "e"
      ],
      [
        "Ġal",
        "one"
      ],
      [
        "Ġk",
        "iller"
      ],
      [
        "Ġpoign",
        "ant"
      ],
      [
        "S",
        "ome"
      ],
      [
        "Ġb",
        "reat"
      ],
      [
        "Ġs",
        "on"
      ],
      [
        "er",
        "v"
      ],
      [
        "Ġknow",
        "n"
      ],
      [
        "Ġam",
        "using"
      ],
      [
        "ĠA",
        "m"
      ],
      [
        "Ġdep",
        "ict"
      ],
      [
        "ĠJ",
        "ack"
      ],
      [
        "Ġpres",
        "ence"
      ],
      [
        "Ġhe",
        "ro"
      ],
      [
        "Ġc",
        "ost"
      ],
      [
        "Ġm",
        "oney"
      ],
      [
        "W",
        "atching"
      ],
      [
        "Ġt",
        "ension"
      ],
      [
        "Ġf",
        "ive"
      ],
      [
        "Ġposs",
        "ible"
      ],
      [
        "ye",
        "ar"
      ],
      [
        "ĠP",
        "r"
      ],
      [
        "Ġr",
        "id"
      ],
      [
        "s",
        "es"
      ],
      [
        "Ġst",
        "e"
      ],
      [
        "b",
        "and"
      ],
      [
        "Ġturn",
        "ed"
      ],
      [
        "Ġcre",
        "ep"
      ],
      [
        "Ġcommun",
        "ity"
      ],
      [
        "Ġsil",
        "ly"
      ],
      [
        "iel",
        "d"
      ],
      [
        "Ġfl",
        "ick"
      ],
      [
        "i",
        "ra"
      ],
      [
        "Ġspir",
        "it"
      ],
      [
        "ĠD",
        "o"
      ],
      [
        "b",
        "b"
      ],
      [
        "ang",
        "u"
      ],
      [
        "Ġ3",
        "0"
      ],
      [
        "v",
        "ail"
      ],
      [
        "Ġret",
        "urn"
      ],
      [
        "Ġon",
        "es"
      ],
      [
        "Ġcra",
        "ft"
      ],
      [
        "Ġt",
        "aking"
      ],
      [
        "Ġab",
        "le"
      ],
      [
        "Ġbr",
        "illi"
      ],
      [
        "a",
        "el"
      ],
      [
        "u",
        "ge"
      ],
      [
        "Ġun",
        "e"
      ],
      [
        "ĠG",
        "erman"
      ],
      [
        "le",
        "t"
      ],
      [
        "Ġreview",
        "s"
      ],
      [
        "Ġsong",
        "s"
      ],
      [
        "Ġover",
        "ly"
      ],
      [
        "a",
        "im"
      ],
      [
        "Ġsy",
        "stem"
      ],
      [
        "ou",
        "d"
      ],
      [
        "Ġg",
        "ave"
      ],
      [
        "Ġthink",
        "ing"
      ],
      [
        "Ġlar",
        "ge"
      ],
      [
        "Ġte",
        "am"
      ],
      [
        "Ġ",
        "ic"
      ],
      [
        "Ġe",
        "ither"
      ],
      [
        "Ġin",
        "it"
      ],
      [
        "ur",
        "ning"
      ],
      [
        "c",
        "he"
      ],
      [
        "Ġs",
        "ays"
      ],
      [
        "Ġliter",
        "ally"
      ],
      [
        "Ġ",
        "er"
      ],
      [
        "Ġspe",
        "c"
      ],
      [
        "Ġqu",
        "e"
      ],
      [
        "Ġstri",
        "king"
      ],
      [
        "Ġmix",
        "ed"
      ],
      [
        "au",
        "ght"
      ],
      [
        "Ġd",
        "ance"
      ],
      [
        "ĠA",
        "d"
      ],
      [
        "ĠG",
        "e"
      ],
      [
        "ĠE",
        "x"
      ],
      [
        "Ġsequ",
        "ences"
      ],
      [
        "Ġra",
        "re"
      ],
      [
        "Ġpolit",
        "ical"
      ],
      [
        "Ġrele",
        "ase"
      ],
      [
        "p",
        "ly"
      ],
      [
        "Ġfilmmak",
        "er"
      ],
      [
        "Ġback",
        "ground"
      ],
      [
        "Ġide",
        "as"
      ],
      [
        "Ġsl",
        "ight"
      ],
      [
        "Ġg",
        "ives"
      ],
      [
        "ur",
        "t"
      ],
      [
        "ĠAmeric",
        "a"
      ],
      [
        "Ġst",
        "arring"
      ],
      [
        "us",
        "band"
      ],
      [
        "iz",
        "ation"
      ],
      [
        "o",
        "ices"
      ],
      [
        "Ġgu",
        "ess"
      ],
      [
        "Ġhapp",
        "ened"
      ],
      [
        "Ġguy",
        "s"
      ],
      [
        "Ġhigh",
        "ly"
      ],
      [
        "am",
        "n"
      ],
      [
        "now",
        "n"
      ],
      [
        "w",
        "ise"
      ],
      [
        "Ġcle",
        "ver"
      ],
      [
        "Ġmaster",
        "piece"
      ],
      [
        "Ġtri",
        "es"
      ],
      [
        "Ġsex",
        "ual"
      ],
      [
        "Ġsh",
        "oot"
      ],
      [
        "Ġrele",
        "ased"
      ],
      [
        "is",
        "es"
      ],
      [
        "Ġhe",
        "ard"
      ],
      [
        "Ġp",
        "hys"
      ],
      [
        "Ġf",
        "ell"
      ],
      [
        "Ġlike",
        "ly"
      ],
      [
        "Ġwr",
        "itten"
      ],
      [
        "r",
        "ing"
      ],
      [
        "ĠEng",
        "lish"
      ],
      [
        "Ġa",
        "est"
      ],
      [
        "Ġin",
        "n"
      ],
      [
        "Ġval",
        "ue"
      ],
      [
        "Ġart",
        "ist"
      ],
      [
        "Ġto",
        "t"
      ],
      [
        "ĠJapan",
        "ese"
      ],
      [
        "on",
        "na"
      ],
      [
        "Ġr",
        "ating"
      ],
      [
        "erg",
        "y"
      ],
      [
        "R",
        "e"
      ],
      [
        "Ġh",
        "op"
      ],
      [
        "Ġg",
        "ag"
      ],
      [
        "Ġlack",
        "ing"
      ],
      [
        "b",
        "ack"
      ],
      [
        "ress",
        "ed"
      ],
      [
        "Ġend",
        "s"
      ],
      [
        "Ġind",
        "ust"
      ],
      [
        "Ġj",
        "okes"
      ],
      [
        "Ġst",
        "ay"
      ],
      [
        "Ġshowcas",
        "ing"
      ],
      [
        "Ġprovid",
        "es"
      ],
      [
        "A",
        "l"
      ],
      [
        "ar",
        "b"
      ],
      [
        "Ġemot",
        "ionally"
      ],
      [
        "Ġword",
        "s"
      ],
      [
        "E",
        "very"
      ],
      [
        "S",
        "o"
      ],
      [
        "Ġs",
        "n"
      ],
      [
        "ĠK",
        "e"
      ],
      [
        "b",
        "ody"
      ],
      [
        "Ġst",
        "age"
      ],
      [
        "ich",
        "ael"
      ],
      [
        "Ġpict",
        "ure"
      ],
      [
        "Ġp",
        "ick"
      ],
      [
        "Ġj",
        "oy"
      ],
      [
        "ĠM",
        "ay"
      ],
      [
        "Ġabs",
        "urd"
      ],
      [
        "Ġchild",
        "hood"
      ],
      [
        "it",
        "ional"
      ],
      [
        "en",
        "e"
      ],
      [
        "Ġus",
        "ing"
      ],
      [
        "ĠRob",
        "ert"
      ],
      [
        "ĠG",
        "reat"
      ],
      [
        "Ġmed",
        "i"
      ],
      [
        "Ġf",
        "re"
      ],
      [
        "a",
        "res"
      ],
      [
        "h",
        "aps"
      ],
      [
        "Ġrep",
        "resent"
      ],
      [
        "o",
        "v"
      ],
      [
        "ri",
        "es"
      ],
      [
        "ĠE",
        "d"
      ],
      [
        "Ġb",
        "rief"
      ],
      [
        "Ġgl",
        "ad"
      ],
      [
        "Ġident",
        "ity"
      ],
      [
        "Ġconve",
        "y"
      ],
      [
        "ly",
        "ing"
      ],
      [
        "Ġg",
        "ang"
      ],
      [
        "Ġsim",
        "ply"
      ],
      [
        "Ġro",
        "ck"
      ],
      [
        "ven",
        "ge"
      ],
      [
        "war",
        "ming"
      ],
      [
        "ad",
        "es"
      ],
      [
        "Ġoff",
        "ering"
      ],
      [
        "Ġno",
        "vel"
      ],
      [
        "Ġg",
        "host"
      ],
      [
        "ch",
        "ie"
      ],
      [
        "ĠJ",
        "ames"
      ],
      [
        "g",
        "es"
      ],
      [
        "rup",
        "t"
      ],
      [
        "i",
        "k"
      ],
      [
        "Ġact",
        "ress"
      ],
      [
        "ĠJ",
        "ust"
      ],
      [
        "Ġfind",
        "s"
      ],
      [
        "Ġkind",
        "a"
      ],
      [
        "w",
        "o"
      ],
      [
        "Ġ",
        "ir"
      ],
      [
        "Ġsh",
        "ock"
      ],
      [
        "Ġset",
        "s"
      ],
      [
        "Ġindividual",
        "s"
      ],
      [
        "Ġbe",
        "yond"
      ],
      [
        "Ġme",
        "ans"
      ],
      [
        "Ġd",
        "ou"
      ],
      [
        "Ġcan",
        "not"
      ],
      [
        "Ġpass",
        "ion"
      ],
      [
        "Ġstory",
        "line"
      ],
      [
        "H",
        "e"
      ],
      [
        "Ġloc",
        "al"
      ],
      [
        "ĠT",
        "o"
      ],
      [
        "is",
        "hing"
      ],
      [
        "o",
        "ved"
      ],
      [
        "h",
        "ow"
      ],
      [
        "Ġa",
        "vail"
      ],
      [
        "Ġmem",
        "orable"
      ],
      [
        "Ġrec",
        "ently"
      ],
      [
        "and",
        "a"
      ],
      [
        "Ġpol",
        "ice"
      ],
      [
        "ĠC",
        "ar"
      ],
      [
        "Ġw",
        "it"
      ],
      [
        "Ġrec",
        "ord"
      ],
      [
        "Ġm",
        "aj"
      ],
      [
        "Ġdevelop",
        "ment"
      ],
      [
        "Ġparent",
        "s"
      ],
      [
        "Ġre",
        "vol"
      ],
      [
        "it",
        "ions"
      ],
      [
        "Ġmem",
        "ories"
      ],
      [
        "ĠBl",
        "ack"
      ],
      [
        "Ġnostal",
        "gic"
      ],
      [
        "Ġme",
        "et"
      ],
      [
        "Ġbeg",
        "inning"
      ],
      [
        "se",
        "qu"
      ],
      [
        "Ġlea",
        "ves"
      ],
      [
        "ĠR",
        "uss"
      ],
      [
        "Ġsur",
        "real"
      ],
      [
        "y",
        "l"
      ],
      [
        "Ġprom",
        "ise"
      ],
      [
        "!",
        "\""
      ],
      [
        "Ġlong",
        "er"
      ],
      [
        "Ġen",
        "ergy"
      ],
      [
        "Ġre",
        "d"
      ],
      [
        "Ġres",
        "p"
      ],
      [
        "Ġinf",
        "lu"
      ],
      [
        "an",
        "ced"
      ],
      [
        "Ġtra",
        "vel"
      ],
      [
        "Ġche",
        "ck"
      ],
      [
        "ent",
        "y"
      ],
      [
        "Ġcall",
        "ed"
      ],
      [
        "m",
        "ark"
      ],
      [
        "Ġh",
        "usband"
      ],
      [
        "Ġc",
        "irc"
      ],
      [
        "es",
        "ome"
      ],
      [
        "oo",
        "f"
      ],
      [
        "Ġdram",
        "atic"
      ],
      [
        "h",
        "ic"
      ],
      [
        "Ġcertain",
        "ly"
      ],
      [
        "Ġs",
        "um"
      ],
      [
        "olog",
        "ical"
      ],
      [
        "Ġtyp",
        "ical"
      ],
      [
        "Ġthe",
        "at"
      ],
      [
        "oo",
        "se"
      ],
      [
        "Ġap",
        "art"
      ],
      [
        "Ġsequ",
        "el"
      ],
      [
        "illi",
        "am"
      ],
      [
        "Ġch",
        "oice"
      ],
      [
        "F",
        "or"
      ],
      [
        "Ġins",
        "ane"
      ],
      [
        "un",
        "t"
      ],
      [
        "Ġwant",
        "s"
      ],
      [
        "Ġs",
        "erious"
      ],
      [
        "ip",
        "s"
      ],
      [
        "g",
        "an"
      ],
      [
        "Ġm",
        "id"
      ],
      [
        "Ġd",
        "ad"
      ],
      [
        "Ġun",
        "fortunately"
      ],
      [
        "Ġpl",
        "an"
      ],
      [
        "yn",
        "am"
      ],
      [
        "Ġinform",
        "ation"
      ],
      [
        "Ġb",
        "are"
      ],
      [
        "ress",
        "ive"
      ],
      [
        "Ġe",
        "ye"
      ],
      [
        "Ġexpect",
        "ing"
      ],
      [
        "Ġ19",
        "6"
      ],
      [
        "a",
        "ul"
      ],
      [
        "Ġfuck",
        "ing"
      ],
      [
        "Ġam",
        "ount"
      ],
      [
        "ĠS",
        "w"
      ],
      [
        "ed",
        "y"
      ],
      [
        "Ġha",
        "ven"
      ],
      [
        "rou",
        "ght"
      ],
      [
        "Ġneed",
        "ed"
      ],
      [
        "Ġprof",
        "ound"
      ],
      [
        "Ġch",
        "a"
      ],
      [
        "ĠP",
        "h"
      ],
      [
        "Ġnot",
        "able"
      ],
      [
        "Ġimp",
        "ro"
      ],
      [
        "itt",
        "y"
      ],
      [
        "l",
        "usion"
      ],
      [
[...]
