{
  "version": "1.0",
  "truncation": null,
  "padding": null,
  "added_tokens": [
    {
      "id": 0,
      "content": "<PAD>",
      "single_word": false,
      "lstrip": false,
      "rstrip": false,
      "normalized": false,
      "special": true
    },
    {
      "id": 1,
      "content": "<BOS>",
      "single_word": false,
      "lstrip": false,
      "rstrip": false,
      "normalized": false,
      "special": true
    },
    {
      "id": 2,
      "content": "<EOS>",
      "single_word": false,
      "lstrip": false,
      "rstrip": false,
      "normalized": false,
      "special": true
    },
    {
      "id": 3,
      "content": "<SYN>",
      "single_word": false,
      "lstrip": false,
      "rstrip": false,
      "normalized": false,
      "special": true
    },
    {
      "id": 4,
      "content": "<REV>",
      "single_word": false,
      "lstrip": false,
      "rstrip": false,
      "normalized": false,
      "special": true
    }
  ],
  "normalizer": null,
  "pre_tokenizer": {
    "type": "ByteLevel",
    "add_prefix_space": false,
    "trim_offsets": true,
    "use_regex": true
  },
  "post_processor": null,
  "decoder": {
    "type": "ByteLevel",
    "add_prefix_space": true,
    "trim_offsets": true,
    "use_regex": true
  },
  "model": {
    "type": "BPE",
    "dropout": null,
    "unk_token": null,
    "continuing_subword_prefix": null,
    "end_of_word_suffix": null,
    "fuse_unk": false,
    "byte_fallback": false,
    "ignore_merges": false,
    "vocab": {
      "<PAD>": 0,
      "<BOS>": 1,
      "<EOS>": 2,
      "<SYN>": 3,
      "<REV>": 4,
      "!": 5,
      "\"": 6,
      "#": 7,
      "$": 8,
      "%": 9,
      "&": 10,
      "'": 11,
      "(": 12,
      ")": 13,
      "*": 14,
      "+": 15,
      ",": 16,
      "-": 17,
      ".": 18,
      "/": 19,
      "0": 20,
      "1": 21,
      "2": 22,
      "3": 23,
      "4": 24,
      "5": 25,
      "6": 26,
      "7": 27,
      "8": 28,
      "9": 29,
      ":": 30,
      ";": 31,
      "<": 32,
      "=": 33,
      ">": 34,
      "?": 35,
      "@": 36,
      "A": 37,
      "B": 38,
      "C": 39,
      "D": 40,
      "E": 41,
      "F": 42,
      "G": 43,
      "H": 44,
      "I": 45,
      "J": 46,
      "K": 47,
      "L": 48,
      "M": 49,
      "N": 50,
      "O": 51,
      "P": 52,
      "Q": 53,
      "R": 54,
      "S": 55,
      "T": 56,
      "U": 57,
      "V": 58,
      "W": 59,
      "X": 60,
      "Y": 61,
      "Z": 62,
      "[": 63,
      "\\": 64,
      "]": 65,
      "^": 66,
      "_": 67,
      "`": 68,
      "a": 69,
      "b": 70,
      "c": 71,
      "d": 72,
      "e": 73,
      "f": 74,
      "g": 75,
      "h": 76,
      "i": 77,
      "j": 78,
      "k": 79,
      "l": 80,
      "m": 81,
      "n": 82,
      "o": 83,
      "p": 84,
      "q": 85,
      "r": 86,
      "s": 87,
      "t": 88,
      "u": 89,
      "v": 90,
      "w": 91,
      "x": 92,
      "y": 93,
      "z": 94,
      "{": 95,
      "|": 96,
      "}": 97,
      "~": 98,
      "¡": 99,
      "¢": 100,
      "£": 101,
      "¤": 102,
      "¥": 103,
      "¦": 104,
      "§": 105,
      "¨": 106,
      "©": 107,
      "ª": 108,
      "«": 109,
      "¬": 110,
      "®": 111,
      "¯": 112,
      "°": 113,
      "±": 114,
      "²": 115,
      "³": 116,
      "´": 117,
      "µ": 118,
      "¶": 119,
      "·": 120,
      "¸": 121,
      "¹": 122,
      "º": 123,
      "»": 124,
      "¼": 125,
      "½": 126,
      "¾": 127,
      "¿": 128,
      "Â": 129,
      "Ã": 130,
      "Ä": 131,
      "Å": 132,
      "Æ": 133,
      "Ç": 134,
      "È": 135,
      "É": 136,
      "Ê": 137,
      "Ë": 138,
      "Ì": 139,
      "Í": 140,
      "Î": 141,
      "Ï": 142,
      "Ð": 143,
      "Ñ": 144,
      "Ô": 145,
      "Õ": 146,
      "Ö": 147,
      "×": 148,
      "Ø": 149,
      "Ù": 150,
      "Û": 151,
      "Ý": 152,
      "à": 153,
      "á": 154,
      "â": 155,
      "ã": 156,
      "ä": 157,
      "å": 158,
      "æ": 159,
      "ç": 160,
      "è": 161,
      "é": 162,
      "ê": 163,
      "ë": 164,
      "ì": 165,
      "í": 166,
      "ï": 167,
      "ð": 168,
      "ó": 169,
      "Ġ": 170,
      "ġ": 171,
      "Ģ": 172,
      "ģ": 173,
      "Ĥ": 174,
      "ĥ": 175,
      "Ħ": 176,
      "ħ": 177,
      "Ĩ": 178,
      "ĩ": 179,
      "Ī": 180,
      "ī": 181,
      "Ĭ": 182,
      "ĭ": 183,
      "Į": 184,
      "į": 185,
      "İ": 186,
      "ı": 187,
      "Ĳ": 188,
      "ĳ": 189,
      "Ĵ": 190,
      "ĵ": 191,
      "Ķ": 192,
      "ķ": 193,
      "ĸ": 194,
      "Ĺ": 195,
      "ĺ": 196,
      "Ļ": 197,
      "ļ": 198,
      "Ľ": 199,
      "ľ": 200,
      "Ŀ": 201,
      "ŀ": 202,
      "Ł": 203,
      "ł": 204,
      "Ń": 205,
      "Ġt": 206,
      "Ġa": 207,
      "he": 208,
      "in": 209,
      "Ġthe": 210,
      "Ġs": 211,
      "er": 212,
      "Ġo": 213,
      "re": 214,
      "is": 215,
      "Ġw": 216,
      "nd": 217,
      "Ġf": 218,
      "Ġb": 219,
      "at": 220,
      "it": 221,
      "es": 222,
      "ing": 223,
      "en": 224,
      "Ġc": 225,
      "Ġm": 226,
      "on": 227,
      "or": 228,
      "an": 229,
      "Ġh": 230,
      "Ġof": 231,
      "ar": 232,
      "ou": 233,
      "Ġand": 234,
      "al": 235,
      "Ġto": 236,
      "Ġd": 237,
      "Ġp": 238,
      "ed": 239,
      "Ġin": 240,
      "Ġl": 241,
      "Ġth": 242,
      "il": 243,
      "om": 244,
      "as": 245,
      "ic": 246,
      "ly": 247,
      "Ġg": 248,
      "Ġe": 249,
      "le": 250,
      "ut": 251,
      "st": 252,
      "Ġis": 253,
      "Ġhe": 254,
      "ĠT": 255,
      "ĠI": 256,
      "ent": 257,
      "et": 258,
      "ot": 259,
      "ve": 260,
      "ion": 261,
      "Ġn": 262,
      "ĠA": 263,
      "Ġre": 264,
      "im": 265,
      "ct": 266,
      "Ġon": 267,
      "el": 268,
      "ow": 269,
      "Ġst": 270,
      "ra": 271,
      "Ġbe": 272,
      "ol": 273,
      "ver": 274,
      "Ġit": 275,
      "ir": 276,
      "RE": 277,
      "Ġ<": 278,
      "SY": 279,
      "REV": 280,
      "SYN": 281,
      "ith": 282,
      "id": 283,
      "gh": 284,
      "Ġwh": 285,
      "âĢ": 286,
      "ĠS": 287,
      "ch": 288,
      "ur": 289,
      "un": 290,
      "ad": 291,
      "am": 292,
      "Ġfor": 293,
      "Ġwith": 294,
      "Ġthat": 295,
      "ay": 296,
      "ri": 297,
      "Ġhis": 298,
      "Ġan": 299,
      "'s": 300,
      "ter": 301,
      "ce": 302,
      "ro": 303,
      "us": 304,
      "Ġmo": 305,
      "ĠB": 306,
      "Ġas": 307,
      "ak": 308,
      "ĠM": 309,
      "Ġy": 310,
      "Ġli": 311,
      "Ġthis": 312,
      "ĠC": 313,
      "ul": 314,
      "her": 315,
      "ĠThe": 316,
      "ilm": 317,
      "ie": 318,
      "Ġal": 319,
      "ĠW": 320,
      "Ġse": 321,
      "ck": 322,
      "se": 323,
      "Ġfilm": 324,
      "ill": 325,
      "ĠH": 326,
      "âĢĻ": 327,
      "oo": 328,
      "Ġher": 329,
      "est": 330,
      "ag": 331,
      "rom": 332,
      "Ġbut": 333,
      "ld": 334,
      "Ġwas": 335,
      "Ġsh": 336,
      "Ġde": 337,
      "and": 338,
      "ers": 339,
      "ation": 340,
      "ĠD": 341,
      "Ġby": 342,
      "um": 343,
      "Ġk": 344,
      "Ġat": 345,
      "pe": 346,
      "ght": 347,
      "Ġyou": 348,
      "ist": 349,
      "em": 350,
      "up": 351,
      "Ġcom": 352,
      "ess": 353,
      "Ġv": 354,
      "ally": 355,
      "Ġch": 356,
      "Ġex": 357,
      "Ġwho": 358,
      "Ġfrom": 359,
      "ĠP": 360,
      "if": 361,
      "ĠF": 362,
      "Ġj": 363,
      "ĠL": 364,
      "art": 365,
      "out": 366,
      "ap": 367,
      "Ġab": 368,
      "Ġdo": 369,
      "ant": 370,
      "ome": 371,
      "ust": 372,
      "ĠR": 373,
      "op": 374,
      "ure": 375,
      "ort": 376,
      "Ġcon": 377,
      "Ġlo": 378,
      "ĠJ": 379,
      "ke": 380,
      "ous": 381,
      "ate": 382,
      "ind": 383,
      "ab": 384,
      "ies": 385,
      "rou": 386,
      "Ġare": 387,
      "ain": 388,
      "Ġne": 389,
      "ive": 390,
      "ĠG": 391,
      "Ġtheir": 392,
      "Ġwor": 393,
      "ĠN": 394,
      "Ġso": 395,
      "hen": 396,
      "Ġun": 397,
      "ig": 398,
      "Ġha": 399,
      "all": 400,
      "os": 401,
      "qu": 402,
      "Ġint": 403,
      "Ġone": 404,
      "Ġr": 405,
      "th": 406,
      "Ġpl": 407,
      "ell": 408,
      "Ġ(": 409,
      "fe": 410,
      "Ġnot": 411,
      "ĠE": 412,
      "ire": 413,
      "Ġmov": 414,
      "ge": 415,
      "ast": 416,
      "Ġthey": 417,
      "ity": 418,
      "ud": 419,
      "Ġle": 420,
      "ight": 421,
      "ack": 422,
      "Ġout": 423,
      "very": 424,
      "Ġpro": 425,
      "Ġme": 426,
      "Ġabout": 427,
      "ong": 428,
      "ory": 429,
      "ood": 430,
      "Ġhas": 431,
      "ore": 432,
      "ard": 433,
      "Ġman": 434,
      "Ġup": 435,
      "ĠTh": 436,
      "ime": 437,
      "ĠK": 438,
      "ĠO": 439,
      "Ġall": 440,
      "ry": 441,
      "Ġ1": 442,
      "ear": 443,
      "iv": 444,
      "Ġsc": 445,
      "ide": 446,
      "end": 447,
      "res": 448,
      "Ġshe": 449,
      "Ġhave": 450,
      "one": 451,
      "our": 452,
      "Ġlike": 453,
      "Ġhim": 454,
      "Ġmy": 455,
      "ich": 456,
      "ary": 457,
      "ould": 458,
      "..": 459,
      "Ġinto": 460,
      "'t": 461,
      "Ġfe": 462,
      "age": 463,
      "ĠIt": 464,
      "Ġact": 465,
      "ac": 466,
      "Ġmovie": 467,
      "ake": 468,
      "Ġ\"": 469,
      "are": 470,
      "Ġor": 471,
      "reat": 472,
      "ang": 473,
      "Ġsome": 474,
      "ng": 475,
      "od": 476,
      "act": 477,
      "ru": 478,
      "Ġget": 479,
      "Ġsu": 480,
      "pl": 481,
      "Ġen": 482,
      "ial": 483,
      "Ġwhen": 484,
      "ven": 485,
      "ite": 486,
      "ian": 487,
      "ne": 488,
      "ip": 489,
      "nt": 490,
      "Ġbec": 491,
      "Ġcl": 492,
      "ious": 493,
      "Ġjust": 494,
      "og": 495,
      "oy": 496,
      "Ġgo": 497,
      "ves": 498,
      "Ġmore": 499,
      "fter": 500,
      "Ġar": 501,
      "Ġlife": 502,
      "own": 503,
      "Ġcan": 504,
      "Ġthem": 505,
      "Ġwat": 506,
      "Ġdis": 507,
      "Ġim": 508,
      "ep": 509,
      "ks": 510,
      "Ġwe": 511,
      "ine": 512,
      "ice": 513,
      "ment": 514,
      "ass": 515,
      "other": 516,
      "Ġstory": 517,
      "ile": 518,
      "Ġtime": 519,
      "ame": 520,
      "wn": 521,
      "per": 522,
      "here": 523,
      "ish": 524,
      "Ġpre": 525,
      "riend": 526,
      "ĠCh": 527,
      "co": 528,
      "Ġlove": 529,
      "ĠThis": 530,
      "ance": 531,
      "Ġtra": 532,
      "Ġits": 533,
      "ĠIn": 534,
      "ence": 535,
      "Ġtw": 536,
      "pt": 537,
      "mer": 538,
      "itt": 539,
      "ical": 540,
      "av": 541,
      "Ġwhat": 542,
      "ily": 543,
      "Ġsp": 544,
      "iz": 545,
      "Ġfind": 546,
      "ther": 547,
      "able": 548,
      "een": 549,
      "ff": 550,
      "Ġper": 551,
      "ĠY": 552,
      "ost": 553,
      "urn": 554,
      "Ġqu": 555,
      "Ġinter": 556,
      "cc": 557,
      "Ġwhich": 558,
      "ays": 559,
      "Ġag": 560,
      "nder": 561,
      "king": 562,
      "ĠâĢ": 563,
      "ild": 564,
      "Ġad": 565,
      "ia": 566,
      "Ġover": 567,
      "Ġyoung": 568,
      "Ġra": 569,
      "Ġwom": 570,
      "elf": 571,
      "ace": 572,
      "use": 573,
      "ble": 574,
      "orm": 575,
      "Ġfam": 576,
      "Ġhow": 577,
      "ran": 578,
      "Ġyear": 579,
      "Ġpe": 580,
      "ated": 581,
      "ult": 582,
      "ful": 583,
      "rough": 584,
      "ings": 585,
      "ĠV": 586,
      "ick": 587,
      "Ġbet": 588,
      "Ġchar": 589,
      "oll": 590,
      "hing": 591,
      "Ġno": 592,
      "der": 593,
      "Ġ19": 594,
      "Ġoff": 595,
      "akes": 596,
      "Ġcomp": 597,
      "irst": 598,
      "so": 599,
      "Ġthere": 600,
      "ict": 601,
      "ber": 602,
      "ĠSt": 603,
      "Ġonly": 604,
      "Ġro": 605,
      "Ġkn": 606,
      "old": 607,
      "Ġ2": 608,
      "Ġother": 609,
      "ade": 610,
      "au": 611,
      "ces": 612,
      "Ġthan": 613,
      "Ġmost": 614,
      "Ġreally": 615,
      "ction": 616,
      "Ġafter": 617,
      "ument": 618,
      "Ġwatch": 619,
      "ath": 620,
      "Ġbr": 621,
      "Ġ-": 622,
      "ach": 623,
      "Ġi": 624,
      "Ġpart": 625,
      "sh": 626,
      "ough": 627,
      "Ġsee": 628,
      "Ġbl": 629,
      "Ġevery": 630,
      "uch": 631,
      "Ġtwo": 632,
      "ere": 633,
      "ople": 634,
      "ĠU": 635,
      "Ġthrough": 636,
      "Ġdoc": 637,
      "irl": 638,
      "ress": 639,
      "Ġfirst": 640,
      "Ġnew": 641,
      "pect": 642,
      "Ġfriend": 643,
      "Ġend": 644,
      "hed": 645,
      "ound": 646,
      "Ġloo": 647,
      "Ġgood": 648,
      "Ġworld": 649,
      "Ġvery": 650,
      "Ġap": 651,
      "Ġu": 652,
      "ather": 653,
      "ual": 654,
      "Ġany": 655,
      "ark": 656,
      "vers": 657,
      "ue": 658,
      "Ġwill": 659,
      "Ġway": 660,
      "Ġpeople": 661,
      "Ġwhere": 662,
      "round": 663,
      "ty": 664,
      "Ġser": 665,
      "irect": 666,
      "ree": 667,
      "Ġreal": 668,
      "ose": 669,
      "aw": 670,
      "ving": 671,
      "ens": 672,
      "Ġdes": 673,
      "Ġcr": 674,
      "Ġback": 675,
      "Ġmuch": 676,
      "vel": 677,
      "Ġte": 678,
      "ob": 679,
      "app": 680,
      "ram": 681,
      "Ġbeen": 682,
      "ĠAn": 683,
      "gin": 684,
      "Ġcont": 685,
      "Ġhad": 686,
      "Ġam": 687,
      "Ġdocument": 688,
      "Ġwork": 689,
      "ents": 690,
      "form": 691,
      "Ġdec": 692,
      "Ġus": 693,
      "Ġfeel": 694,
      "Ġfamily": 695,
      "man": 696,
      "Ġbeing": 697,
      "oc": 698,
      "Ġeven": 699,
      "Ġif": 700,
      "Ġdoes": 701,
      "Ġatt": 702,
      "get": 703,
      "Ġgirl": 704,
      "Ġsur": 705,
      "Ġcou": 706,
      "Ġco": 707,
      "igh": 708,
      "Ġwould": 709,
      "Ġres": 710,
      "ĠAl": 711,
      "ions": 712,
      "aking": 713,
      "Ġshort": 714,
      "Ġshow": 715,
      "ub": 716,
      "ĠBut": 717,
      "Ġpr": 718,
      "ĠHe": 719,
      "Ġcharact": 720,
      "Ġpo": 721,
      "ting": 722,
      "ors": 723,
      "ci": 724,
      "Ġinv": 725,
      "Ġalso": 726,
      "du": 727,
      "ause": 728,
      "les": 729,
      "omet": 730,
      "Ġown": 731,
      "ph": 732,
      "Ġrec": 733,
      "Ġunder": 734,
      "Ġdirect": 735,
      "Ġmake": 736,
      "Ġinc": 737,
      "Ġyears": 738,
      "Ġknow": 739,
      "Ġgreat": 740,
      "ating": 741,
      "Ġent": 742,
      "Ġwoman": 743,
      "ink": 744,
      "Ġtri": 745,
      "âĢ¦": 746,
      "Ġrel": 747,
      "ise": 748,
      "Ġtoo": 749,
      "Ġhel": 750,
      "ĠWh": 751,
      "Ġmade": 752,
      "Ġset": 753,
      "self": 754,
      "ect": 755,
      "Ġgu": 756,
      "Ġwere": 757,
      "ved": 758,
      "Ġev": 759,
      "ster": 760,
      "Ġspe": 761,
      "ĠWhen": 762,
      "Ġfun": 763,
      "rit": 764,
      "Ġkill": 765,
      "iew": 766,
      "Ġem": 767,
      "Ġplay": 768,
      "...": 769,
      "ittle": 770,
      "Ġdid": 771,
      "uring": 772,
      "ert": 773,
      "ord": 774,
      "Ġdocumentary": 775,
      "Ġwant": 776,
      "int": 777,
      "Ġrem": 778,
      "Ġwhile": 779,
      "Ġmus": 780,
      "Ġwell": 781,
      "ans": 782,
      "Ġaw": 783,
      "gg": 784,
      "Ġfl": 785,
      "Ġold": 786,
      "Ġart": 787,
      "Ġagain": 788,
      "oot": 789,
      "fore": 790,
      "iss": 791,
      "ale": 792,
      "Ġimp": 793,
      "ween": 794,
      "âĢĿ": 795,
      "Ġbecause": 796,
      "ning": 797,
      "Ġfilms": 798,
      "Ġri": 799,
      "ced": 800,
      "ail": 801,
      "ple": 802,
      "ase": 803,
      "Ġsm": 804,
      "az": 805,
      "ually": 806,
      "Ġlittle": 807,
      "Ġscen": 808,
      "Ġsl": 809,
      "Ġ20": 810,
      "ib": 811,
      "ave": 812,
      "red": 813,
      "Ġcould": 814,
      "Ġbetween": 815,
      "ute": 816,
      "ĠSh": 817,
      "uck": 818,
      "Ġturn": 819,
      "ign": 820,
      "ons": 821,
      "ars": 822,
      "Ġchild": 823,
      "ĠâĢľ": 824,
      "cial": 825,
      "Ġsomet": 826,
      "hes": 827,
      "Ġins": 828,
      "ool": 829,
      "Ġpers": 830,
      "arr": 831,
      "ren": 832,
      "aut": 833,
      "Ġsup": 834,
      "ife": 835,
      "augh": 836,
      "Ġpol": 837,
      "ature": 838,
      "Ġlead": 839,
      "ret": 840,
      "Ġacc": 841,
      "Ġmin": 842,
      "ew": 843,
      "iff": 844,
      "ny": 845,
      "Ġlong": 846,
      "its": 847,
      "ouse": 848,
      "orr": 849,
      "meric": 850,
      "fect": 851,
      "oth": 852,
      "thing": 853,
      "ull": 854,
      "ater": 855,
      "ship": 856,
      "Ġnever": 857,
      "Ġstart": 858,
      "Ġhelp": 859,
      "arly": 860,
      "Ġthen": 861,
      "ations": 862,
      "Ġbefore": 863,
      "ond": 864,
      "Ġstill": 865,
      "Ġhum": 866,
      "Ġcol": 867,
      "ness": 868,
      "Ġdown": 869,
      "Ġmur": 870,
      "Ġgen": 871,
      "ss": 872,
      "ft": 873,
      "ates": 874,
      "ollow": 875,
      "edy": 876,
      "Ġbest": 877,
      "Ġfin": 878,
      "ream": 879,
      "ex": 880,
      "Ġret": 881,
      "ling": 882,
      "Ġexper": 883,
      "Ġmar": 884,
      "Ġhome": 885,
      "Ġhere": 886,
      "ĠJo": 887,
      "air": 888,
      "Ġdon": 889,
      "Ġsub": 890,
      "Ġperform": 891,
      "Ġcomm": 892,
      "Ġexpl": 893,
      "te": 894,
      "ative": 895,
      "Ġseem": 896,
      "oss": 897,
      "ĠAnd": 898,
      "Ġhapp": 899,
      "ock": 900,
      "ĠAs": 901,
      "apt": 902,
      "less": 903,
      "Ġfather": 904,
      "ident": 905,
      "chool": 906,
      "Ġop": 907,
      "ash": 908,
      "Ġinterest": 909,
      "ased": 910,
      "Ġtake": 911,
      "ĠAmeric": 912,
      "be": 913,
      "Ġday": 914,
      "Ġtry": 915,
      "Ġes": 916,
      "Ġthese": 917,
      "ition": 918,
      "Ġvis": 919,
      "Ġter": 920,
      "inem": 921,
      "Ġsomething": 922,
      "Ġmusic": 923,
      "Ġnight": 924,
      "Ġob": 925,
      "ets": 926,
      "Ġaround": 927,
      "Ġnow": 928,
      "The": 929,
      "ched": 930,
      "Ġboy": 931,
      "ron": 932,
      "Ġpret": 933,
      "Ġbeaut": 934,
      "ands": 935,
      "arn": 936,
      "Ġdiff": 937,
      "ower": 938,
      "Ġmany": 939,
      "ism": 940,
      "Ġthink": 941,
      "Ġever": 942,
      "Ġlot": 943,
      "Ġhigh": 944,
      "als": 945,
      "Ġfall": 946,
      "Ġrun": 947,
      "Ġperson": 948,
      "Ġseen": 949,
      "),": 950,
      "Ġmust": 951,
      "Ġtakes": 952,
      "Ġmurder": 953,
      "ney": 954,
      "imes": 955,
      "Ġbegin": 956,
      "Ġgets": 957,
      "Ġfollow": 958,
      "ever": 959,
      "Ġ'": 960,
      "Ġstud": 961,
      "li": 962,
      "Ġyour": 963,
      "Ġfriends": 964,
      "Ġgra": 965,
      "Ġlook": 966,
      "Ġph": 967,
      "Ġschool": 968,
      "Ġbecom": 969,
      "ok": 970,
      "amp": 971,
      "Ġtal": 972,
      "Ġbad": 973,
      "aughter": 974,
      ").": 975,
      "Ġdisco": 976,
      "iful": 977,
      "Ġsex": 978,
      "ah": 979,
      "Ġtru": 980,
      "orn": 981,
      "ject": 982,
      "Ġmother": 983,
      "Ġkind": 984,
      "Ġlives": 985,
      "Ġind": 986,
      "ys": 987,
      "Ġseries": 988,
      "ible": 989,
      "ĠAfter": 990,
      "ience": 991,
      "Ġwar": 992,
      "att": 993,
      "Ġbel": 994,
      "ward": 995,
      "ists": 996,
      "Ġsw": 997,
      "Ġsame": 998,
      "roup": 999,
      "Ġmem": 1000,
      "Ġcinem": 1001,
      "Ġhist": 1002,
      "view": 1003,
      "Ġgr": 1004,
      "ogra": 1005,
      "Ġprodu": 1006,
      "ll": 1007,
      "ense": 1008,
      "Ġtell": 1009,
      "Ġcare": 1010,
      "Ġbit": 1011,
      "ĠShe": 1012,
      "ix": 1013,
      "Ġconf": 1014,
      "ically": 1015,
      "ures": 1016,
      "reen": 1017,
      "Ġfinds": 1018,
      "rist": 1019,
      "Ġboth": 1020,
      "io": 1021,
      "ĠThere": 1022,
      "Ġtown": 1023,
      "Ġpretty": 1024,
      "land": 1025,
      "Ġgroup": 1026,
      "Ġdeath": 1027,
      "Ġmyster": 1028,
      "00": 1029,
      "ount": 1030,
      "rans": 1031,
      "Ġmakes": 1032,
      "Ġcreat": 1033,
      "Ġkid": 1034,
      "led": 1035,
      "'ve": 1036,
      "Ġtoget": 1037,
      "Ġtogether": 1038,
      "Ġpres": 1039,
      "Ġwife": 1040,
      "Ġmom": 1041,
      "ited": 1042,
      "Ġbig": 1043,
      "Ġgoing": 1044,
      "Ġsec": 1045,
      "Ġanim": 1046,
      "Ġmay": 1047,
      "ik": 1048,
      "Ġke": 1049,
      "ives": 1050,
      "Ġac": 1051,
      "ĠDe": 1052,
      "ins": 1053,
      "ides": 1054,
      "Ġmovies": 1055,
      "Ġbeautiful": 1056,
      "vent": 1057,
      "Ġwomen": 1058,
      "ĠRe": 1059,
      "Ġass": 1060,
      "Ġloc": 1061,
      "ately": 1062,
      "Ġduring": 1063,
      "Ġstru": 1064,
      "ĠMar": 1065,
      "cept": 1066,
      "Ġcharacters": 1067,
      "ner": 1068,
      "Ġfar": 1069,
      "Ġlast": 1070,
      "Ġthree": 1071,
      "ric": 1072,
      "Ġdirector": 1073,
      "Ġhimself": 1074,
      "Ġcall": 1075,
      "Ġdet": 1076,
      "Ġcons": 1077,
      "Ġdoesn": 1078,
      "Ġwr": 1079,
      "Ġshot": 1080,
      "Ġmen": 1081,
      "Ġsay": 1082,
      "Ġfight": 1083,
      "Ġcharacter": 1084,
      "ways": 1085,
      "'m": 1086,
      "Ġeach": 1087,
      "ister": 1088,
      "Ġthose": 1089,
      "Ġneed": 1090,
      "ody": 1091,
      "ertain": 1092,
      "lud": 1093,
      "aster": 1094,
      "Ġmon": 1095,
      "Ġche": 1096,
      "Ġthings": 1097,
      "Ġbetter": 1098,
      "ross": 1099,
      "Ġdaughter": 1100,
      "Ġapp": 1101,
      "Ġdiffer": 1102,
      "Ġclass": 1103,
      "Ġtrans": 1104,
      "ought": 1105,
      "Ġdram": 1106,
      "ince": 1107,
      "Ġhouse": 1108,
      "ines": 1109,
      "ook": 1110,
      "olog": 1111,
      "ues": 1112,
      "ied": 1113,
      "Ġbu": 1114,
      "era": 1115,
      "ane": 1116,
      "Ġlive": 1117,
      "ird": 1118,
      "Ġsmall": 1119,
      "ris": 1120,
      "Ġgot": 1121,
      "ork": 1122,
      "Ġfoot": 1123,
      "Ġanother": 1124,
      "ably": 1125,
      "port": 1126,
      "empt": 1127,
      "Ġgoes": 1128,
      "ories": 1129,
      "atic": 1130,
      "Ġplot": 1131,
      "Ġcount": 1132,
      "Ġsing": 1133,
      "Ġbecomes": 1134,
      "Ġcomedy": 1135,
      "ov": 1136,
      "ĠNew": 1137,
      "ope": 1138,
      "orror": 1139,
      "Ġext": 1140,
      "ĠThey": 1141,
      "Ġsim": 1142,
      "Ġ3": 1143,
      "Ġthr": 1144,
      "Ġdream": 1145,
      "Ġsuch": 1146,
      "idd": 1147,
      "Ġreturn": 1148,
      "unt": 1149,
      "Ġbeh": 1150,
      "Ġwatching": 1151,
      "Ġgl": 1152,
      "Ġstr": 1153,
      "Ġagainst": 1154,
      "ĠBe": 1155,
      "ional": 1156,
      "Ġcomple": 1157,
      "Ġcar": 1158,
      "Ġfeature": 1159,
      "Ġput": 1160,
      "Ġjour": 1161,
      "ying": 1162,
      "Ġright": 1163,
      "Ġcre": 1164,
      "hn": 1165,
      "Ġthing": 1166,
      "ĠLe": 1167,
      "the": 1168,
      "Ġpast": 1169,
      "Ġcome": 1170,
      "ady": 1171,
      "ired": 1172,
      "ĠBl": 1173,
      "Ġtr": 1174,
      "Ġson": 1175,
      "ĠAr": 1176,
      "!!": 1177,
      "Ġinst": 1178,
      "ien": 1179,
      "Ġpower": 1180,
      "ier": 1181,
      "Ġplace": 1182,
      "Ġthough": 1183,
      "Ġhard": 1184,
      "Ġrelation": 1185,
      "Ġinteresting": 1186,
      "joy": 1187,
      "ðŁ": 1188,
      "Ġalways": 1189,
      "Ġdel": 1190,
      "ung": 1191,
      "ĠAmerican": 1192,
      "ingly": 1193,
      "uth": 1194,
      "Ġref": 1195,
      "Ġheart": 1196,
      "Ġmiss": 1197,
      "Ġrelationship": 1198,
      "ages": 1199,
      "ĠUn": 1200,
      "sy": 1201,
      "day": 1202,
      "ĠChrist": 1203,
      "Ġhead": 1204,
      "iness": 1205,
      "ities": 1206,
      "ĠYou": 1207,
      "atch": 1208,
      "iet": 1209,
      "Ġcomes": 1210,
      "Ġour": 1211,
      "utes": 1212,
      "Ġcast": 1213,
      "Ġfound": 1214,
      "Ġpass": 1215,
      "wh": 1216,
      "reak": 1217,
      "Ġfew": 1218,
      "Ġsound": 1219,
      "ural": 1220,
      "tern": 1221,
      "Ġdifferent": 1222,
      "Ġdidn": 1223,
      "Ġide": 1224,
      "pos": 1225,
      "ox": 1226,
      "Ġsecret": 1227,
      "friend": 1228,
      "Ġenjoy": 1229,
      "ĠOn": 1230,
      "ape": 1231,
      "ped": 1232,
      "ĠHow": 1233,
      "Ġunt": 1234,
      "que": 1235,
      "Ġbrother": 1236,
      "Ġform": 1237,
      "Ġbecome": 1238,
      "Ġmaking": 1239,
      "arent": 1240,
      "cy": 1241,
      "ics": 1242,
      "Ġfilmm": 1243,
      "ined": 1244,
      "eng": 1245,
      "ograph": 1246,
      "Ġpoint": 1247,
      "Ġmarri": 1248,
      "ann": 1249,
      "Ġaway": 1250,
      "Ġkeep": 1251,
      "cer": 1252,
      "orth": 1253,
      "Ġhorror": 1254,
      "Ġcolle": 1255,
      "Ġed": 1256,
      "Ġactually": 1257,
      "Ġhuman": 1258,
      "ances": 1259,
      "ĠOne": 1260,
      "ison": 1261,
      "Ġenough": 1262,
      "Ġ&": 1263,
      "ular": 1264,
      "aid": 1265,
      "Ġthought": 1266,
      "Ġhistory": 1267,
      "Ġrom": 1268,
      "Ġdead": 1269,
      "Ġstrugg": 1270,
      "ĠJohn": 1271,
      "arch": 1272,
      "ffect": 1273,
      "Ġattempt": 1274,
      "Ġsk": 1275,
      "Ġsuper": 1276,
      "my": 1277,
      "xt": 1278,
      "Ġdep": 1279,
      "Ġjob": 1280,
      "alf": 1281,
      "Ġinclud": 1282,
      "Ġesc": 1283,
      "ked": 1284,
      "iting": 1285,
      "Ġgang": 1286,
      "Ġtrying": 1287,
      "ĠZ": 1288,
      "ott": 1289,
      "Ġscene": 1290,
      "oney": 1291,
      "ĠSe": 1292,
      "Ġdist": 1293,
      "Ġel": 1294,
      "Ġcapt": 1295,
      "cond": 1296,
      "Ġcent": 1297,
      "Ġinf": 1298,
      "Ġvill": 1299,
      "ug": 1300,
      "Ġnarr": 1301,
      "cess": 1302,
      "ract": 1303,
      "Ġcult": 1304,
      "Ġcouple": 1305,
      "ĠSo": 1306,
      "Ġminutes": 1307,
      "Ġbehind": 1308,
      "Ġaction": 1309,
      "me": 1310,
      "Ġrep": 1311,
      "ason": 1312,
      "Ġwatched": 1313,
      "Ġfeels": 1314,
      "iol": 1315,
      "Ġbelie": 1316,
      "most": 1317,
      "rigin": 1318,
      "usb": 1319,
      "Ġcle": 1320,
      "Ġshould": 1321,
      "Ġquite": 1322,
      "ĠCl": 1323,
      "ters": 1324,
      "Ġele": 1325,
      "ering": 1326,
      "Ġeverything": 1327,
      "Ġcity": 1328,
      "Ġscenes": 1329,
      "Ġstar": 1330,
      "Ġwithout": 1331,
      "Ġwhy": 1332,
      "Ġuntil": 1333,
      "istic": 1334,
      "son": 1335,
      "ational": 1336,
      "Ġsy": 1337,
      "elt": 1338,
      "Ġjourney": 1339,
      "Ġdark": 1340,
      "Ġteen": 1341,
      "ows": 1342,
      "Ġfootage": 1343,
      "Ġappe": 1344,
      "uss": 1345,
      "'re": 1346,
      "Ġscreen": 1347,
      "Ġmysterious": 1348,
      "ery": 1349,
      "Ã©": 1350,
      "anger": 1351,
      "Ġsol": 1352,
      "Ġcra": 1353,
      "Ġdef": 1354,
      "Ġtrue": 1355,
      "Ġinvest": 1356,
      "Ġabs": 1357,
      "ution": 1358,
      "Ġwrit": 1359,
      "ĠNot": 1360,
      "Ġfact": 1361,
      "Ġrele": 1362,
      "Ġmed": 1363,
      "Ġspecial": 1364,
      "Ġep": 1365,
      "com": 1366,
      "usband": 1367,
      "sc": 1368,
      "âĢĶ": 1369,
      "Ġvide": 1370,
      "Ġquest": 1371,
      "yle": 1372,
      "Ġbus": 1373,
      "umb": 1374,
      "Ġseems": 1375,
      "ts": 1376,
      "Ġcam": 1377,
      "Ġdri": 1378,
      "Ġlet": 1379,
      "Ġcountry": 1380,
      "Ġtimes": 1381,
      "Ġorigin": 1382,
      "Ġnothing": 1383,
      "Ġdrama": 1384,
      "Ġexpect": 1385,
      "uff": 1386,
      "Ġsoon": 1387,
      "ening": 1388,
      "aker": 1389,
      "Ġexc": 1390,
      "Ġstop": 1391,
      "vis": 1392,
      "Ġearly": 1393,
      "Ġsurv": 1394,
      "ames": 1395,
      "Ġview": 1396,
      "Ġlearn": 1397,
      "Ġhalf": 1398,
      "Ġmain": 1399,
      "Ġrest": 1400,
      "ĠWhat": 1401,
      "Ġviol": 1402,
      "Ġdra": 1403,
      "ĠWith": 1404,
      "udd": 1405,
      "cing": 1406,
      "ĠAt": 1407,
      "Ġfav": 1408,
      "Ġliving": 1409,
      "Ġcour": 1410,
      "ms": 1411,
      "Ġhusband": 1412,
      "ĠTw": 1413,
      "ains": 1414,
      "Ġdeep": 1415,
      "apan": 1416,
      "ax": 1417,
      "Ġwhole": 1418,
      "rop": 1419,
      "Ġpersonal": 1420,
      "sel": 1421,
      "ead": 1422,
      "Ġport": 1423,
      "Ġtries": 1424,
      "Âł": 1425,
      "br": 1426,
      "ley": 1427,
      "Ġblack": 1428,
      "Ġprot": 1429,
      ".\"": 1430,
      "ming": 1431,
      "Ġpolit": 1432,
      "ai": 1433,
      "Ġhand": 1434,
      "Ġsecond": 1435,
      "Ġisn": 1436,
      "Ġleft": 1437,
      "Ġlocal": 1438,
      "Ġchildren": 1439,
      "Ġfore": 1440,
      "arious": 1441,
      "Ġteam": 1442,
      "Ġhaving": 1443,
      "Ġpop": 1444,
      "aj": 1445,
      "ĠSp": 1446,
      "Ġpolice": 1447,
      "side": 1448,
      "Ġbegins": 1449,
      "Ġuni": 1450,
      "Ġadd": 1451,
      "iece": 1452,
      "ina": 1453,
      "arth": 1454,
      "Ġmag": 1455,
      "Ġjo": 1456,
      "Ġcommun": 1457,
      "Ġentire": 1458,
      "ized": 1459,
      "Ġyet": 1460,
      "Ġinvol": 1461,
      "Ġpar": 1462,
      "any": 1463,
      "fort": 1464,
      "Ġey": 1465,
      "ĠFor": 1466,
      "ival": 1467,
      "ments": 1468,
      "Ġlight": 1469,
      "ĠWe": 1470,
      "Ġsong": 1471,
      "cially": 1472,
      "Ġonce": 1473,
      "cle": 1474,
      "de": 1475,
      "Ġfull": 1476,
      "amed": 1477,
      "oun": 1478,
      "Ġfalls": 1479,
      "Ġstand": 1480,
      "Ġlater": 1481,
      "Ġreg": 1482,
      "Ġsister": 1483,
      "Ġgener": 1484,
      "Ġcinema": 1485,
      "ĠJapan": 1486,
      "Ġanything": 1487,
      "hood": 1488,
      "Ġsurp": 1489,
      "Ġposs": 1490,
      "to": 1491,
      "Ġalong": 1492,
      "ches": 1493,
      "Ġface": 1494,
      "ient": 1495,
      "ove": 1496,
      "Ġmeets": 1497,
      "na": 1498,
      "Ġpain": 1499,
      "ange": 1500,
      "Ġinvestig": 1501,
      "selves": 1502,
      "Ġtit": 1503,
      "ony": 1504,
      "Ġaud": 1505,
      "Ġmight": 1506,
      "Ġeffect": 1507,
      "urs": 1508,
      "Ġmet": 1509,
      "Ġfuck": 1510,
      "Ġemot": 1511,
      "Ġdem": 1512,
      "Ġalmost": 1513,
      "Ġsince": 1514,
      "iel": 1515,
      "Ġturns": 1516,
      "ront": 1517,
      "Ġinterview": 1518,
      "Ġ5": 1519,
      "Ġwants": 1520,
      "ital": 1521,
      "Ġmoney": 1522,
      "Ġlost": 1523,
      "stand": 1524,
      "ury": 1525,
      "Ġtravel": 1526,
      "ese": 1527,
      "Ġband": 1528,
      "year": 1529,
      "Ġworks": 1530,
      "Ġorder": 1531,
      "mas": 1532,
      "ats": 1533,
      "Ġsure": 1534,
      "ĠIs": 1535,
      "ike": 1536,
      "ccess": 1537,
      "ĠFran": 1538,
      "Ġfunny": 1539,
      "Ġplan": 1540,
      "Ġmeet": 1541,
      "Ġguy": 1542,
      "Ġless": 1543,
      "Ġgive": 1544,
      "Ġstre": 1545,
      "ank": 1546,
      "rif": 1547,
      "Ġdiscover": 1548,
      "Ġ4": 1549,
      "und": 1550,
      "olly": 1551,
      "ĠWar": 1552,
      "Ġimm": 1553,
      "Ġbreak": 1554,
      "range": 1555,
      "Ġgiv": 1556,
      "ray": 1557,
      "Ġprof": 1558,
      "Ġdest": 1559,
      "Ġmean": 1560,
      "yn": 1561,
      "Ġcomplete": 1562,
      "ened": 1563,
      "Ġstories": 1564,
      "orld": 1565,
      "way": 1566,
      "oon": 1567,
      "ography": 1568,
      "Ġthemselves": 1569,
      "atter": 1570,
      "19": 1571,
      "Ġpsy": 1572,
      "Ġsil": 1573,
      "Ġfut": 1574,
      "ention": 1575,
      "ĠWill": 1576,
      "Ġself": 1577,
      "erman": 1578,
      "vious": 1579,
      "ĠSc": 1580,
      "Ġperformance": 1581,
      "Ġmind": 1582,
      "Ġtop": 1583,
      "by": 1584,
      "Ġvers": 1585,
      "Ġsomeone": 1586,
      "ently": 1587,
      "Ġwhose": 1588,
      "Ġmove": 1589,
      "Ġcop": 1590,
      "ĠIf": 1591,
      "ĠBrit": 1592,
      "ote": 1593,
      "ĠInd": 1594,
      "Ġgetting": 1595,
      "yp": 1596,
      "cl": 1597,
      "unk": 1598,
      "Ġcrime": 1599,
      "iller": 1600,
      "aces": 1601,
      "oring": 1602,
      "Ġvideo": 1603,
      "Ġhor": 1604,
      "onder": 1605,
      "urb": 1606,
      "Ġparent": 1607,
      "Ġdays": 1608,
      "ocus": 1609,
      "Ġprom": 1610,
      "alth": 1611,
      "Ġeveryone": 1612,
      "Ġlooking": 1613,
      "Ġhour": 1614,
      "Ġspir": 1615,
      "Ġsuccess": 1616,
      "pecially": 1617,
      "gan": 1618,
      "ĠHis": 1619,
      "Ġexperience": 1620,
      "aves": 1621,
      "Ġperfect": 1622,
      "ental": 1623,
      "wood": 1624,
      "ility": 1625,
      "min": 1626,
      "ĠWhile": 1627,
      "Ġpri": 1628,
      "Ġdr": 1629,
      "ĠHowever": 1630,
      "asc": 1631,
      "Ġacting": 1632,
      "Ġfour": 1633,
      "dd": 1634,
      "Ġpost": 1635,
      "omb": 1636,
      "ĠQ": 1637,
      "Ġshows": 1638,
      "ific": 1639,
      "ured": 1640,
      "Ġuse": 1641,
      "ĠCar": 1642,
      "bably": 1643,
      "ĠMe": 1644,
      "Ġcur": 1645,
      "ize": 1646,
      "Ġfelt": 1647,
      "Ġkiller": 1648,
      "ared": 1649,
      "Ġimag": 1650,
      "oice": 1651,
      "Ġcareer": 1652,
      "aps": 1653,
      "ator": 1654,
      "gend": 1655,
      "Ġfem": 1656,
      "ĠTV": 1657,
      "Ġleast": 1658,
      "ĠFilm": 1659,
      "Ġworking": 1660,
      "ele": 1661,
      "HE": 1662,
      "ĠYork": 1663,
      "elling": 1664,
      "owing": 1665,
      "uk": 1666,
      "ten": 1667,
      "ĠMan": 1668,
      "Ġbatt": 1669,
      "vol": 1670,
      "ping": 1671,
      "Ġarri": 1672,
      "Ġprison": 1673,
      "Ġeng": 1674,
      "ĠâĢĵ": 1675,
      "con": 1676,
      "Ġproduction": 1677,
      "Ġsave": 1678,
      "Ġacross": 1679,
      "Ġhon": 1680,
      "Ġsense": 1681,
      "ĠRo": 1682,
      "ted": 1683,
      "but": 1684,
      "imin": 1685,
      "ered": 1686,
      "Ġwin": 1687,
      "iter": 1688,
      "enn": 1689,
      "rug": 1690,
      "Ġsus": 1691,
      "Ġdecides": 1692,
      "Ġcamera": 1693,
      "ĠThat": 1694,
      "Ġformer": 1695,
      "ef": 1696,
      "Ġpresent": 1697,
      "Ġstrange": 1698,
      "els": 1699,
      "ubl": 1700,
      "Ġ8": 1701,
      "bert": 1702,
      "Ġnamed": 1703,
      "iddle": 1704,
      "olute": 1705,
      "Ġfuture": 1706,
      "ĠTwo": 1707,
      "ĠBr": 1708,
      "Ġbuild": 1709,
      "Ġenc": 1710,
      "Ġemb": 1711,
      "ĠAm": 1712,
      "Ġlate": 1713,
      "pite": 1714,
      "Ġlooks": 1715,
      "ences": 1716,
      "ger": 1717,
      "Ġdeal": 1718,
      "Ġbusiness": 1719,
      "Ġnext": 1720,
      "Ġfocus": 1721,
      "Ġ9": 1722,
      "Ġphot": 1723,
      "Ġsequ": 1724,
      "Ġmaster": 1725,
      "Ġmoments": 1726,
      "Ġentertain": 1727,
      "Ġfollows": 1728,
      "asy": 1729,
      "Ġpsych": 1730,
      "Ġcase": 1731,
      "Ġmis": 1732,
      "Ġreve": 1733,
      "Ġobs": 1734,
      "aken": 1735,
      "Ġland": 1736,
      "Ġchang": 1737,
      "ety": 1738,
      "Ġstarts": 1739,
      "ĠChristmas": 1740,
      "Ġpartic": 1741,
      "Ġsit": 1742,
      "Ġnice": 1743,
      "ler": 1744,
      "Ġsearch": 1745,
      "Ġproble": 1746,
      "Ġbra": 1747,
      "Ġstra": 1748,
      "udget": 1749,
      "Ġknown": 1750,
      "Ġoriginal": 1751,
      "Ġexp": 1752,
      "venge": 1753,
      "Ġlow": 1754,
      "Ġname": 1755,
      "Ġherself": 1756,
      "ĠAll": 1757,
      "like": 1758,
      "osp": 1759,
      "Ġbody": 1760,
      "Ġstyle": 1761,
      "eter": 1762,
      "fully": 1763,
      "Ġparents": 1764,
      "inite": 1765,
      "ton": 1766,
      "Ġhero": 1767,
      "Ġbas": 1768,
      "Ġdev": 1769,
      "Ġcalled": 1770,
      "ctor": 1771,
      "ec": 1772,
      "Ġblood": 1773,
      "ants": 1774,
      "ral": 1775,
      "iam": 1776,
      "Ġwonder": 1777,
      "Ġevil": 1778,
      "ĠMy": 1779,
      "ma": 1780,
      "Ġbro": 1781,
      "outh": 1782,
      "Ġrather": 1783,
      "Ġgame": 1784,
      "Ġz": 1785,
      "velop": 1786,
      "Ġfavor": 1787,
      "Ġsent": 1788,
      "Ġfinal": 1789,
      "Ġcontin": 1790,
      "Ġdrug": 1791,
      "rench": 1792,
      "gu": 1793,
      "Ġadvent": 1794,
      "Ġidea": 1795,
      "orge": 1796,
      "zy": 1797,
      "ror": 1798,
      "Ġevent": 1799,
      "Ġste": 1800,
      "Ġwit": 1801,
      "ians": 1802,
      "Ġtrou": 1803,
      "ember": 1804,
      "ished": 1805,
      "chn": 1806,
      "Ġsoci": 1807,
      "ude": 1808,
      "Ġplays": 1809,
      "Ġconst": 1810,
      "ĠDav": 1811,
      "Ġforced": 1812,
      "Ġrob": 1813,
      "Ġinsp": 1814,
      "Ġocc": 1815,
      "ĠðŁ": 1816,
      "Ġunderstand": 1817,
      "Ġtells": 1818,
      "Ġsocial": 1819,
      "Ġespecially": 1820,
      "Ġstars": 1821,
      "Ġbring": 1822,
      "Ġaccident": 1823,
      "Ġrole": 1824,
      "Ġdirected": 1825,
      "ps": 1826,
      "ored": 1827,
      "iver": 1828,
      "oul": 1829,
      "ĠEng": 1830,
      "Ġhot": 1831,
      "aim": 1832,
      "Ġsever": 1833,
      "Ġcontr": 1834,
      "Ġitself": 1835,
      "Ġdiscovers": 1836,
      "unch": 1837,
      "aving": 1838,
      "ĠHer": 1839,
      "ĠâĢĶ": 1840,
      "ript": 1841,
      "Ġprobably": 1842,
      "Ġversion": 1843,
      "Ġcourse": 1844,
      "af": 1845,
      "imate": 1846,
      "Ġbo": 1847,
      "Ġgrand": 1848,
      "Ġ7": 1849,
      "Ġdoing": 1850,
      "Ġused": 1851,
      "ĠTo": 1852,
      "Ġevents": 1853,
      "Ġread": 1854,
      "iant": 1855,
      "Ġsn": 1856,
      "uc": 1857,
      "ĠCan": 1858,
      "Ġmot": 1859,
      "Ġcool": 1860,
      "Ġwasn": 1861,
      "ality": 1862,
      "Ġapart": 1863,
      "Ġthin": 1864,
      "lish": 1865,
      "Ġartist": 1866,
      "for": 1867,
      "val": 1868,
      "Ġmoder": 1869,
      "ĠHar": 1870,
      "ĠCom": 1871,
      "Ġcamp": 1872,
      "isod": 1873,
      "Ġcut": 1874,
      "initely": 1875,
      "Ġloved": 1876,
      "Ġ197": 1877,
      "of": 1878,
      "Ġmess": 1879,
      "ices": 1880,
      "Ġexist": 1881,
      "Ġincluding": 1882,
      "Ġhope": 1883,
      "Ġtrag": 1884,
      "Ġwhite": 1885,
      "Ġvillage": 1886,
      "time": 1887,
      "Ġ198": 1888,
      "Ġclose": 1889,
      "Ġbased": 1890,
      "Ġlegend": 1891,
      "'d": 1892,
      "ĠBritish": 1893,
      "Ġrecord": 1894,
      "Ġsurpris": 1895,
      "aged": 1896,
      "aring": 1897,
      "Ġdone": 1898,
      "Ġroom": 1899,
      "otic": 1900,
      "ĠGerman": 1901,
      "Ġstri": 1902,
      "ires": 1903,
      "pected": 1904,
      "Ġhit": 1905,
      "Ġlar": 1906,
      "Ġpat": 1907,
      "Ġslow": 1908,
      "bers": 1909,
      "ided": 1910,
      "aus": 1911,
      "Ġhom": 1912,
      "Ġweird": 1913,
      "Ġcame": 1914,
      "Ġtitle": 1915,
      "Ġprov": 1916,
      "ĠCon": 1917,
      "Ġstudent": 1918,
      "Ġimport": 1919,
      "Ġactors": 1920,
      "estern": 1921,
      "Ġtale": 1922,
      "host": 1923,
      "Ġside": 1924,
      "ball": 1925,
      "Ġwild": 1926,
      "nds": 1927,
      "Ġsad": 1928,
      "Ġmodern": 1929,
      "Ġfant": 1930,
      "ds": 1931,
      "Ġleads": 1932,
      "Ġsum": 1933,
      "acher": 1934,
      "Ġmiddle": 1935,
      "het": 1936,
      "Ġreturns": 1937,
      "ĠJack": 1938,
      "Ġfinally": 1939,
      "Ġworth": 1940,
      "Ġbar": 1941,
      "Ġelse": 1942,
      "rodu": 1943,
      "ek": 1944,
      "Ġrock": 1945,
      "Ġdevelop": 1946,
      "ira": 1947,
      "IN": 1948,
      "Ġgirls": 1949,
      "ĠEl": 1950,
      "Ġabsolute": 1951,
      "Ġwrong": 1952,
      "Ġanimation": 1953,
      "Ġcat": 1954,
      "ĠChar": 1955,
      "Ġstuff": 1956,
      "let": 1957,
      "ground": 1958,
      "Ġoffic": 1959,
      "Ġwithin": 1960,
      "Ġill": 1961,
      "itten": 1962,
      "Ġwa": 1963,
      "Ġperformances": 1964,
      "Ġconv": 1965,
      "ollywood": 1966,
      "ining": 1967,
      "hel": 1968,
      "??": 1969,
      "ĠGe": 1970,
      "Ġsubject": 1971,
      "Ġcertain": 1972,
      "Ġest": 1973,
      "Ġpiece": 1974,
      "Ġinstead": 1975,
      "Ġsaid": 1976,
      "Ġfilmmaker": 1977,
      "por": 1978,
      "plic": 1979,
      "cover": 1980,
      "gy": 1981,
      "Ġincred": 1982,
      "Ġsingle": 1983,
      "vern": 1984,
      "Ġhop": 1985,
      "right": 1986,
      "ĠWorld": 1987,
      "ĠTom": 1988,
      "Ġstrong": 1989,
      "'ll": 1990,
      "Ġoften": 1991,
      "Ġchange": 1992,
      "Ġsle": 1993,
      "ĠPar": 1994,
      "ĠAd": 1995,
      "ither": 1996,
      "Ġcele": 1997,
      "Ġplaying": 1998,
      "Ġlaw": 1999,
      "Ġthreat": 2000,
      "ĠNo": 2001,
      "Ġfig": 2002,
      "ER": 2003,
      "Ġfan": 2004,
      "Ġann": 2005,
      "Ġident": 2006,
      "Ġsets": 2007,
      "ush": 2008,
      "Ġconne": 2009,
      "Ġescape": 2010,
      "rew": 2011,
      "Ġquick": 2012,
      "ential": 2013,
      "Ġdanger": 2014,
      "Ġmor": 2015,
      "antic": 2016,
      "Ġending": 2017,
      "Ġhold": 2018,
      "inc": 2019,
      "Ġepisod": 2020,
      "Ġfail": 2021,
      "Ġple": 2022,
      "ĠDon": 2023,
      "Ġmusical": 2024,
      "Ġrevenge": 2025,
      "ots": 2026,
      "Ġvict": 2027,
      "ara": 2028,
      "ĠAng": 2029,
      "Ġ201": 2030,
      "Ġ199": 2031,
      "Ġkids": 2032,
      "rest": 2033,
      "ination": 2034,
      "Ġreality": 2035,
      "cted": 2036,
      "Ġ6": 2037,
      "Ġkilled": 2038,
      "Ġnarrative": 2039,
      "Ġexperim": 2040,
      "Ġfree": 2041,
      "Ġdog": 2042,
      "aced": 2043,
      "Ġshit": 2044,
      "Ġmil": 2045,
      "ĠPh": 2046,
      "Ġfemale": 2047,
      "Ġsold": 2048,
      "Ġvisual": 2049,
      "Ġcommunity": 2050,
      "eet": 2051,
      "Ġtechn": 2052,
      "ublic": 2053,
      "Ġcoming": 2054,
      "Ġencoun": 2055,
      "aul": 2056,
      "Ġdreams": 2057,
      "Ġactor": 2058,
      "ology": 2059,
      "ager": 2060,
      "Ġbook": 2061,
      "Ġgives": 2062,
      "ibly": 2063,
      "rible": 2064,
      "ole": 2065,
      "ĠFrench": 2066,
      "Ġhands": 2067,
      "Ġ--": 2068,
      "yl": 2069,
      "Ġreview": 2070,
      "Ġant": 2071,
      "Ġfamil": 2072,
      "Ġfavorite": 2073,
      "ones": 2074,
      "Ġav": 2075,
      "light": 2076,
      "ĠMc": 2077,
      "Ġends": 2078,
      "Ġeff": 2079,
      "mp": 2080,
      "Ġdial": 2081,
      "ior": 2082,
      "Ġexam": 2083,
      "ores": 2084,
      "Ġtrip": 2085,
      "lu": 2086,
      "Ġspace": 2087,
      "Ġclassic": 2088,
      "Ġpolitical": 2089,
      "Ġmoment": 2090,
      "Ġconc": 2091,
      "Ġliter": 2092,
      "ky": 2093,
      "line": 2094,
      "ĠDan": 2095,
      "Ġcelebr": 2096,
      "iction": 2097,
      "Ġdesign": 2098,
      "Ġimpress": 2099,
      "Ġbattle": 2100,
      "Ġpict": 2101,
      "uge": 2102,
      "Ġwal": 2103,
      "Ġtour": 2104,
      "Ġmarried": 2105,
      "Ġunex": 2106,
      "Ġhonest": 2107,
      "ĠQu": 2108,
      "Ġseeing": 2109,
      "Ġinterviews": 2110,
      "ald": 2111,
      "Ġaff": 2112,
      "wards": 2113,
      "Ġ200": 2114,
      "Ġage": 2115,
      "sp": 2116,
      "Ġ196": 2117,
      "ĠMon": 2118,
      "azing": 2119,
      "fortun": 2120,
      "antly": 2121,
      "Ġult": 2122,
      "Ġsexual": 2123,
      "ĠEd": 2124,
      "Ġattack": 2125,
      "ett": 2126,
      "che": 2127,
      "ement": 2128,
      "aby": 2129,
      "Ġtre": 2130,
      "Ġcrimin": 2131,
      "Ġfasc": 2132,
      "upt": 2133,
      "though": 2134,
      "reme": 2135,
      "Ġlist": 2136,
      "Ġinvolved": 2137,
      "ighb": 2138,
      "Ġseveral": 2139,
      "Ġdisc": 2140,
      "Ġportra": 2141,
      "ael": 2142,
      "Ġothers": 2143,
      "ges": 2144,
      "Ġreason": 2145,
      "ĠPl": 2146,
      "ĠPr": 2147,
      "ogue": 2148,
      "ĠJapanese": 2149,
      "ĠSome": 2150,
      "Ġupon": 2151,
      "Ġoper": 2152,
      "Ġresult": 2153,
      "ĠâĢĺ": 2154,
      "aught": 2155,
      "par": 2156,
      "posed": 2157,
      "Ġbudget": 2158,
      "irc": 2159,
      "Ġwent": 2160,
      "ĠTHE": 2161,
      "Ġprog": 2162,
      "ised": 2163,
      "Ġsat": 2164,
      "Ġsort": 2165,
      "ears": 2166,
      "Ġcoll": 2167,
      "Ġable": 2168,
      "ĠJe": 2169,
      "Ġbelieve": 2170,
      "Ġarch": 2171,
      "Ġtele": 2172,
      "not": 2173,
      "Ġsociety": 2174,
      "Ġfair": 2175,
      "Ġtaking": 2176,
      "ective": 2177,
      "Ġunique": 2178,
      "Ġhost": 2179,
      "Ġparty": 2180,
      "Ġremember": 2181,
      "atural": 2182,
      "mb": 2183,
      "Ġsaw": 2184,
      "Ġneighb": 2185,
      "Ġmix": 2186,
      "Ġnovel": 2187,
      "Ġhar": 2188,
      "ĠAmerica": 2189,
      "ready": 2190,
      "Ġadapt": 2191,
      "ĠAb": 2192,
      "ene": 2193,
      "illed": 2194,
      "Ġleg": 2195,
      "ĠDavid": 2196,
      "Ġnear": 2197,
      "Ġwish": 2198,
      "lo": 2199,
      "Ġfive": 2200,
      "Ġspirit": 2201,
      "Ġunf": 2202,
      "Ġproject": 2203,
      "Ġinn": 2204,
      "ĠAf": 2205,
      "Ġgirlfriend": 2206,
      "ivers": 2207,
      "Ġprofess": 2208,
      "pend": 2209,
      "Ġago": 2210,
      "Ġtrad": 2211,
      "Ġconsid": 2212,
      "Ġways": 2213,
      "kn": 2214,
      "\".": 2215,
      "ino": 2216,
      "Ġfamous": 2217,
      "Ġamb": 2218,
      "Ġtold": 2219,
      "Ġpoor": 2220,
      "Ġplayed": 2221,
      "ĠNow": 2222,
      "ades": 2223,
      "Ġdefinitely": 2224,
      "Ġstay": 2225,
      "ĠGod": 2226,
      "Ġwanted": 2227,
      "udden": 2228,
      "oph": 2229,
      "go": 2230,
      "Ġlack": 2231,
      "Ġmarriage": 2232,
      "rib": 2233,
      "Ġtoday": 2234,
      "eless": 2235,
      "Ġgiven": 2236,
      "Ġsuff": 2237,
      "Ġtest": 2238,
      "Ġghost": 2239,
      "ĠHollywood": 2240,
      "Ġshoot": 2241,
      "Ġchildhood": 2242,
      "Ġtruth": 2243,
      "Ġcrew": 2244,
      "Ġcor": 2245,
      "Ġclos": 2246,
      "ged": 2247,
      "Ġleave": 2248,
      "Ġ10": 2249,
      "Ġkidn": 2250,
      "ĠSw": 2251,
      "Ġalready": 2252,
      "ĠMich": 2253,
      "itive": 2254,
      "Ġexact": 2255,
      "irth": 2256,
      "ising": 2257,
      "amb": 2258,
      "erm": 2259,
      "play": 2260,
      "Ġcompletely": 2261,
      "arring": 2262,
      "Ġtrack": 2263,
      "Ġvictim": 2264,
      "Ġtaken": 2265,
      "Ġeffort": 2266,
      "tra": 2267,
      "ĠOr": 2268,
      "Ġromance": 2269,
      "erv": 2270,
      "oles": 2271,
      "Ġrich": 2272,
      "ille": 2273,
      "Ġlos": 2274,
      "Ġstage": 2275,
      "used": 2276,
      "ises": 2277,
      "Ġalone": 2278,
      "Ġval": 2279,
      "Ġgovern": 2280,
      "ĠEx": 2281,
      "lin": 2282,
      "Ġreveal": 2283,
      "ĠBar": 2284,
      "Ġchall": 2285,
      "Ġcollege": 2286,
      "Ġaudience": 2287,
      "uz": 2288,
      "Ġliked": 2289,
      "Ġviolence": 2290,
      "Ġchance": 2291,
      "Ġpowerful": 2292,
      "Ġgay": 2293,
      "Ġsign": 2294,
      "Ġtruly": 2295,
      "iding": 2296,
      "Ġunexpected": 2297,
      "Ġthriller": 2298,
      "Ġfre": 2299,
      "ills": 2300,
      "Ġroad": 2301,
      "20": 2302,
      "Ġlaugh": 2303,
      "appe": 2304,
      "Ġmel": 2305,
      "Ġfram": 2306,
      "Ġeyes": 2307,
      "Ġtou": 2308,
      "Ġmystery": 2309,
      "vision": 2310,
      "Ġdan": 2311,
      "ths": 2312,
      "Ġvoice": 2313,
      "Ġimages": 2314,
      "Ġexperien": 2315,
      "Ġterror": 2316,
      "Ġdou": 2317,
      "Ġscript": 2318,
      "ĠMay": 2319,
      "Ġsitu": 2320,
      "\",": 2321,
      "Ġmill": 2322,
      "Ġcompany": 2323,
      "ĠItal": 2324,
      "Ġcond": 2325,
      "ĠCol": 2326,
      "Ġnature": 2327,
      "Ġculture": 2328,
      "Ġreleased": 2329,
      "ana": 2330,
      "iar": 2331,
      "Ġpos": 2332,
      "ĠRuss": 2333,
      "ctions": 2334,
      "ĠSam": 2335,
      "ĠBra": 2336,
      "Ġobsess": 2337,
      "Ġmaybe": 2338,
      "idden": 2339,
      "ĠJust": 2340,
      "Ġdiv": 2341,
      "ĠBlack": 2342,
      "Ġappro": 2343,
      "Ġvarious": 2344,
      "ĠBer": 2345,
      "ĠFrom": 2346,
      "Ġgenre": 2347,
      "inary": 2348,
      "read": 2349,
      "ept": 2350,
      "Ġquestion": 2351,
      "Ġtook": 2352,
      "itting": 2353,
      "Ġnon": 2354,
      "med": 2355,
      "oned": 2356,
      "Ġexec": 2357,
      "Ġinside": 2358,
      "Ġleaves": 2359,
      "ĠDo": 2360,
      "Ġsupport": 2361,
      "Ġwriter": 2362,
      "Ġsimple": 2363,
      "akers": 2364,
      "Ġimportant": 2365,
      "ondon": 2366,
      "onic": 2367,
      "ĠCity": 2368,
      "Ġcomed": 2369,
      "Ġang": 2370,
      "Ġintern": 2371,
      ",\"": 2372,
      "ards": 2373,
      "Ġmostly": 2374,
      "emy": 2375,
      "Ġline": 2376,
      "Ġer": 2377,
      "ding": 2378,
      "pped": 2379,
      "izes": 2380,
      "astic": 2381,
      "Ġrad": 2382,
      "Ġsudden": 2383,
      "Ġanyone": 2384,
      "Ġwon": 2385,
      "Ġmissing": 2386,
      "ĠEvery": 2387,
      "Ġamong": 2388,
      "AN": 2389,
      "Ġserious": 2390,
      "where": 2391,
      "ief": 2392,
      "Ġisland": 2393,
      "Ġdesper": 2394,
      "irt": 2395,
      "Ġodd": 2396,
      "Ġiss": 2397,
      "ĠLondon": 2398,
      "iod": 2399,
      "Ġusing": 2400,
      "Ġdespite": 2401,
      "Ġsens": 2402,
      "Ġrevol": 2403,
      "oint": 2404,
      "abor": 2405,
      "aturing": 2406,
      "new": 2407,
      "ump": 2408,
      "Ġpot": 2409,
      "ajor": 2410,
      "Ġlands": 2411,
      "ilt": 2412,
      "Ġturned": 2413,
      "Ġcompet": 2414,
      "Ġtalk": 2415,
      "ev": 2416,
      "Ġbur": 2417,
      "lect": 2418,
      "ura": 2419,
      "sw": 2420,
      "ĠBro": 2421,
      "Ġgun": 2422,
      "ze": 2423,
      "Ġbrut": 2424,
      "inating": 2425,
      "Ġwealth": 2426,
      "ĠPaul": 2427,
      "umber": 2428,
      "itions": 2429,
      "ĠKing": 2430,
      "Ġaut": 2431,
      "Ġstep": 2432,
      "Ġamazing": 2433,
      "Ġtreat": 2434,
      "Ġstraight": 2435,
      "Ġromantic": 2436,
      "Ġteacher": 2437,
      "off": 2438,
      "Ġlarge": 2439,
      "ization": 2440,
      "Ġindust": 2441,
      "Ġmission": 2442,
      "Ġdecide": 2443,
      "Ġmid": 2444,
      "Ġhell": 2445,
      "itch": 2446,
      "Ġresp": 2447,
      "Ġhappy": 2448,
      "Ġcover": 2449,
      "Ġmater": 2450,
      "Ġextreme": 2451,
      "Ġinflu": 2452,
      "Ġmembers": 2453,
      "Ġbrings": 2454,
      "Ġcomb": 2455,
      "unted": 2456,
      "Ġpublic": 2457,
      "Ġcirc": 2458,
      "rought": 2459,
      ".âĢĿ": 2460,
      "Ġabsolutely": 2461,
      "Ġfeatures": 2462,
      "Ġdisappe": 2463,
      "izing": 2464,
      "rent": 2465,
      "Ġfront": 2466,
      "Ġcross": 2467,
      "ĠDes": 2468,
      "ĠDr": 2469,
      "Ġeffects": 2470,
      "Ġprocess": 2471,
      "ĠJames": 2472,
      "Ġhowever": 2473,
      "oid": 2474,
      "une": 2475,
      "Ġmeans": 2476,
      "Ġscient": 2477,
      "eth": 2478,
      "Ġthroughout": 2479,
      "Ġextra": 2480,
      "Ġfell": 2481,
      "Ġfucking": 2482,
      "ĠPe": 2483,
      "key": 2484,
      "ĠMichael": 2485,
      "lict": 2486,
      "Ġfeeling": 2487,
      "rief": 2488,
      "Ġtot": 2489,
      "real": 2490,
      "ĠFl": 2491,
      "ĠSte": 2492,
      "Ġemotional": 2493,
      "Ġdestro": 2494,
      "Ġhistor": 2495,
      "ively": 2496,
      "ĠPro": 2497,
      "Ġdue": 2498,
      "Ġattempts": 2499,
      "Ġuns": 2500,
      "ĠEarth": 2501,
      "stem": 2502,
      "Ġforces": 2503,
      "ĠAngel": 2504,
      "Th": 2505,
      "Ġactress": 2506,
      "Ġpopular": 2507,
      "Ġdialogue": 2508,
      "Ġsolid": 2509,
      "ploy": 2510,
      "Ġmist": 2511,
      "Ġgovernment": 2512,
      "Ġprem": 2513,
      "Ġstruggles": 2514,
      "Ġenjoyed": 2515,
      "fortunately": 2516,
      "aries": 2517,
      "ĠGra": 2518,
      "rag": 2519,
      "Ġtalking": 2520,
      "ares": 2521,
      "itation": 2522,
      "ha": 2523,
      "Ġspend": 2524,
      "Ġera": 2525,
      "Ġcontrol": 2526,
      "Ġworst": 2527,
      "ĠMr": 2528,
      "Ġguess": 2529,
      "Ġbirth": 2530,
      "ially": 2531,
      "Ġhappens": 2532,
      "AT": 2533,
      "apes": 2534,
      "Ġperiod": 2535,
      "Ġstudents": 2536,
      "Ġadventure": 2537,
      "Ġpay": 2538,
      "ĠFrank": 2539,
      "Ġcinemat": 2540,
      "ĠGu": 2541,
      "ĠAust": 2542,
      "Ġmad": 2543,
      "Ġshock": 2544,
      "Ġ18": 2545,
      "ĠFe": 2546,
      "ries": 2547,
      "Ġboss": 2548,
      "Ġdance": 2549,
      "Ġboring": 2550,
      "Ġmount": 2551,
      "ring": 2552,
      "ips": 2553,
      "Ġcart": 2554,
      "ĠJim": 2555,
      "ograp": 2556,
      "Ġleading": 2557,
      "ĠAfric": 2558,
      "ĠRich": 2559,
      "Ġmaterial": 2560,
      "Ġentertaining": 2561,
      "icult": 2562,
      "ented": 2563,
      "Ġsix": 2564,
      "Ġbox": 2565,
      "Ġmult": 2566,
      "Ġlevel": 2567,
      "Ġcentury": 2568,
      "Ġsweet": 2569,
      "Ġfriendship": 2570,
      "yond": 2571,
      "Ġquickly": 2572,
      "iring": 2573,
      "itary": 2574,
      "Ġgreatest": 2575,
      "agon": 2576,
      "Ġtrain": 2577,
      "Ġcap": 2578,
      "Ġappear": 2579,
      "cent": 2580,
      "ĠUS": 2581,
      "Ġir": 2582,
      "Ġ90": 2583,
      "Ġpur": 2584,
      "icks": 2585,
      "Ġgod": 2586,
      "Ġcrit": 2587,
      "ously": 2588,
      "Ġred": 2589,
      "Ġshots": 2590,
      "Ġsoul": 2591,
      "Ġrare": 2592,
      "oman": 2593,
      "Ġsongs": 2594,
      "Ġpurs": 2595,
      "Ġwind": 2596,
      "ON": 2597,
      "Ġmoving": 2598,
      "head": 2599,
      "asure": 2600,
      "--": 2601,
      "Ġdecent": 2602,
      "ularly": 2603,
      "Ġ30": 2604,
      "men": 2605,
      "ĠEur": 2606,
      "Ġidentity": 2607,
      "enty": 2608,
      "Ġwritten": 2609,
      "erry": 2610,
      "Ġstruggle": 2611,
      "Ġvisit": 2612,
      "Ġeither": 2613,
      "cher": 2614,
      "Ġsurviv": 2615,
      "oved": 2616,
      "how": 2617,
      "Ġhumor": 2618,
      "ĠSouth": 2619,
      "ĠRobert": 2620,
      "Ġmass": 2621,
      "Ġrunning": 2622,
      "Ġcaus": 2623,
      "Ġwater": 2624,
      "ĠFr": 2625,
      "Ġneeds": 2626,
      "Ġful": 2627,
      "known": 2628,
      "Ġcost": 2629,
      "Ġdetective": 2630,
      "Ġmatter": 2631,
      "arre": 2632,
      "ĠEm": 2633,
      "Ġfollowing": 2634,
      "lex": 2635,
      "Ġty": 2636,
      "Ġrace": 2637,
      "ield": 2638,
      "olid": 2639,
      "Ġeye": 2640,
      "Ġresc": 2641,
      "omp": 2642,
      "ube": 2643,
      "ressed": 2644,
      "acing": 2645,
      "Ġinform": 2646,
      "Ġru": 2647,
      "Ġdetail": 2648,
      "reaking": 2649,
      "ply": 2650,
      "back": 2651,
      "Ġboyfriend": 2652,
      "Ġpassion": 2653,
      "Ġdifficult": 2654,
      "acy": 2655,
      "Ġmajor": 2656,
      "Ġuses": 2657,
      "ee": 2658,
      "Ġopen": 2659,
      "Ġremind": 2660,
      "osh": 2661,
      "exic": 2662,
      "aging": 2663,
      "Ġpull": 2664,
      "gest": 2665,
      "Ġclear": 2666,
      "Ġic": 2667,
      "ĠMart": 2668,
      "ya": 2669,
      "Ġsometimes": 2670,
      "Ġsummer": 2671,
      "Ġsystem": 2672,
      "Ġwitness": 2673,
      "ites": 2674,
      "Ġmagic": 2675,
      "Ġdam": 2676,
      "Ġforg": 2677,
      "ression": 2678,
      "Ġfr": 2679,
      "Ġaffair": 2680,
      "ĠAlso": 2681,
      "Ġgold": 2682,
      "imately": 2683,
      "Ġorgan": 2684,
      "Ġmark": 2685,
      "Ġstarted": 2686,
      "ĠAp": 2687,
      "ĠEnglish": 2688,
      "Ġwhe": 2689,
      "py": 2690,
      "bum": 2691,
      "Ġhappened": 2692,
      "ases": 2693,
      "Ġoutside": 2694,
      "Ġpath": 2695,
      "Ġhours": 2696,
      "ift": 2697,
      "ders": 2698,
      "Ġvib": 2699,
      "Ġadm": 2700,
      "Ġpriv": 2701,
      "Ġanimated": 2702,
      "Ġexcept": 2703,
      "Ġtransform": 2704,
      "pective": 2705,
      "Ġbaby": 2706,
      "body": 2707,
      "Ġconcept": 2708,
      "Ġtelevision": 2709,
      "Ġheav": 2710,
      "ilar": 2711,
      "ivil": 2712,
      "Ġground": 2713,
      "Ġparts": 2714,
      "ilarious": 2715,
      "Ġmoves": 2716,
      "Ġknows": 2717,
      "ey": 2718,
      "Ġviolent": 2719,
      "Ġwhom": 2720,
      "Ġwriting": 2721,
      "Ġauth": 2722,
      "Ġattention": 2723,
      "Ġserv": 2724,
      "ari": 2725,
      "Ġfilmed": 2726,
      "Ġmurdered": 2727,
      "sequ": 2728,
      "ĠMexic": 2729,
      "Ġdangerous": 2730,
      "Ġactual": 2731,
      "Ġterrible": 2732,
      "Ġforce": 2733,
      "ka": 2734,
      "Ġbrought": 2735,
      "Ġwood": 2736,
      "ĠWilliam": 2737,
      "Ġstate": 2738,
      "Ġportrait": 2739,
      "Ġcaught": 2740,
      "bo": 2741,
      "Ġkilling": 2742,
      "estival": 2743,
      "ological": 2744,
      "Ġbi": 2745,
      "mend": 2746,
      "Ġbecame": 2747,
      "Ġrece": 2748,
      "Ġdire": 2749,
      "Ġproblem": 2750,
      "boy": 2751,
      "Ġprotect": 2752,
      "Ġdig": 2753,
      "ĠThree": 2754,
      "Ġplans": 2755,
      "usion": 2756,
      "Ġpoet": 2757,
      "uine": 2758,
      "Ġexactly": 2759,
      "Ġcreate": 2760,
      "Ġaccept": 2761,
      "haps": 2762,
      "ĠTra": 2763,
      "nal": 2764,
      "Ġfire": 2765,
      "Ġliterally": 2766,
      "Ġconflict": 2767,
      "Ġlearns": 2768,
      "Ġscore": 2769,
      "Ġlim": 2770,
      "enge": 2771,
      "ĠCal": 2772,
      "Ġear": 2773,
      "ivid": 2774,
      "Ġ80": 2775,
      "Ġpicture": 2776,
      "Ġten": 2777,
      "ĠParis": 2778,
      "Ġreb": 2779,
      "Ġcred": 2780,
      "urt": 2781,
      "eg": 2782,
      "Ġship": 2783,
      "aur": 2784,
      "Ġactiv": 2785,
      "Ġguys": 2786,
      "Ġaband": 2787,
      "Ġlif": 2788,
      "cient": 2789,
      "ength": 2790,
      "Ġowner": 2791,
      "Ġruns": 2792,
      "rang": 2793,
      "ĠGeorge": 2794,
      "Ġtheat": 2795,
      "Ġwee": 2796,
      "Ġobvious": 2797,
      "Ġbeginning": 2798,
      "Ġrelease": 2799,
      "Ġdoctor": 2800,
      "iny": 2801,
      "Ġtowards": 2802,
      "reci": 2803,
      "Ġfear": 2804,
      "kes": 2805,
      "....": 2806,
      "sters": 2807,
      "Ġair": 2808,
      "ĠDis": 2809,
      "ĠHall": 2810,
      "illing": 2811,
      "Ġphys": 2812,
      "Ġmod": 2813,
      "ustr": 2814,
      "ama": 2815,
      "unting": 2816,
      "Ġhilarious": 2817,
      "Ġfans": 2818,
      "Ġconcert": 2819,
      "Ġboys": 2820,
      "Ġfigure": 2821,
      "Ġfascinating": 2822,
      "Ġprevious": 2823,
      "ĠPol": 2824,
      "Ġmemories": 2825,
      "Ġfine": 2826,
      "usive": 2827,
      "edi": 2828,
      "000": 2829,
      "Ġequ": 2830,
      "Ġserial": 2831,
      "olf": 2832,
      "Ġbeyond": 2833,
      "Ġess": 2834,
      "Ġauthor": 2835,
      "ĠLove": 2836,
      "ĠII": 2837,
      "Ġble": 2838,
      "box": 2839,
      "Ġstreet": 2840,
      "Ġexplores": 2841,
      "ĠGreat": 2842,
      "inese": 2843,
      "Ġadv": 2844,
      "Ġ195": 2845,
      "Ġinde": 2846,
      "ĠWal": 2847,
      "AR": 2848,
      "Ġcorr": 2849,
      "Ġpossible": 2850,
      "Ġfa": 2851,
      "Ġkinda": 2852,
      "Ġtradition": 2853,
      "Ġcouldn": 2854,
      "Ġcomplex": 2855,
      "Ġled": 2856,
      "Ġaf": 2857,
      "Ġolder": 2858,
      "Ġalbum": 2859,
      "Ġclaim": 2860,
      "Ġdefe": 2861,
      "ried": 2862,
      "work": 2863,
      "while": 2864,
      "Ġintrodu": 2865,
      "ained": 2866,
      "Ġknew": 2867,
      "Ġsleep": 2868,
      "ĠEurope": 2869,
      "ĠLee": 2870,
      "Ġmale": 2871,
      "ĠWell": 2872,
      "Ġarrives": 2873,
      "Ġinnoc": 2874,
      "ada": 2875,
      "Ġeventually": 2876,
      "Ġcute": 2877,
      "Ġcriminal": 2878,
      "ĠPeter": 2879,
      "Ġmarry": 2880,
      "come": 2881,
      "ij": 2882,
      "Ġfighting": 2883,
      "Ġleader": 2884,
      "what": 2885,
      "str": 2886,
      "Ġdesc": 2887,
      "Ġrese": 2888,
      "Ġ194": 2889,
      "Ġsin": 2890,
      "Ġdeterm": 2891,
      "Ġwealthy": 2892,
      "Ġbuilding": 2893,
      "ĠPer": 2894,
      "ĠBen": 2895,
      "Ġspec": 2896,
      "Ġdi": 2897,
      "Ġmyself": 2898,
      "Ġconfront": 2899,
      "illy": 2900,
      "omin": 2901,
      "Ġmedia": 2902,
      "Ġsurvive": 2903,
      "gn": 2904,
      "Ġsal": 2905,
      "ĠTheir": 2906,
      "Ġepisode": 2907,
      "Ġalien": 2908,
      "Ġsuccessful": 2909,
      "Ġcinematography": 2910,
      "ruction": 2911,
      "itted": 2912,
      "Ġcolor": 2913,
      "ST": 2914,
      "Ġgenuine": 2915,
      "ests": 2916,
      "icide": 2917,
      "Ġteenage": 2918,
      "erson": 2919,
      "Ġproblems": 2920,
      "ium": 2921,
      "Ġfeaturing": 2922,
      "Ġbrothers": 2923,
      "rama": 2924,
      "stit": 2925,
      "Ġprop": 2926,
      "Ġcru": 2927,
      "irector": 2928,
      "ĠEven": 2929,
      "Ġincredible": 2930,
      "okes": 2931,
      "It": 2932,
      "ued": 2933,
      "Ġrid": 2934,
      "Ġfilmmakers": 2935,
      "Ġsituation": 2936,
      "cious": 2937,
      "Ġnumber": 2938,
      "track": 2939,
      "Ġterrif": 2940,
      "Ġbecoming": 2941,
      "Ġdebut": 2942,
      "ĠWest": 2943,
      "Ġ193": 2944,
      "Ġpract": 2945,
      "Ġtwist": 2946,
      "ĠEn": 2947,
      "ension": 2948,
      "Ġkidnapp": 2949,
      "inn": 2950,
      "Ġsilent": 2951,
      "Ġappears": 2952,
      "onna": 2953,
      "Ġgiving": 2954,
      "aches": 2955,
      "aff": 2956,
      "room": 2957,
      "ken": 2958,
      "rant": 2959,
      "dy": 2960,
      "iers": 2961,
      "Ġcharming": 2962,
      "Ġones": 2963,
      "ĠJoe": 2964,
      "LL": 2965,
      "Ġsubt": 2966,
      "Ġthird": 2967,
      "ĠJul": 2968,
      "Ġfarm": 2969,
      "aling": 2970,
      "Ġopening": 2971,
      "Ġ15": 2972,
      "Ġcheck": 2973,
      "Ġfur": 2974,
      "aining": 2975,
      "ender": 2976,
      "Ġmeaning": 2977,
      "Ġchalleng": 2978,
      "Ġfaces": 2979,
      "atched": 2980,
      "Ġeasy": 2981,
      "ĠSm": 2982,
      "hern": 2983,
      "anda": 2984,
      "Ġquality": 2985,
      "ĠMad": 2986,
      "Ġediting": 2987,
      "Ġlegendary": 2988,
      "Ġremote": 2989,
      "ĠLike": 2990,
      "Ġcreated": 2991,
      "Ġappreci": 2992,
      "ĠRob": 2993,
      "Ġagent": 2994,
      "Ġwestern": 2995,
      "aper": 2996,
      "Ġsees": 2997,
      "Ġdestroy": 2998,
      "Ġminute": 2999,
      "ext": 3000,
      "chie": 3001,
      "mosp": 3002,
      "Ġrelig": 3003,
      "Ġbiz": 3004,
      "uel": 3005,
      "ographer": 3006,
      "Ġpred": 3007,
      "Ġapartment": 3008,
      "Ġheard": 3009,
      "Ġprep": 3010,
      "ĠChinese": 3011,
      "Ġbeauty": 3012,
      "earing": 3013,
      "angu": 3014,
      "ĠRichard": 3015,
      "Ġsurround": 3016,
      "ius": 3017,
      "Ġsinger": 3018,
      "Ġdeadly": 3019,
      "Ġtyp": 3020,
      "Ġmilitary": 3021,
      "ĠNe": 3022,
      "Ġve": 3023,
      "owers": 3024,
      "ague": 3025,
      "Ġsuddenly": 3026,
      "ights": 3027,
      "Ġwords": 3028,
      "ĠX": 3029,
      "ĠThen": 3030,
      "Ġlover": 3031,
      "fer": 3032,
      "Ġforever": 3033,
      "ishing": 3034,
      "Ġener": 3035,
      "Ġpeace": 3036,
      "Ġclub": 3037,
      "ision": 3038,
      "Ġstarring": 3039,
      "olic": 3040,
      "Ġcrazy": 3041,
      "Ġparticularly": 3042,
      "Ġsupposed": 3043,
      "oe": 3044,
      "arks": 3045,
      "ging": 3046,
      "ĠVery": 3047,
      "Ġsuspect": 3048,
      "Ġdad": 3049,
      "Ġbank": 3050,
      "Ġatmosp": 3051,
      "Ġencounter": 3052,
      "Ġhidden": 3053,
      "Ġcompos": 3054,
      "rise": 3055,
      "Ġmemory": 3056,
      "Ġleaving": 3057,
      "Ġadaptation": 3058,
      "Ġbrill": 3059,
      "Ġran": 3060,
      "Ġtouch": 3061,
      "ronic": 3062,
      "OR": 3063,
      "ĠDuring": 3064,
      "Ġwed": 3065,
      "ĠHong": 3066,
      "urd": 3067,
      "Ġansw": 3068,
      "Ġsays": 3069,
      "Ġmach": 3070,
      "Ġtrouble": 3071,
      "ĠChe": 3072,
      "Ġdiscuss": 3073,
      "ormal": 3074,
      "Ġadult": 3075,
      "hetic": 3076,
      "ider": 3077,
      "Ġfinding": 3078,
      "Ġdesert": 3079,
      "Ġhappen": 3080,
      "ĠKong": 3081,
      "ING": 3082,
      "ugg": 3083,
      "verse": 3084,
      "eer": 3085,
      "Ġpick": 3086,
      "ĠAlex": 3087,
      "icious": 3088,
      "Ġstreets": 3089,
      "war": 3090,
      "Ġvamp": 3091,
      "ĠLou": 3092,
      "cast": 3093,
      "ionally": 3094,
      "Ġmelod": 3095,
      "ĠPhil": 3096,
      "Ġprogram": 3097,
      "Ġofficer": 3098,
      "over": 3099,
      "Ġdie": 3100,
      "Ġsoundtrack": 3101,
      "unning": 3102,
      "Ġ202": 3103,
      "Ġlandsc": 3104,
      "owed": 3105,
      "Ġmas": 3106,
      "Ġhuge": 3107,
      "ĠItalian": 3108,
      "Ġdraw": 3109,
      "Ġthinking": 3110,
      "Ġemploy": 3111,
      "Ġworse": 3112,
      "Ġneighbor": 3113,
      "Ġid": 3114,
      "yo": 3115,
      "Ġyouth": 3116,
      "ĠNaz": 3117,
      "idence": 3118,
      "Ġda": 3119,
      "Ġnearly": 3120,
      "Ġdecided": 3121,
      "ĠPat": 3122,
      "Ġbare": 3123,
      "Ġbackground": 3124,
      "Ġsa": 3125,
      "Ġlonger": 3126,
      "ĠGl": 3127,
      "ĠKore": 3128,
      "Ġbizarre": 3129,
      "Ġsimply": 3130,
      "Ġcontem": 3131,
      "umentary": 3132,
      "EN": 3133,
      "Ġrealize": 3134,
      "Ġsetting": 3135,
      "Ġboo": 3136,
      "Ġproduced": 3137,
      "omen": 3138,
      "ki": 3139,
      "Ġpil": 3140,
      "Ġchanges": 3141,
      "ospital": 3142,
      "Ġsport": 3143,
      "Ġrepres": 3144,
      "Ġpair": 3145,
      "Ġcry": 3146,
      "Ġmovement": 3147,
      "Ġearli": 3148,
      "Ġquiet": 3149,
      "Ġissues": 3150,
      "Ġcomplic": 3151,
      "Ġoffers": 3152,
      "ita": 3153,
      "Ġloves": 3154,
      "Ġfate": 3155,
      "eral": 3156,
      "Ġok": 3157,
      "Ġstruggling": 3158,
      "ĠSup": 3159,
      "Ġimmedi": 3160,
      "Ġens": 3161,
      "Ġfood": 3162,
      "ĠSim": 3163,
      "Ġcorrupt": 3164,
      "iety": 3165,
      "Ġsimilar": 3166,
      "alls": 3167,
      "Ġdisapp": 3168,
      "OU": 3169,
      "Ġtroub": 3170,
      "Ġsepar": 3171,
      "Ġtragic": 3172,
      "eds": 3173,
      "Ġhaunted": 3174,
      "Ġexperiences": 3175,
      "Ġsusp": 3176,
      "Ġbunch": 3177,
      "ĠBob": 3178,
      "ula": 3179,
      "Ġ70": 3180,
      "uct": 3181,
      "ency": 3182,
      "ĠBill": 3183,
      "ovie": 3184,
      "Ġdeliver": 3185,
      "ume": 3186,
      "Ġintimate": 3187,
      "Ġund": 3188,
      "Ġrecently": 3189,
      "law": 3190,
      "Ġexplo": 3191,
      "bs": 3192,
      "Ġdirection": 3193,
      "ĠBased": 3194,
      "ĠAustral": 3195,
      "oof": 3196,
      "ogn": 3197,
      "Ġking": 3198,
      "ashion": 3199,
      "vert": 3200,
      "Ġshare": 3201,
      "han": 3202,
      "Ġalive": 3203,
      "Ġrecom": 3204,
      "Ġbiggest": 3205,
      "Ġrand": 3206,
      "ĠLu": 3207,
      "Ġcannot": 3208,
      "Ġcha": 3209,
      "Ġearth": 3210,
      "Ġmillion": 3211,
      "ipp": 3212,
      "Ġhear": 3213,
      "ĠSet": 3214,
      "Ġincre": 3215,
      "Ġbal": 3216,
      "Ġreun": 3217,
      "Ġnews": 3218,
      "ulous": 3219,
      "ĠPal": 3220,
      "using": 3221,
      "Ġpartner": 3222,
      "ĠLa": 3223,
      "Ġcomic": 3224,
      "Ġcertainly": 3225,
      "Ġrecommend": 3226,
      "Ġmer": 3227,
      "Ġdepict": 3228,
      "Ġancient": 3229,
      "Ġdeser": 3230,
      "house": 3231,
      "Ġimpact": 3232,
      "Ġindustry": 3233,
      "Ġexperimental": 3234,
      "Ġclim": 3235,
      "ander": 3236,
      "Ġspeak": 3237,
      "wise": 3238,
      "Ġyounger": 3239,
      "Ġmat": 3240,
      "Ġanti": 3241,
      "pose": 3242,
      "Ġrespons": 3243,
      "order": 3244,
      "Ġfast": 3245,
      "lie": 3246,
      "Ġlone": 3247,
      "itty": 3248,
      "Ġelements": 3249,
      "Ġshop": 3250,
      "Ġfol": 3251,
      "Ġfle": 3252,
      "Ġextremely": 3253,
      "Ġ16": 3254,
      "Ġintri": 3255,
      "Ġshorts": 3256,
      "ended": 3257,
      "Ġideas": 3258,
      "orter": 3259,
      "Ġflick": 3260,
      "Ġholid": 3261,
      "hy": 3262,
      "asing": 3263,
      "Ġrise": 3264,
      "Ġexpected": 3265,
      "Ġimage": 3266,
      "Ġroll": 3267,
      "Ġgone": 3268,
      "ĠIndian": 3269,
      "Ġkeeps": 3270,
      "Ġultimately": 3271,
      "Ġforget": 3272,
      "Ġentirely": 3273,
      "Ġinspired": 3274,
      "Ġbrilliant": 3275,
      "face": 3276,
      "ini": 3277,
      "iving": 3278,
      "Ġfort": 3279,
      "Ġgave": 3280,
      "Ġunlike": 3281,
      "ĠLet": 3282,
      "oices": 3283,
      "Ġprotagon": 3284,
      "oke": 3285,
      "Ġeas": 3286,
      "Ġdeb": 3287,
      "Ġbrutal": 3288,
      "portun": 3289,
      "Ġhang": 3290,
      "hab": 3291,
      "Ġrandom": 3292,
      "esome": 3293,
      "Ġoverall": 3294,
      "Ġproper": 3295,
      "Ġhate": 3296,
      "urban": 3297,
      "yer": 3298,
      "Ġslight": 3299,
      "Ġstat": 3300,
      "Ġtype": 3301,
      "rip": 3302,
      "ĠMal": 3303,
      "Ġfeelings": 3304,
      "we": 3305,
      "Ġwonderful": 3306,
      "Ġjoy": 3307,
      "mm": 3308,
      "Ġaspect": 3309,
      "life": 3310,
      "Ġlady": 3311,
      "Ġtraum": 3312,
      "Ġassass": 3313,
      "Ġdied": 3314,
      "Ġmonster": 3315,
      "Ġrival": 3316,
      "Ġapproach": 3317,
      "Ġopportun": 3318,
      "Ġartists": 3319,
      "ĠSant": 3320,
      "Ġbed": 3321,
      "Ġstudio": 3322,
      "Ġdemon": 3323,
      "Ġjournal": 3324,
      "pet": 3325,
      "Ġhospital": 3326,
      "edom": 3327,
      "Ġindivid": 3328,
      "ĠNorth": 3329,
      "Ġsuicide": 3330,
      "Ġworked": 3331,
      "oor": 3332,
      "Ġspect": 3333,
      "Ġfamiliar": 3334,
      "Ġarmy": 3335,
      "Ġplanet": 3336,
      "Ġpossess": 3337,
      "Ġcreative": 3338,
      "rage": 3339,
      "Ġcinematic": 3340,
      "Ġforest": 3341,
      "Ġbond": 3342,
      "ashing": 3343,
      "Ġrul": 3344,
      "Ġstruct": 3345,
      "Ġlangu": 3346,
      "Ġrelationships": 3347,
      "Ġstore": 3348,
      "orable": 3349,
      "Ġdisturb": 3350,
      "Ġshowing": 3351,
      "Ġcatch": 3352,
      "ĠOf": 3353,
      "lying": 3354,
      "Ġgonna": 3355,
      "Ġsaying": 3356,
      "oes": 3357,
      "ĠHen": 3358,
      "cked": 3359,
      "down": 3360,
      "Ġjustice": 3361,
      "Ġmart": 3362,
      "ĠLos": 3363,
      "uted": 3364,
      "Ġ50": 3365,
      "ker": 3366,
      "Ġsett": 3367,
      "Ġtragedy": 3368,
      "Ġdetermined": 3369,
      "Ġamount": 3370,
      "Ġconvin": 3371,
      "Ġut": 3372,
      "Ġapparent": 3373,
      "Ġrespect": 3374,
      "ellent": 3375,
      "ĠMor": 3376,
      "Ġabandoned": 3377,
      "VD": 3378,
      "Ġfilmmaking": 3379,
      "Ġmental": 3380,
      "ĠSer": 3381,
      "Ġseemingly": 3382,
      "Ġquestions": 3383,
      "aked": 3384,
      "Ġprivate": 3385,
      "Ġjoin": 3386,
      "watch": 3387,
      "Ġusual": 3388,
      "eal": 3389,
      "Ġrural": 3390,
      "uit": 3391,
      "Ġmob": 3392,
      "orious": 3393,
      "ĠRed": 3394,
      "Ġsomehow": 3395,
      "ham": 3396,
      "Ġconvers": 3397,
      "oration": 3398,
      "Ġrap": 3399,
      "ĠMary": 3400,
      "Ġmonths": 3401,
      "Ġsecrets": 3402,
      "Ġwhether": 3403,
      "Ġtrail": 3404,
      "Ġvac": 3405,
      "Ġgrowing": 3406,
      "Ġloss": 3407,
      "terbox": 3408,
      "Ġ12": 3409,
      "rie": 3410,
      "ye": 3411,
      "Ġsqu": 3412,
      "Ġfilled": 3413,
      "Ġrout": 3414,
      "Ġclearly": 3415,
      "ette": 3416,
      "Ġnatural": 3417,
      "ĠUnited": 3418,
      "Ġexistence": 3419,
      "ĠSan": 3420,
      "IS": 3421,
      "ĠKe": 3422,
      "Ġindividual": 3423,
      "Ġcurrent": 3424,
      "Ġinsane": 3425,
      "Ġrac": 3426,
      "Ġaccidentally": 3427,
      "ĠJean": 3428,
      "Ġpure": 3429,
      "otten": 3430,
      "Ġhotel": 3431,
      "Ġrevolution": 3432,
      "ĠGood": 3433,
      "Ġet": 3434,
      "Ġnightm": 3435,
      "iron": 3436,
      "Ġtelling": 3437,
      "Ġdeeply": 3438,
      "Ġattract": 3439,
      "Ġwedding": 3440,
      "Ġbasically": 3441,
      "ES": 3442,
      "Ġgradu": 3443,
      "Ġportray": 3444,
      "OV": 3445,
      "Ġenv": 3446,
      "ĠMark": 3447,
      "ĠOver": 3448,
      "odies": 3449,
      "ishes": 3450,
      "Ġdoll": 3451,
      "ta": 3452,
      "Ġdoor": 3453,
      "Ġdesperate": 3454,
      "Ġpack": 3455,
      "Ġmurders": 3456,
      "ĠTr": 3457,
      "Ġdin": 3458,
      "Ġseason": 3459,
      "Ġperhaps": 3460,
      "ĠMic": 3461,
      "ios": 3462,
      "Ġdrag": 3463,
      "ĠMag": 3464,
      "Ġepic": 3465,
      "riter": 3466,
      "Ġhelps": 3467,
      "ĠSat": 3468,
      "Ġenergy": 3469,
      "Ġcivil": 3470,
      "Ġdrop": 3471,
      "Ġtravels": 3472,
      "Ġmessage": 3473,
      "Ġincredibly": 3474,
      "ĠFrance": 3475,
      "ĠMean": 3476,
      "agers": 3477,
      "Ġsell": 3478,
      "Ġenjoyable": 3479,
      "bed": 3480,
      "Ġsea": 3481,
      "oil": 3482,
      "oly": 3483,
      "ĠAnt": 3484,
      "riff": 3485,
      "ples": 3486,
      "reg": 3487,
      "Ġachie": 3488,
      "mark": 3489,
      "Ġobject": 3490,
      "Ġslowly": 3491,
      "ieces": 3492,
      "Ġpremise": 3493,
      "Ġisol": 3494,
      "Ġtar": 3495,
      "Ġcreep": 3496,
      "uses": 3497,
      "itor": 3498,
      "Ġchanged": 3499,
      "Ġchoice": 3500,
      "Ġdecades": 3501,
      "Ġdies": 3502,
      "Ġalthough": 3503,
      "Ġrescue": 3504,
      "azz": 3505,
      "!!!": 3506,
      "Ġhonestly": 3507,
      "Ġfellow": 3508,
      "Ġcartoon": 3509,
      "Ġsounds": 3510,
      "Ġinterested": 3511,
      "ĠThrough": 3512,
      "Ġcourt": 3513,
      "atever": 3514,
      "resh": 3515,
      "terboxd": 3516,
      "Ġweek": 3517,
      "ĠBy": 3518,
      "ĠDoc": 3519,
      "Ġterms": 3520,
      "Ġhistorical": 3521,
      "ĠPart": 3522,
      "Ġplaces": 3523,
      "Ġspent": 3524,
      "ned": 3525,
      "Ġsurreal": 3526,
      "Ġmanages": 3527,
      "awa": 3528,
      "ĠWho": 3529,
      "heart": 3530,
      "aly": 3531,
      "Ġwait": 3532,
      "ators": 3533,
      "oose": 3534,
      "Ġwid": 3535,
      "rey": 3536,
      "Ġaccount": 3537,
      "Ġeld": 3538,
      "Ġemer": 3539,
      "Ġla": 3540,
      "ĠGen": 3541,
      "Ġtrapped": 3542,
      "ga": 3543,
      "rian": 3544,
      "Ġbomb": 3545,
      "Ġencounters": 3546,
      "Ġhy": 3547,
      "ified": 3548,
      "bl": 3549,
      "urch": 3550,
      "rad": 3551,
      "Ġpotential": 3552,
      "Ġatmosphere": 3553,
      "Ġfreedom": 3554,
      "ĠDVD": 3555,
      "Ġsav": 3556,
      "Ġshad": 3557,
      "piece": 3558,
      "Ġthinks": 3559,
      "anna": 3560,
      "ĠEv": 3561,
      "upid": 3562,
      "Ġbrief": 3563,
      "Ġride": 3564,
      "ĠGo": 3565,
      "Ġsomewhat": 3566,
      "Ġpress": 3567,
      "win": 3568,
      "Ġword": 3569,
      "ja": 3570,
      "Ġkills": 3571,
      "ĠThese": 3572,
      "Ġsequel": 3573,
      "ĠðŁĺ": 3574,
      "angers": 3575,
      "Ġglob": 3576,
      "Ġlines": 3577,
      "Ġhighly": 3578,
      "ĠAngeles": 3579,
      "Ġfashion": 3580,
      "Ġvictims": 3581,
      "ĠMus": 3582,
      "Ġrecogn": 3583,
      "ĠTok": 3584,
      "ora": 3585,
      "Ġblind": 3586,
      "ĠVal": 3587,
      "iple": 3588,
      "Ġcoun": 3589,
      "Ġcollect": 3590,
      "night": 3591,
      "Ġsilly": 3592,
      "Ġcris": 3593,
      "bing": 3594,
      "ern": 3595,
      "Ġhighlight": 3596,
      "Ġzomb": 3597,
      "iest": 3598,
      "Ġkept": 3599,
      "Ġassist": 3600,
      "Ġfantasy": 3601,
      "Ġfamilies": 3602,
      "ĠPres": 3603,
      "ero": 3604,
      "ĠMa": 3605,
      "Ġperspective": 3606,
      "father": 3607,
      "irty": 3608,
      "Ġgeneral": 3609,
      "Ġnu": 3610,
      "cks": 3611,
      "ĠSl": 3612,
      "ĠMeanwhile": 3613,
      "Ġmember": 3614,
      "Ġneeded": 3615,
      "isf": 3616,
      "Ġdesire": 3617,
      "Ġsoldiers": 3618,
      "Ġcomment": 3619,
      "Ġsugg": 3620,
      "Ġwouldn": 3621,
      "uous": 3622,
      "ĠRussian": 3623,
      "Ġremains": 3624,
      "Ġinvestigation": 3625,
      "idents": 3626,
      "Ġcheap": 3627,
      "Ġimmediately": 3628,
      "Ġris": 3629,
      "Ġdouble": 3630,
      "Ġheavy": 3631,
      "Ġfights": 3632,
      "Ġseeks": 3633,
      "Ġjokes": 3634,
      "Ġhealth": 3635,
      "Ġdramatic": 3636,
      "Ġfully": 3637,
      "Ġcultural": 3638,
      "Ġpun": 3639,
      "Ġcy": 3640,
      "ĠDespite": 3641,
      "Ġnav": 3642,
      "Ġearlier": 3643,
      "Ġporn": 3644,
      "Ġcold": 3645,
      "Ġended": 3646,
      "Ġaren": 3647,
      "Ġsurprise": 3648,
      "ĠCo": 3649,
      "iforn": 3650,
      "Ġmartial": 3651,
      "Ġkey": 3652,
      "Ġtem": 3653,
      "Ġindepend": 3654,
      "Ġpresence": 3655,
      "Ġsac": 3656,
      "ĠSy": 3657,
      "Ġfaith": 3658,
      "Ġcow": 3659,
      "unny": 3660,
      "ĠChina": 3661,
      "Ġimpressive": 3662,
      "Ġfurther": 3663,
      "rog": 3664,
      "arian": 3665,
      "This": 3666,
      "kin": 3667,
      "rel": 3668,
      "ĠUnfortunately": 3669,
      "ressive": 3670,
      "Ġtotally": 3671,
      "ived": 3672,
      "ĠEngland": 3673,
      "natural": 3674,
      "Ġconcer": 3675,
      "Ġhaven": 3676,
      "porary": 3677,
      "ĠDay": 3678,
      "Ġbrain": 3679,
      "Ġlived": 3680,
      "gl": 3681,
      "nie": 3682,
      "Ġtone": 3683,
      "ĠBoy": 3684,
      "Ġboard": 3685,
      "Ġhopes": 3686,
      "Ġstation": 3687,
      "ĠMel": 3688,
      "Ġborn": 3689,
      "ĠCr": 3690,
      "Ġwoods": 3691,
      "ĠStates": 3692,
      "ĠRay": 3693,
      "ĠSch": 3694,
      "ĠBig": 3695,
      "Ġfavour": 3696,
      "ĠBel": 3697,
      "Ġcommon": 3698,
      "Ġgiant": 3699,
      "ĠFollow": 3700,
      "Ġheads": 3701,
      "Ġinvestigate": 3702,
      "ID": 3703,
      "nam": 3704,
      "Ġrecent": 3705,
      "icking": 3706,
      "Ġprove": 3707,
      "Ġbroad": 3708,
      "Ġconsequ": 3709,
      "Ġpregn": 3710,
      "ĠCaliforn": 3711,
      "ops": 3712,
      "Ġtarget": 3713,
      "oud": 3714,
      "aped": 3715,
      "Ġdyn": 3716,
      "Ġprofessional": 3717,
      "Ġvision": 3718,
      "Ġarts": 3719,
      "ĠStill": 3720,
      "ĠFirst": 3721,
      "Ġlonely": 3722,
      "ĠAfrican": 3723,
      "Ġfalling": 3724,
      "Ġ60": 3725,
      "cra": 3726,
      "ĠMartin": 3727,
      "ruct": 3728,
      "Ġtalent": 3729,
      "Ġenviron": 3730,
      "Ġcro": 3731,
      "ranged": 3732,
      "ĠHigh": 3733,
      "Ġunc": 3734,
      "ĠScott": 3735,
      "Ġwrite": 3736,
      "Ġroles": 3737,
      "Ġparticular": 3738,
      "Ġputs": 3739,
      "Ġgrow": 3740,
      "ĠHam": 3741,
      "berg": 3742,
      "ĠWW": 3743,
      "orgeous": 3744,
      "Ġlovely": 3745,
      "Ġburn": 3746,
      "ĠTe": 3747,
      "itious": 3748,
      "Ġexcellent": 3749,
      "Ġlanguage": 3750,
      "ĠRock": 3751,
      "Ġanimals": 3752,
      "Ġprostit": 3753,
      "Ġtheater": 3754,
      "kend": 3755,
      "Ġbreaks": 3756,
      "hem": 3757,
      "ica": 3758,
      "Ġinit": 3759,
      "ĠTer": 3760,
      "ĠYoung": 3761,
      "Ġscientist": 3762,
      "well": 3763,
      "Ġfantastic": 3764,
      "ether": 3765,
      "asons": 3766,
      "Ġcaptured": 3767,
      "ih": 3768,
      "Ġloses": 3769,
      "aven": 3770,
      "Ġtort": 3771,
      "Ġlength": 3772,
      "Ġeduc": 3773,
      "Ġimagine": 3774,
      "Ġreveals": 3775,
      "Ġcollection": 3776,
      "IT": 3777,
      "Ġdying": 3778,
      "cis": 3779,
      "ĠMax": 3780,
      "mother": 3781,
      "OO": 3782,
      "ata": 3783,
      "ĠEast": 3784,
      "esb": 3785,
      "Ġlooked": 3786,
      "Ġsed": 3787,
      "Ġcarry": 3788,
      "action": 3789,
      "Ġtext": 3790,
      "ĠAN": 3791,
      "Ġshown": 3792,
      "anic": 3793,
      "ĠAg": 3794,
      "Ġeasily": 3795,
      "arily": 3796,
      "Ġpal": 3797,
      "Ġhits": 3798,
      "Ġcomfort": 3799,
      "Ġphysical": 3800,
      "Ġoffice": 3801,
      "minute": 3802,
      "Ġannoy": 3803,
      "Ġ100": 3804,
      "imp": 3805,
      "dom": 3806,
      "gue": 3807,
      "ĠWestern": 3808,
      "ĠIm": 3809,
      "Ġdelight": 3810,
      "Ġgag": 3811,
      "ode": 3812,
      "10": 3813,
      "Ġchem": 3814,
      "Ġunknown": 3815,
      "Ġrecon": 3816,
      "Ġassign": 3817,
      "Ġpoints": 3818,
      "ĠMore": 3819,
      "Ġneg": 3820,
      "Ġhorrif": 3821,
      "Ġunp": 3822,
      "aint": 3823,
      "breaking": 3824,
      "Ġsour": 3825,
      "Ġstupid": 3826,
      "Ġbarely": 3827,
      "gal": 3828,
      "mon": 3829,
      "Ġgangster": 3830,
      "ĠPet": 3831,
      "ĠTex": 3832,
      "ĠNight": 3833,
      "Ġcrisis": 3834,
      "no": 3835,
      "ĠCalifornia": 3836,
      "Ġreach": 3837,
      "Ġconnection": 3838,
      "ĠJan": 3839,
      "Ġluck": 3840,
      "star": 3841,
      "olen": 3842,
      "Ġasks": 3843,
      "urity": 3844,
      "ĠCent": 3845,
      "Ġsinging": 3846,
      "Ġtrib": 3847,
      "alg": 3848,
      "Ġfran": 3849,
      "ĠJew": 3850,
      "more": 3851,
      "Ġkidnapped": 3852,
      "Ġholiday": 3853,
      "Ġattend": 3854,
      "nding": 3855,
      "Ġopportunity": 3856,
      "lessly": 3857,
      "ji": 3858,
      "Ġabsurd": 3859,
      "Ġdriver": 3860,
      "Ch": 3861,
      "Ġpup": 3862,
      "Ġhorse": 3863,
      "ĠLittle": 3864,
      "Ġinnocent": 3865,
      "Ġwhatever": 3866,
      "just": 3867,
      "Ġbeat": 3868,
      "Ġunderw": 3869,
      "ĠYouT": 3870,
      "Ġ.": 3871,
      "Ġcompelling": 3872,
      "Ġbeloved": 3873,
      "Ġuncle": 3874,
      "Ġspot": 3875,
      "Ġthemes": 3876,
      "Ġglad": 3877,
      "aire": 3878,
      "ĠTH": 3879,
      "Ġhair": 3880,
      "Ġcapture": 3881,
      "St": 3882,
      "Ġintense": 3883,
      "Ġarrest": 3884,
      "ano": 3885,
      "Ġlay": 3886,
      "Ġ$": 3887,
      "yal": 3888,
      "ĠMin": 3889,
      "Ġtough": 3890,
      "Ġ40": 3891,
      "Ġmeeting": 3892,
      "Ġdrunk": 3893,
      "eah": 3894,
      "ĠOl": 3895,
      "Ġheld": 3896,
      "ulation": 3897,
      "Ġoccas": 3898,
      "Ġwaiting": 3899,
      "ĠOh": 3900,
      "Ġcharm": 3901,
      "ĠAc": 3902,
      "Ġradio": 3903,
      "Ġepisodes": 3904,
      "Ġcaptures": 3905,
      "Ġelect": 3906,
      "now": 3907,
      "ĠIr": 3908,
      "Ġimpro": 3909,
      "Ġast": 3910,
      "Ġ1970": 3911,
      "AS": 3912,
      "Ġrepresent": 3913,
      "Ġready": 3914,
      "Ġdrawn": 3915,
      "Ġdoub": 3916,
      "Ġsurprisingly": 3917,
      "iko": 3918,
      "ĠKar": 3919,
      "Ġcause": 3920,
      "Ġonto": 3921,
      "Ġrealizes": 3922,
      "ask": 3923,
      "Ġdu": 3924,
      "Ġoppos": 3925,
      "inct": 3926,
      "Ġasp": 3927,
      "set": 3928,
      "ability": 3929,
      "Ġjud": 3930,
      "Ġmagical": 3931,
      "Ġbul": 3932,
      "Ġprotagonist": 3933,
      "Ġ13": 3934,
      "Ġbroken": 3935,
      "Ġmention": 3936,
      "ste": 3937,
      "ique": 3938,
      "Ġaest": 3939,
      "ĠFin": 3940,
      "Ġcontinues": 3941,
      "Ġsequence": 3942,
      "Ġgenuinely": 3943,
      "Ġvol": 3944,
      "ission": 3945,
      "Ġmatch": 3946,
      "Ġpus": 3947,
      "sey": 3948,
      "ĠAlthough": 3949,
      "esting": 3950,
      "Ġring": 3951,
      "Ġunfold": 3952,
      "Ġnightmare": 3953,
      "ĠGold": 3954,
      "ĠAnother": 3955,
      "Ġrobber": 3956,
      "Ġinternational": 3957,
      "ĠPark": 3958,
      "ĠFrancis": 3959,
      "Ġsurprised": 3960,
      "Ġmut": 3961,
      "Ġsick": 3962,
      "Ġdirectors": 3963,
      "Ġcapital": 3964,
      "Ġobsessed": 3965,
      "ibility": 3966,
      "Ġfresh": 3967,
      "Ġmyth": 3968,
      "Ġanth": 3969,
      "with": 3970,
      "ĠReally": 3971,
      "Ġteenager": 3972,
      "Wh": 3973,
      "Ġlandscape": 3974,
      "ĠJon": 3975,
      "ilities": 3976,
      "Ġaim": 3977,
      "Ġservice": 3978,
      "Ġrefer": 3979,
      "Ġsupernatural": 3980,
      "aph": 3981,
      "Ġdrugs": 3982,
      "away": 3983,
      "Ġimposs": 3984,
      "illa": 3985,
      "Ġpolitics": 3986,
      "Ġdull": 3987,
      "ĠLi": 3988,
      "retty": 3989,
      "Ġemp": 3990,
      "Ġprim": 3991,
      "Ġtried": 3992,
      "Ġstudy": 3993,
      "Ġdate": 3994,
      "ago": 3995,
      "ĠKen": 3996,
      "Ġlocation": 3997,
      "Ġbelieves": 3998,
      "ĠTokyo": 3999
    },
    "merges": [
      [
        "Ġ",
        "t"
      ],
      [
        "Ġ",
        "a"
      ],
      [
        "h",
        "e"
      ],
      [
        "i",
        "n"
      ],
      [
        "Ġt",
        "he"
      ],
      [
        "Ġ",
        "s"
      ],
      [
        "e",
        "r"
      ],
      [
        "Ġ",
        "o"
      ],
      [
        "r",
        "e"
      ],
      [
        "i",
        "s"
      ],
      [
        "Ġ",
        "w"
      ],
      [
        "n",
        "d"
      ],
      [
        "Ġ",
        "f"
      ],
      [
        "Ġ",
        "b"
      ],
      [
        "a",
        "t"
      ],
      [
        "i",
        "t"
      ],
      [
        "e",
        "s"
      ],
      [
        "in",
        "g"
      ],
      [
        "e",
        "n"
      ],
      [
        "Ġ",
        "c"
      ],
      [
        "Ġ",
        "m"
      ],
      [
        "o",
        "n"
      ],
      [
        "o",
        "r"
      ],
      [
        "a",
        "n"
      ],
      [
        "Ġ",
        "h"
      ],
      [
        "Ġo",
        "f"
      ],
      [
        "a",
        "r"
      ],
      [
        "o",
        "u"
      ],
      [
        "Ġa",
        "nd"
      ],
      [
        "a",
        "l"
      ],
      [
        "Ġt",
        "o"
      ],
      [
        "Ġ",
        "d"
      ],
      [
        "Ġ",
        "p"
      ],
      [
        "e",
        "d"
      ],
      [
        "Ġ",
        "in"
      ],
      [
        "Ġ",
        "l"
      ],
      [
        "Ġt",
        "h"
      ],
      [
        "i",
        "l"
      ],
      [
        "o",
        "m"
      ],
      [
        "a",
        "s"
      ],
      [
        "i",
        "c"
      ],
      [
        "l",
        "y"
      ],
      [
        "Ġ",
        "g"
      ],
      [
        "Ġ",
        "e"
      ],
      [
        "l",
        "e"
      ],
      [
        "u",
        "t"
      ],
      [
        "s",
        "t"
      ],
      [
        "Ġ",
        "is"
      ],
      [
        "Ġ",
        "he"
      ],
      [
        "Ġ",
        "T"
      ],
      [
        "Ġ",
        "I"
      ],
      [
        "en",
        "t"
      ],
      [
        "e",
        "t"
      ],
      [
        "o",
        "t"
      ],
      [
        "v",
        "e"
      ],
      [
        "i",
        "on"
      ],
      [
        "Ġ",
        "n"
      ],
      [
        "Ġ",
        "A"
      ],
      [
        "Ġ",
        "re"
      ],
      [
        "i",
        "m"
      ],
      [
        "c",
        "t"
      ],
      [
        "Ġo",
        "n"
      ],
      [
        "e",
        "l"
      ],
      [
        "o",
        "w"
      ],
      [
        "Ġs",
        "t"
      ],
      [
        "r",
        "a"
      ],
      [
        "Ġb",
        "e"
      ],
      [
        "o",
        "l"
      ],
      [
        "v",
        "er"
      ],
      [
        "Ġ",
        "it"
      ],
      [
        "i",
        "r"
      ],
      [
        "R",
        "E"
      ],
      [
        "Ġ",
        "<"
      ],
      [
        "S",
        "Y"
      ],
      [
        "RE",
        "V"
      ],
      [
        "SY",
        "N"
      ],
      [
        "it",
        "h"
      ],
      [
        "i",
        "d"
      ],
      [
        "g",
        "h"
      ],
      [
        "Ġw",
        "h"
      ],
      [
        "â",
        "Ģ"
      ],
      [
        "Ġ",
        "S"
      ],
      [
        "c",
        "h"
      ],
      [
        "u",
        "r"
      ],
      [
        "u",
        "n"
      ],
      [
        "a",
        "d"
      ],
      [
        "a",
        "m"
      ],
      [
        "Ġf",
        "or"
      ],
      [
        "Ġw",
        "ith"
      ],
      [
        "Ġth",
        "at"
      ],
      [
        "a",
        "y"
      ],
      [
        "r",
        "i"
      ],
      [
        "Ġh",
        "is"
      ],
      [
        "Ġa",
        "n"
      ],
      [
        "'",
        "s"
      ],
      [
        "t",
        "er"
      ],
      [
        "c",
        "e"
      ],
      [
        "r",
        "o"
      ],
      [
        "u",
        "s"
      ],
      [
        "Ġm",
        "o"
      ],
      [
        "Ġ",
        "B"
      ],
      [
        "Ġa",
        "s"
      ],
      [
        "a",
        "k"
      ],
      [
        "Ġ",
        "M"
      ],
      [
        "Ġ",
        "y"
      ],
      [
        "Ġl",
        "i"
      ],
      [
        "Ġth",
        "is"
      ],
      [
        "Ġ",
        "C"
      ],
      [
        "u",
        "l"
      ],
      [
        "he",
        "r"
      ],
      [
        "ĠT",
        "he"
      ],
      [
        "il",
        "m"
      ],
      [
        "i",
        "e"
      ],
      [
        "Ġa",
        "l"
      ],
      [
        "Ġ",
        "W"
      ],
      [
        "Ġs",
        "e"
      ],
      [
        "c",
        "k"
      ],
      [
        "s",
        "e"
      ],
      [
        "Ġf",
        "ilm"
      ],
      [
        "il",
        "l"
      ],
      [
        "Ġ",
        "H"
      ],
      [
        "âĢ",
        "Ļ"
      ],
      [
        "o",
        "o"
      ],
      [
        "Ġhe",
        "r"
      ],
      [
        "es",
        "t"
      ],
      [
        "a",
        "g"
      ],
      [
        "r",
        "om"
      ],
      [
        "Ġb",
        "ut"
      ],
      [
        "l",
        "d"
      ],
      [
        "Ġw",
        "as"
      ],
      [
        "Ġs",
        "h"
      ],
      [
        "Ġd",
        "e"
      ],
      [
        "a",
        "nd"
      ],
      [
        "er",
        "s"
      ],
      [
        "at",
        "ion"
      ],
      [
        "Ġ",
        "D"
      ],
      [
        "Ġb",
        "y"
      ],
      [
        "u",
        "m"
      ],
      [
        "Ġ",
        "k"
      ],
      [
        "Ġa",
        "t"
      ],
      [
        "p",
        "e"
      ],
      [
        "gh",
        "t"
      ],
      [
        "Ġy",
        "ou"
      ],
      [
        "is",
        "t"
      ],
      [
        "e",
        "m"
      ],
      [
        "u",
        "p"
      ],
      [
        "Ġc",
        "om"
      ],
      [
        "es",
        "s"
      ],
      [
        "Ġ",
        "v"
      ],
      [
        "al",
        "ly"
      ],
      [
        "Ġc",
        "h"
      ],
      [
        "Ġe",
        "x"
      ],
      [
        "Ġwh",
        "o"
      ],
      [
        "Ġf",
        "rom"
      ],
      [
        "Ġ",
        "P"
      ],
      [
        "i",
        "f"
      ],
      [
        "Ġ",
        "F"
      ],
      [
        "Ġ",
        "j"
      ],
      [
        "Ġ",
        "L"
      ],
      [
        "ar",
        "t"
      ],
      [
        "ou",
        "t"
      ],
      [
        "a",
        "p"
      ],
      [
        "Ġa",
        "b"
      ],
      [
        "Ġd",
        "o"
      ],
      [
        "an",
        "t"
      ],
      [
        "om",
        "e"
      ],
      [
        "u",
        "st"
      ],
      [
        "Ġ",
        "R"
      ],
      [
        "o",
        "p"
      ],
      [
        "u",
        "re"
      ],
      [
        "or",
        "t"
      ],
      [
        "Ġc",
        "on"
      ],
      [
        "Ġl",
        "o"
      ],
      [
        "Ġ",
        "J"
      ],
      [
        "k",
        "e"
      ],
      [
        "ou",
        "s"
      ],
      [
        "at",
        "e"
      ],
      [
        "in",
        "d"
      ],
      [
        "a",
        "b"
      ],
      [
        "i",
        "es"
      ],
      [
        "r",
        "ou"
      ],
      [
        "Ġa",
        "re"
      ],
      [
        "a",
        "in"
      ],
      [
        "Ġn",
        "e"
      ],
      [
        "i",
        "ve"
      ],
      [
        "Ġ",
        "G"
      ],
      [
        "Ġthe",
        "ir"
      ],
      [
        "Ġw",
        "or"
      ],
      [
        "Ġ",
        "N"
      ],
      [
        "Ġs",
        "o"
      ],
      [
        "he",
        "n"
      ],
      [
        "Ġ",
        "un"
      ],
      [
        "i",
        "g"
      ],
      [
        "Ġh",
        "a"
      ],
      [
        "al",
        "l"
      ],
      [
        "o",
        "s"
      ],
      [
        "q",
        "u"
      ],
      [
        "Ġin",
        "t"
      ],
      [
        "Ġon",
        "e"
      ],
      [
        "Ġ",
        "r"
      ],
      [
        "t",
        "h"
      ],
      [
        "Ġp",
        "l"
      ],
      [
        "el",
        "l"
      ],
      [
        "Ġ",
        "("
      ],
      [
        "f",
        "e"
      ],
      [
        "Ġn",
        "ot"
      ],
      [
        "Ġ",
        "E"
      ],
      [
        "i",
        "re"
      ],
      [
        "Ġmo",
        "v"
      ],
      [
        "g",
        "e"
      ],
      [
        "as",
        "t"
      ],
      [
        "Ġthe",
        "y"
      ],
      [
        "it",
        "y"
      ],
      [
        "u",
        "d"
      ],
      [
        "Ġl",
        "e"
      ],
      [
        "i",
        "ght"
      ],
      [
        "a",
        "ck"
      ],
      [
        "Ġo",
        "ut"
      ],
      [
        "ver",
        "y"
      ],
      [
        "Ġp",
        "ro"
      ],
      [
        "Ġm",
        "e"
      ],
      [
        "Ġab",
        "out"
      ],
      [
        "on",
        "g"
      ],
      [
        "or",
        "y"
      ],
      [
        "oo",
        "d"
      ],
      [
        "Ġh",
        "as"
      ],
      [
        "o",
        "re"
      ],
      [
        "ar",
        "d"
      ],
      [
        "Ġm",
        "an"
      ],
      [
        "Ġ",
        "up"
      ],
      [
        "ĠT",
        "h"
      ],
      [
        "im",
        "e"
      ],
      [
        "Ġ",
        "K"
      ],
      [
        "Ġ",
        "O"
      ],
      [
        "Ġal",
        "l"
      ],
      [
        "r",
        "y"
      ],
      [
        "Ġ",
        "1"
      ],
      [
        "e",
        "ar"
      ],
      [
        "i",
        "v"
      ],
      [
        "Ġs",
        "c"
      ],
      [
        "id",
        "e"
      ],
      [
        "e",
        "nd"
      ],
      [
        "re",
        "s"
      ],
      [
        "Ġs",
        "he"
      ],
      [
        "Ġha",
        "ve"
      ],
      [
        "on",
        "e"
      ],
      [
        "ou",
        "r"
      ],
      [
        "Ġli",
        "ke"
      ],
      [
        "Ġh",
        "im"
      ],
      [
        "Ġm",
        "y"
      ],
      [
        "ic",
        "h"
      ],
      [
        "ar",
        "y"
      ],
      [
        "ou",
        "ld"
      ],
      [
        ".",
        "."
      ],
      [
        "Ġint",
        "o"
      ],
      [
        "'",
        "t"
      ],
      [
        "Ġf",
        "e"
      ],
      [
        "ag",
        "e"
      ],
      [
        "ĠI",
        "t"
      ],
      [
        "Ġa",
        "ct"
      ],
      [
        "a",
        "c"
      ],
      [
        "Ġmov",
        "ie"
      ],
      [
        "ak",
        "e"
      ],
      [
        "Ġ",
        "\""
      ],
      [
        "a",
        "re"
      ],
      [
        "Ġo",
        "r"
      ],
      [
        "re",
        "at"
      ],
      [
        "an",
        "g"
      ],
      [
        "Ġs",
        "ome"
      ],
      [
        "n",
        "g"
      ],
      [
        "o",
        "d"
      ],
      [
        "a",
        "ct"
      ],
      [
        "r",
        "u"
      ],
      [
        "Ġg",
        "et"
      ],
      [
        "Ġs",
        "u"
      ],
      [
        "p",
        "l"
      ],
      [
        "Ġ",
        "en"
      ],
      [
        "i",
        "al"
      ],
      [
        "Ġw",
        "hen"
      ],
      [
        "v",
        "en"
      ],
      [
        "it",
        "e"
      ],
      [
        "i",
        "an"
      ],
      [
        "n",
        "e"
      ],
      [
        "i",
        "p"
      ],
      [
        "n",
        "t"
      ],
      [
        "Ġbe",
        "c"
      ],
      [
        "Ġc",
        "l"
      ],
      [
        "i",
        "ous"
      ],
      [
        "Ġj",
        "ust"
      ],
      [
        "o",
        "g"
      ],
      [
        "o",
        "y"
      ],
      [
        "Ġg",
        "o"
      ],
      [
        "v",
        "es"
      ],
      [
        "Ġmo",
        "re"
      ],
      [
        "f",
        "ter"
      ],
      [
        "Ġa",
        "r"
      ],
      [
        "Ġli",
        "fe"
      ],
      [
        "ow",
        "n"
      ],
      [
        "Ġc",
        "an"
      ],
      [
        "Ġthe",
        "m"
      ],
      [
        "Ġw",
        "at"
      ],
      [
        "Ġd",
        "is"
      ],
      [
        "Ġ",
        "im"
      ],
      [
        "e",
        "p"
      ],
      [
        "k",
        "s"
      ],
      [
        "Ġw",
        "e"
      ],
      [
        "in",
        "e"
      ],
      [
        "ic",
        "e"
      ],
      [
        "m",
        "ent"
      ],
      [
        "as",
        "s"
      ],
      [
        "ot",
        "her"
      ],
      [
        "Ġst",
        "ory"
      ],
      [
        "il",
        "e"
      ],
      [
        "Ġt",
        "ime"
      ],
      [
        "am",
        "e"
      ],
      [
        "w",
        "n"
      ],
      [
        "p",
        "er"
      ],
      [
        "he",
        "re"
      ],
      [
        "is",
        "h"
      ],
      [
        "Ġp",
        "re"
      ],
      [
        "ri",
        "end"
      ],
      [
        "ĠC",
        "h"
      ],
      [
        "c",
        "o"
      ],
      [
        "Ġlo",
        "ve"
      ],
      [
        "ĠTh",
        "is"
      ],
      [
        "an",
        "ce"
      ],
      [
        "Ġt",
        "ra"
      ],
      [
        "Ġit",
        "s"
      ],
      [
        "ĠI",
        "n"
      ],
      [
        "en",
        "ce"
      ],
      [
        "Ġt",
        "w"
      ],
      [
        "p",
        "t"
      ],
      [
        "m",
        "er"
      ],
      [
        "it",
        "t"
      ],
      [
        "ic",
        "al"
      ],
      [
        "a",
        "v"
      ],
      [
        "Ġwh",
        "at"
      ],
      [
        "il",
        "y"
      ],
      [
        "Ġs",
        "p"
      ],
      [
        "i",
        "z"
      ],
      [
        "Ġf",
        "ind"
      ],
      [
        "t",
        "her"
      ],
      [
        "ab",
        "le"
      ],
      [
        "e",
        "en"
      ],
      [
        "f",
        "f"
      ],
      [
        "Ġp",
        "er"
      ],
      [
        "Ġ",
        "Y"
      ],
      [
        "o",
        "st"
      ],
      [
        "ur",
        "n"
      ],
      [
        "Ġ",
        "qu"
      ],
      [
        "Ġin",
        "ter"
      ],
      [
        "c",
        "c"
      ],
      [
        "Ġwh",
        "ich"
      ],
      [
        "ay",
        "s"
      ],
      [
        "Ġa",
        "g"
      ],
      [
        "nd",
        "er"
      ],
      [
        "k",
        "ing"
      ],
      [
        "Ġ",
        "âĢ"
      ],
      [
        "il",
        "d"
      ],
      [
        "Ġa",
        "d"
      ],
      [
        "i",
        "a"
      ],
      [
        "Ġo",
        "ver"
      ],
      [
        "Ġyou",
        "ng"
      ],
      [
        "Ġ",
        "ra"
      ],
      [
        "Ġw",
        "om"
      ],
      [
        "el",
        "f"
      ],
      [
        "a",
        "ce"
      ],
      [
        "us",
        "e"
      ],
      [
        "b",
        "le"
      ],
      [
        "or",
        "m"
      ],
      [
        "Ġf",
        "am"
      ],
      [
        "Ġh",
        "ow"
      ],
      [
        "r",
        "an"
      ],
      [
        "Ġy",
        "ear"
      ],
      [
        "Ġp",
        "e"
      ],
      [
        "at",
        "ed"
      ],
      [
        "ul",
        "t"
      ],
      [
        "f",
        "ul"
      ],
      [
        "rou",
        "gh"
      ],
      [
        "ing",
        "s"
      ],
      [
        "Ġ",
        "V"
      ],
      [
        "ic",
        "k"
      ],
      [
        "Ġb",
        "et"
      ],
      [
        "Ġch",
        "ar"
      ],
      [
        "ol",
        "l"
      ],
      [
        "h",
        "ing"
      ],
      [
        "Ġn",
        "o"
      ],
      [
        "d",
        "er"
      ],
      [
        "Ġ1",
        "9"
      ],
      [
        "Ġof",
        "f"
      ],
      [
        "ak",
        "es"
      ],
      [
        "Ġcom",
        "p"
      ],
      [
        "ir",
        "st"
      ],
      [
        "s",
        "o"
      ],
      [
        "Ġthe",
        "re"
      ],
      [
        "ic",
        "t"
      ],
      [
        "b",
        "er"
      ],
      [
        "ĠS",
        "t"
      ],
      [
        "Ġon",
        "ly"
      ],
      [
        "Ġ",
        "ro"
      ],
      [
        "Ġk",
        "n"
      ],
      [
        "ol",
        "d"
      ],
      [
        "Ġ",
        "2"
      ],
      [
        "Ġo",
        "ther"
      ],
      [
        "ad",
        "e"
      ],
      [
        "a",
        "u"
      ],
      [
        "c",
        "es"
      ],
      [
        "Ġth",
        "an"
      ],
      [
        "Ġmo",
        "st"
      ],
      [
        "Ġre",
        "ally"
      ],
      [
        "ct",
        "ion"
      ],
      [
        "Ġa",
        "fter"
      ],
      [
        "um",
        "ent"
      ],
      [
        "Ġwat",
        "ch"
      ],
      [
        "at",
        "h"
      ],
      [
        "Ġb",
        "r"
      ],
      [
        "Ġ",
        "-"
      ],
      [
        "a",
        "ch"
      ],
      [
        "Ġ",
        "i"
      ],
      [
        "Ġp",
        "art"
      ],
      [
        "s",
        "h"
      ],
      [
        "ou",
        "gh"
      ],
      [
        "Ġse",
        "e"
      ],
      [
        "Ġb",
        "l"
      ],
      [
        "Ġe",
        "very"
      ],
      [
        "u",
        "ch"
      ],
      [
        "Ġtw",
        "o"
      ],
      [
        "er",
        "e"
      ],
      [
        "op",
        "le"
      ],
      [
        "Ġ",
        "U"
      ],
      [
        "Ġth",
        "rough"
      ],
      [
        "Ġdo",
        "c"
      ],
      [
        "ir",
        "l"
      ],
      [
        "res",
        "s"
      ],
      [
        "Ġf",
        "irst"
      ],
      [
        "Ġne",
        "w"
      ],
      [
        "pe",
        "ct"
      ],
      [
        "Ġf",
        "riend"
      ],
      [
        "Ġe",
        "nd"
      ],
      [
        "he",
        "d"
      ],
      [
        "ou",
        "nd"
      ],
      [
        "Ġl",
        "oo"
      ],
      [
        "Ġg",
        "ood"
      ],
      [
        "Ġwor",
        "ld"
      ],
      [
        "Ġ",
        "very"
      ],
      [
        "Ġa",
        "p"
      ],
      [
        "Ġ",
        "u"
      ],
      [
        "at",
        "her"
      ],
      [
        "u",
        "al"
      ],
      [
        "Ġan",
        "y"
      ],
      [
        "ar",
        "k"
      ],
      [
        "ver",
        "s"
      ],
      [
        "u",
        "e"
      ],
      [
        "Ġw",
        "ill"
      ],
      [
        "Ġw",
        "ay"
      ],
      [
        "Ġpe",
        "ople"
      ],
      [
        "Ġw",
        "here"
      ],
      [
        "rou",
        "nd"
      ],
      [
        "t",
        "y"
      ],
      [
        "Ġs",
        "er"
      ],
      [
        "ire",
        "ct"
      ],
      [
        "re",
        "e"
      ],
      [
        "Ġre",
        "al"
      ],
      [
        "o",
        "se"
      ],
      [
        "a",
        "w"
      ],
      [
        "v",
        "ing"
      ],
      [
        "en",
        "s"
      ],
      [
        "Ġd",
        "es"
      ],
      [
        "Ġc",
        "r"
      ],
      [
        "Ġb",
        "ack"
      ],
      [
        "Ġm",
        "uch"
      ],
      [
        "ve",
        "l"
      ],
      [
        "Ġt",
        "e"
      ],
      [
        "o",
        "b"
      ],
      [
        "ap",
        "p"
      ],
      [
        "ra",
        "m"
      ],
      [
        "Ġbe",
        "en"
      ],
      [
        "ĠA",
        "n"
      ],
      [
        "g",
        "in"
      ],
      [
        "Ġcon",
        "t"
      ],
      [
        "Ġh",
        "ad"
      ],
      [
        "Ġa",
        "m"
      ],
      [
        "Ġdoc",
        "ument"
      ],
      [
        "Ġwor",
        "k"
      ],
      [
        "ent",
        "s"
      ],
      [
        "f",
        "orm"
      ],
      [
        "Ġde",
        "c"
      ],
      [
        "Ġ",
        "us"
      ],
      [
        "Ġfe",
        "el"
      ],
      [
        "Ġfam",
        "ily"
      ],
      [
        "m",
        "an"
      ],
      [
        "Ġbe",
        "ing"
      ],
      [
        "o",
        "c"
      ],
      [
        "Ġe",
        "ven"
      ],
      [
        "Ġ",
        "if"
      ],
      [
        "Ġdo",
        "es"
      ],
      [
        "Ġat",
        "t"
      ],
      [
        "g",
        "et"
      ],
      [
        "Ġg",
        "irl"
      ],
      [
        "Ġs",
        "ur"
      ],
      [
        "Ġc",
        "ou"
      ],
      [
        "Ġc",
        "o"
      ],
      [
        "i",
        "gh"
      ],
      [
        "Ġw",
        "ould"
      ],
      [
        "Ġre",
        "s"
      ],
      [
        "ĠA",
        "l"
      ],
      [
        "ion",
        "s"
      ],
      [
        "ak",
        "ing"
      ],
      [
        "Ġsh",
        "ort"
      ],
      [
        "Ġsh",
        "ow"
      ],
      [
        "u",
        "b"
      ],
      [
        "ĠB",
        "ut"
      ],
      [
        "Ġp",
        "r"
      ],
      [
        "ĠH",
        "e"
      ],
      [
        "Ġchar",
        "act"
      ],
      [
        "Ġp",
        "o"
      ],
      [
        "t",
        "ing"
      ],
      [
        "or",
        "s"
      ],
      [
        "c",
        "i"
      ],
      [
        "Ġin",
        "v"
      ],
      [
        "Ġal",
        "so"
      ],
      [
        "d",
        "u"
      ],
      [
        "a",
        "use"
      ],
      [
        "l",
        "es"
      ],
      [
        "om",
        "et"
      ],
      [
        "Ġo",
        "wn"
      ],
      [
        "p",
        "h"
      ],
      [
        "Ġre",
        "c"
      ],
      [
        "Ġu",
        "nder"
      ],
      [
        "Ġd",
        "irect"
      ],
      [
        "Ġm",
        "ake"
      ],
      [
        "Ġin",
        "c"
      ],
      [
        "Ġyear",
        "s"
      ],
      [
        "Ġkn",
        "ow"
      ],
      [
        "Ġg",
        "reat"
      ],
      [
        "at",
        "ing"
      ],
      [
        "Ġ",
        "ent"
      ],
      [
        "Ġwom",
        "an"
      ],
      [
        "in",
        "k"
      ],
      [
        "Ġt",
        "ri"
      ],
      [
        "âĢ",
        "¦"
      ],
      [
        "Ġre",
        "l"
      ],
      [
        "is",
        "e"
      ],
      [
        "Ġto",
        "o"
      ],
      [
        "Ġhe",
        "l"
      ],
      [
        "ĠW",
        "h"
      ],
      [
        "Ġm",
        "ade"
      ],
      [
        "Ġs",
        "et"
      ],
      [
        "s",
        "elf"
      ],
      [
        "e",
        "ct"
      ],
      [
        "Ġg",
        "u"
      ],
      [
        "Ġw",
        "ere"
      ],
      [
        "v",
        "ed"
      ],
      [
        "Ġe",
        "v"
      ],
      [
        "st",
        "er"
      ],
      [
        "Ġs",
        "pe"
      ],
      [
        "ĠW",
        "hen"
      ],
      [
        "Ġf",
        "un"
      ],
      [
        "r",
        "it"
      ],
      [
        "Ġk",
        "ill"
      ],
      [
        "ie",
        "w"
      ],
      [
        "Ġe",
        "m"
      ],
      [
        "Ġpl",
        "ay"
      ],
      [
        "..",
        "."
      ],
      [
        "itt",
        "le"
      ],
      [
        "Ġd",
        "id"
      ],
      [
        "ur",
        "ing"
      ],
      [
        "er",
        "t"
      ],
      [
        "or",
        "d"
      ],
      [
        "Ġdocument",
        "ary"
      ],
      [
        "Ġw",
        "ant"
      ],
      [
        "in",
        "t"
      ],
      [
        "Ġre",
        "m"
      ],
      [
        "Ġwh",
        "ile"
      ],
      [
        "Ġm",
        "us"
      ],
      [
        "Ġw",
        "ell"
      ],
      [
        "an",
        "s"
      ],
      [
        "Ġa",
        "w"
      ],
      [
        "g",
        "g"
      ],
      [
        "Ġf",
        "l"
      ],
      [
        "Ġo",
        "ld"
      ],
      [
        "Ġar",
        "t"
      ],
      [
        "Ġag",
        "ain"
      ],
      [
        "o",
        "ot"
      ],
      [
        "f",
        "ore"
      ],
      [
        "is",
        "s"
      ],
      [
        "al",
        "e"
      ],
      [
        "Ġim",
        "p"
      ],
      [
        "w",
        "een"
      ],
      [
        "âĢ",
        "Ŀ"
      ],
      [
        "Ġbec",
        "ause"
      ],
      [
        "n",
        "ing"
      ],
      [
        "Ġfilm",
        "s"
      ],
      [
        "Ġ",
        "ri"
      ],
      [
        "c",
        "ed"
      ],
      [
        "a",
        "il"
      ],
      [
        "p",
        "le"
      ],
      [
        "as",
        "e"
      ],
      [
        "Ġs",
        "m"
      ],
      [
        "a",
        "z"
      ],
      [
        "u",
        "ally"
      ],
      [
        "Ġl",
        "ittle"
      ],
      [
        "Ġsc",
        "en"
      ],
      [
        "Ġs",
        "l"
      ],
      [
        "Ġ2",
        "0"
      ],
      [
        "i",
        "b"
      ],
      [
        "a",
        "ve"
      ],
      [
        "re",
        "d"
      ],
      [
        "Ġc",
        "ould"
      ],
      [
        "Ġbet",
        "ween"
      ],
      [
        "ut",
        "e"
      ],
      [
        "ĠS",
        "h"
      ],
      [
        "u",
        "ck"
      ],
      [
        "Ġt",
        "urn"
      ],
      [
        "ig",
        "n"
      ],
      [
        "on",
        "s"
      ],
      [
        "ar",
        "s"
      ],
      [
        "Ġch",
        "ild"
      ],
      [
        "ĠâĢ",
        "ľ"
      ],
      [
        "c",
        "ial"
      ],
      [
        "Ġs",
        "omet"
      ],
      [
        "he",
        "s"
      ],
      [
        "Ġin",
        "s"
      ],
      [
        "o",
        "ol"
      ],
      [
        "Ġp",
        "ers"
      ],
      [
        "ar",
        "r"
      ],
      [
        "re",
        "n"
      ],
      [
        "a",
        "ut"
      ],
      [
        "Ġs",
        "up"
      ],
      [
        "if",
        "e"
      ],
      [
        "au",
        "gh"
      ],
      [
        "Ġp",
        "ol"
      ],
      [
        "at",
        "ure"
      ],
      [
        "Ġle",
        "ad"
      ],
      [
        "re",
        "t"
      ],
      [
        "Ġa",
        "cc"
      ],
      [
        "Ġm",
        "in"
      ],
      [
        "e",
        "w"
      ],
      [
        "if",
        "f"
      ],
      [
        "n",
        "y"
      ],
      [
        "Ġl",
        "ong"
      ],
      [
        "it",
        "s"
      ],
      [
        "ou",
        "se"
      ],
      [
        "or",
        "r"
      ],
      [
        "mer",
        "ic"
      ],
      [
        "fe",
        "ct"
      ],
      [
        "ot",
        "h"
      ],
      [
        "th",
        "ing"
      ],
      [
        "ul",
        "l"
      ],
      [
        "at",
        "er"
      ],
      [
        "sh",
        "ip"
      ],
      [
        "Ġne",
        "ver"
      ],
      [
        "Ġst",
        "art"
      ],
      [
        "Ġhel",
        "p"
      ],
      [
        "ar",
        "ly"
      ],
      [
        "Ġthe",
        "n"
      ],
      [
        "ation",
        "s"
      ],
      [
        "Ġbe",
        "fore"
      ],
      [
        "o",
        "nd"
      ],
      [
        "Ġst",
        "ill"
      ],
      [
        "Ġh",
        "um"
      ],
      [
        "Ġc",
        "ol"
      ],
      [
        "n",
        "ess"
      ],
      [
        "Ġd",
        "own"
      ],
      [
        "Ġm",
        "ur"
      ],
      [
        "Ġg",
        "en"
      ],
      [
        "s",
        "s"
      ],
      [
        "f",
        "t"
      ],
      [
        "at",
        "es"
      ],
      [
        "oll",
        "ow"
      ],
      [
        "ed",
        "y"
      ],
      [
        "Ġb",
        "est"
      ],
      [
        "Ġf",
        "in"
      ],
      [
        "re",
        "am"
      ],
      [
        "e",
        "x"
      ],
      [
        "Ġre",
        "t"
      ],
      [
        "l",
        "ing"
      ],
      [
        "Ġex",
        "per"
      ],
      [
        "Ġm",
        "ar"
      ],
      [
        "Ġh",
        "ome"
      ],
      [
        "Ġhe",
        "re"
      ],
      [
        "ĠJ",
        "o"
      ],
      [
        "a",
        "ir"
      ],
      [
        "Ġd",
        "on"
      ],
      [
        "Ġsu",
        "b"
      ],
      [
        "Ġper",
        "form"
      ],
      [
        "Ġcom",
        "m"
      ],
      [
        "Ġex",
        "pl"
      ],
      [
        "t",
        "e"
      ],
      [
        "at",
        "ive"
      ],
      [
        "Ġse",
        "em"
      ],
      [
        "os",
        "s"
      ],
      [
        "ĠA",
        "nd"
      ],
      [
        "Ġh",
        "app"
      ],
      [
        "o",
        "ck"
      ],
      [
        "ĠA",
        "s"
      ],
      [
        "ap",
        "t"
      ],
      [
        "l",
        "ess"
      ],
      [
        "Ġf",
        "ather"
      ],
      [
        "id",
        "ent"
      ],
      [
        "ch",
        "ool"
      ],
      [
        "Ġo",
        "p"
      ],
      [
        "as",
        "h"
      ],
      [
        "Ġinter",
        "est"
      ],
      [
        "as",
        "ed"
      ],
      [
        "Ġt",
        "ake"
      ],
      [
        "ĠA",
        "meric"
      ],
      [
        "b",
        "e"
      ],
      [
        "Ġd",
        "ay"
      ],
      [
        "Ġt",
        "ry"
      ],
      [
        "Ġ",
        "es"
      ],
      [
        "Ġthe",
        "se"
      ],
      [
        "it",
        "ion"
      ],
      [
        "Ġv",
        "is"
      ],
      [
        "Ġt",
        "er"
      ],
      [
        "in",
        "em"
      ],
      [
        "Ġsomet",
        "hing"
      ],
      [
        "Ġmus",
        "ic"
      ],
      [
        "Ġn",
        "ight"
      ],
      [
        "Ġo",
        "b"
      ],
      [
        "et",
        "s"
      ],
      [
        "Ġa",
        "round"
      ],
      [
        "Ġn",
        "ow"
      ],
      [
        "T",
        "he"
      ],
      [
        "c",
        "hed"
      ],
      [
        "Ġb",
        "oy"
      ],
      [
        "r",
        "on"
      ],
      [
        "Ġpre",
        "t"
      ],
      [
        "Ġbe",
        "aut"
      ],
      [
        "and",
        "s"
      ],
      [
        "ar",
        "n"
      ],
      [
        "Ġd",
        "iff"
      ],
      [
        "ow",
        "er"
      ],
      [
        "Ġman",
        "y"
      ],
      [
        "is",
        "m"
      ],
      [
        "Ġth",
        "ink"
      ],
      [
        "Ġe",
        "ver"
      ],
      [
        "Ġl",
        "ot"
      ],
      [
        "Ġh",
        "igh"
      ],
      [
        "al",
        "s"
      ],
      [
        "Ġf",
        "all"
      ],
      [
        "Ġr",
        "un"
      ],
      [
        "Ġpers",
        "on"
      ],
      [
        "Ġse",
        "en"
      ],
      [
        ")",
        ","
      ],
      [
        "Ġm",
        "ust"
      ],
      [
        "Ġt",
        "akes"
      ],
      [
        "Ġmur",
        "der"
      ],
      [
        "ne",
        "y"
      ],
      [
        "im",
        "es"
      ],
      [
        "Ġbe",
        "gin"
      ],
      [
        "Ġget",
        "s"
      ],
      [
        "Ġf",
        "ollow"
      ],
      [
        "e",
        "ver"
      ],
      [
        "Ġ",
        "'"
      ],
      [
        "Ġst",
        "ud"
      ],
      [
        "l",
        "i"
      ],
      [
        "Ġyou",
        "r"
      ],
      [
        "Ġfriend",
        "s"
      ],
      [
        "Ġg",
        "ra"
      ],
      [
        "Ġloo",
        "k"
      ],
      [
        "Ġp",
        "h"
      ],
      [
        "Ġs",
        "chool"
      ],
      [
        "Ġbec",
        "om"
      ],
      [
        "o",
        "k"
      ],
      [
        "am",
        "p"
      ],
      [
        "Ġt",
        "al"
      ],
      [
        "Ġb",
        "ad"
      ],
      [
        "augh",
        "ter"
      ],
      [
        ")",
        "."
      ],
      [
        "Ġdis",
        "co"
      ],
      [
        "if",
        "ul"
      ],
      [
        "Ġse",
        "x"
      ],
      [
        "a",
        "h"
      ],
      [
        "Ġt",
        "ru"
      ],
      [
        "or",
        "n"
      ],
      [
        "j",
        "ect"
      ],
      [
        "Ġm",
        "other"
      ],
      [
        "Ġk",
        "ind"
      ],
      [
        "Ġli",
        "ves"
      ],
      [
        "Ġin",
        "d"
      ],
      [
        "y",
        "s"
      ],
      [
        "Ġser",
        "ies"
      ],
      [
        "i",
        "ble"
      ],
      [
        "ĠA",
        "fter"
      ],
      [
        "i",
        "ence"
      ],
      [
        "Ġw",
        "ar"
      ],
      [
        "at",
        "t"
      ],
      [
        "Ġb",
        "el"
      ],
      [
        "w",
        "ard"
      ],
      [
        "ist",
        "s"
      ],
      [
        "Ġs",
        "w"
      ],
      [
        "Ġs",
        "ame"
      ],
      [
        "rou",
        "p"
      ],
      [
        "Ġm",
        "em"
      ],
      [
        "Ġc",
        "inem"
      ],
      [
        "Ġhis",
        "t"
      ],
      [
        "v",
        "iew"
      ],
      [
        "Ġg",
        "r"
      ],
      [
        "og",
        "ra"
      ],
      [
        "Ġpro",
        "du"
      ],
      [
        "l",
        "l"
      ],
      [
        "en",
        "se"
      ],
      [
        "Ġt",
        "ell"
      ],
      [
        "Ġc",
        "are"
      ],
      [
        "Ġb",
        "it"
      ],
      [
        "ĠS",
        "he"
      ],
      [
        "i",
        "x"
      ],
      [
        "Ġcon",
        "f"
      ],
      [
        "ic",
        "ally"
      ],
      [
        "ure",
        "s"
      ],
      [
        "re",
        "en"
      ],
      [
        "Ġfind",
        "s"
      ],
      [
        "r",
        "ist"
      ],
      [
        "Ġb",
        "oth"
      ],
      [
        "i",
        "o"
      ],
      [
        "ĠThe",
        "re"
      ],
      [
        "Ġto",
        "wn"
      ],
      [
        "Ġpret",
        "ty"
      ],
      [
        "l",
        "and"
      ],
      [
        "Ġg",
        "roup"
      ],
      [
        "Ġde",
        "ath"
      ],
      [
        "Ġmy",
        "ster"
      ],
      [
        "0",
        "0"
      ],
      [
        "ou",
        "nt"
      ],
      [
        "ran",
        "s"
      ],
      [
        "Ġm",
        "akes"
      ],
      [
        "Ġc",
        "reat"
      ],
      [
        "Ġk",
        "id"
      ],
      [
        "l",
        "ed"
      ],
      [
        "'",
        "ve"
      ],
      [
        "Ġto",
        "get"
      ],
      [
        "Ġtoget",
        "her"
      ],
      [
        "Ġp",
        "res"
      ],
      [
        "Ġw",
        "ife"
      ],
      [
        "Ġm",
        "om"
      ],
      [
        "it",
        "ed"
      ],
      [
        "Ġb",
        "ig"
      ],
      [
        "Ġgo",
        "ing"
      ],
      [
        "Ġse",
        "c"
      ],
      [
        "Ġan",
        "im"
      ],
      [
        "Ġm",
        "ay"
      ],
      [
        "i",
        "k"
      ],
      [
        "Ġk",
        "e"
      ],
      [
        "iv",
        "es"
      ],
      [
        "Ġa",
        "c"
      ],
      [
        "ĠD",
        "e"
      ],
      [
        "in",
        "s"
      ],
      [
        "id",
        "es"
      ],
      [
        "Ġmov",
        "ies"
      ],
      [
        "Ġbeaut",
        "iful"
      ],
      [
        "v",
        "ent"
      ],
      [
        "Ġwom",
        "en"
      ],
      [
        "ĠR",
        "e"
      ],
      [
        "Ġas",
        "s"
      ],
      [
        "Ġlo",
        "c"
      ],
      [
        "ate",
        "ly"
      ],
      [
        "Ġd",
        "uring"
      ],
      [
        "Ġst",
        "ru"
      ],
      [
        "ĠM",
        "ar"
      ],
      [
        "ce",
        "pt"
      ],
      [
        "Ġcharact",
        "ers"
      ],
      [
        "n",
        "er"
      ],
      [
        "Ġf",
        "ar"
      ],
      [
        "Ġl",
        "ast"
      ],
      [
        "Ġth",
        "ree"
      ],
      [
        "r",
        "ic"
      ],
      [
        "Ġdirect",
        "or"
      ],
      [
        "Ġhim",
        "self"
      ],
      [
        "Ġc",
        "all"
      ],
      [
        "Ġd",
        "et"
      ],
      [
        "Ġcon",
        "s"
      ],
      [
        "Ġdoes",
        "n"
      ],
      [
        "Ġw",
        "r"
      ],
      [
        "Ġsh",
        "ot"
      ],
      [
        "Ġm",
        "en"
      ],
      [
        "Ġs",
        "ay"
      ],
      [
        "Ġf",
        "ight"
      ],
      [
        "Ġcharact",
        "er"
      ],
      [
        "w",
        "ays"
      ],
      [
        "'",
        "m"
      ],
      [
        "Ġe",
        "ach"
      ],
      [
        "is",
        "ter"
      ],
      [
        "Ġth",
        "ose"
      ],
      [
        "Ġne",
        "ed"
      ],
      [
        "od",
        "y"
      ],
      [
        "ert",
        "ain"
      ],
      [
        "l",
        "ud"
      ],
      [
        "as",
        "ter"
      ],
      [
        "Ġm",
        "on"
      ],
      [
        "Ġc",
        "he"
      ],
      [
        "Ġth",
        "ings"
      ],
      [
        "Ġbet",
        "ter"
      ],
      [
        "ro",
        "ss"
      ],
      [
        "Ġd",
        "aughter"
      ],
      [
        "Ġap",
        "p"
      ],
      [
        "Ġdiff",
        "er"
      ],
      [
        "Ġcl",
        "ass"
      ],
      [
        "Ġt",
        "rans"
      ],
      [
        "ou",
        "ght"
      ],
      [
        "Ġd",
        "ram"
      ],
      [
        "in",
        "ce"
      ],
      [
        "Ġh",
        "ouse"
      ],
      [
        "in",
        "es"
      ],
      [
        "oo",
        "k"
      ],
      [
        "ol",
        "og"
      ],
      [
        "u",
        "es"
      ],
      [
        "i",
        "ed"
      ],
      [
        "Ġb",
        "u"
      ],
      [
        "er",
        "a"
      ],
      [
        "an",
        "e"
      ],
      [
        "Ġli",
        "ve"
      ],
      [
        "ir",
        "d"
      ],
      [
        "Ġsm",
        "all"
      ],
      [
        "r",
        "is"
      ],
      [
        "Ġg",
        "ot"
      ],
      [
        "or",
        "k"
      ],
      [
        "Ġf",
        "oot"
      ],
      [
        "Ġan",
        "other"
      ],
      [
        "ab",
        "ly"
      ],
      [
        "p",
        "ort"
      ],
      [
        "em",
        "pt"
      ],
      [
        "Ġgo",
        "es"
      ],
      [
        "or",
        "ies"
      ],
      [
        "at",
        "ic"
      ],
      [
        "Ġpl",
        "ot"
      ],
      [
        "Ġcou",
        "nt"
      ],
      [
        "Ġs",
        "ing"
      ],
      [
        "Ġbecom",
        "es"
      ],
      [
        "Ġcom",
        "edy"
      ],
      [
        "o",
        "v"
      ],
      [
        "ĠN",
        "ew"
      ],
      [
        "o",
        "pe"
      ],
      [
        "orr",
        "or"
      ],
      [
        "Ġex",
        "t"
      ],
      [
        "ĠThe",
        "y"
      ],
      [
        "Ġs",
        "im"
      ],
      [
        "Ġ",
        "3"
      ],
      [
        "Ġth",
        "r"
      ],
      [
        "Ġd",
        "ream"
      ],
      [
        "Ġsu",
        "ch"
      ],
      [
        "id",
        "d"
      ],
      [
        "Ġret",
        "urn"
      ],
      [
        "un",
        "t"
      ],
      [
        "Ġbe",
        "h"
      ],
      [
        "Ġwatch",
        "ing"
      ],
      [
        "Ġg",
        "l"
      ],
      [
        "Ġst",
        "r"
      ],
      [
        "Ġagain",
        "st"
      ],
      [
        "ĠB",
        "e"
      ],
      [
        "ion",
        "al"
      ],
      [
        "Ġcomp",
        "le"
      ],
      [
        "Ġc",
        "ar"
      ],
      [
        "Ġfe",
        "ature"
      ],
      [
        "Ġp",
        "ut"
      ],
      [
        "Ġj",
        "our"
      ],
      [
        "y",
        "ing"
      ],
      [
        "Ġri",
        "ght"
      ],
      [
        "Ġc",
        "re"
      ],
      [
        "h",
        "n"
      ],
      [
        "Ġth",
        "ing"
      ],
      [
        "ĠL",
        "e"
      ],
      [
        "t",
        "he"
      ],
      [
        "Ġp",
        "ast"
      ],
      [
        "Ġcom",
        "e"
      ],
      [
        "ad",
        "y"
      ],
      [
        "ire",
        "d"
      ],
      [
        "ĠB",
        "l"
      ],
      [
        "Ġt",
        "r"
      ],
      [
        "Ġs",
        "on"
      ],
      [
        "ĠA",
        "r"
      ],
      [
        "!",
        "!"
      ],
      [
        "Ġin",
        "st"
      ],
      [
        "i",
        "en"
      ],
      [
        "Ġp",
        "ower"
      ],
      [
        "i",
        "er"
      ],
      [
        "Ġpl",
        "ace"
      ],
      [
        "Ġth",
        "ough"
      ],
      [
        "Ġh",
        "ard"
      ],
      [
        "Ġrel",
        "ation"
      ],
      [
        "Ġinterest",
        "ing"
      ],
      [
        "j",
        "oy"
      ],
      [
        "ð",
        "Ł"
      ],
      [
        "Ġal",
        "ways"
      ],
      [
        "Ġd",
        "el"
      ],
      [
        "un",
        "g"
      ],
      [
        "ĠAmeric",
        "an"
      ],
      [
        "ing",
        "ly"
      ],
      [
        "ut",
        "h"
      ],
      [
        "Ġre",
        "f"
      ],
      [
        "Ġhe",
        "art"
      ],
      [
        "Ġm",
        "iss"
      ],
      [
        "Ġrelation",
        "ship"
      ],
      [
        "ag",
        "es"
      ],
      [
        "ĠU",
        "n"
      ],
      [
        "s",
        "y"
      ],
      [
        "d",
        "ay"
      ],
      [
        "ĠCh",
        "rist"
      ],
      [
        "Ġhe",
        "ad"
      ],
      [
        "in",
        "ess"
      ],
      [
        "it",
        "ies"
      ],
      [
        "ĠY",
        "ou"
      ],
      [
        "at",
        "ch"
      ],
      [
        "i",
        "et"
      ],
      [
        "Ġcom",
        "es"
      ],
      [
        "Ġo",
        "ur"
      ],
      [
        "ut",
        "es"
      ],
      [
        "Ġc",
        "ast"
      ],
      [
        "Ġf",
        "ound"
      ],
      [
        "Ġp",
        "ass"
      ],
      [
        "w",
        "h"
      ],
      [
        "re",
        "ak"
      ],
      [
        "Ġfe",
        "w"
      ],
      [
        "Ġs",
        "ound"
      ],
      [
        "ur",
        "al"
      ],
      [
        "ter",
        "n"
      ],
      [
        "Ġdiffer",
        "ent"
      ],
      [
        "Ġdid",
        "n"
      ],
      [
        "Ġ",
        "ide"
      ],
      [
        "p",
        "os"
      ],
      [
        "o",
        "x"
      ],
      [
        "Ġsec",
        "ret"
      ],
      [
        "f",
        "riend"
      ],
      [
        "Ġen",
        "joy"
      ],
      [
        "ĠO",
        "n"
      ],
      [
        "a",
        "pe"
      ],
      [
        "p",
        "ed"
      ],
      [
        "ĠH",
        "ow"
      ],
      [
        "Ġun",
        "t"
      ],
      [
        "qu",
        "e"
      ],
      [
        "Ġbr",
        "other"
      ],
      [
        "Ġfor",
        "m"
      ],
      [
        "Ġbec",
        "ome"
      ],
      [
        "Ġm",
        "aking"
      ],
      [
        "are",
        "nt"
      ],
      [
        "c",
        "y"
      ],
      [
        "ic",
        "s"
      ],
      [
        "Ġfilm",
        "m"
      ],
      [
        "in",
        "ed"
      ],
      [
        "en",
        "g"
      ],
      [
        "ogra",
        "ph"
      ],
      [
        "Ġpo",
        "int"
      ],
      [
        "Ġmar",
        "ri"
      ],
      [
        "an",
        "n"
      ],
      [
        "Ġaw",
        "ay"
      ],
      [
        "Ġke",
        "ep"
      ],
      [
        "c",
        "er"
      ],
      [
        "ort",
        "h"
      ],
      [
        "Ġh",
        "orror"
      ],
      [
        "Ġcol",
        "le"
      ],
      [
        "Ġ",
        "ed"
      ],
      [
        "Ġact",
        "ually"
      ],
      [
        "Ġhum",
        "an"
      ],
      [
        "an",
        "ces"
      ],
      [
        "ĠO",
        "ne"
      ],
      [
        "is",
        "on"
      ],
      [
        "Ġen",
        "ough"
      ],
      [
        "Ġ",
        "&"
      ],
      [
        "ul",
        "ar"
      ],
      [
        "a",
        "id"
      ],
      [
        "Ġth",
        "ought"
      ],
      [
        "Ġhist",
        "ory"
      ],
      [
        "Ġ",
        "rom"
      ],
      [
        "Ġde",
        "ad"
      ],
      [
        "Ġstru",
        "gg"
      ],
      [
        "ĠJo",
        "hn"
      ],
      [
        "ar",
        "ch"
      ],
      [
        "f",
        "fect"
      ],
      [
        "Ġatt",
        "empt"
      ],
      [
        "Ġs",
        "k"
      ],
      [
        "Ġsup",
        "er"
      ],
      [
        "m",
        "y"
      ],
      [
        "x",
        "t"
      ],
      [
        "Ġde",
        "p"
      ],
      [
        "Ġj",
        "ob"
      ],
      [
        "al",
        "f"
      ],
      [
        "Ġinc",
        "lud"
      ],
      [
        "Ġes",
        "c"
      ],
      [
        "k",
        "ed"
      ],
      [
        "it",
        "ing"
      ],
      [
        "Ġg",
        "ang"
      ],
      [
        "Ġtry",
        "ing"
      ],
      [
        "Ġ",
        "Z"
      ],
      [
        "ot",
        "t"
      ],
      [
        "Ġscen",
        "e"
      ],
      [
        "one",
        "y"
      ],
      [
        "ĠS",
        "e"
      ],
      [
        "Ġd",
        "ist"
      ],
      [
        "Ġe",
        "l"
      ],
      [
        "Ġc",
        "apt"
      ],
      [
        "co",
        "nd"
      ],
      [
        "Ġc",
        "ent"
      ],
      [
        "Ġin",
        "f"
      ],
      [
        "Ġv",
        "ill"
      ],
      [
        "u",
        "g"
      ],
      [
        "Ġn",
        "arr"
      ],
      [
        "c",
        "ess"
      ],
      [
        "ra",
        "ct"
      ],
      [
        "Ġc",
        "ult"
      ],
      [
        "Ġcou",
        "ple"
      ],
      [
        "ĠS",
        "o"
      ],
      [
        "Ġmin",
        "utes"
      ],
      [
        "Ġbeh",
        "ind"
      ],
      [
        "Ġact",
        "ion"
      ],
      [
        "m",
        "e"
      ],
      [
        "Ġre",
        "p"
      ],
      [
        "as",
        "on"
      ],
      [
        "Ġwat",
        "ched"
      ],
      [
        "Ġfeel",
        "s"
      ],
      [
        "i",
        "ol"
      ],
      [
        "Ġbel",
        "ie"
      ],
      [
        "m",
        "ost"
      ],
      [
        "ri",
        "gin"
      ],
      [
        "us",
        "b"
      ],
      [
        "Ġc",
        "le"
      ],
      [
        "Ġsh",
        "ould"
      ],
      [
        "Ġqu",
        "ite"
      ],
      [
        "ĠC",
        "l"
      ],
      [
        "ter",
        "s"
      ],
      [
        "Ġe",
        "le"
      ],
      [
        "er",
        "ing"
      ],
      [
        "Ġevery",
        "thing"
      ],
      [
        "Ġc",
        "ity"
      ],
      [
        "Ġscen",
        "es"
      ],
      [
        "Ġst",
        "ar"
      ],
      [
        "Ġwith",
        "out"
      ],
      [
        "Ġwh",
        "y"
      ],
      [
        "Ġunt",
        "il"
      ],
      [
        "ist",
        "ic"
      ],
      [
        "s",
        "on"
      ],
      [
        "ation",
        "al"
      ],
      [
        "Ġs",
        "y"
      ],
      [
        "el",
        "t"
      ],
      [
        "Ġjour",
        "ney"
      ],
      [
        "Ġd",
        "ark"
      ],
      [
        "Ġt",
        "een"
      ],
      [
        "ow",
        "s"
      ],
      [
        "Ġfoot",
        "age"
      ],
      [
        "Ġap",
        "pe"
      ],
      [
        "us",
        "s"
      ],
      [
        "'",
        "re"
      ],
      [
        "Ġsc",
        "reen"
      ],
      [
        "Ġmyster",
        "ious"
      ],
      [
        "er",
        "y"
      ],
      [
        "Ã",
        "©"
      ],
      [
        "ang",
        "er"
      ],
      [
        "Ġs",
        "ol"
      ],
      [
        "Ġc",
        "ra"
      ],
      [
        "Ġde",
        "f"
      ],
      [
        "Ġtru",
        "e"
      ],
      [
        "Ġinv",
        "est"
      ],
      [
        "Ġab",
        "s"
      ],
      [
        "ut",
        "ion"
      ],
      [
        "Ġw",
        "rit"
      ],
      [
        "ĠN",
        "ot"
      ],
      [
        "Ġf",
        "act"
      ],
      [
        "Ġre",
        "le"
      ],
      [
        "Ġm",
        "ed"
      ],
      [
        "Ġspe",
        "cial"
      ],
      [
        "Ġe",
        "p"
      ],
      [
        "c",
        "om"
      ],
      [
        "usb",
        "and"
      ],
      [
        "s",
        "c"
      ],
      [
        "âĢ",
        "Ķ"
      ],
      [
        "Ġv",
        "ide"
      ],
      [
        "Ġqu",
        "est"
      ],
      [
        "y",
        "le"
      ],
      [
        "Ġb",
        "us"
      ],
      [
        "um",
        "b"
      ],
      [
        "Ġseem",
        "s"
      ],
      [
        "t",
        "s"
      ],
      [
        "Ġc",
        "am"
      ],
      [
        "Ġd",
        "ri"
      ],
      [
        "Ġl",
        "et"
      ],
      [
        "Ġcount",
        "ry"
      ],
      [
        "Ġt",
        "imes"
      ],
      [
        "Ġo",
        "rigin"
      ],
      [
        "Ġnot",
        "hing"
      ],
      [
        "Ġdram",
        "a"
      ],
      [
        "Ġex",
        "pect"
      ],
      [
        "u",
        "ff"
      ],
      [
        "Ġso",
        "on"
      ],
      [
        "en",
        "ing"
      ],
      [
        "ak",
        "er"
      ],
      [
        "Ġex",
        "c"
      ],
      [
        "Ġst",
        "op"
      ],
      [
        "v",
        "is"
      ],
      [
        "Ġe",
        "arly"
      ],
      [
        "Ġsur",
        "v"
      ],
      [
        "am",
        "es"
      ],
      [
        "Ġv",
        "iew"
      ],
      [
        "Ġle",
        "arn"
      ],
      [
        "Ġh",
        "alf"
      ],
      [
        "Ġm",
        "ain"
      ],
      [
        "Ġre",
        "st"
      ],
      [
        "ĠWh",
        "at"
      ],
      [
        "Ġv",
        "iol"
      ],
      [
        "Ġd",
        "ra"
      ],
      [
        "ĠW",
        "ith"
      ],
      [
        "ud",
        "d"
      ],
      [
        "c",
        "ing"
      ],
      [
        "ĠA",
        "t"
      ],
      [
        "Ġf",
        "av"
      ],
      [
        "Ġli",
        "ving"
      ],
      [
        "Ġc",
        "our"
      ],
      [
        "m",
        "s"
      ],
      [
        "Ġh",
        "usband"
      ],
      [
        "ĠT",
        "w"
      ],
      [
        "ain",
        "s"
      ],
      [
        "Ġde",
        "ep"
      ],
      [
        "ap",
        "an"
      ],
      [
        "a",
        "x"
      ],
      [
        "Ġwho",
        "le"
      ],
      [
        "ro",
        "p"
      ],
      [
        "Ġperson",
        "al"
      ],
      [
        "s",
        "el"
      ],
      [
        "e",
        "ad"
      ],
      [
        "Ġp",
        "ort"
      ],
      [
        "Ġtri",
        "es"
      ],
      [
        "Â",
        "ł"
      ],
      [
        "b",
        "r"
      ],
      [
        "le",
        "y"
      ],
      [
        "Ġbl",
        "ack"
      ],
      [
        "Ġpr",
        "ot"
      ],
      [
        ".",
        "\""
      ],
      [
        "m",
        "ing"
      ],
      [
        "Ġpol",
        "it"
      ],
      [
        "a",
        "i"
      ],
      [
        "Ġh",
        "and"
      ],
      [
        "Ġse",
        "cond"
      ],
      [
        "Ġis",
        "n"
      ],
      [
        "Ġle",
        "ft"
      ],
      [
        "Ġloc",
        "al"
      ],
      [
        "Ġchild",
        "ren"
      ],
      [
        "Ġf",
        "ore"
      ],
      [
        "ar",
        "ious"
      ],
      [
        "Ġte",
        "am"
      ],
      [
        "Ġha",
        "ving"
      ],
      [
        "Ġp",
        "op"
      ],
      [
        "a",
        "j"
      ],
      [
        "ĠS",
        "p"
      ],
      [
        "Ġpol",
        "ice"
      ],
      [
        "s",
        "ide"
      ],
      [
        "Ġbegin",
        "s"
      ],
      [
        "Ġun",
        "i"
      ],
      [
        "Ġad",
        "d"
      ],
      [
        "ie",
        "ce"
      ],
      [
        "in",
        "a"
      ],
      [
        "art",
        "h"
      ],
      [
        "Ġm",
        "ag"
      ],
      [
        "Ġj",
        "o"
      ],
      [
        "Ġcomm",
        "un"
      ],
      [
        "Ġent",
        "ire"
      ],
      [
        "iz",
        "ed"
      ],
      [
        "Ġy",
        "et"
      ],
      [
        "Ġinv",
        "ol"
      ],
      [
        "Ġp",
        "ar"
      ],
      [
        "an",
        "y"
      ],
      [
        "f",
        "ort"
      ],
      [
        "Ġe",
        "y"
      ],
      [
        "ĠF",
        "or"
      ],
      [
        "iv",
        "al"
      ],
      [
        "ment",
        "s"
      ],
      [
        "Ġli",
        "ght"
      ],
      [
        "ĠW",
        "e"
      ],
      [
        "Ġs",
        "ong"
      ],
      [
        "ci",
        "ally"
      ],
      [
        "Ġon",
        "ce"
      ],
      [
        "c",
        "le"
      ],
      [
        "d",
        "e"
      ],
      [
        "Ġf",
        "ull"
      ],
      [
        "am",
        "ed"
      ],
      [
        "ou",
        "n"
      ],
      [
        "Ġfall",
        "s"
      ],
      [
        "Ġst",
        "and"
      ],
      [
        "Ġl",
        "ater"
      ],
      [
        "Ġre",
        "g"
      ],
      [
        "Ġs",
        "ister"
      ],
      [
        "Ġgen",
        "er"
      ],
      [
        "Ġcinem",
        "a"
      ],
      [
        "ĠJ",
        "apan"
      ],
      [
        "Ġany",
        "thing"
      ],
      [
        "h",
        "ood"
      ],
      [
        "Ġsur",
        "p"
      ],
      [
        "Ġp",
        "oss"
      ],
      [
        "t",
        "o"
      ],
      [
        "Ġal",
        "ong"
      ],
      [
        "c",
        "hes"
      ],
      [
        "Ġf",
        "ace"
      ],
      [
        "i",
        "ent"
      ],
      [
        "o",
        "ve"
      ],
      [
        "Ġme",
        "ets"
      ],
      [
        "n",
        "a"
      ],
      [
        "Ġp",
        "ain"
      ],
      [
        "an",
        "ge"
      ],
      [
        "Ġinvest",
        "ig"
      ],
      [
        "sel",
        "ves"
      ],
      [
        "Ġt",
        "it"
      ],
      [
        "on",
        "y"
      ],
      [
        "Ġa",
        "ud"
      ],
      [
        "Ġm",
        "ight"
      ],
      [
        "Ġe",
        "ffect"
      ],
      [
        "ur",
        "s"
      ],
      [
        "Ġm",
        "et"
      ],
      [
        "Ġf",
        "uck"
      ],
      [
        "Ġem",
        "ot"
      ],
      [
        "Ġde",
        "m"
      ],
      [
        "Ġal",
        "most"
      ],
      [
        "Ġs",
        "ince"
      ],
      [
        "i",
        "el"
      ],
      [
        "Ġturn",
        "s"
      ],
      [
        "ron",
        "t"
      ],
      [
        "Ġinter",
        "view"
      ],
      [
        "Ġ",
        "5"
      ],
      [
        "Ġwant",
        "s"
      ],
      [
        "it",
        "al"
      ],
      [
        "Ġm",
        "oney"
      ],
      [
        "Ġlo",
        "st"
      ],
      [
        "st",
        "and"
      ],
      [
        "ur",
        "y"
      ],
      [
        "Ġtra",
        "vel"
      ],
      [
        "es",
        "e"
      ],
      [
        "Ġb",
        "and"
      ],
      [
        "y",
        "ear"
      ],
      [
        "Ġwor",
        "ks"
      ],
      [
        "Ġor",
        "der"
      ],
      [
        "m",
        "as"
      ],
      [
        "at",
        "s"
      ],
      [
        "Ġs",
        "ure"
      ],
      [
        "ĠI",
        "s"
      ],
      [
        "i",
        "ke"
      ],
      [
        "cc",
        "ess"
      ],
      [
        "ĠF",
        "ran"
      ],
      [
        "Ġfun",
        "ny"
      ],
      [
        "Ġpl",
        "an"
      ],
      [
        "Ġme",
        "et"
      ],
      [
        "Ġgu",
        "y"
      ],
      [
        "Ġl",
        "ess"
      ],
      [
        "Ġg",
        "ive"
      ],
      [
        "Ġst",
        "re"
      ],
      [
        "an",
        "k"
      ],
      [
        "ri",
        "f"
      ],
      [
        "Ġdisco",
        "ver"
      ],
      [
        "Ġ",
        "4"
      ],
      [
        "u",
        "nd"
      ],
      [
        "ol",
        "ly"
      ],
      [
        "ĠW",
        "ar"
      ],
      [
        "Ġim",
        "m"
      ],
      [
        "Ġb",
        "reak"
      ],
      [
        "ran",
        "ge"
      ],
      [
        "Ġg",
        "iv"
      ],
      [
        "ra",
        "y"
      ],
      [
        "Ġpro",
        "f"
      ],
      [
        "Ġd",
        "est"
      ],
      [
        "Ġme",
        "an"
      ],
      [
        "y",
        "n"
      ],
      [
        "Ġcomple",
        "te"
      ],
      [
        "en",
        "ed"
      ],
      [
        "Ġst",
        "ories"
      ],
      [
        "or",
        "ld"
      ],
      [
        "w",
        "ay"
      ],
      [
        "o",
        "on"
      ],
      [
        "ograph",
        "y"
      ],
      [
        "Ġthem",
        "selves"
      ],
      [
        "at",
        "ter"
      ],
      [
        "1",
        "9"
      ],
      [
        "Ġp",
        "sy"
      ],
      [
        "Ġs",
        "il"
      ],
      [
        "Ġf",
        "ut"
      ],
      [
        "ent",
        "ion"
      ],
      [
        "ĠW",
        "ill"
      ],
      [
        "Ġs",
        "elf"
      ],
      [
        "er",
        "man"
      ],
      [
        "v",
        "ious"
      ],
      [
        "ĠS",
        "c"
      ],
      [
        "Ġperform",
        "ance"
      ],
      [
        "Ġm",
        "ind"
      ],
      [
        "Ġto",
        "p"
      ],
      [
        "b",
        "y"
      ],
      [
        "Ġ",
        "vers"
      ],
      [
        "Ġsome",
        "one"
      ],
      [
        "ent",
        "ly"
      ],
      [
        "Ġwho",
        "se"
      ],
      [
        "Ġmo",
        "ve"
      ],
      [
        "Ġc",
        "op"
      ],
      [
        "ĠI",
        "f"
      ],
      [
        "ĠB",
        "rit"
      ],
      [
        "ot",
        "e"
      ],
      [
        "ĠI",
        "nd"
      ],
      [
        "Ġget",
        "ting"
      ],
      [
        "y",
        "p"
      ],
      [
        "c",
        "l"
      ],
      [
        "un",
        "k"
      ],
      [
        "Ġcr",
        "ime"
      ],
      [
        "ill",
        "er"
      ],
      [
        "ac",
        "es"
      ],
      [
        "or",
        "ing"
      ],
      [
        "Ġvide",
        "o"
      ],
      [
        "Ġh",
        "or"
      ],
      [
        "o",
        "nder"
      ],
      [
        "ur",
        "b"
      ],
      [
        "Ġp",
        "arent"
      ],
      [
        "Ġd",
        "ays"
      ],
      [
        "oc",
        "us"
      ],
      [
        "Ġp",
        "rom"
      ],
      [
        "al",
        "th"
      ],
      [
        "Ġevery",
        "one"
      ],
      [
        "Ġloo",
        "king"
      ],
      [
        "Ġh",
        "our"
      ],
      [
        "Ġsp",
        "ir"
      ],
      [
        "Ġsu",
        "ccess"
      ],
      [
        "pe",
        "cially"
      ],
      [
        "g",
        "an"
      ],
      [
        "ĠH",
        "is"
      ],
      [
        "Ġexper",
        "ience"
      ],
      [
        "a",
        "ves"
      ],
      [
        "Ġper",
        "fect"
      ],
      [
        "ent",
        "al"
      ],
      [
        "w",
        "ood"
      ],
      [
        "il",
        "ity"
      ],
      [
        "m",
        "in"
      ],
      [
        "ĠWh",
        "ile"
      ],
      [
        "Ġp",
        "ri"
      ],
      [
        "Ġd",
        "r"
      ],
      [
        "ĠHow",
        "ever"
      ],
      [
        "as",
        "c"
      ],
      [
        "Ġact",
        "ing"
      ],
      [
        "Ġf",
        "our"
      ],
      [
        "d",
        "d"
      ],
      [
        "Ġp",
        "ost"
      ],
      [
        "om",
        "b"
      ],
      [
        "Ġ",
        "Q"
      ],
      [
        "Ġshow",
        "s"
      ],
      [
        "if",
        "ic"
      ],
      [
        "ure",
        "d"
      ],
      [
        "Ġ",
        "use"
      ],
      [
        "ĠC",
        "ar"
      ],
      [
        "b",
        "ably"
      ],
      [
        "ĠM",
        "e"
      ],
      [
        "Ġc",
        "ur"
      ],
      [
        "iz",
        "e"
      ],
      [
        "Ġf",
        "elt"
      ],
      [
        "Ġkill",
        "er"
      ],
      [
        "are",
        "d"
      ],
      [
        "Ġim",
        "ag"
      ],
      [
        "o",
        "ice"
      ],
      [
        "Ġcare",
        "er"
      ],
      [
        "ap",
        "s"
      ],
      [
        "at",
        "or"
      ],
      [
        "ge",
        "nd"
      ],
      [
        "Ġf",
        "em"
      ],
      [
        "ĠT",
        "V"
      ],
      [
        "Ġle",
        "ast"
      ],
      [
        "ĠF",
        "ilm"
      ],
      [
        "Ġwor",
        "king"
      ],
      [
        "e",
        "le"
      ],
      [
        "H",
        "E"
      ],
      [
        "ĠY",
        "ork"
      ],
      [
        "ell",
        "ing"
      ],
      [
        "ow",
        "ing"
      ],
      [
        "u",
        "k"
      ],
      [
        "t",
        "en"
      ],
      [
        "ĠM",
        "an"
      ],
      [
        "Ġb",
        "att"
      ],
      [
        "v",
        "ol"
      ],
      [
        "p",
        "ing"
      ],
      [
        "Ġar",
        "ri"
      ],
      [
        "Ġpr",
        "ison"
      ],
      [
        "Ġen",
        "g"
      ],
      [
        "ĠâĢ",
        "ĵ"
      ],
      [
        "c",
        "on"
      ],
      [
        "Ġprodu",
        "ction"
      ],
      [
        "Ġs",
        "ave"
      ],
      [
        "Ġac",
        "ross"
      ],
      [
        "Ġh",
        "on"
      ],
      [
        "Ġs",
        "ense"
      ],
      [
        "ĠR",
        "o"
      ],
      [
        "t",
        "ed"
      ],
      [
        "b",
        "ut"
      ],
      [
        "im",
        "in"
      ],
      [
        "er",
        "ed"
      ],
      [
        "Ġw",
        "in"
      ],
      [
        "it",
        "er"
      ],
      [
        "en",
        "n"
      ],
      [
        "ru",
        "g"
      ],
      [
        "Ġs",
        "us"
      ],
      [
        "Ġdec",
        "ides"
      ],
      [
        "Ġcam",
        "era"
      ],
      [
        "ĠTh",
        "at"
      ],
      [
        "Ġfor",
        "mer"
      ],
      [
        "e",
        "f"
      ],
      [
        "Ġpres",
        "ent"
      ],
      [
        "Ġst",
        "range"
      ],
      [
        "el",
        "s"
      ],
      [
        "ub",
        "l"
      ],
      [
        "Ġ",
        "8"
      ],
      [
        "ber",
        "t"
      ],
      [
        "Ġn",
        "amed"
      ],
      [
        "idd",
        "le"
      ],
      [
        "ol",
        "ute"
      ],
      [
        "Ġfut",
        "ure"
      ],
      [
        "ĠTw",
        "o"
      ],
      [
        "ĠB",
        "r"
      ],
      [
        "Ġbu",
        "ild"
      ],
      [
        "Ġen",
        "c"
      ],
      [
        "Ġem",
        "b"
      ],
      [
        "ĠA",
        "m"
      ],
      [
        "Ġl",
        "ate"
      ],
      [
        "p",
        "ite"
      ],
      [
        "Ġloo",
        "ks"
      ],
      [
        "en",
        "ces"
      ],
      [
        "g",
        "er"
      ],
      [
        "Ġde",
        "al"
      ],
      [
        "Ġbus",
        "iness"
      ],
      [
        "Ġne",
        "xt"
      ],
      [
        "Ġf",
        "ocus"
      ],
      [
        "Ġ",
        "9"
      ],
      [
        "Ġph",
        "ot"
      ],
      [
        "Ġse",
        "qu"
      ],
      [
        "Ġm",
        "aster"
      ],
      [
        "Ġmom",
        "ents"
      ],
      [
        "Ġent",
        "ertain"
      ],
      [
        "Ġfollow",
        "s"
      ],
      [
        "as",
        "y"
      ],
      [
        "Ġpsy",
        "ch"
      ],
      [
        "Ġc",
        "ase"
      ],
      [
        "Ġm",
        "is"
      ],
      [
        "Ġre",
        "ve"
      ],
      [
        "Ġob",
        "s"
      ],
      [
        "ak",
        "en"
      ],
      [
        "Ġl",
        "and"
      ],
      [
        "Ġch",
        "ang"
      ],
      [
        "et",
        "y"
      ],
      [
        "Ġstart",
        "s"
      ],
      [
        "ĠChrist",
        "mas"
      ],
      [
        "Ġpart",
        "ic"
      ],
      [
        "Ġs",
        "it"
      ],
      [
        "Ġn",
        "ice"
      ],
      [
        "l",
        "er"
      ],
      [
        "Ġse",
        "arch"
      ],
      [
        "Ġpro",
        "ble"
      ],
      [
        "Ġb",
        "ra"
      ],
      [
        "Ġst",
        "ra"
      ],
      [
        "ud",
        "get"
      ],
      [
        "Ġkn",
        "own"
      ],
      [
        "Ġorigin",
        "al"
      ],
      [
        "Ġex",
        "p"
      ],
      [
        "ven",
        "ge"
      ],
      [
        "Ġl",
        "ow"
      ],
      [
        "Ġn",
        "ame"
      ],
      [
        "Ġher",
        "self"
      ],
      [
        "ĠAl",
        "l"
      ],
      [
        "li",
        "ke"
      ],
      [
        "os",
        "p"
      ],
      [
        "Ġb",
        "ody"
      ],
      [
        "Ġst",
        "yle"
      ],
      [
        "et",
        "er"
      ],
      [
        "ful",
        "ly"
      ],
      [
        "Ġparent",
        "s"
      ],
      [
        "in",
        "ite"
      ],
      [
        "t",
        "on"
      ],
      [
        "Ġhe",
        "ro"
      ],
      [
        "Ġb",
        "as"
      ],
      [
        "Ġde",
        "v"
      ],
      [
        "Ġcall",
        "ed"
      ],
      [
        "ct",
        "or"
      ],
      [
        "e",
        "c"
      ],
      [
        "Ġbl",
        "ood"
      ],
      [
        "ant",
        "s"
      ],
      [
        "r",
        "al"
      ],
      [
        "i",
        "am"
      ],
      [
        "Ġw",
        "onder"
      ],
      [
        "Ġev",
        "il"
      ],
      [
        "ĠM",
        "y"
      ],
      [
        "m",
        "a"
      ],
      [
        "Ġb",
        "ro"
      ],
      [
        "out",
        "h"
      ],
      [
        "Ġr",
        "ather"
      ],
      [
        "Ġg",
        "ame"
      ],
      [
        "Ġ",
        "z"
      ],
      [
        "vel",
        "op"
      ],
      [
        "Ġfav",
        "or"
      ],
      [
        "Ġs",
        "ent"
      ],
      [
        "Ġfin",
        "al"
      ],
      [
        "Ġcont",
        "in"
      ],
      [
        "Ġd",
        "rug"
      ],
      [
        "ren",
        "ch"
      ],
      [
        "g",
        "u"
      ],
      [
        "Ġad",
        "vent"
      ],
      [
        "Ġide",
        "a"
      ],
      [
        "or",
        "ge"
      ],
      [
        "z",
        "y"
      ],
      [
        "r",
        "or"
      ],
      [
        "Ġev",
        "ent"
      ],
      [
        "Ġst",
        "e"
      ],
      [
        "Ġw",
        "it"
      ],
      [
        "ian",
        "s"
      ],
      [
        "Ġt",
        "rou"
      ],
      [
        "em",
        "ber"
      ],
      [
        "is",
        "hed"
      ],
      [
        "ch",
        "n"
      ],
      [
        "Ġso",
        "ci"
      ],
      [
        "ud",
        "e"
      ],
      [
        "Ġpl",
        "ays"
      ],
      [
        "Ġcon",
        "st"
      ],
      [
        "ĠD",
        "av"
      ],
      [
        "Ġfor",
        "ced"
      ],
      [
        "Ġro",
        "b"
      ],
      [
        "Ġins",
        "p"
      ],
      [
        "Ġo",
        "cc"
      ],
      [
        "Ġ",
        "ðŁ"
      ],
      [
        "Ġunder",
        "stand"
      ],
      [
        "Ġtell",
        "s"
      ],
      [
        "Ġso",
        "cial"
      ],
      [
        "Ġes",
        "pecially"
      ],
      [
        "Ġst",
        "ars"
      ],
      [
        "Ġbr",
        "ing"
      ],
      [
        "Ġacc",
        "ident"
      ],
      [
        "Ġro",
        "le"
      ],
      [
        "Ġdirect",
        "ed"
      ],
      [
        "p",
        "s"
      ],
      [
        "ore",
        "d"
      ],
      [
        "i",
        "ver"
      ],
      [
        "ou",
        "l"
      ],
      [
        "ĠE",
        "ng"
      ],
      [
        "Ġh",
        "ot"
      ],
      [
        "a",
        "im"
      ],
      [
        "Ġse",
        "ver"
      ],
      [
        "Ġcont",
        "r"
      ],
      [
        "Ġits",
        "elf"
      ],
      [
        "Ġdisco",
        "vers"
      ],
      [
        "un",
        "ch"
      ],
      [
        "av",
        "ing"
      ],
      [
        "ĠH",
        "er"
      ],
      [
        "ĠâĢ",
        "Ķ"
      ],
      [
        "ri",
        "pt"
      ],
      [
        "Ġpro",
        "bably"
      ],
      [
        "Ġvers",
        "ion"
      ],
      [
        "Ġcour",
        "se"
      ],
      [
        "a",
        "f"
      ],
      [
        "im",
        "ate"
      ],
      [
        "Ġb",
        "o"
      ],
      [
        "Ġgra",
        "nd"
      ],
      [
        "Ġ",
        "7"
      ],
      [
        "Ġdo",
        "ing"
      ],
      [
        "Ġus",
        "ed"
      ],
      [
        "ĠT",
        "o"
      ],
      [
        "Ġev",
        "ents"
      ],
      [
        "Ġre",
        "ad"
      ],
      [
        "i",
        "ant"
      ],
      [
        "Ġs",
        "n"
      ],
      [
        "u",
        "c"
      ],
      [
        "ĠC",
        "an"
      ],
      [
        "Ġm",
        "ot"
      ],
      [
        "Ġco",
        "ol"
      ],
      [
        "Ġwas",
        "n"
      ],
      [
        "al",
        "ity"
      ],
      [
        "Ġap",
        "art"
      ],
      [
        "Ġth",
        "in"
      ],
      [
        "l",
        "ish"
      ],
      [
        "Ġart",
        "ist"
      ],
      [
        "f",
        "or"
      ],
      [
        "v",
        "al"
      ],
      [
        "Ġmo",
        "der"
      ],
      [
        "ĠH",
        "ar"
      ],
      [
        "ĠC",
        "om"
      ],
      [
        "Ġc",
        "amp"
      ],
      [
        "is",
        "od"
      ],
      [
        "Ġc",
        "ut"
      ],
      [
        "inite",
        "ly"
      ],
      [
        "Ġlo",
        "ved"
      ],
      [
        "Ġ19",
        "7"
      ],
      [
        "o",
        "f"
      ],
      [
        "Ġm",
        "ess"
      ],
      [
        "ic",
        "es"
      ],
      [
        "Ġex",
        "ist"
      ],
      [
        "Ġinclud",
        "ing"
      ],
      [
        "Ġh",
        "ope"
      ],
      [
        "Ġtra",
        "g"
      ],
      [
        "Ġwh",
        "ite"
      ],
      [
        "Ġvill",
        "age"
      ],
      [
        "t",
        "ime"
      ],
      [
        "Ġ19",
        "8"
      ],
      [
        "Ġcl",
        "ose"
      ],
      [
        "Ġb",
        "ased"
      ],
      [
        "Ġle",
        "gend"
      ],
      [
        "'",
        "d"
      ],
      [
        "ĠBrit",
        "ish"
      ],
      [
        "Ġrec",
        "ord"
      ],
      [
        "Ġsurp",
        "ris"
      ],
      [
        "ag",
        "ed"
      ],
      [
        "ar",
        "ing"
      ],
      [
        "Ġd",
        "one"
      ],
      [
        "Ġro",
        "om"
      ],
      [
        "ot",
        "ic"
      ],
      [
        "ĠG",
        "erman"
      ],
      [
        "Ġst",
        "ri"
      ],
      [
        "ire",
        "s"
      ],
      [
        "pect",
        "ed"
      ],
      [
        "Ġh",
        "it"
      ],
      [
        "Ġl",
        "ar"
      ],
      [
        "Ġp",
        "at"
      ],
      [
        "Ġsl",
        "ow"
      ],
      [
        "b",
        "ers"
      ],
      [
        "id",
        "ed"
      ],
      [
        "a",
        "us"
      ],
      [
        "Ġh",
        "om"
      ],
      [
        "Ġwe",
        "ird"
      ],
      [
        "Ġc",
        "ame"
      ],
      [
        "Ġtit",
        "le"
      ],
      [
        "Ġpro",
        "v"
      ],
      [
        "ĠC",
        "on"
      ],
      [
        "Ġstud",
        "ent"
      ],
      [
        "Ġimp",
        "ort"
      ],
      [
        "Ġact",
        "ors"
      ],
      [
        "es",
        "tern"
      ],
      [
        "Ġt",
        "ale"
      ],
      [
        "h",
        "ost"
      ],
      [
        "Ġs",
        "ide"
      ],
      [
        "b",
        "all"
      ],
      [
        "Ġw",
        "ild"
      ],
      [
        "nd",
        "s"
      ],
      [
        "Ġs",
        "ad"
      ],
      [
        "Ġmoder",
        "n"
      ],
      [
        "Ġf",
        "ant"
      ],
      [
        "d",
        "s"
      ],
      [
        "Ġlead",
        "s"
      ],
      [
        "Ġs",
        "um"
      ],
      [
        "ac",
        "her"
      ],
      [
        "Ġm",
        "iddle"
      ],
      [
        "he",
        "t"
      ],
      [
        "Ġreturn",
        "s"
      ],
      [
        "ĠJ",
        "ack"
      ],
      [
        "Ġfin",
        "ally"
      ],
      [
        "Ġw",
        "orth"
      ],
      [
        "Ġb",
        "ar"
      ],
      [
        "Ġel",
        "se"
      ],
      [
        "ro",
        "du"
      ],
      [
        "e",
        "k"
      ],
      [
        "Ġro",
        "ck"
      ],
      [
        "Ġde",
        "velop"
      ],
      [
        "i",
        "ra"
      ],
      [
        "I",
        "N"
      ],
      [
        "Ġgirl",
        "s"
      ],
      [
        "ĠE",
        "l"
      ],
      [
        "Ġabs",
        "olute"
      ],
      [
        "Ġwr",
        "ong"
      ],
      [
        "Ġanim",
        "ation"
      ],
      [
        "Ġc",
        "at"
      ],
      [
        "ĠCh",
        "ar"
      ],
      [
        "Ġst",
        "uff"
      ],
      [
        "le",
        "t"
      ],
      [
        "g",
        "round"
      ],
      [
        "Ġoff",
        "ic"
      ],
      [
        "Ġwith",
        "in"
      ],
      [
        "Ġ",
        "ill"
      ],
      [
        "itt",
        "en"
      ],
      [
        "Ġw",
        "a"
      ],
      [
        "Ġperform",
        "ances"
      ],
      [
        "Ġcon",
        "v"
      ],
      [
        "olly",
        "wood"
      ],
      [
        "in",
        "ing"
      ],
      [
        "he",
        "l"
      ],
      [
        "?",
        "?"
      ],
      [
        "ĠG",
        "e"
      ],
      [
        "Ġsub",
        "ject"
      ],
      [
        "Ġc",
        "ertain"
      ],
      [
        "Ġ",
        "est"
      ],
      [
        "Ġp",
        "iece"
      ],
      [
        "Ġinst",
        "ead"
      ],
      [
        "Ġs",
        "aid"
      ],
      [
        "Ġfilmm",
        "aker"
      ],
      [
        "p",
        "or"
      ],
      [
        "pl",
        "ic"
      ],
      [
        "co",
        "ver"
      ],
      [
        "g",
        "y"
      ],
      [
        "Ġinc",
        "red"
      ],
      [
        "Ġsing",
        "le"
      ],
      [
        "ver",
        "n"
      ],
      [
        "Ġh",
        "op"
      ],
      [
        "ri",
        "ght"
      ],
      [
        "ĠW",
        "orld"
      ],
      [
        "ĠT",
        "om"
      ],
      [
        "Ġstr",
        "ong"
      ],
      [
        "'",
        "ll"
      ],
      [
        "Ġof",
        "ten"
      ],
      [
        "Ġch",
        "ange"
      ],
      [
        "Ġs",
        "le"
      ],
      [
        "ĠP",
        "ar"
      ],
      [
        "ĠA",
        "d"
      ],
      [
        "it",
        "her"
      ],
      [
        "Ġc",
        "ele"
      ],
      [
        "Ġplay",
        "ing"
      ],
      [
        "Ġl",
        "aw"
      ],
      [
        "Ġth",
        "reat"
      ],
      [
        "ĠN",
        "o"
      ],
      [
        "Ġf",
        "ig"
      ],
      [
        "E",
        "R"
      ],
      [
        "Ġf",
        "an"
      ],
      [
        "Ġan",
        "n"
      ],
      [
        "Ġ",
        "ident"
      ],
      [
        "Ġset",
        "s"
      ],
      [
        "us",
        "h"
      ],
      [
        "Ġcon",
        "ne"
      ],
      [
        "Ġesc",
        "ape"
      ],
      [
        "re",
        "w"
      ],
      [
        "Ġqu",
        "ick"
      ],
      [
        "ent",
        "ial"
      ],
      [
        "Ġd",
        "anger"
      ],
      [
        "Ġm",
        "or"
      ],
      [
        "ant",
        "ic"
      ],
      [
        "Ġend",
        "ing"
      ],
      [
        "Ġh",
        "old"
      ],
      [
        "in",
        "c"
      ],
      [
        "Ġep",
        "isod"
      ],
      [
        "Ġf",
        "ail"
      ],
      [
        "Ġp",
        "le"
      ],
      [
        "ĠD",
        "on"
      ],
      [
        "Ġmus",
        "ical"
      ],
      [
        "Ġre",
        "venge"
      ],
      [
        "ot",
        "s"
      ],
      [
        "Ġv",
        "ict"
      ],
      [
        "ar",
        "a"
      ],
      [
        "ĠA",
        "ng"
      ],
      [
        "Ġ20",
        "1"
      ],
      [
        "Ġ19",
        "9"
      ],
      [
        "Ġkid",
        "s"
      ],
      [
        "re",
        "st"
      ],
      [
        "in",
        "ation"
      ],
      [
        "Ġreal",
        "ity"
      ],
      [
        "ct",
        "ed"
      ],
      [
        "Ġ",
        "6"
      ],
      [
        "Ġkill",
        "ed"
      ],
      [
        "Ġnarr",
        "ative"
      ],
      [
        "Ġexper",
        "im"
      ],
      [
        "Ġf",
        "ree"
      ],
      [
        "Ġdo",
        "g"
      ],
      [
        "ac",
        "ed"
      ],
      [
        "Ġsh",
        "it"
      ],
      [
        "Ġm",
        "il"
      ],
      [
        "ĠP",
        "h"
      ],
      [
        "Ġfem",
        "ale"
      ],
      [
        "Ġs",
        "old"
      ],
      [
        "Ġvis",
        "ual"
      ],
      [
        "Ġcommun",
        "ity"
      ],
      [
        "e",
        "et"
      ],
      [
        "Ġte",
        "chn"
      ],
      [
        "ubl",
        "ic"
      ],
      [
        "Ġcom",
        "ing"
      ],
      [
        "Ġenc",
        "oun"
      ],
      [
        "a",
        "ul"
      ],
      [
        "Ġdream",
        "s"
      ],
      [
        "Ġact",
        "or"
      ],
      [
        "olog",
        "y"
      ],
      [
        "ag",
        "er"
      ],
      [
        "Ġb",
        "ook"
      ],
      [
        "Ġg",
        "ives"
      ],
      [
        "ib",
        "ly"
      ],
      [
        "ri",
        "ble"
      ],
      [
        "o",
        "le"
      ],
      [
        "ĠF",
        "rench"
      ],
      [
        "Ġh",
        "ands"
      ],
      [
        "Ġ-",
        "-"
      ],
      [
        "y",
        "l"
      ],
      [
        "Ġre",
        "view"
      ],
      [
        "Ġan",
        "t"
      ],
      [
        "Ġfam",
        "il"
      ],
      [
        "Ġfavor",
        "ite"
      ],
      [
        "on",
        "es"
      ],
      [
        "Ġa",
        "v"
      ],
      [
        "l",
        "ight"
      ],
      [
        "ĠM",
        "c"
      ],
      [
        "Ġend",
        "s"
      ],
      [
        "Ġe",
        "ff"
      ],
      [
        "m",
        "p"
      ],
      [
        "Ġd",
        "ial"
      ],
      [
        "i",
        "or"
      ],
      [
        "Ġex",
        "am"
      ],
      [
        "ore",
        "s"
      ],
      [
        "Ġtri",
        "p"
      ],
      [
        "l",
        "u"
      ],
      [
        "Ġsp",
        "ace"
      ],
      [
        "Ġclass",
        "ic"
      ],
      [
        "Ġpolit",
        "ical"
      ],
      [
        "Ġmom",
        "ent"
      ],
      [
        "Ġcon",
        "c"
      ],
      [
        "Ġl",
        "iter"
      ],
      [
        "k",
        "y"
      ],
      [
        "l",
        "ine"
      ],
      [
        "ĠD",
        "an"
      ],
      [
        "Ġcele",
        "br"
      ],
      [
        "ict",
        "ion"
      ],
      [
        "Ġdes",
        "ign"
      ],
      [
        "Ġimp",
        "ress"
      ],
      [
        "Ġbatt",
        "le"
      ],
      [
        "Ġp",
        "ict"
      ],
      [
        "u",
        "ge"
      ],
      [
        "Ġw",
        "al"
      ],
      [
        "Ġt",
        "our"
      ],
      [
        "Ġmarri",
        "ed"
      ],
      [
        "Ġun",
        "ex"
      ],
      [
        "Ġhon",
        "est"
      ],
      [
        "ĠQ",
        "u"
      ],
      [
        "Ġsee",
        "ing"
      ],
      [
        "Ġinterview",
        "s"
      ],
      [
        "al",
        "d"
      ],
      [
        "Ġa",
        "ff"
      ],
      [
        "ward",
        "s"
      ],
      [
        "Ġ20",
        "0"
      ],
      [
        "Ġa",
        "ge"
      ],
      [
        "s",
        "p"
      ],
      [
        "Ġ19",
        "6"
      ],
      [
        "ĠM",
        "on"
      ],
      [
        "az",
        "ing"
      ],
      [
        "fort",
        "un"
      ],
      [
        "ant",
        "ly"
      ],
      [
        "Ġ",
        "ult"
      ],
      [
        "Ġsex",
        "ual"
      ],
      [
        "ĠE",
        "d"
      ],
      [
        "Ġatt",
        "ack"
      ],
      [
        "et",
        "t"
      ],
      [
        "c",
        "he"
      ],
      [
        "em",
        "ent"
      ],
      [
        "ab",
        "y"
      ],
      [
        "Ġt",
        "re"
      ],
      [
        "Ġcr",
        "imin"
      ],
      [
        "Ġf",
        "asc"
      ],
      [
        "up",
        "t"
      ],
      [
        "th",
        "ough"
      ],
      [
        "re",
        "me"
      ],
      [
        "Ġl",
        "ist"
      ],
      [
        "Ġinvol",
        "ved"
      ],
      [
        "igh",
        "b"
      ],
      [
        "Ġsever",
        "al"
      ],
      [
        "Ġdis",
        "c"
      ],
      [
        "Ġport",
        "ra"
      ],
      [
        "a",
        "el"
      ],
      [
        "Ġother",
        "s"
      ],
      [
        "g",
        "es"
      ],
      [
        "Ġre",
        "ason"
      ],
      [
        "ĠP",
        "l"
      ],
      [
        "ĠP",
        "r"
      ],
      [
        "og",
        "ue"
      ],
      [
        "ĠJapan",
        "ese"
      ],
      [
        "ĠS",
        "ome"
      ],
      [
        "Ġup",
        "on"
      ],
      [
        "Ġo",
        "per"
      ],
      [
        "Ġres",
        "ult"
      ],
      [
        "ĠâĢ",
        "ĺ"
      ],
      [
        "au",
        "ght"
      ],
      [
        "p",
        "ar"
      ],
      [
        "pos",
        "ed"
      ],
      [
        "Ġb",
        "udget"
      ],
      [
        "ir",
        "c"
      ],
      [
        "Ġw",
        "ent"
      ],
      [
        "ĠT",
        "HE"
      ],
      [
        "Ġpro",
        "g"
      ],
      [
        "is",
        "ed"
      ],
      [
        "Ġs",
        "at"
      ],
      [
        "Ġs",
        "ort"
      ],
      [
        "ear",
        "s"
      ],
      [
        "Ġc",
        "oll"
      ],
      [
        "Ġab",
        "le"
      ],
      [
        "ĠJ",
        "e"
      ],
      [
        "Ġbelie",
        "ve"
      ],
      [
        "Ġar",
        "ch"
      ],
      [
        "Ġte",
        "le"
      ],
      [
        "n",
        "ot"
      ],
      [
        "Ġsoci",
        "ety"
      ],
      [
        "Ġf",
        "air"
      ],
      [
        "Ġt",
        "aking"
      ],
      [
        "ect",
        "ive"
      ],
      [
        "Ġuni",
        "que"
      ],
      [
        "Ġh",
        "ost"
      ],
      [
        "Ġpart",
        "y"
      ],
      [
        "Ġrem",
        "ember"
      ],
      [
        "at",
        "ural"
      ],
      [
        "m",
        "b"
      ],
      [
        "Ġs",
        "aw"
      ],
      [
        "Ġne",
        "ighb"
      ],
      [
        "Ġm",
        "ix"
      ],
      [
        "Ġno",
        "vel"
      ],
      [
        "Ġh",
        "ar"
      ],
      [
        "ĠAmeric",
        "a"
      ],
      [
        "re",
        "ady"
      ],
      [
        "Ġad",
        "apt"
      ],
      [
        "ĠA",
        "b"
      ],
      [
        "en",
        "e"
      ],
      [
        "ill",
        "ed"
      ],
      [
        "Ġle",
        "g"
      ],
      [
        "ĠDav",
        "id"
      ],
      [
        "Ġne",
        "ar"
      ],
      [
        "Ġw",
        "ish"
      ],
      [
        "l",
        "o"
      ],
      [
        "Ġf",
        "ive"
      ],
      [
        "Ġspir",
        "it"
      ],
      [
        "Ġun",
        "f"
      ],
      [
        "Ġpro",
        "ject"
      ],
      [
        "Ġin",
        "n"
      ],
      [
        "ĠA",
        "f"
      ],
      [
        "Ġgirl",
        "friend"
      ],
      [
        "i",
        "vers"
      ],
      [
        "Ġprof",
        "ess"
      ],
      [
        "pe",
        "nd"
      ],
      [
        "Ġag",
        "o"
      ],
      [
        "Ġtra",
        "d"
      ],
      [
        "Ġcons",
        "id"
      ],
      [
        "Ġw",
        "ays"
      ],
      [
        "k",
        "n"
      ],
      [
        "\"",
        "."
      ],
      [
        "in",
        "o"
      ],
      [
        "Ġfam",
        "ous"
      ],
      [
        "Ġam",
        "b"
      ],
      [
        "Ġto",
        "ld"
      ],
      [
        "Ġpo",
        "or"
      ],
      [
        "Ġplay",
        "ed"
      ],
      [
        "ĠN",
        "ow"
      ],
      [
        "ad",
        "es"
      ],
      [
        "Ġdef",
        "initely"
      ],
      [
        "Ġst",
        "ay"
      ],
      [
        "ĠG",
        "od"
      ],
      [
        "Ġwant",
        "ed"
      ],
      [
        "udd",
        "en"
      ],
      [
        "op",
        "h"
      ],
      [
        "g",
        "o"
      ],
      [
        "Ġl",
        "ack"
      ],
      [
        "Ġmarri",
        "age"
      ],
      [
        "ri",
        "b"
      ],
      [
        "Ġto",
        "day"
      ],
      [
        "el",
        "ess"
      ],
      [
        "Ġgiv",
        "en"
      ],
      [
        "Ġsu",
        "ff"
      ],
      [
        "Ġt",
        "est"
      ],
      [
        "Ġg",
        "host"
      ],
      [
        "ĠH",
        "ollywood"
      ],
      [
        "Ġsh",
        "oot"
      ],
      [
        "Ġchild",
        "hood"
      ],
      [
        "Ġtr",
        "uth"
      ],
      [
        "Ġcre",
        "w"
      ],
      [
        "Ġc",
        "or"
      ],
      [
        "Ġcl",
        "os"
      ],
      [
        "g",
        "ed"
      ],
      [
        "Ġle",
        "ave"
      ],
      [
        "Ġ1",
        "0"
      ],
      [
        "Ġkid",
        "n"
      ],
      [
        "ĠS",
        "w"
      ],
      [
        "Ġal",
        "ready"
      ],
      [
        "ĠM",
        "ich"
      ],
      [
        "it",
        "ive"
      ],
      [
        "Ġex",
        "act"
      ],
      [
        "ir",
        "th"
      ],
      [
        "is",
        "ing"
      ],
      [
        "am",
        "b"
      ],
      [
        "er",
        "m"
      ],
      [
        "pl",
        "ay"
      ],
      [
        "Ġcomplete",
        "ly"
      ],
      [
        "arr",
        "ing"
      ],
      [
        "Ġtra",
        "ck"
      ],
      [
        "Ġvict",
        "im"
      ],
      [
        "Ġt",
        "aken"
      ],
      [
        "Ġeff",
        "ort"
      ],
      [
        "t",
        "ra"
      ],
      [
        "ĠO",
        "r"
      ],
      [
        "Ġrom",
        "ance"
      ],
      [
        "er",
        "v"
      ],
      [
        "ol",
        "es"
      ],
      [
        "Ġr",
        "ich"
      ],
      [
        "il",
        "le"
      ],
      [
        "Ġlo",
        "s"
      ],
      [
        "Ġst",
        "age"
      ],
      [
        "us",
        "ed"
      ],
      [
        "is",
        "es"
      ],
      [
        "Ġal",
        "one"
      ],
      [
        "Ġv",
        "al"
      ],
      [
        "Ġgo",
        "vern"
      ],
      [
        "ĠE",
        "x"
      ],
      [
        "l",
        "in"
      ],
      [
        "Ġreve",
        "al"
      ],
      [
        "ĠB",
        "ar"
      ],
      [
        "Ġch",
        "all"
      ],
      [
        "Ġcolle",
        "ge"
      ],
      [
        "Ġaud",
        "ience"
      ],
      [
        "u",
        "z"
      ],
      [
        "Ġli",
        "ked"
      ],
      [
        "Ġviol",
        "ence"
      ],
      [
        "Ġch",
        "ance"
      ],
      [
        "Ġpower",
        "ful"
      ],
      [
        "Ġg",
        "ay"
      ],
      [
        "Ġs",
        "ign"
      ],
      [
        "Ġtru",
        "ly"
      ],
      [
        "id",
        "ing"
      ],
      [
        "Ġunex",
        "pected"
      ],
      [
        "Ġthr",
        "iller"
      ],
      [
        "Ġf",
        "re"
      ],
      [
        "ill",
        "s"
      ],
      [
        "Ġro",
        "ad"
      ],
      [
        "2",
        "0"
      ],
      [
        "Ġl",
        "augh"
      ],
      [
        "ap",
        "pe"
      ],
      [
        "Ġm",
        "el"
      ],
      [
        "Ġf",
        "ram"
      ],
      [
        "Ġey",
        "es"
      ],
      [
        "Ġt",
        "ou"
      ],
      [
        "Ġmyster",
        "y"
      ],
      [
        "vis",
        "ion"
      ],
      [
        "Ġd",
        "an"
      ],
      [
        "th",
        "s"
      ],
      [
        "Ġv",
        "oice"
      ],
      [
        "Ġim",
        "ages"
      ],
      [
        "Ġexper",
        "ien"
      ],
      [
        "Ġter",
        "ror"
      ],
      [
        "Ġd",
        "ou"
      ],
      [
        "Ġsc",
        "ript"
      ],
      [
        "ĠM",
        "ay"
      ],
      [
        "Ġsit",
        "u"
      ],
      [
        "\"",
        ","
      ],
      [
        "Ġm",
        "ill"
      ],
      [
        "Ġcomp",
        "any"
      ],
      [
        "ĠIt",
        "al"
      ],
      [
        "Ġco",
        "nd"
      ],
      [
        "ĠC",
        "ol"
      ],
      [
        "Ġn",
        "ature"
      ],
      [
        "Ġcult",
        "ure"
      ],
      [
        "Ġrele",
        "ased"
      ],
      [
        "an",
        "a"
      ],
      [
        "i",
        "ar"
      ],
      [
        "Ġp",
        "os"
      ],
      [
        "ĠR",
        "uss"
      ],
      [
        "ction",
        "s"
      ],
      [
        "ĠS",
        "am"
      ],
      [
        "ĠB",
        "ra"
      ],
      [
        "Ġobs",
        "ess"
      ],
      [
        "Ġmay",
        "be"
      ],
      [
        "idd",
        "en"
      ],
      [
        "ĠJ",
        "ust"
      ],
      [
        "Ġd",
        "iv"
      ],
      [
        "ĠBl",
        "ack"
      ],
      [
        "Ġapp",
        "ro"
      ],
      [
        "Ġv",
        "arious"
      ],
      [
        "ĠB",
        "er"
      ],
      [
        "ĠF",
        "rom"
      ],
      [
        "Ġgen",
        "re"
      ],
      [
        "in",
        "ary"
      ],
      [
        "re",
        "ad"
      ],
      [
        "ep",
        "t"
      ],
      [
        "Ġquest",
        "ion"
      ],
      [
        "Ġtoo",
        "k"
      ],
      [
        "itt",
        "ing"
      ],
      [
        "Ġn",
        "on"
      ],
      [
        "m",
        "ed"
      ],
      [
        "on",
        "ed"
      ],
      [
        "Ġex",
        "ec"
      ],
      [
        "Ġins",
        "ide"
      ],
      [
        "Ġle",
        "aves"
      ],
      [
        "ĠD",
        "o"
      ],
      [
        "Ġsup",
        "port"
      ],
      [
        "Ġwrit",
        "er"
      ],
      [
        "Ġsim",
        "ple"
      ],
      [
        "ak",
        "ers"
      ],
      [
        "Ġimport",
        "ant"
      ],
      [
        "ond",
        "on"
      ],
      [
        "on",
        "ic"
      ],
      [
        "ĠC",
        "ity"
      ],
      [
        "Ġcom",
        "ed"
      ],
      [
        "Ġan",
        "g"
      ],
      [
        "Ġinter",
        "n"
      ],
      [
        ",",
        "\""
      ],
      [
        "ard",
        "s"
      ],
      [
        "Ġmost",
        "ly"
      ],
      [
        "em",
        "y"
      ],
      [
        "Ġl",
        "ine"
      ],
      [
        "Ġ",
        "er"
      ],
      [
        "d",
        "ing"
      ],
      [
        "p",
        "ped"
      ],
      [
        "iz",
        "es"
      ],
      [
        "ast",
        "ic"
      ],
      [
        "Ġra",
        "d"
      ],
      [
        "Ġs",
        "udden"
      ],
      [
        "Ġany",
        "one"
      ],
      [
        "Ġw",
        "on"
      ],
      [
        "Ġmiss",
        "ing"
      ],
      [
        "ĠE",
        "very"
      ],
      [
        "Ġam",
        "ong"
      ],
      [
        "A",
        "N"
      ],
      [
        "Ġser",
        "ious"
      ],
      [
        "w",
        "here"
      ],
      [
        "ie",
        "f"
      ],
      [
        "Ġis",
        "land"
      ],
      [
        "Ġdes",
        "per"
      ],
      [
        "ir",
        "t"
      ],
      [
        "Ġo",
        "dd"
      ],
      [
        "Ġis",
        "s"
      ],
      [
        "ĠL",
        "ondon"
      ],
      [
        "i",
        "od"
      ],
      [
        "Ġus",
        "ing"
      ],
      [
        "Ġdes",
        "pite"
      ],
      [
        "Ġs",
        "ens"
      ],
      [
        "Ġre",
        "vol"
      ],
      [
        "o",
        "int"
      ],
      [
        "ab",
        "or"
      ],
      [
        "at",
        "uring"
      ],
      [
        "ne",
        "w"
      ],
      [
        "um",
        "p"
      ],
      [
        "Ġp",
        "ot"
      ],
      [
        "aj",
        "or"
      ],
      [
        "Ġl",
        "ands"
      ],
      [
        "il",
        "t"
      ],
      [
        "Ġturn",
        "ed"
      ],
      [
        "Ġcomp",
        "et"
      ],
      [
        "Ġtal",
        "k"
      ],
      [
        "e",
        "v"
      ],
      [
        "Ġb",
        "ur"
      ],
      [
        "le",
        "ct"
      ],
      [
        "u",
        "ra"
      ],
      [
        "s",
        "w"
      ],
      [
        "ĠB",
        "ro"
      ],
      [
        "Ġg",
        "un"
      ],
      [
        "z",
        "e"
      ],
      [
        "Ġbr",
        "ut"
      ],
      [
        "in",
        "ating"
      ],
      [
        "Ġwe",
        "alth"
      ],
      [
        "ĠP",
        "aul"
      ],
      [
        "um",
        "ber"
      ],
      [
        "it",
        "ions"
      ],
      [
        "ĠK",
        "ing"
      ],
      [
        "Ġa",
        "ut"
      ],
      [
        "Ġst",
        "ep"
      ],
      [
        "Ġam",
        "azing"
      ],
      [
        "Ġt",
        "reat"
      ],
      [
        "Ġstra",
        "ight"
      ],
      [
        "Ġrom",
        "antic"
      ],
      [
        "Ġte",
        "acher"
      ],
      [
        "o",
        "ff"
      ],
      [
        "Ġlar",
        "ge"
      ],
      [
        "iz",
        "ation"
      ],
      [
        "Ġind",
        "ust"
      ],
      [
        "Ġmiss",
        "ion"
      ],
      [
        "Ġdec",
        "ide"
      ],
      [
        "Ġm",
        "id"
      ],
      [
        "Ġhel",
        "l"
      ],
      [
        "it",
        "ch"
      ],
      [
        "Ġres",
        "p"
      ],
      [
        "Ġhapp",
        "y"
      ],
      [
        "Ġco",
        "ver"
      ],
      [
        "Ġm",
        "ater"
      ],
      [
        "Ġext",
        "reme"
      ],
      [
        "Ġinf",
        "lu"
      ],
      [
        "Ġmem",
        "bers"
      ],
      [
        "Ġbr",
        "ings"
      ],
      [
        "Ġcom",
        "b"
      ],
      [
        "unt",
        "ed"
      ],
      [
        "Ġp",
        "ublic"
      ],
      [
        "Ġc",
        "irc"
      ],
      [
        "rou",
        "ght"
      ],
      [
        ".",
        "âĢĿ"
      ],
      [
        "Ġabsolute",
        "ly"
      ],
      [
        "Ġfeature",
        "s"
      ],
      [
        "Ġdis",
        "appe"
      ],
      [
        "iz",
        "ing"
      ],
      [
        "re",
        "nt"
      ],
      [
        "Ġf",
        "ront"
      ],
      [
        "Ġc",
        "ross"
      ],
      [
        "ĠD",
        "es"
      ],
      [
        "ĠD",
        "r"
      ],
      [
        "Ġeffect",
        "s"
      ],
      [
        "Ġpro",
        "cess"
      ],
      [
        "ĠJ",
        "ames"
      ],
      [
        "Ġhow",
        "ever"
      ],
      [
        "o",
        "id"
      ],
      [
        "un",
        "e"
      ],
      [
        "Ġme",
        "ans"
      ],
      [
        "Ġsc",
        "ient"
      ],
      [
        "et",
        "h"
      ],
      [
        "Ġthrough",
        "out"
      ],
      [
        "Ġext",
        "ra"
      ],
      [
        "Ġf",
        "ell"
      ],
      [
        "Ġfuck",
        "ing"
      ],
      [
        "ĠP",
        "e"
      ],
      [
        "ke",
        "y"
      ],
      [
        "ĠMich",
        "ael"
      ],
      [
        "l",
        "ict"
      ],
      [
        "Ġfeel",
        "ing"
      ],
      [
        "ri",
        "ef"
      ],
      [
        "Ġto",
        "t"
      ],
      [
        "re",
        "al"
      ],
      [
        "ĠF",
        "l"
      ],
      [
        "ĠSt",
        "e"
      ],
      [
        "Ġemot",
        "ional"
      ],
      [
        "Ġdest",
        "ro"
      ],
      [
        "Ġhist",
        "or"
      ],
      [
        "ive",
        "ly"
      ],
      [
        "ĠP",
        "ro"
      ],
      [
        "Ġd",
        "ue"
      ],
      [
        "Ġattempt",
        "s"
      ],
      [
        "Ġun",
        "s"
      ],
      [
        "ĠE",
        "arth"
      ],
      [
        "st",
        "em"
      ],
      [
        "Ġfor",
        "ces"
      ],
      [
        "ĠAng",
        "el"
      ],
      [
        "T",
        "h"
      ],
      [
        "Ġact",
        "ress"
      ],
      [
        "Ġpop",
        "ular"
      ],
      [
        "Ġdial",
        "ogue"
      ],
      [
        "Ġsol",
        "id"
      ],
      [
        "pl",
        "oy"
      ],
      [
        "Ġm",
        "ist"
      ],
      [
        "Ġgovern",
        "ment"
      ],
      [
        "Ġpre",
        "m"
      ],
      [
        "Ġstrugg",
        "les"
      ],
      [
        "Ġenjoy",
        "ed"
      ],
      [
        "fortun",
        "ately"
      ],
      [
        "ar",
        "ies"
      ],
      [
        "ĠG",
        "ra"
      ],
      [
        "ra",
        "g"
      ],
      [
        "Ġtal",
        "king"
      ],
      [
        "a",
        "res"
      ],
      [
        "it",
        "ation"
      ],
      [
        "h",
        "a"
      ],
      [
        "Ġspe",
        "nd"
      ],
      [
        "Ġ",
        "era"
      ],
      [
        "Ġcontr",
        "ol"
      ],
      [
        "Ġwor",
        "st"
      ],
      [
        "ĠM",
        "r"
      ],
      [
        "Ġgu",
        "ess"
      ],
      [
        "Ġb",
        "irth"
      ],
      [
        "i",
        "ally"
      ],
      [
        "Ġhapp",
        "ens"
      ],
      [
        "A",
        "T"
      ],
      [
        "ap",
        "es"
      ],
      [
        "Ġper",
        "iod"
      ],
      [
        "Ġstud",
        "ents"
      ],
      [
        "Ġadvent",
        "ure"
      ],
      [
        "Ġp",
        "ay"
      ],
      [
        "ĠFran",
        "k"
      ],
      [
        "Ġcinem",
        "at"
      ],
      [
        "ĠG",
        "u"
      ],
      [
        "ĠA",
        "ust"
      ],
      [
        "Ġm",
        "ad"
      ],
      [
        "Ġsh",
        "ock"
      ],
      [
        "Ġ1",
        "8"
      ],
      [
        "ĠF",
        "e"
      ],
      [
        "ri",
        "es"
      ],
      [
        "Ġb",
        "oss"
      ],
      [
        "Ġd",
        "ance"
      ],
      [
        "Ġb",
        "oring"
      ],
      [
        "Ġm",
        "ount"
      ],
      [
        "r",
        "ing"
      ],
      [
        "ip",
        "s"
      ],
      [
        "Ġc",
        "art"
      ],
      [
        "ĠJ",
        "im"
      ],
      [
        "ogra",
        "p"
      ],
      [
        "Ġlead",
        "ing"
      ],
      [
        "ĠAf",
        "ric"
      ],
      [
        "ĠR",
        "ich"
      ],
      [
        "Ġmater",
        "ial"
      ],
      [
        "Ġentertain",
        "ing"
      ],
      [
        "ic",
        "ult"
      ],
      [
        "ent",
        "ed"
      ],
      [
        "Ġs",
        "ix"
      ],
      [
        "Ġb",
        "ox"
      ],
      [
        "Ġm",
        "ult"
      ],
      [
        "Ġle",
        "vel"
      ],
      [
        "Ġcent",
        "ury"
      ],
      [
        "Ġsw",
        "eet"
      ],
      [
        "Ġfriend",
        "ship"
      ],
      [
        "y",
        "ond"
      ],
      [
        "Ġquick",
        "ly"
      ],
      [
        "ir",
        "ing"
      ],
      [
        "it",
        "ary"
      ],
      [
        "Ġgreat",
        "est"
      ],
      [
        "ag",
        "on"
      ],
      [
        "Ġtra",
        "in"
      ],
      [
        "Ġc",
        "ap"
      ],
      [
        "Ġappe",
        "ar"
      ],
      [
        "c",
        "ent"
      ],
      [
        "ĠU",
        "S"
      ],
      [
        "Ġ",
        "ir"
      ],
      [
        "Ġ9",
        "0"
      ],
      [
        "Ġp",
        "ur"
      ],
      [
        "ic",
        "ks"
      ],
      [
        "Ġg",
        "od"
      ],
      [
        "Ġcr",
        "it"
      ],
      [
        "ous",
        "ly"
      ],
      [
        "Ġre",
        "d"
      ],
      [
        "Ġshot",
        "s"
      ],
      [
        "Ġs",
        "oul"
      ],
      [
        "Ġra",
        "re"
      ],
      [
        "om",
        "an"
      ],
      [
        "Ġsong",
        "s"
      ],
      [
        "Ġp",
        "urs"
      ],
      [
        "Ġw",
        "ind"
      ],
      [
        "O",
        "N"
      ],
      [
        "Ġmov",
        "ing"
      ],
      [
        "he",
        "ad"
      ],
      [
        "as",
        "ure"
      ],
      [
        "-",
        "-"
      ],
      [
        "Ġdec",
        "ent"
      ],
      [
        "ul",
        "arly"
      ],
      [
        "Ġ3",
        "0"
      ],
      [
        "m",
        "en"
      ],
      [
        "ĠE",
        "ur"
      ],
      [
        "Ġident",
        "ity"
      ],
      [
        "ent",
        "y"
      ],
      [
        "Ġwr",
        "itten"
      ],
      [
        "er",
        "ry"
      ],
      [
        "Ġstrugg",
        "le"
      ],
      [
        "Ġvis",
        "it"
      ],
      [
        "Ġe",
        "ither"
      ],
      [
        "c",
        "her"
      ],
      [
        "Ġsurv",
        "iv"
      ],
      [
        "o",
        "ved"
      ],
      [
        "h",
        "ow"
      ],
      [
        "Ġhum",
        "or"
      ],
      [
        "ĠS",
        "outh"
      ],
      [
        "ĠRo",
        "bert"
      ],
      [
        "Ġm",
        "ass"
      ],
      [
        "Ġrun",
        "ning"
      ],
      [
        "Ġc",
        "aus"
      ],
      [
        "Ġwat",
        "er"
      ],
      [
        "ĠF",
        "r"
      ],
      [
        "Ġneed",
        "s"
      ],
      [
        "Ġf",
        "ul"
      ],
      [
        "kn",
        "own"
      ],
      [
        "Ġc",
        "ost"
      ],
      [
        "Ġdet",
        "ective"
      ],
      [
        "Ġm",
        "atter"
      ],
      [
        "ar",
        "re"
      ],
      [
        "ĠE",
        "m"
      ],
      [
        "Ġfollow",
        "ing"
      ],
      [
        "le",
        "x"
      ],
      [
        "Ġt",
        "y"
      ],
      [
        "Ġra",
        "ce"
      ],
      [
        "iel",
        "d"
      ],
      [
        "ol",
        "id"
      ],
      [
        "Ġey",
        "e"
      ],
      [
        "Ġres",
        "c"
      ],
      [
        "om",
        "p"
      ],
      [
        "ub",
        "e"
      ],
      [
        "ress",
        "ed"
      ],
      [
        "ac",
        "ing"
      ],
      [
        "Ġin",
        "form"
      ],
      [
        "Ġr",
        "u"
      ],
      [
        "Ġdet",
        "ail"
      ],
      [
        "re",
        "aking"
      ],
      [
        "p",
        "ly"
      ],
      [
        "b",
        "ack"
      ],
      [
        "Ġboy",
        "friend"
      ],
      [
        "Ġpass",
        "ion"
      ],
      [
        "Ġdiff",
        "icult"
      ],
      [
        "ac",
        "y"
      ],
      [
        "Ġm",
        "ajor"
      ],
      [
        "Ġus",
        "es"
      ],
      [
        "e",
        "e"
      ],
      [
        "Ġop",
        "en"
      ],
      [
        "Ġrem",
        "ind"
      ],
      [
        "os",
        "h"
      ],
      [
        "ex",
        "ic"
      ],
      [
        "ag",
        "ing"
      ],
      [
        "Ġp",
        "ull"
      ],
      [
        "g",
        "est"
      ],
      [
        "Ġcle",
        "ar"
      ],
      [
        "Ġ",
        "ic"
      ],
      [
        "ĠM",
        "art"
      ],
      [
        "y",
        "a"
      ],
      [
        "Ġsomet",
        "imes"
      ],
      [
        "Ġsum",
        "mer"
      ],
      [
        "Ġsy",
        "stem"
      ],
      [
        "Ġwit",
        "ness"
      ],
      [
        "it",
        "es"
      ],
      [
        "Ġmag",
        "ic"
      ],
      [
        "Ġd",
        "am"
      ],
      [
        "Ġfor",
        "g"
      ],
      [
        "ress",
        "ion"
      ],
      [
        "Ġf",
        "r"
      ],
      [
        "Ġaff",
        "air"
      ],
      [
        "ĠAl",
        "so"
      ],
      [
        "Ġg",
        "old"
      ],
      [
        "im",
        "ately"
      ],
      [
        "Ġor",
        "gan"
      ],
      [
        "Ġm",
        "ark"
      ],
      [
        "Ġstart",
        "ed"
      ],
      [
        "ĠA",
        "p"
      ],
      [
        "ĠEng",
        "lish"
      ],
      [
        "Ġw",
        "he"
      ],
      [
        "p",
        "y"
      ],
      [
        "b",
        "um"
      ],
      [
        "Ġhapp",
        "ened"
      ],
      [
        "as",
        "es"
      ],
      [
        "Ġout",
        "side"
      ],
      [
        "Ġp",
        "ath"
      ],
      [
        "Ġhour",
        "s"
      ],
      [
        "if",
        "t"
      ],
      [
        "d",
        "ers"
      ],
      [
        "Ġv",
        "ib"
      ],
      [
        "Ġad",
        "m"
      ],
      [
        "Ġpri",
        "v"
      ],
      [
        "Ġanim",
        "ated"
      ],
      [
        "Ġex",
        "cept"
      ],
      [
        "Ġtrans",
        "form"
      ],
      [
        "pect",
        "ive"
      ],
      [
        "Ġb",
        "aby"
      ],
      [
        "b",
        "ody"
      ],
      [
        "Ġcon",
        "cept"
      ],
      [
        "Ġtele",
        "vision"
      ],
      [
        "Ġhe",
        "av"
      ],
      [
        "il",
        "ar"
      ],
      [
        "iv",
        "il"
      ],
      [
        "Ġg",
        "round"
      ],
      [
        "Ġpart",
        "s"
      ],
      [
        "il",
        "arious"
      ],
      [
        "Ġmov",
        "es"
      ],
      [
        "Ġknow",
        "s"
      ],
      [
        "e",
        "y"
      ],
      [
        "Ġviol",
        "ent"
      ],
      [
        "Ġwh",
        "om"
      ],
      [
        "Ġwrit",
        "ing"
      ],
      [
        "Ġa",
        "uth"
      ],
      [
        "Ġatt",
        "ention"
      ],
      [
        "Ġser",
        "v"
      ],
      [
        "ar",
        "i"
      ],
      [
        "Ġfilm",
        "ed"
      ],
      [
        "Ġmurder",
        "ed"
      ],
      [
        "se",
        "qu"
      ],
      [
        "ĠM",
        "exic"
      ],
      [
        "Ġdanger",
        "ous"
      ],
      [
        "Ġact",
        "ual"
      ],
      [
        "Ġter",
        "rible"
      ],
      [
        "Ġfor",
        "ce"
      ],
      [
        "k",
        "a"
      ],
      [
        "Ġb",
        "rought"
      ],
      [
        "Ġw",
        "ood"
      ],
      [
        "ĠWill",
        "iam"
      ],
      [
        "Ġst",
        "ate"
      ],
      [
        "Ġportra",
        "it"
      ],
      [
        "Ġc",
        "aught"
      ],
      [
        "b",
        "o"
      ],
      [
        "Ġkill",
        "ing"
      ],
      [
        "est",
        "ival"
      ],
      [
        "olog",
        "ical"
      ],
      [
        "Ġb",
        "i"
      ],
      [
        "m",
        "end"
      ],
      [
        "Ġbec",
        "ame"
      ],
      [
        "Ġre",
        "ce"
      ],
      [
        "Ġd",
        "ire"
      ],
      [
        "Ġproble",
        "m"
      ],
      [
        "b",
        "oy"
      ],
      [
        "Ġprot",
        "ect"
      ],
      [
        "Ġd",
        "ig"
      ],
      [
        "ĠTh",
        "ree"
      ],
      [
        "Ġpl",
        "ans"
      ],
      [
        "us",
        "ion"
      ],
      [
        "Ġpo",
        "et"
      ],
      [
        "u",
        "ine"
      ],
      [
        "Ġexact",
        "ly"
      ],
      [
        "Ġcre",
        "ate"
      ],
      [
        "Ġac",
        "cept"
      ],
      [
        "h",
        "aps"
      ],
      [
        "ĠT",
        "ra"
      ],
      [
        "n",
        "al"
      ],
      [
        "Ġf",
        "ire"
      ],
      [
        "Ġliter",
        "ally"
      ],
      [
        "Ġconf",
        "lict"
      ],
      [
        "Ġlearn",
        "s"
      ],
      [
        "Ġsc",
        "ore"
      ],
      [
        "Ġl",
        "im"
      ],
      [
        "en",
        "ge"
      ],
      [
        "ĠC",
        "al"
      ],
      [
        "Ġe",
        "ar"
      ],
      [
        "iv",
        "id"
      ],
      [
        "Ġ8",
        "0"
      ],
      [
        "Ġpict",
        "ure"
      ],
      [
        "Ġt",
        "en"
      ],
      [
        "ĠPar",
        "is"
      ],
      [
        "Ġre",
        "b"
      ],
      [
        "Ġc",
        "red"
      ],
      [
        "ur",
        "t"
      ],
      [
        "e",
        "g"
      ],
      [
        "Ġsh",
        "ip"
      ],
      [
        "a",
        "ur"
      ],
      [
        "Ġact",
        "iv"
      ],
      [
        "Ġgu",
        "ys"
      ],
      [
        "Ġab",
        "and"
      ],
      [
        "Ġli",
        "f"
      ],
      [
        "ci",
        "ent"
      ],
      [
        "eng",
        "th"
      ],
      [
        "Ġown",
        "er"
      ],
      [
        "Ġrun",
        "s"
      ],
      [
        "r",
        "ang"
      ],
      [
        "ĠGe",
        "orge"
      ],
      [
        "Ġthe",
        "at"
      ],
      [
        "Ġwe",
        "e"
      ],
      [
        "Ġob",
        "vious"
      ],
      [
        "Ġbegin",
        "ning"
      ],
      [
        "Ġrele",
        "ase"
      ],
      [
        "Ġdo",
        "ctor"
      ],
      [
        "in",
        "y"
      ],
      [
        "Ġto",
        "wards"
      ],
      [
        "re",
        "ci"
      ],
      [
        "Ġf",
        "ear"
      ],
      [
        "k",
        "es"
      ],
      [
        "..",
        ".."
      ],
      [
        "st",
        "ers"
      ],
      [
        "Ġa",
        "ir"
      ],
      [
        "ĠD",
        "is"
      ],
      [
        "ĠH",
        "all"
      ],
      [
        "ill",
        "ing"
      ],
      [
        "Ġph",
        "ys"
      ],
      [
        "Ġmo",
[...]
