{
  "version": "1.0",
  "truncation": null,
  "padding": null,
  "added_tokens": [
    {
      "id": 0,
      "content": "<PAD>",
      "single_word": false,
      "lstrip": false,
      "rstrip": false,
      "normalized": false,
      "special": true
    },
    {
      "id": 1,
      "content": "<EOS>",
      "single_word": false,
      "lstrip": false,
      "rstrip": false,
      "normalized": false,
      "special": true
    },
    {
      "id": 2,
      "content": "<BOS>",
      "single_word": false,
      "lstrip": false,
      "rstrip": false,
      "normalized": false,
      "special": true
    }
  ],
  "normalizer": null,
  "pre_tokenizer": {
    "type": "ByteLevel",
    "add_prefix_space": false,
    "trim_offsets": true,
    "use_regex": true
  },
  "post_processor": null,
  "decoder": {
    "type": "ByteLevel",
    "add_prefix_space": true,
    "trim_offsets": true,
    "use_regex": true
  },
  "model": {
    "type": "BPE",
    "dropout": null,
    "unk_token": null,
    "continuing_subword_prefix": null,
    "end_of_word_suffix": null,
    "fuse_unk": false,
    "byte_fallback": false,
    "ignore_merges": false,
    "vocab": {
      "<PAD>": 0,
      "<EOS>": 1,
      "<BOS>": 2,
      "!": 3,
      "\"": 4,
      "#": 5,
      "$": 6,
      "%": 7,
      "&": 8,
      "'": 9,
      "(": 10,
      ")": 11,
      "*": 12,
      "+": 13,
      ",": 14,
      "-": 15,
      ".": 16,
      "/": 17,
      "0": 18,
      "1": 19,
      "2": 20,
      "3": 21,
      "4": 22,
      "5": 23,
      "6": 24,
      "7": 25,
      "8": 26,
      "9": 27,
      ":": 28,
      ";": 29,
      "<": 30,
      "=": 31,
      ">": 32,
      "?": 33,
      "@": 34,
      "A": 35,
      "B": 36,
      "C": 37,
      "D": 38,
      "E": 39,
      "F": 40,
      "G": 41,
      "H": 42,
      "I": 43,
      "J": 44,
      "K": 45,
      "L": 46,
      "M": 47,
      "N": 48,
      "O": 49,
      "P": 50,
      "Q": 51,
      "R": 52,
      "S": 53,
      "T": 54,
      "U": 55,
      "V": 56,
      "W": 57,
      "X": 58,
      "Y": 59,
      "Z": 60,
      "[": 61,
      "\\": 62,
      "]": 63,
      "^": 64,
      "_": 65,
      "`": 66,
      "a": 67,
      "b": 68,
      "c": 69,
      "d": 70,
      "e": 71,
      "f": 72,
      "g": 73,
      "h": 74,
      "i": 75,
      "j": 76,
      "k": 77,
      "l": 78,
      "m": 79,
      "n": 80,
      "o": 81,
      "p": 82,
      "q": 83,
      "r": 84,
      "s": 85,
      "t": 86,
      "u": 87,
      "v": 88,
      "w": 89,
      "x": 90,
      "y": 91,
      "z": 92,
      "{": 93,
      "|": 94,
      "}": 95,
      "~": 96,
      "¡": 97,
      "¢": 98,
      "£": 99,
      "¤": 100,
      "¥": 101,
      "¦": 102,
      "§": 103,
      "¨": 104,
      "©": 105,
      "ª": 106,
      "«": 107,
      "¬": 108,
      "®": 109,
      "¯": 110,
      "°": 111,
      "±": 112,
      "²": 113,
      "³": 114,
      "´": 115,
      "µ": 116,
      "¶": 117,
      "·": 118,
      "¸": 119,
      "¹": 120,
      "º": 121,
      "»": 122,
      "¼": 123,
      "½": 124,
      "¾": 125,
      "¿": 126,
      "Â": 127,
      "Ã": 128,
      "Ä": 129,
      "Å": 130,
      "Æ": 131,
      "Ç": 132,
      "È": 133,
      "É": 134,
      "Ê": 135,
      "Ë": 136,
      "Ì": 137,
      "Í": 138,
      "Ö": 139,
      "Ø": 140,
      "Û": 141,
      "Ý": 142,
      "à": 143,
      "á": 144,
      "â": 145,
      "ã": 146,
      "ê": 147,
      "ï": 148,
      "ð": 149,
      "ó": 150,
      "Ġ": 151,
      "ġ": 152,
      "Ģ": 153,
      "ģ": 154,
      "Ĥ": 155,
      "ĥ": 156,
      "Ħ": 157,
      "ħ": 158,
      "Ĩ": 159,
      "ĩ": 160,
      "Ī": 161,
      "ī": 162,
      "Ĭ": 163,
      "ĭ": 164,
      "Į": 165,
      "į": 166,
      "İ": 167,
      "ı": 168,
      "Ĳ": 169,
      "ĳ": 170,
      "Ĵ": 171,
      "ĵ": 172,
      "Ķ": 173,
      "ķ": 174,
      "ĸ": 175,
      "Ĺ": 176,
      "ĺ": 177,
      "Ļ": 178,
      "ļ": 179,
      "Ľ": 180,
      "ľ": 181,
      "Ŀ": 182,
      "ŀ": 183,
      "Ł": 184,
      "ł": 185,
      "Ń": 186,
      "Ġt": 187,
      "Ġa": 188,
      "in": 189,
      "he": 190,
      "Ġs": 191,
      "re": 192,
      "Ġo": 193,
      "Ġthe": 194,
      "Ġw": 195,
      "is": 196,
      "er": 197,
      "it": 198,
      "Ġf": 199,
      "nd": 200,
      "at": 201,
      "Ġb": 202,
      "Ġm": 203,
      "ing": 204,
      "Ġc": 205,
      "en": 206,
      "es": 207,
      "or": 208,
      "on": 209,
      "Ġth": 210,
      "ou": 211,
      "Ġof": 212,
      "al": 213,
      "an": 214,
      "ar": 215,
      "Ġp": 216,
      "Ġd": 217,
      "Ġand": 218,
      "Ġh": 219,
      "Ġl": 220,
      "ed": 221,
      "Ġto": 222,
      "Ġin": 223,
      "ly": 224,
      "as": 225,
      "il": 226,
      "om": 227,
      "ic": 228,
      "Ġg": 229,
      "ĠI": 230,
      "ut": 231,
      "Ġe": 232,
      "Ġit": 233,
      "st": 234,
      "le": 235,
      "ot": 236,
      "Ġis": 237,
      "Ġn": 238,
      "ve": 239,
      "ct": 240,
      "Ġbe": 241,
      "âĢ": 242,
      "Ġon": 243,
      "Ġre": 244,
      "ion": 245,
      "ent": 246,
      "ow": 247,
      "im": 248,
      "et": 249,
      "Ġthat": 250,
      "el": 251,
      "Ġst": 252,
      "ver": 253,
      "Ġthis": 254,
      "ĠT": 255,
      "ad": 256,
      "Ġmo": 257,
      "ch": 258,
      "ay": 259,
      "gh": 260,
      "Ġwh": 261,
      "id": 262,
      "Ġhe": 263,
      "ith": 264,
      "am": 265,
      "'s": 266,
      "ie": 267,
      "Ġfor": 268,
      "Ġu": 269,
      "ol": 270,
      "Ġwith": 271,
      "ke": 272,
      "Ġy": 273,
      "âĢĻ": 274,
      "ilm": 275,
      "Ġan": 276,
      "se": 277,
      "ir": 278,
      "Ġwas": 279,
      "Ġfilm": 280,
      "Ġbut": 281,
      "ce": 282,
      "Ġas": 283,
      "Ġli": 284,
      "Ġal": 285,
      "ro": 286,
      "ra": 287,
      "ĠS": 288,
      "ĠA": 289,
      "ur": 290,
      "oo": 291,
      "ul": 292,
      "ally": 293,
      "Ġse": 294,
      "Ġsh": 295,
      "Ġyou": 296,
      "ter": 297,
      "ck": 298,
      "ld": 299,
      "ĠB": 300,
      "ri": 301,
      "un": 302,
      "Ġha": 303,
      "her": 304,
      "ill": 305,
      "ĠM": 306,
      "vie": 307,
      "ome": 308,
      "ĠThe": 309,
      "ght": 310,
      "ĠC": 311,
      "Ġfr": 312,
      "out": 313,
      "Ġj": 314,
      "Ġdo": 315,
      "Ġab": 316,
      "ag": 317,
      "if": 318,
      "pe": 319,
      "Ġk": 320,
      "em": 321,
      "Ġso": 322,
      "ist": 323,
      "ust": 324,
      "Ġat": 325,
      "Ġex": 326,
      "ak": 327,
      "um": 328,
      "ess": 329,
      "Ġch": 330,
      "Ġnot": 331,
      "ort": 332,
      "ĠH": 333,
      "ation": 334,
      "ere": 335,
      "us": 336,
      "ĠW": 337,
      "ers": 338,
      "est": 339,
      "ab": 340,
      "Ġlike": 341,
      "Ġcom": 342,
      "art": 343,
      "Ġ(": 344,
      "Ġhis": 345,
      "Ġme": 346,
      "Ġint": 347,
      "very": 348,
      "Ġone": 349,
      "ant": 350,
      "Ġde": 351,
      "ure": 352,
      "ĠD": 353,
      "Ġmovie": 354,
      "Ġfrom": 355,
      "ould": 356,
      "Ġr": 357,
      "and": 358,
      "Ġare": 359,
      "op": 360,
      "'t": 361,
      "ain": 362,
      "ies": 363,
      "ive": 364,
      "ell": 365,
      "Ġabout": 366,
      "Ġv": 367,
      "qu": 368,
      "Ġby": 369,
      "Ġmy": 370,
      "th": 371,
      "Ġcon": 372,
      "ĠL": 373,
      "Ġne": 374,
      "ood": 375,
      "Ġlo": 376,
      "pp": 377,
      "Ġwho": 378,
      "ind": 379,
      "ate": 380,
      "ough": 381,
      "Ġall": 382,
      "Ġsu": 383,
      "ĠP": 384,
      "Ġfe": 385,
      "Ġsome": 386,
      "Ġpl": 387,
      "ire": 388,
      "ĠF": 389,
      "Ġhave": 390,
      "ast": 391,
      "Ġsc": 392,
      "Ġwat": 393,
      "ous": 394,
      "Ġwor": 395,
      "ĠR": 396,
      "Ġwhe": 397,
      "..": 398,
      "ime": 399,
      "Ġjust": 400,
      "Ġact": 401,
      "Ġout": 402,
      "ig": 403,
      "act": 404,
      "ĠG": 405,
      "ĠIt": 406,
      "ard": 407,
      "ory": 408,
      "os": 409,
      "ong": 410,
      "Ġmore": 411,
      "ight": 412,
      "Ġun": 413,
      "Ġpro": 414,
      "ven": 415,
      "one": 416,
      "all": 417,
      "ap": 418,
      "ack": 419,
      "ĠJ": 420,
      "au": 421,
      "Ġpre": 422,
      "ore": 423,
      "ound": 424,
      "Ġthey": 425,
      "ite": 426,
      "ĠN": 427,
      "Ġle": 428,
      "ud": 429,
      "Ġup": 430,
      "ich": 431,
      "ity": 432,
      "Ġwe": 433,
      "reat": 434,
      "his": 435,
      "Ġor": 436,
      "fe": 437,
      "od": 438,
      "Ġcan": 439,
      "Ġtr": 440,
      "Ġwatch": 441,
      "Ġreally": 442,
      "Ġher": 443,
      "Ġget": 444,
      "Ġen": 445,
      "nt": 446,
      "Ġhas": 447,
      "ge": 448,
      "Ġman": 449,
      "Ġits": 450,
      "ĠE": 451,
      "Ġwhat": 452,
      "The": 453,
      "ake": 454,
      "ide": 455,
      "Ġi": 456,
      "are": 457,
      "hing": 458,
      "Ġar": 459,
      "og": 460,
      "ook": 461,
      "Ġtime": 462,
      "ci": 463,
      "itt": 464,
      "uch": 465,
      "Ġim": 466,
      "Ġgood": 467,
      "Ġchar": 468,
      "Ġhow": 469,
      "ary": 470,
      "ame": 471,
      "our": 472,
      "pt": 473,
      "able": 474,
      "ĠO": 475,
      "Ġgo": 476,
      "Ġthere": 477,
      "Ġinto": 478,
      "Ġbec": 479,
      "pl": 480,
      "ine": 481,
      "ĠK": 482,
      "Ġtheir": 483,
      "per": 484,
      "ss": 485,
      "Ġvery": 486,
      "Ġ1": 487,
      "Ġthan": 488,
      "Ġstory": 489,
      "ays": 490,
      "Ġkn": 491,
      "Ġmuch": 492,
      "age": 493,
      "ade": 494,
      "Ġno": 495,
      "oy": 496,
      "ac": 497,
      "Ġper": 498,
      "ink": 499,
      "so": 500,
      "ick": 501,
      "Ġany": 502,
      "Ġwhen": 503,
      "Ġ\"": 504,
      "Ġcl": 505,
      "Ġqu": 506,
      "Ġthr": 507,
      "iv": 508,
      "Ġsee": 509,
      "av": 510,
      "Ġfeel": 511,
      "âĢ¦": 512,
      "ear": 513,
      "ice": 514,
      "Ġwhich": 515,
      "hed": 516,
      "Ġmost": 517,
      "Ġwould": 518,
      "irect": 519,
      "nder": 520,
      "ther": 521,
      "ry": 522,
      "Ġif": 523,
      "Ġthem": 524,
      "Ġhad": 525,
      "Ġpe": 526,
      "ty": 527,
      "ib": 528,
      "ff": 529,
      "Ġwork": 530,
      "ost": 531,
      "Ġcharact": 532,
      "ful": 533,
      "ish": 534,
      "ment": 535,
      "ious": 536,
      "Ġlove": 537,
      "ang": 538,
      "ass": 539,
      "Ġevery": 540,
      "man": 541,
      "Ġeven": 542,
      "Ġover": 543,
      "Ġdid": 544,
      "ence": 545,
      "ical": 546,
      "Ġbet": 547,
      "ause": 548,
      "Ġknow": 549,
      "ile": 550,
      "Ġend": 551,
      "ue": 552,
      "ian": 553,
      "ne": 554,
      "ple": 555,
      "irst": 556,
      "Ġfun": 557,
      "Ġad": 558,
      "Ġonly": 559,
      "Ġdoes": 560,
      "Ġam": 561,
      "for": 562,
      "ep": 563,
      "Ġdirect": 564,
      "Ġgreat": 565,
      "ople": 566,
      "Ġway": 567,
      "Ġtoo": 568,
      "Ġmade": 569,
      "ĠâĢ": 570,
      "Ġlook": 571,
      "Ġthing": 572,
      "Ġother": 573,
      "Ġhim": 574,
      "Ġtw": 575,
      "Ġsp": 576,
      "Ġshort": 577,
      "omet": 578,
      "Ġpeople": 579,
      "iz": 580,
      "Ġwere": 581,
      "own": 582,
      "Ġfirst": 583,
      "Ġpart": 584,
      "Ġshe": 585,
      "int": 586,
      "Ġdoc": 587,
      "ial": 588,
      "ert": 589,
      "ated": 590,
      "Ġbeing": 591,
      "Ġthink": 592,
      "Ġbecause": 593,
      "ose": 594,
      "te": 595,
      "elf": 596,
      "Ġfilms": 597,
      "ace": 598,
      "Ġbl": 599,
      "pect": 600,
      "Ġus": 601,
      "Ġalso": 602,
      "Ġdis": 603,
      "ittle": 604,
      "Ġwell": 605,
      "Ġoff": 606,
      "Ġcould": 607,
      "akes": 608,
      "ual": 609,
      "ll": 610,
      "ĠY": 611,
      "Ġbeen": 612,
      "Ġhere": 613,
      "Ġ2": 614,
      "other": 615,
      "Ġ-": 616,
      "Ġpo": 617,
      "ument": 618,
      "erest": 619,
      "ru": 620,
      "we": 621,
      "fter": 622,
      "ting": 623,
      "red": 624,
      "Ġscen": 625,
      "Ġyear": 626,
      "ress": 627,
      "Ġlittle": 628,
      "Ġthrough": 629,
      "This": 630,
      "Ġag": 631,
      "hat": 632,
      "Ġmov": 633,
      "Ġsomet": 634,
      "aw": 635,
      "ĠThis": 636,
      "ond": 637,
      "aking": 638,
      "ĠCh": 639,
      "Ġreal": 640,
      "Ġmin": 641,
      "Ġdon": 642,
      "ually": 643,
      "Ġshow": 644,
      "ip": 645,
      "Ġmake": 646,
      "ces": 647,
      "ans": 648,
      "ict": 649,
      "ute": 650,
      "uck": 651,
      "Ġlife": 652,
      "get": 653,
      "Ġgu": 654,
      "ction": 655,
      "Ġte": 656,
      "ild": 657,
      "ark": 658,
      "Ġbr": 659,
      "Ġwhere": 660,
      "ance": 661,
      "hy": 662,
      "âĢĿ": 663,
      "ens": 664,
      "ob": 665,
      "ram": 666,
      "ĠV": 667,
      "Ġinterest": 668,
      "Ġent": 669,
      "tty": 670,
      "ia": 671,
      "cc": 672,
      "...": 673,
      "Ġdes": 674,
      "Ġdocument": 675,
      "Ġstill": 676,
      "sh": 677,
      "Ġra": 678,
      "ny": 679,
      "Ġfl": 680,
      "Ġro": 681,
      "ult": 682,
      "ating": 683,
      "Ġlot": 684,
      "Ġpr": 685,
      "view": 686,
      "Ġser": 687,
      "be": 688,
      "Ġback": 689,
      "ched": 690,
      "Ġsl": 691,
      "Ġgr": 692,
      "Ġwant": 693,
      "ily": 694,
      "ach": 695,
      "rit": 696,
      "urn": 697,
      "oll": 698,
      "ng": 699,
      "ise": 700,
      "Ġplay": 701,
      "Ġrem": 702,
      "Ġbit": 703,
      "Ġco": 704,
      "mer": 705,
      "Ġseen": 706,
      "thing": 707,
      "arr": 708,
      "Ġnever": 709,
      "Ġsomething": 710,
      "oc": 711,
      "Ġafter": 712,
      "arly": 713,
      "Ġunder": 714,
      "wn": 715,
      "fect": 716,
      "Ġyour": 717,
      "Ġtwo": 718,
      "ved": 719,
      "ves": 720,
      "inem": 721,
      "ving": 722,
      "Ġwill": 723,
      "Ġpretty": 724,
      "ors": 725,
      "du": 726,
      "Ġgen": 727,
      "Ġimp": 728,
      "'m": 729,
      "Ġinc": 730,
      "vers": 731,
      "'ve": 732,
      "ions": 733,
      "Ġbad": 734,
      "Ġkind": 735,
      "old": 736,
      "Ġthen": 737,
      "Ġhor": 738,
      "Ġ19": 739,
      "Ġthese": 740,
      "Ġri": 741,
      "ĠSt": 742,
      "Ġtal": 743,
      "Ġsur": 744,
      "Ġspe": 745,
      "Ġever": 746,
      "az": 747,
      "Ġdocumentary": 748,
      "Ġmovies": 749,
      "ull": 750,
      "Ġbest": 751,
      "Ġsay": 752,
      "Ġwhile": 753,
      "Ġwom": 754,
      "Ġtra": 755,
      "Ġdec": 756,
      "Ġaw": 757,
      "aut": 758,
      "ents": 759,
      "vel": 760,
      "Ġrec": 761,
      "ble": 762,
      "Ġem": 763,
      "ðŁ": 764,
      "ree": 765,
      "Ġmus": 766,
      "ĠâĢľ": 767,
      "Ġset": 768,
      "ber": 769,
      "Ġgot": 770,
      "imes": 771,
      "the": 772,
      "Ġcinem": 773,
      "!!": 774,
      "ature": 775,
      "Ġsub": 776,
      "Ġseem": 777,
      "ought": 778,
      "Ġlong": 779,
      "ĠAnd": 780,
      "Ġperfor": 781,
      "Ġwatching": 782,
      "oot": 783,
      "rap": 784,
      "ĠU": 785,
      "Ġcharacter": 786,
      "Ġinteresting": 787,
      "ath": 788,
      "ying": 789,
      "fore": 790,
      "Ġcomp": 791,
      "Ġcomed": 792,
      "Ġmany": 793,
      ").": 794,
      "ably": 795,
      "Ġfind": 796,
      "Ġbetter": 797,
      "ror": 798,
      "gin": 799,
      "Ġfam": 800,
      "iff": 801,
      "ase": 802,
      "ĠBut": 803,
      "ative": 804,
      "Ġcont": 805,
      "ather": 806,
      "les": 807,
      "Ġpers": 808,
      "igh": 809,
      "ect": 810,
      "ning": 811,
      "Ġcharacters": 812,
      "Ġgoing": 813,
      "Ġart": 814,
      "Ġcr": 815,
      "Ġcou": 816,
      "Ġrel": 817,
      "ism": 818,
      "ways": 819,
      "ertain": 820,
      "iend": 821,
      "Ġdidn": 822,
      "Ġmom": 823,
      "Ġhapp": 824,
      "reen": 825,
      "ense": 826,
      "ars": 827,
      "ail": 828,
      "ub": 829,
      "ically": 830,
      "joy": 831,
      "Ġthough": 832,
      "Ġworld": 833,
      "Ġins": 834,
      "der": 835,
      "Ġyears": 836,
      "),": 837,
      "Ġdoesn": 838,
      "Ġfin": 839,
      "Ġres": 840,
      "Ġnow": 841,
      "Ġstart": 842,
      "ign": 843,
      "Ġshot": 844,
      "Ġ20": 845,
      "Ġbefore": 846,
      "Ġaround": 847,
      "cial": 848,
      "Ġbeaut": 849,
      "iss": 850,
      "ween": 851,
      "Ġagain": 852,
      "ft": 853,
      "Ġinter": 854,
      "Ġenjoy": 855,
      "self": 856,
      "utes": 857,
      "less": 858,
      "iful": 859,
      "Ġplot": 860,
      "Ġold": 861,
      "Ġsm": 862,
      "irl": 863,
      "Ġthose": 864,
      "Ġmakes": 865,
      "ness": 866,
      "Ġhum": 867,
      "ons": 868,
      "Ġown": 869,
      "Ġche": 870,
      "oth": 871,
      "Ġnew": 872,
      "ery": 873,
      "Ġsuch": 874,
      "Ġsame": 875,
      "Ġob": 876,
      "ater": 877,
      "Ġperforman": 878,
      "me": 879,
      "Ġdiff": 880,
      "Ġdown": 881,
      "li": 882,
      "Ġneed": 883,
      "king": 884,
      "Ġactually": 885,
      "Ġbetween": 886,
      "Ġalways": 887,
      "ird": 888,
      "ĠIn": 889,
      "Ġwatched": 890,
      "ations": 891,
      "Ġke": 892,
      "ience": 893,
      "up": 894,
      "Ġatt": 895,
      "Ġsim": 896,
      "Ġpoint": 897,
      "Ġstr": 898,
      "Ġminutes": 899,
      "gg": 900,
      "Ġdirector": 901,
      "Ġapp": 902,
      "air": 903,
      "ave": 904,
      "Ġdram": 905,
      "ĠThere": 906,
      "Ġenough": 907,
      "Ġexper": 908,
      "Ġmay": 909,
      "Ġguy": 910,
      "Ġthings": 911,
      "It": 912,
      "ible": 913,
      "ock": 914,
      "Ġperson": 915,
      "ren": 916,
      "ward": 917,
      "ject": 918,
      "ograp": 919,
      "Ġquite": 920,
      "Ġcomedy": 921,
      "xt": 922,
      "ĠHe": 923,
      "ks": 924,
      "ah": 925,
      "Ġprodu": 926,
      "Ġter": 927,
      "ling": 928,
      "ĠAl": 929,
      "Ġmusic": 930,
      "uring": 931,
      "pr": 932,
      "Ġtri": 933,
      "ced": 934,
      "its": 935,
      "ew": 936,
      "here": 937,
      "Ġexpl": 938,
      "Ġsound": 939,
      "Ġfeels": 940,
      "Ġfew": 941,
      "ord": 942,
      "ately": 943,
      "Ġthought": 944,
      "Ġinv": 945,
      "Ġbeautiful": 946,
      "Ġev": 947,
      "cept": 948,
      "Ġright": 949,
      "Ġwr": 950,
      "ream": 951,
      "oss": 952,
      "apt": 953,
      "elt": 954,
      "Ġ&": 955,
      "Âł": 956,
      "Ġshould": 957,
      "hes": 958,
      "ash": 959,
      "Ġhard": 960,
      "Ġind": 961,
      "Ġturn": 962,
      "Ġanim": 963,
      "fin": 964,
      "ional": 965,
      "Ġbig": 966,
      "ked": 967,
      "Ġsec": 968,
      "Ġhorror": 969,
      "oh": 970,
      "Ġlead": 971,
      "Ġscene": 972,
      "era": 973,
      "Ġfuck": 974,
      "Ġcol": 975,
      "Ġvis": 976,
      "Ġes": 977,
      "most": 978,
      "Ġide": 979,
      "ings": 980,
      "hen": 981,
      "ale": 982,
      "Ġfriend": 983,
      "Ġ'": 984,
      "ĠSh": 985,
      "alf": 986,
      "Ġsex": 987,
      "Ġcast": 988,
      "'re": 989,
      "Ġbas": 990,
      "Ġscenes": 991,
      "Ġcam": 992,
      "Ġabs": 993,
      "Ġwhy": 994,
      "Ġlast": 995,
      "Ġcomple": 996,
      "Ġboth": 997,
      "Ġap": 998,
      "uff": 999,
      "Ġyoung": 1000,
      "Ġgirl": 1001,
      "ffect": 1002,
      "Ġkill": 1003,
      "Ġdiffere": 1004,
      "Ġtell": 1005,
      "Ġrun": 1006,
      "Ġkid": 1007,
      "na": 1008,
      "Ġhigh": 1009,
      "Ġacc": 1010,
      "Ġfar": 1011,
      "Ġaction": 1012,
      "Ġtake": 1013,
      "Ġexpect": 1014,
      "Ġscreen": 1015,
      "Ġgets": 1016,
      "atch": 1017,
      "ered": 1018,
      "Ġseries": 1019,
      "Ġbel": 1020,
      "Ġtimes": 1021,
      "Ġ3": 1022,
      "Ġwhole": 1023,
      "Ġed": 1024,
      "Ġnarr": 1025,
      "augh": 1026,
      "Ġchild": 1027,
      "ead": 1028,
      "Ġfeature": 1029,
      "Ġour": 1030,
      "ince": 1031,
      "Ġisn": 1032,
      "Ġsa": 1033,
      "Ġfav": 1034,
      "Ġcare": 1035,
      "atic": 1036,
      "Ġput": 1037,
      "Ġcons": 1038,
      "Ġpol": 1039,
      "Ġanother": 1040,
      "Ġfunny": 1041,
      "Ġgl": 1042,
      "Ġhalf": 1043,
      "Ġdel": 1044,
      "sc": 1045,
      "Ġsure": 1046,
      "ane": 1047,
      "led": 1048,
      "ec": 1049,
      "ever": 1050,
      "Ġinst": 1051,
      "Ġhist": 1052,
      "ingly": 1053,
      "Ġmaking": 1054,
      "ĠYou": 1055,
      "Ġclass": 1056,
      "bably": 1057,
      "Ġhand": 1058,
      "ox": 1059,
      "Ġfamily": 1060,
      "Ġsty": 1061,
      "ool": 1062,
      "tern": 1063,
      "Ġexc": 1064,
      "Ġfound": 1065,
      "io": 1066,
      "cially": 1067,
      "Ġnothing": 1068,
      "Ġpres": 1069,
      "ody": 1070,
      "Ġcle": 1071,
      "Ġfelt": 1072,
      "Ġday": 1073,
      "Ġwoman": 1074,
      "Ġanything": 1075,
      "ower": 1076,
      "ouse": 1077,
      "Ġhel": 1078,
      "Ġdifferent": 1079,
      "ont": 1080,
      "ner": 1081,
      "ady": 1082,
      "Ġacting": 1083,
      "ollow": 1084,
      "Ġimag": 1085,
      "00": 1086,
      "ition": 1087,
      "Ġalmost": 1088,
      "Ġmain": 1089,
      "ok": 1090,
      "ason": 1091,
      "Ġop": 1092,
      "Ġdrama": 1093,
      "ix": 1094,
      "Ġheart": 1095,
      "icul": 1096,
      "iting": 1097,
      "Ġcomm": 1098,
      "Ġcinema": 1099,
      "ics": 1100,
      "ange": 1101,
      "Ġwithout": 1102,
      "Ġleast": 1103,
      "ican": 1104,
      "olute": 1105,
      "ten": 1106,
      "que": 1107,
      "Ġlet": 1108,
      "Ġwar": 1109,
      "pecially": 1110,
      "Ġeffect": 1111,
      "ĠTh": 1112,
      "co": 1113,
      "ph": 1114,
      "iece": 1115,
      "Ġcreat": 1116,
      "ates": 1117,
      "ming": 1118,
      "Ġext": 1119,
      "Ġnice": 1120,
      "Ġfoot": 1121,
      "orth": 1122,
      "Ġtit": 1123,
      "Ġmight": 1124,
      "Ġcall": 1125,
      "ank": 1126,
      "Ġyet": 1127,
      "Ġtrying": 1128,
      "finite": 1129,
      "ography": 1130,
      "Ġep": 1131,
      "Ġless": 1132,
      "Ġplace": 1133,
      "ited": 1134,
      "ists": 1135,
      "Ġfilmm": 1136,
      "ship": 1137,
      "Ġfact": 1138,
      "day": 1139,
      "ĠðŁ": 1140,
      "Ġeverything": 1141,
      "udget": 1142,
      "olog": 1143,
      "Ġtoget": 1144,
      "Ġtogether": 1145,
      "ures": 1146,
      "Ġhelp": 1147,
      "Ġsecond": 1148,
      "Ġsurpr": 1149,
      "Ġdep": 1150,
      "rist": 1151,
      "ik": 1152,
      "Ġmem": 1153,
      "Ġfollow": 1154,
      "Ġstand": 1155,
      "Ġview": 1156,
      "Ġass": 1157,
      "Ġel": 1158,
      "Ġentire": 1159,
      "ount": 1160,
      "Ġprobably": 1161,
      "Ġsing": 1162,
      "Ġearly": 1163,
      "ues": 1164,
      "HE": 1165,
      "stand": 1166,
      "ening": 1167,
      "Ġbu": 1168,
      "Ġcome": 1169,
      "Ġseems": 1170,
      "ives": 1171,
      "ife": 1172,
      "finitely": 1173,
      "Ġconf": 1174,
      "ories": 1175,
      "aster": 1176,
      "ality": 1177,
      "ĠAmer": 1178,
      "Ġcra": 1179,
      "als": 1180,
      "ins": 1181,
      "Ġrom": 1182,
      "Ġwasn": 1183,
      "ee": 1184,
      "ex": 1185,
      "Ġkeep": 1186,
      "yn": 1187,
      "onder": 1188,
      "Ġcre": 1189,
      "ines": 1190,
      "Ġsince": 1191,
      "arn": 1192,
      "Ġadd": 1193,
      "Ġele": 1194,
      "ĠFr": 1195,
      "fort": 1196,
      "orn": 1197,
      "leas": 1198,
      "Ġtrans": 1199,
      "ross": 1200,
      "Ġform": 1201,
      "istic": 1202,
      "Ġemot": 1203,
      "Ġcool": 1204,
      "ohn": 1205,
      "com": 1206,
      "Ġwomen": 1207,
      "vious": 1208,
      "Ġeach": 1209,
      "Ġmon": 1210,
      "ĠNot": 1211,
      "rigin": 1212,
      "Ġsuper": 1213,
      "??": 1214,
      "Ġmean": 1215,
      "ĠWh": 1216,
      "umb": 1217,
      "Ġsense": 1218,
      "Ġvers": 1219,
      "An": 1220,
      "Ġmoments": 1221,
      "Ġac": 1222,
      "sy": 1223,
      "Ġstar": 1224,
      "Ġfull": 1225,
      "ret": 1226,
      "Ġhaving": 1227,
      "Ġsomeone": 1228,
      "'d": 1229,
      "ied": 1230,
      "Ġgive": 1231,
      "Ġph": 1232,
      "ĠSo": 1233,
      "ering": 1234,
      "Ġsupp": 1235,
      "Ġcomplete": 1236,
      "Ġhour": 1237,
      "ĠBl": 1238,
      "Ġsequ": 1239,
      "Ġnight": 1240,
      "Ġref": 1241,
      "Ġespecially": 1242,
      "ention": 1243,
      "Ġabsolute": 1244,
      "Ġentertain": 1245,
      "Ġtakes": 1246,
      "Ġduring": 1247,
      "Ġsil": 1248,
      "Ġweird": 1249,
      "ier": 1250,
      ".\"": 1251,
      "Ġbelie": 1252,
      "dd": 1253,
      "Ġlight": 1254,
      "Ġorigin": 1255,
      "Ġrather": 1256,
      "Ġwrit": 1257,
      "res": 1258,
      "Ġlow": 1259,
      "Ġshit": 1260,
      "Ġstuff": 1261,
      "ident": 1262,
      "Ġsk": 1263,
      "Ġperformance": 1264,
      "Ġaud": 1265,
      "onest": 1266,
      "ural": 1267,
      "ĠAn": 1268,
      "ung": 1269,
      "Ġcar": 1270,
      "iller": 1271,
      "Ġsol": 1272,
      "Ġmen": 1273,
      "Ġsch": 1274,
      "ocus": 1275,
      "Ġhead": 1276,
      "ope": 1277,
      "Ġaway": 1278,
      "Ġstyle": 1279,
      "ove": 1280,
      "Ġsong": 1281,
      "Ġperfect": 1282,
      "but": 1283,
      "ney": 1284,
      "app": 1285,
      "ĠThat": 1286,
      "Ġstud": 1287,
      "ster": 1288,
      "Ġdist": 1289,
      "anc": 1290,
      "lud": 1291,
      "ired": 1292,
      "Ġwonder": 1293,
      "ments": 1294,
      "Ġ5": 1295,
      "ĠRe": 1296,
      "ĠDe": 1297,
      "oring": 1298,
      "Ġgener": 1299,
      "Ġdone": 1300,
      "idd": 1301,
      "Ġfavor": 1302,
      "Ġstru": 1303,
      "Ġey": 1304,
      "ilar": 1305,
      "iet": 1306,
      "atter": 1307,
      "Ġreview": 1308,
      "Ġrep": 1309,
      "Ġfootage": 1310,
      "Ġdet": 1311,
      "Ġlive": 1312,
      "ames": 1313,
      "Ġhistory": 1314,
      "ript": 1315,
      "Ġsaid": 1316,
      "Ġidea": 1317,
      "iter": 1318,
      "asc": 1319,
      "âĢĶ": 1320,
      "Ġhome": 1321,
      "Ġfight": 1322,
      "Ġending": 1323,
      "Ġproduction": 1324,
      "yp": 1325,
      "Ġgoes": 1326,
      "Ġunt": 1327,
      "Ġgetting": 1328,
      "Ġmar": 1329,
      "son": 1330,
      "Ġhuman": 1331,
      "Ġgra": 1332,
      "ms": 1333,
      "Ġunderstand": 1334,
      "Ġrest": 1335,
      "ER": 1336,
      "Ġ9": 1337,
      "fr": 1338,
      "Ġboy": 1339,
      "Ġloved": 1340,
      "Ġcomes": 1341,
      "IN": 1342,
      "Ġthree": 1343,
      "Ġeveryone": 1344,
      "Ġfocus": 1345,
      "Ġcult": 1346,
      "Ġcour": 1347,
      "gr": 1348,
      "Ġexp": 1349,
      "arent": 1350,
      "Ġlooks": 1351,
      "Ġbeh": 1352,
      "Ġappe": 1353,
      "Ġbudget": 1354,
      "19": 1355,
      "Ġ4": 1356,
      "Ġpost": 1357,
      "med": 1358,
      "Ġsw": 1359,
      "ĠAs": 1360,
      "Ġpass": 1361,
      "Ġpower": 1362,
      "Ġdoing": 1363,
      "Ġdial": 1364,
      "Ġcount": 1365,
      "Ġcertain": 1366,
      "Ġversion": 1367,
      "ien": 1368,
      "Ġsurpris": 1369,
      "Ġexperience": 1370,
      "Ġmur": 1371,
      "Ġmed": 1372,
      "Ġdefinitely": 1373,
      "Ġspecial": 1374,
      "Ġitself": 1375,
      "eng": 1376,
      "aps": 1377,
      "Ġread": 1378,
      "att": 1379,
      "Ġmiss": 1380,
      "Ġactors": 1381,
      "wh": 1382,
      "Ġmind": 1383,
      "unt": 1384,
      "ike": 1385,
      "Ġport": 1386,
      "Ġterri": 1387,
      "Ġvide": 1388,
      "ract": 1389,
      "Ġloc": 1390,
      "Ġlooking": 1391,
      "my": 1392,
      "Ġincred": 1393,
      "fully": 1394,
      "land": 1395,
      "vent": 1396,
      "ĠWe": 1397,
      "ities": 1398,
      "Ġfall": 1399,
      "ĠJohn": 1400,
      "ĠMar": 1401,
      "isod": 1402,
      "ized": 1403,
      "Ġgi": 1404,
      "oice": 1405,
      "cess": 1406,
      "empt": 1407,
      "Ġdra": 1408,
      "Ġliked": 1409,
      "Ġworth": 1410,
      "Ġcame": 1411,
      "Ġtop": 1412,
      "Ġ8": 1413,
      "Ġcamera": 1414,
      "Ġsmall": 1415,
      "Ġmess": 1416,
      "reak": 1417,
      "Ġeas": 1418,
      "Ġcouple": 1419,
      "ann": 1420,
      "Ġonce": 1421,
      "Ġret": 1422,
      "ibly": 1423,
      "Ġperformances": 1424,
      "ently": 1425,
      "ug": 1426,
      "Ġtitle": 1427,
      "Ġnarrative": 1428,
      "Ġsad": 1429,
      "ĠShe": 1430,
      "ither": 1431,
      "iol": 1432,
      "Ġdialog": 1433,
      "zy": 1434,
      "elling": 1435,
      "uss": 1436,
      "ĠBe": 1437,
      "Ġreg": 1438,
      "Ġseeing": 1439,
      "ĠTV": 1440,
      "way": 1441,
      "Ġelse": 1442,
      "Ġslow": 1443,
      "ĠChrist": 1444,
      "illi": 1445,
      "unch": 1446,
      "Ġplays": 1447,
      "ets": 1448,
      "ĠThey": 1449,
      "Ġcapt": 1450,
      "Ġposs": 1451,
      "Ġuse": 1452,
      "Ġuntil": 1453,
      "Ġpiece": 1454,
      "Ġschool": 1455,
      "'ll": 1456,
      "Ġdream": 1457,
      "Ġbegin": 1458,
      "iness": 1459,
      "ular": 1460,
      "amp": 1461,
      "Ġfavorite": 1462,
      "Ġblack": 1463,
      "ax": 1464,
      "Ġsaw": 1465,
      "oon": 1466,
      "In": 1467,
      "Ġuni": 1468,
      "Ġcent": 1469,
      "Ġremem": 1470,
      "azing": 1471,
      "Ġanimation": 1472,
      "not": 1473,
      "ĠAr": 1474,
      "Ġdirected": 1475,
      "Ġepisod": 1476,
      "Ġlaugh": 1477,
      "Ġsort": 1478,
      "Ġcur": 1479,
      "Ġpain": 1480,
      "pite": 1481,
      "Ġpast": 1482,
      "Ġhonest": 1483,
      "rop": 1484,
      "Ġdark": 1485,
      "estern": 1486,
      "ork": 1487,
      "Ġworks": 1488,
      "Ġcut": 1489,
      "het": 1490,
      "Ġjob": 1491,
      "Ġsy": 1492,
      "ats": 1493,
      "Ġparticul": 1494,
      "aj": 1495,
      "Ġimpress": 1496,
      "Ġinstead": 1497,
      "ray": 1498,
      "Ġreason": 1499,
      "ĠIf": 1500,
      "Ġdeath": 1501,
      "Ġmust": 1502,
      "Ġfilmmak": 1503,
      "ific": 1504,
      "Ġstrong": 1505,
      "Ġoriginal": 1506,
      "Ġrole": 1507,
      "ĠBr": 1508,
      "ump": 1509,
      "Ġrelation": 1510,
      "Ġleft": 1511,
      "ov": 1512,
      "Ġliter": 1513,
      "Ġused": 1514,
      "Ġconc": 1515,
      "ott": 1516,
      "Ġfucking": 1517,
      "osed": 1518,
      "ley": 1519,
      "vis": 1520,
      "olly": 1521,
      "und": 1522,
      "Ġstars": 1523,
      "Ġlack": 1524,
      "uly": 1525,
      "Ġhappen": 1526,
      "Ġmaybe": 1527,
      "ison": 1528,
      "ĠHow": 1529,
      "Ġoften": 1530,
      "oint": 1531,
      "ows": 1532,
      "Ġhimself": 1533,
      "Ġbecom": 1534,
      "ational": 1535,
      "Ġviol": 1536,
      "Ġvisual": 1537,
      "though": 1538,
      "ĠZ": 1539,
      "Ġpolit": 1540,
      "Ġinclud": 1541,
      "âĢľ": 1542,
      "Ġinf": 1543,
      "ains": 1544,
      "ĠAmerican": 1545,
      "ese": 1546,
      "Ġpop": 1547,
      "Ġcop": 1548,
      "Ġshows": 1549,
      "ides": 1550,
      "Ġlater": 1551,
      "ĠWhat": 1552,
      "ĠTHE": 1553,
      "Ġstop": 1554,
      "Ġabsolutely": 1555,
      "Ġsubject": 1556,
      "ĠCl": 1557,
      "Ġenjoyed": 1558,
      "Ġscript": 1559,
      "ĠUn": 1560,
      "Ġstra": 1561,
      "Ġmostly": 1562,
      "orge": 1563,
      "Ġalong": 1564,
      "Ġz": 1565,
      "Ġstories": 1566,
      "reme": 1567,
      "Ġguess": 1568,
      "Ġpar": 1569,
      "Ġdeep": 1570,
      "Ġrelationship": 1571,
      "wood": 1572,
      "Ġfan": 1573,
      "Ġmet": 1574,
      "oney": 1575,
      "els": 1576,
      "Ġwanted": 1577,
      "Ġgenre": 1578,
      "Ġ7": 1579,
      "ger": 1580,
      "iving": 1581,
      "Ġplaying": 1582,
      "Ġeng": 1583,
      "this": 1584,
      "ared": 1585,
      "Ġfriends": 1586,
      "iment": 1587,
      "Ġhouse": 1588,
      "Ġprot": 1589,
      "unk": 1590,
      "Ġtruly": 1591,
      "Ġwish": 1592,
      "Ġcor": 1593,
      "Ġquest": 1594,
      "Ġcourse": 1595,
      "Ġlost": 1596,
      "Ġlist": 1597,
      "Ġwent": 1598,
      "ief": 1599,
      "Ġimport": 1600,
      "min": 1601,
      "Ġcompletely": 1602,
      "Ġmel": 1603,
      "Ġsolid": 1604,
      "apan": 1605,
      "Ġtrue": 1606,
      "gu": 1607,
      "Ġswe": 1608,
      "oup": 1609,
      "ival": 1610,
      "ution": 1611,
      "Ġland": 1612,
      "Ġfinal": 1613,
      "Ġmoment": 1614,
      "Ġagainst": 1615,
      "Ġattempt": 1616,
      "to": 1617,
      "Ġboring": 1618,
      "Ġbehind": 1619,
      "lease": 1620,
      "Ġpresent": 1621,
      "orm": 1622,
      "Ġfant": 1623,
      "Ġdecent": 1624,
      "Ġinvol": 1625,
      "Ġvideo": 1626,
      "like": 1627,
      "Ġdr": 1628,
      "Ã©": 1629,
      "ape": 1630,
      "Ġdialogue": 1631,
      "aring": 1632,
      "Ġself": 1633,
      "Ġword": 1634,
      "ages": 1635,
      "side": 1636,
      "Ġplayed": 1637,
      "Ġfair": 1638,
      "Ġsit": 1639,
      "Ġthriller": 1640,
      "Ġentertaining": 1641,
      "Ġwhite": 1642,
      "ready": 1643,
      "Ġcinemat": 1644,
      "There": 1645,
      "Ġmaster": 1646,
      "Ġbelieve": 1647,
      "Ġdri": 1648,
      "Ġfasc": 1649,
      "Ġamazing": 1650,
      "Ġexact": 1651,
      "Ġname": 1652,
      "ize": 1653,
      "ai": 1654,
      "antly": 1655,
      "ony": 1656,
      "owing": 1657,
      "of": 1658,
      "Ġbra": 1659,
      "ored": 1660,
      "ĠLe": 1661,
      "ters": 1662,
      "uc": 1663,
      "ĠRob": 1664,
      "Ġmag": 1665,
      "ility": 1666,
      "Ġface": 1667,
      "ĠSc": 1668,
      "chn": 1669,
      "Ġsat": 1670,
      "ential": 1671,
      "uth": 1672,
      "ĠSp": 1673,
      "ude": 1674,
      "Ġalready": 1675,
      "ote": 1676,
      "lect": 1677,
      "time": 1678,
      "Ġconst": 1679,
      "br": 1680,
      "AN": 1681,
      "Ġmother": 1682,
      "If": 1683,
      "Ġhope": 1684,
      "line": 1685,
      "Ġexist": 1686,
      "Ġmis": 1687,
      "itten": 1688,
      "tra": 1689,
      "Ġbook": 1690,
      "de": 1691,
      "osp": 1692,
      "gy": 1693,
      "Ġremember": 1694,
      "iel": 1695,
      "play": 1696,
      "ided": 1697,
      "pped": 1698,
      "Ġfather": 1699,
      "ica": 1700,
      "Ġkids": 1701,
      "Ġconsid": 1702,
      "Ġnext": 1703,
      "fortun": 1704,
      "Ġfeeling": 1705,
      "Ġmatter": 1706,
      "Ġlives": 1707,
      "omb": 1708,
      "use": 1709,
      "uine": 1710,
      "aces": 1711,
      "Ġlate": 1712,
      "Ġshots": 1713,
      "oke": 1714,
      "Ġgroup": 1715,
      "ili": 1716,
      "Ġpict": 1717,
      "ished": 1718,
      "right": 1719,
      "ital": 1720,
      "form": 1721,
      "light": 1722,
      "Ġfore": 1723,
      "oe": 1724,
      "Ġcrime": 1725,
      "how": 1726,
      "Ġtalking": 1727,
      "ured": 1728,
      "Ġmove": 1729,
      "Ġkinda": 1730,
      "AT": 1731,
      "Ġbro": 1732,
      "Ġactor": 1733,
      "Ġwife": 1734,
      "Ġ90": 1735,
      "by": 1736,
      "Ġdesign": 1737,
      "ones": 1738,
      "mend": 1739,
      "wards": 1740,
      "ĠAll": 1741,
      "Ġdisc": 1742,
      "let": 1743,
      "Ġaudience": 1744,
      "ches": 1745,
      "Ġpsy": 1746,
      "Ġbecome": 1747,
      "Ġinsp": 1748,
      "ube": 1749,
      "Ġcoming": 1750,
      "Ġ6": 1751,
      "rench": 1752,
      "ĠJapan": 1753,
      "ĠâĢĶ": 1754,
      "Ġside": 1755,
      "rodu": 1756,
      "ric": 1757,
      "Ġprem": 1758,
      "Ġremind": 1759,
      "Ġcase": 1760,
      "Ġmyself": 1761,
      "lish": 1762,
      "any": 1763,
      "Ġfascin": 1764,
      "Ġtoday": 1765,
      "Ġadapt": 1766,
      "Ġclose": 1767,
      "Ġbased": 1768,
      "Ġvib": 1769,
      "ĠNew": 1770,
      "Ġtou": 1771,
      "Ġinterview": 1772,
      "Ġeff": 1773,
      "Ġobvious": 1774,
      "what": 1775,
      "itch": 1776,
      "Ġeither": 1777,
      "sel": 1778,
      "Ġhell": 1779,
      "Ġtry": 1780,
      "arring": 1781,
      "nce": 1782,
      "ky": 1783,
      "Ġstraight": 1784,
      "Ġmor": 1785,
      "ĠFor": 1786,
      "Ġdays": 1787,
      "Ġtot": 1788,
      "Ġlevel": 1789,
      "Ġworst": 1790,
      "Ġproble": 1791,
      "ively": 1792,
      "Ġcommun": 1793,
      "Ġsle": 1794,
      "reci": 1795,
      "Ġpoor": 1796,
      "Ġanyone": 1797,
      "RE": 1798,
      "inc": 1799,
      "Ġdem": 1800,
      "ĠBrit": 1801,
      "ĠAlso": 1802,
      "ollywood": 1803,
      "Ġvar": 1804,
      "Ġwrong": 1805,
      "erman": 1806,
      "Ġant": 1807,
      "ĠAt": 1808,
      "Ġable": 1809,
      "Ġcinematography": 1810,
      "Ġserious": 1811,
      "Ġsingle": 1812,
      ".âĢĿ": 1813,
      "Ġflick": 1814,
      "Ġdead": 1815,
      "rew": 1816,
      "Ġav": 1817,
      "Ġopp": 1818,
      "Ġwa": 1819,
      "ried": 1820,
      "ged": 1821,
      "Not": 1822,
      "Ġgiven": 1823,
      "mas": 1824,
      "Ġpersonal": 1825,
      "ene": 1826,
      "atched": 1827,
      "Ġcouldn": 1828,
      "iddle": 1829,
      "Ġcute": 1830,
      "Ġsn": 1831,
      "astic": 1832,
      "Ġvill": 1833,
      "arch": 1834,
      "Ġliterally": 1835,
      "Ġcred": 1836,
      "ern": 1837,
      "Ġfem": 1838,
      "box": 1839,
      "Ġsimple": 1840,
      "Ġbuild": 1841,
      "Ġvoice": 1842,
      "Ġwithin": 1843,
      "Ġmurder": 1844,
      "Ġtown": 1845,
      "ĠQ": 1846,
      "oles": 1847,
      "ĠFilm": 1848,
      "Ġconcept": 1849,
      "ĠMy": 1850,
      "ĠOne": 1851,
      "Ġnon": 1852,
      "Ġtalk": 1853,
      "enn": 1854,
      "selves": 1855,
      "Ġprom": 1856,
      "Ġscore": 1857,
      "Ġmoder": 1858,
      "ON": 1859,
      "....": 1860,
      "Ġcountry": 1861,
      "Ġeffects": 1862,
      "Ġocc": 1863,
      "ined": 1864,
      "ots": 1865,
      "Ġgenuine": 1866,
      "Ġgives": 1867,
      "Ġfine": 1868,
      "where": 1869,
      "20": 1870,
      "Ġthroughout": 1871,
      "Ġclassic": 1872,
      "Ġminute": 1873,
      "Ġmix": 1874,
      "Ġmot": 1875,
      "onna": 1876,
      "ommend": 1877,
      "Ġbecomes": 1878,
      "Ġextreme": 1879,
      "amn": 1880,
      "Ġactual": 1881,
      "ĠNo": 1882,
      "Ġquality": 1883,
      "Ġlearn": 1884,
      "Ġchildren": 1885,
      "Ġstrugg": 1886,
      "ator": 1887,
      "ler": 1888,
      "ral": 1889,
      "Ġtechn": 1890,
      "ĠSe": 1891,
      "Ġcareer": 1892,
      "Ġang": 1893,
      "St": 1894,
      "Ġ10": 1895,
      "Ġhold": 1896,
      "Ġpur": 1897,
      "ground": 1898,
      "Ġfre": 1899,
      "Ġobs": 1900,
      "iction": 1901,
      "Ġtold": 1902,
      "off": 1903,
      "cy": 1904,
      "Ġexactly": 1905,
      "Ġappreci": 1906,
      "You": 1907,
      "ted": 1908,
      "Ġediting": 1909,
      "Ġwal": 1910,
      "Ġprof": 1911,
      "Ġacross": 1912,
      "Ġann": 1913,
      "ĠâĢĺ": 1914,
      "Ġline": 1915,
      "ma": 1916,
      "ina": 1917,
      "ĠWar": 1918,
      "vol": 1919,
      "haps": 1920,
      "Ġsucc": 1921,
      "oud": 1922,
      "Ġiss": 1923,
      "Ġimportant": 1924,
      "ety": 1925,
      "fortunately": 1926,
      "Ġsoci": 1927,
      "Ġdespite": 1928,
      "bs": 1929,
      "Ġbreak": 1930,
      "ĠIs": 1931,
      "ĠSome": 1932,
      "Ġemotional": 1933,
      "Ġroom": 1934,
      "aged": 1935,
      "nds": 1936,
      "ices": 1937,
      "Ġmodern": 1938,
      "Ġlar": 1939,
      "Ġtook": 1940,
      "ts": 1941,
      "Ġwriting": 1942,
      "Ġeffort": 1943,
      "Ġwee": 1944,
      "Ġfig": 1945,
      "ences": 1946,
      "Ġblood": 1947,
      "One": 1948,
      "Ġ80": 1949,
      "Ġworking": 1950,
      "Ġhit": 1951,
      "ype": 1952,
      "Ġmusical": 1953,
      "Ġhero": 1954,
      "Ġways": 1955,
      "ially": 1956,
      "Ġsweet": 1957,
      "What": 1958,
      "Ġodd": 1959,
      "Ġeyes": 1960,
      "ush": 1961,
      "Ġproject": 1962,
      "Ġera": 1963,
      "Ġcalled": 1964,
      "Ġturns": 1965,
      "Ġband": 1966,
      "Ġpot": 1967,
      "Ġstrange": 1968,
      "itting": 1969,
      "antic": 1970,
      "aging": 1971,
      "Ġfail": 1972,
      "ĠDav": 1973,
      "Ġstre": 1974,
      "Ġdou": 1975,
      "lt": 1976,
      "Ġstarted": 1977,
      "Ġmyst": 1978,
      "Ġparts": 1979,
      "Ġpat": 1980,
      "Ġage": 1981,
      "agon": 1982,
      "Ġmiddle": 1983,
      "Ġgod": 1984,
      "Ġexam": 1985,
      "Ġcart": 1986,
      "Ġbo": 1987,
      "Ġterrible": 1988,
      "aced": 1989,
      "real": 1990,
      "Ġbrother": 1991,
      "Ġval": 1992,
      "Ġago": 1993,
      "Ġconne": 1994,
      "Ġliving": 1995,
      "LL": 1996,
      "Ġpsych": 1997,
      "Ġcontr": 1998,
      "ury": 1999,
      "aughter": 2000,
      "Ġfut": 2001,
      "amed": 2002,
      "uk": 2003,
      "Ġexcept": 2004,
      "Ġrecommend": 2005,
      "nding": 2006,
      "Ġunique": 2007,
      "otic": 2008,
      "Ġfinally": 2009,
      "ball": 2010,
      "ole": 2011,
      "My": 2012,
      "Ġcontin": 2013,
      "Ġoverall": 2014,
      "velop": 2015,
      "Ġdeli": 2016,
      "Ġprov": 2017,
      "Ġhot": 2018,
      "Ġquick": 2019,
      "Ġcertainly": 2020,
      "iod": 2021,
      "Ġmoney": 2022,
      "Ġhumor": 2023,
      "Ġpleas": 2024,
      "ST": 2025,
      "Ġstarts": 2026,
      "ĠMan": 2027,
      "Ġsometimes": 2028,
      "Ġdeal": 2029,
      "used": 2030,
      "Ġmater": 2031,
      "Ġsubt": 2032,
      "ology": 2033,
      "ply": 2034,
      "Ġwon": 2035,
      "Ġok": 2036,
      "ps": 2037,
      "oul": 2038,
      "Ġguys": 2039,
      "anger": 2040,
      "onic": 2041,
      "ING": 2042,
      "itive": 2043,
      "Ġwritten": 2044,
      "Ġothers": 2045,
      "odram": 2046,
      "ously": 2047,
      "Ġgay": 2048,
      "ister": 2049,
      "gan": 2050,
      "dy": 2051,
      "read": 2052,
      "Ġends": 2053,
      "Ġstri": 2054,
      "Ġsocial": 2055,
      "ĠInd": 2056,
      "Ġknew": 2057,
      "ĠOn": 2058,
      "ael": 2059,
      "Ġshoot": 2060,
      "Ġtale": 2061,
      "Ġsuccess": 2062,
      "ĠBritish": 2063,
      "Ġdev": 2064,
      "terbox": 2065,
      "mosp": 2066,
      "Ġepisode": 2067,
      "mb": 2068,
      "Ġadm": 2069,
      "atural": 2070,
      "Ġbody": 2071,
      "ett": 2072,
      "ised": 2073,
      "Ġgonna": 2074,
      "body": 2075,
      "Ġste": 2076,
      "Ġphot": 2077,
      "Ġve": 2078,
      "Ġbus": 2079,
      "Ġfour": 2080,
      "aving": 2081,
      "host": 2082,
      "Ġfascinating": 2083,
      "Ġwants": 2084,
      "Ġmaterial": 2085,
      "ient": 2086,
      "Ġpri": 2087,
      "Ġwestern": 2088,
      "Ġheav": 2089,
      "oes": 2090,
      "itation": 2091,
      "aries": 2092,
      "pping": 2093,
      "gs": 2094,
      "ald": 2095,
      "hel": 2096,
      "Ġknown": 2097,
      "Ġhappy": 2098,
      "Ġthemselves": 2099,
      "using": 2100,
      "Ġcheck": 2101,
      "aby": 2102,
      "Ġparticularly": 2103,
      "Ġatmosp": 2104,
      "Ġexec": 2105,
      "ians": 2106,
      "Ġwild": 2107,
      "AR": 2108,
      "okes": 2109,
      "Ġreleas": 2110,
      "ĠMc": 2111,
      "hood": 2112,
      "ĠPl": 2113,
      "ĠGod": 2114,
      "Ġgang": 2115,
      "Ġtaking": 2116,
      "bing": 2117,
      "Ġdeser": 2118,
      "Ġforg": 2119,
      "illed": 2120,
      "Ġheard": 2121,
      "Ġdi": 2122,
      "terboxd": 2123,
      "Ġmelodram": 2124,
      "Ġson": 2125,
      "plic": 2126,
      "ĠCar": 2127,
      "outh": 2128,
      "aken": 2129,
      "Ġfree": 2130,
      "ĠDon": 2131,
      "nded": 2132,
      "eless": 2133,
      "Ġperiod": 2134,
      "ĠEng": 2135,
      "ilarious": 2136,
      "Ġdesc": 2137,
      "ances": 2138,
      "track": 2139,
      "Ġnature": 2140,
      "Ġble": 2141,
      "Ġjour": 2142,
      "Ġenjoyable": 2143,
      "Ġappro": 2144,
      "Ġess": 2145,
      "Ġpick": 2146,
      "Ġbasically": 2147,
      "ellent": 2148,
      "irc": 2149,
      "Ġchang": 2150,
      "watch": 2151,
      "Ġshorts": 2152,
      "cing": 2153,
      "Ġbunch": 2154,
      "ino": 2155,
      "!!!": 2156,
      "Ġcolle": 2157,
      "ising": 2158,
      "Ġdetail": 2159,
      "Ġopening": 2160,
      "ichael": 2161,
      "uro": 2162,
      "Ġspir": 2163,
      "OU": 2164,
      "friend": 2165,
      "con": 2166,
      "enty": 2167,
      "Ġsign": 2168,
      "Ġevent": 2169,
      "ination": 2170,
      "ards": 2171,
      "key": 2172,
      "Ġpremise": 2173,
      "Ġcrit": 2174,
      "Ġbring": 2175,
      "Ġtreat": 2176,
      "Ġcity": 2177,
      "Ġviolence": 2178,
      "ubl": 2179,
      "Ġdirection": 2180,
      "gic": 2181,
      "ĠðŁĺ": 2182,
      "che": 2183,
      "Ġteen": 2184,
      "aves": 2185,
      "Ġwhose": 2186,
      "Ġclearly": 2187,
      "Ġgame": 2188,
      "omp": 2189,
      "OR": 2190,
      "As": 2191,
      "Ġtyp": 2192,
      "uge": 2193,
      "Ġhom": 2194,
      "Ġincredible": 2195,
      "Ġir": 2196,
      "Ġimages": 2197,
      "urd": 2198,
      "Ġspace": 2199,
      "aul": 2200,
      "Ġpred": 2201,
      "Ġslight": 2202,
      "Ġsimply": 2203,
      "Ġmoving": 2204,
      "uz": 2205,
      "EN": 2206,
      "ully": 2207,
      "Ġmystery": 2208,
      "lu": 2209,
      "Ġtype": 2210,
      "ĠHollywood": 2211,
      "Ġfuture": 2212,
      "Ġthinking": 2213,
      "Ġamb": 2214,
      "Ġrid": 2215,
      "Ġhate": 2216,
      "ength": 2217,
      "Ġpicture": 2218,
      "Ġsus": 2219,
      "rent": 2220,
      "ĠFrench": 2221,
      "iliar": 2222,
      "ha": 2223,
      "anch": 2224,
      "Ġhonestly": 2225,
      "Ġmeans": 2226,
      "appoint": 2227,
      "band": 2228,
      "Ġsupport": 2229,
      "Ġreturn": 2230,
      "ĠJust": 2231,
      "ement": 2232,
      "Ġdisco": 2233,
      "hetic": 2234,
      "Ġrand": 2235,
      "ĠCan": 2236,
      "So": 2237,
      "Ġclear": 2238,
      "Ġpolitical": 2239,
      "Ġsetting": 2240,
      "ased": 2241,
      "Ġsoundtrack": 2242,
      "Ġsaying": 2243,
      "Ġhappened": 2244,
      "Ġnovel": 2245,
      "Ġincredibly": 2246,
      "Ġbar": 2247,
      "Ġwonderful": 2248,
      "cer": 2249,
      "over": 2250,
      "Ġromance": 2251,
      "Ġhop": 2252,
      "Ġextremely": 2253,
      "Ġculture": 2254,
      "Ġconv": 2255,
      "ĠGerman": 2256,
      "Ġcap": 2257,
      "Ġbare": 2258,
      "Ġdevelop": 2259,
      "Ġprog": 2260,
      "Ġsens": 2261,
      "Ġ--": 2262,
      "Ġcharming": 2263,
      "Ġsongs": 2264,
      "Ġones": 2265,
      "ĠWith": 2266,
      "Ġbeginning": 2267,
      "Ġfilmmaker": 2268,
      "ovie": 2269,
      "por": 2270,
      "Ġhilarious": 2271,
      "Ġhours": 2272,
      "ara": 2273,
      "ĠMay": 2274,
      "Ġmaj": 2275,
      "Ġtries": 2276,
      "Ġmark": 2277,
      "oid": 2278,
      "wise": 2279,
      "ĠMe": 2280,
      "Ġtowards": 2281,
      "ĠHowever": 2282,
      "Ġunf": 2283,
      "Ġhappens": 2284,
      "ĠAm": 2285,
      "Ġrandom": 2286,
      "Ġsimilar": 2287,
      "lin": 2288,
      "Ġ201": 2289,
      "Ġgiving": 2290,
      "acing": 2291,
      "Ġcrazy": 2292,
      "eah": 2293,
      "ilt": 2294,
      "yond": 2295,
      "Ġdue": 2296,
      "Ġeasy": 2297,
      "ltim": 2298,
      "Ġportray": 2299,
      "Ġgave": 2300,
      "Ġsays": 2301,
      "izing": 2302,
      "Ġkiller": 2303,
      "Ġwouldn": 2304,
      "Ġtouch": 2305,
      "Ġsever": 2306,
      "urt": 2307,
      "ĠWhen": 2308,
      "Ġsilly": 2309,
      "cl": 2310,
      "ield": 2311,
      "Ġprop": 2312,
      "Ġquestion": 2313,
      "Ġamount": 2314,
      "Ġill": 2315,
      "mp": 2316,
      "ĠChristmas": 2317,
      "ĠPr": 2318,
      "ĠLet": 2319,
      "Ġdisappoint": 2320,
      "ĠGe": 2321,
      "Ġinvest": 2322,
      "bed": 2323,
      "Ġesc": 2324,
      "Ġreality": 2325,
      "ĠEvery": 2326,
      "Ġmid": 2327,
      "upid": 2328,
      "Ġspec": 2329,
      "ĠRobert": 2330,
      "Ġromantic": 2331,
      "Ġattention": 2332,
      "Ġaut": 2333,
      "Ġchange": 2334,
      "Ġseveral": 2335,
      "ries": 2336,
      "Ġelements": 2337,
      "Ġpull": 2338,
      "Ġimm": 2339,
      "orld": 2340,
      "usband": 2341,
      "Ġener": 2342,
      "Ġcheap": 2343,
      "amb": 2344,
      "Ġaspect": 2345,
      "Ġrock": 2346,
      "Ġlocal": 2347,
      "Ġsuff": 2348,
      "ĠWhile": 2349,
      "Ġcat": 2350,
      "Ġsoon": 2351,
      "Ġtalent": 2352,
      "Ġear": 2353,
      "Ġlim": 2354,
      "Ġparent": 2355,
      "Ġ30": 2356,
      "Ġer": 2357,
      "fying": 2358,
      "ants": 2359,
      "Ġdaughter": 2360,
      "Ġteam": 2361,
      "arth": 2362,
      "Ġeye": 2363,
      "ĠJapanese": 2364,
      "Ġturned": 2365,
      "ĠSte": 2366,
      "Ġgrand": 2367,
      "Ġfeatures": 2368,
      "Ġsomehow": 2369,
      "ades": 2370,
      "ĠEd": 2371,
      "ĠItal": 2372,
      "ĠChar": 2373,
      "Ġfilmmaking": 2374,
      "Ġhar": 2375,
      "Ġdig": 2376,
      "ĠHar": 2377,
      "illiam": 2378,
      "Ġreleased": 2379,
      "ele": 2380,
      "ension": 2381,
      "Ġhorri": 2382,
      "erv": 2383,
      "rupt": 2384,
      "Ġnum": 2385,
      "Ġrare": 2386,
      "Ġusual": 2387,
      "OV": 2388,
      "Ġpos": 2389,
      "Ġimpressive": 2390,
      "ĠJack": 2391,
      "\".": 2392,
      "Ġexpected": 2393,
      "Ġopen": 2394,
      "text": 2395,
      "back": 2396,
      "Ġtone": 2397,
      "Ġtheat": 2398,
      "Ġwin": 2399,
      "Ġcry": 2400,
      "Ġmajor": 2401,
      "Ġprotagon": 2402,
      "Ġsent": 2403,
      "Ġuns": 2404,
      "Ġrunning": 2405,
      "Ġrespect": 2406,
      "ionally": 2407,
      "ES": 2408,
      "Ġhistor": 2409,
      "Ġexperiment": 2410,
      "ips": 2411,
      "irector": 2412,
      "Ġdebut": 2413,
      "aught": 2414,
      "ĠKe": 2415,
      "Ġtwist": 2416,
      "hic": 2417,
      "Ġsociety": 2418,
      "Ġsurv": 2419,
      "Ġsexual": 2420,
      "Re": 2421,
      "Ġpure": 2422,
      "Ġhowever": 2423,
      "Ġleads": 2424,
      "irt": 2425,
      "Ġcost": 2426,
      "ĠAd": 2427,
      "Ġlarge": 2428,
      "oved": 2429,
      "oof": 2430,
      "Al": 2431,
      "Ġalone": 2432,
      "Ġsupposed": 2433,
      "Th": 2434,
      "Ġhear": 2435,
      "ĠEven": 2436,
      "Ġ70": 2437,
      "head": 2438,
      "Ġgreatest": 2439,
      "Ġexcellent": 2440,
      "Ġupon": 2441,
      "ĠTr": 2442,
      "Ġsilent": 2443,
      "Ġsitu": 2444,
      "orable": 2445,
      "Ġfamiliar": 2446,
      "itty": 2447,
      "ĠOr": 2448,
      "Ch": 2449,
      "Ġreve": 2450,
      "asy": 2451,
      "Ġhusband": 2452,
      "ĠHis": 2453,
      "Ġtrad": 2454,
      "Ġstupid": 2455,
      "Ġpossible": 2456,
      "Ġpolice": 2457,
      "Ġatmosphere": 2458,
      "Ġequ": 2459,
      "Ġproblem": 2460,
      "Ġsomewhat": 2461,
      "ills": 2462,
      "Ġid": 2463,
      "Ġthird": 2464,
      "Ġdecided": 2465,
      "IS": 2466,
      "aid": 2467,
      "Ġjokes": 2468,
      "Ġwords": 2469,
      "Ġfemale": 2470,
      "Ġ197": 2471,
      "ze": 2472,
      "Ġexpress": 2473,
      "Ġlooked": 2474,
      "Ġcreep": 2475,
      "Ġrecord": 2476,
      "ĠTom": 2477,
      "retty": 2478,
      "Ġbi": 2479,
      "Ġideas": 2480,
      "acy": 2481,
      "Ġultim": 2482,
      "Ġinvolved": 2483,
      "ior": 2484,
      "Ġneeded": 2485,
      "Ġworse": 2486,
      "Ġmult": 2487,
      "fic": 2488,
      "Ġdest": 2489,
      "ĠJe": 2490,
      "Ġemb": 2491,
      "Ġworked": 2492,
      "Ġartist": 2493,
      "Ġcomb": 2494,
      "ys": 2495,
      "ĠJames": 2496,
      "Ġentirely": 2497,
      "reaking": 2498,
      "Ġbackground": 2499,
      "Ġalthough": 2500,
      "Ġdamn": 2501,
      "oose": 2502,
      "Ġdog": 2503,
      "Ġstage": 2504,
      "Ġque": 2505,
      "ĠLike": 2506,
      "Ġstarring": 2507,
      "ĠDavid": 2508,
      "Wh": 2509,
      "arre": 2510,
      "Ġincluding": 2511,
      "Ġstay": 2512,
      "atever": 2513,
      "Ġforget": 2514,
      "Ġadaptation": 2515,
      "anda": 2516,
      "Ġleg": 2517,
      "ura": 2518,
      "Ġmil": 2519,
      "Ġprevious": 2520,
      "Ġapart": 2521,
      "ges": 2522,
      "Ġghost": 2523,
      "Ġgun": 2524,
      "hys": 2525,
      "esome": 2526,
      "When": 2527,
      "Ġcolor": 2528,
      "Ġhaven": 2529,
      "Ġfinds": 2530,
      "Ġdad": 2531,
      "Ġ198": 2532,
      "Ġgenuinely": 2533,
      "Ġactress": 2534,
      "Ġhands": 2535,
      "Ġneeds": 2536,
      "Ġtotally": 2537,
      "ĠPet": 2538,
      "af": 2539,
      "Ġperhaps": 2540,
      "Ġcirc": 2541,
      "Ġintri": 2542,
      "Ġfairly": 2543,
      "itions": 2544,
      "Ġorder": 2545,
      "ĠTo": 2546,
      "Ġglad": 2547,
      "aim": 2548,
      "Ġ202": 2549,
      "Ġcamp": 2550,
      "Ġamong": 2551,
      "Ġrelease": 2552,
      "Ġtele": 2553,
      "Ġadvent": 2554,
      "Ġmad": 2555,
      "Ġgag": 2556,
      "verse": 2557,
      "ining": 2558,
      "OO": 2559,
      "Ġspeak": 2560,
      "Ġanimated": 2561,
      "ublic": 2562,
      "--": 2563,
      "Ġbox": 2564,
      "Ġinsane": 2565,
      "Ġlonger": 2566,
      "Ġfans": 2567,
      "Ġfilmmakers": 2568,
      "Ġclim": 2569,
      "Ġfive": 2570,
      "Ġstruct": 2571,
      "Ġbrilli": 2572,
      "Ġfully": 2573,
      "ĠHer": 2574,
      "Ġinform": 2575,
      "cle": 2576,
      "par": 2577,
      "oun": 2578,
      "piece": 2579,
      "Ġbeyond": 2580,
      "ĠMichael": 2581,
      "ĠWell": 2582,
      "pective": 2583,
      "Ġusing": 2584,
      "Ġresult": 2585,
      "Ġfront": 2586,
      "Ġut": 2587,
      "Ġgirls": 2588,
      "Ġlang": 2589,
      "sw": 2590,
      "arently": 2591,
      "imin": 2592,
      "medi": 2593,
      "Ġpay": 2594,
      "Ġred": 2595,
      "Ġshowing": 2596,
      "rest": 2597,
      "Ġaren": 2598,
      "estival": 2599,
      "vision": 2600,
      "Ġmention": 2601,
      "Ġannoy": 2602,
      "Ġground": 2603,
      "Ġfantastic": 2604,
      "Ġshock": 2605,
      "Ġnear": 2606,
      "Ġsuck": 2607,
      "Ġfavour": 2608,
      "venge": 2609,
      "Ġextra": 2610,
      "ron": 2611,
      "ĠAN": 2612,
      "ĠPe": 2613,
      "Ġfilmed": 2614,
      "usion": 2615,
      "alth": 2616,
      "Tube": 2617,
      "Ġmonth": 2618,
      "Ġexplo": 2619,
      "vil": 2620,
      "sp": 2621,
      "Ġsum": 2622,
      "Ġpowerful": 2623,
      "iest": 2624,
      "Ġfa": 2625,
      "\",": 2626,
      "Ġrad": 2627,
      "ris": 2628,
      "ires": 2629,
      "Ġdull": 2630,
      "Ġmeet": 2631,
      "ĠEnglish": 2632,
      "Ġindust": 2633,
      "Ġrob": 2634,
      "ĠNe": 2635,
      "Ġcartoon": 2636,
      "Ġvarious": 2637,
      "Ġsurprisingly": 2638,
      "Ġwriter": 2639,
      "Ġintrodu": 2640,
      "Ġevil": 2641,
      "ĠDan": 2642,
      "Ġawful": 2643,
      "Ġappear": 2644,
      "resent": 2645,
      "Ġoper": 2646,
      "illing": 2647,
      "Ġsounds": 2648,
      "ĠTH": 2649,
      "Ġeasily": 2650,
      "Ġtaken": 2651,
      "stem": 2652,
      "Ġrich": 2653,
      "oph": 2654,
      "Ġet": 2655,
      "icks": 2656,
      "Ġissues": 2657,
      "Ġsequel": 2658,
      "Ġevents": 2659,
      "ctions": 2660,
      "Ġinflu": 2661,
      "Ġinde": 2662,
      "cious": 2663,
      "Ġenergy": 2664,
      "ED": 2665,
      "Ġhuge": 2666,
      "ĠâĢĵ": 2667,
      "Ġ199": 2668,
      "Ġsets": 2669,
      "icult": 2670,
      "Ġcinematic": 2671,
      "Ġclos": 2672,
      "Ġcoll": 2673,
      "Ġearli": 2674,
      "Ġaest": 2675,
      "aling": 2676,
      "Ġimagine": 2677,
      "go": 2678,
      "Ġident": 2679,
      "ĠPh": 2680,
      "IT": 2681,
      "Ġment": 2682,
      "uted": 2683,
      "ĠLove": 2684,
      "orgeous": 2685,
      "ĠWilliam": 2686,
      "Ġnearly": 2687,
      "Ġjourney": 2688,
      "Ġmessage": 2689,
      "Ġmeaning": 2690,
      "Ġwind": 2691,
      "Ġton": 2692,
      "ĠStill": 2693,
      "ĠCon": 2694,
      "Ġoutside": 2695,
      "ivid": 2696,
      "Ġforgot": 2697,
      "iny": 2698,
      "Ġended": 2699,
      "ĠYouTube": 2700,
      "rated": 2701,
      "Ġ200": 2702,
      "Ġspirit": 2703,
      "ctor": 2704,
      "Ġappreciate": 2705,
      "Ġdance": 2706,
      "stal": 2707,
      "10": 2708,
      "Ġkept": 2709,
      "Sh": 2710,
      "ichard": 2711,
      "Ġapproach": 2712,
      "ï¸": 2713,
      "Ġlength": 2714,
      "Ġinn": 2715,
      "OT": 2716,
      "eth": 2717,
      "Ġsurprised": 2718,
      "Ġaff": 2719,
      "Ġpoints": 2720,
      "lo": 2721,
      "mm": 2722,
      "unning": 2723,
      "Ġdelight": 2724,
      "ï¸ı": 2725,
      "Ġprocess": 2726,
      "ĠBar": 2727,
      "Ġobsess": 2728,
      "Ġparents": 2729,
      "Ġseemed": 2730,
      "which": 2731,
      "row": 2732,
      "Ġinterested": 2733,
      "cted": 2734,
      "Ġfell": 2735,
      "Ġimmedi": 2736,
      "iences": 2737,
      "VD": 2738,
      "no": 2739,
      "Ġprison": 2740,
      "ana": 2741,
      "verage": 2742,
      "Ġmass": 2743,
      "Ġdru": 2744,
      "For": 2745,
      "Ġmelodrama": 2746,
      "Ġbarely": 2747,
      "ĠPer": 2748,
      "ta": 2749,
      "ðŁĺ": 2750,
      "ĠSw": 2751,
      "Ġleave": 2752,
      "Ġruntime": 2753,
      "Ġknows": 2754,
      "Ġperfectly": 2755,
      "Ġlovely": 2756,
      "Ġengaging": 2757,
      "ĠDis": 2758,
      "Ġrac": 2759,
      "Ġcommunity": 2760,
      "Ġplan": 2761,
      "Ġcharm": 2762,
      "ume": 2763,
      "ped": 2764,
      "Ġdifficult": 2765,
      "Ġ:": 2766,
      "bo": 2767,
      "Ġmedi": 2768,
      "ieces": 2769,
      "Ġtrack": 2770,
      "Ġbaby": 2771,
      "Ġcond": 2772,
      "Ġhighlight": 2773,
      "Ġnumber": 2774,
      "Ġrating": 2775,
      "Ġtelling": 2776,
      "Ġsequence": 2777,
      "kes": 2778,
      "Ġwater": 2779,
      "Ġpotential": 2780,
      "ogn": 2781,
      "oices": 2782,
      "Ġexpecting": 2783,
      "ĠRuss": 2784,
      "mark": 2785,
      "Ġwhatever": 2786,
      "Ġcontext": 2787,
      "Ġsystem": 2788,
      "abor": 2789,
      "ĠGreat": 2790,
      "gend": 2791,
      "Ġparticular": 2792,
      "edy": 2793,
      "Ġphys": 2794,
      "ishing": 2795,
      "mist": 2796,
      "war": 2797,
      "ization": 2798,
      "ton": 2799,
      "Ġcompelling": 2800,
      "ises": 2801,
      "Ġfur": 2802,
      "Ġest": 2803,
      "Ġintern": 2804,
      "Ġyes": 2805,
      "ĠEx": 2806,
      "attle": 2807,
      "ĠBlack": 2808,
      "Ġposter": 2809,
      "Ġmulti": 2810,
      "ging": 2811,
      "Ġfol": 2812,
      "rom": 2813,
      "Ġpract": 2814,
      "Ġinterviews": 2815,
      "Ġarch": 2816,
      "Ġeffective": 2817,
      "Ġsoul": 2818,
      "ĠHall": 2819,
      "aked": 2820,
      "Ġfollows": 2821,
      "ancing": 2822,
      "Ġair": 2823,
      "Ġbrought": 2824,
      "Ġprotagonist": 2825,
      "Ġcomment": 2826,
      "Ġexample": 2827,
      "Ġlos": 2828,
      "Ġtre": 2829,
      "Ġsequences": 2830,
      "ĠLee": 2831,
      "more": 2832,
      "Ġusually": 2833,
      "Ġsecret": 2834,
      "ĠEl": 2835,
      "Ġcomplex": 2836,
      "Be": 2837,
      "Ġlangu": 2838,
      "ĠGu": 2839,
      "ĠOF": 2840,
      "Ġobviously": 2841,
      "lict": 2842,
      "Ġ196": 2843,
      "ka": 2844,
      "osh": 2845,
      "Ġheavy": 2846,
      "Ġbiz": 2847,
      "Ġimpact": 2848,
      "Ġtravel": 2849,
      "Ġlots": 2850,
      "ĠCol": 2851,
      "ological": 2852,
      "ĠBro": 2853,
      "ĠVery": 2854,
      "Ġbusiness": 2855,
      "erson": 2856,
      "pend": 2857,
      "Ġslightly": 2858,
      "Ġenc": 2859,
      "ressed": 2860,
      "Ġchance": 2861,
      "ios": 2862,
      "Ġtells": 2863,
      "Ġpoet": 2864,
      "Ġgeneral": 2865,
      "Ġdocumentaries": 2866,
      "Ġdeeply": 2867,
      "Ġmedia": 2868,
      "Ġfalls": 2869,
      "Ġridicul": 2870,
      "Ġthemes": 2871,
      "upp": 2872,
      "ĠGr": 2873,
      "Ġkeeps": 2874,
      "Ġru": 2875,
      "Ġvict": 2876,
      "Ġcreative": 2877,
      "kn": 2878,
      "anna": 2879,
      "with": 2880,
      "Ġtrou": 2881,
      "ero": 2882,
      "Ġdumb": 2883,
      "Ġdescri": 2884,
      "Ġinspir": 2885,
      "Ġcreate": 2886,
      "Ġjump": 2887,
      "Ġcele": 2888,
      "unting": 2889,
      "Ġgorgeous": 2890,
      "Ġur": 2891,
      "Ġokay": 2892,
      "AS": 2893,
      "Ġvisuals": 2894,
      "Ġund": 2895,
      "Ġhang": 2896,
      "aining": 2897,
      "Ġmale": 2898,
      "ĠItalian": 2899,
      "Ġterms": 2900,
      "Ġfire": 2901,
      "ĠChe": 2902,
      "Ġabsurd": 2903,
      "Ġinside": 2904,
      "Ġbrief": 2905,
      "And": 2906,
      "CK": 2907,
      "Ġsold": 2908,
      "Ġdie": 2909,
      "Ġlaw": 2910,
      "Ġetc": 2911,
      "Ġmasterpiece": 2912,
      ".)": 2913,
      "ki": 2914,
      "Ġfigure": 2915,
      "Ġbrilliant": 2916,
      "Ġstate": 2917,
      "Ġfeat": 2918,
      "Ġlines": 2919,
      "Ġjoy": 2920,
      "arily": 2921,
      "wo": 2922,
      "Ġproper": 2923,
      "imp": 2924,
      "oor": 2925,
      "Ġultimately": 2926,
      "ĠOf": 2927,
      "ĠDVD": 2928,
      "Ġwit": 2929,
      "ares": 2930,
      "oly": 2931,
      "Ġfavourite": 2932,
      "Ġbecame": 2933,
      "val": 2934,
      "Ġroll": 2935,
      "acher": 2936,
      "Ġcover": 2937,
      "atching": 2938,
      "Ġnatural": 2939,
      "Ġviewing": 2940,
      "We": 2941,
      "ula": 2942,
      "Ġnamed": 2943,
      "Ġweak": 2944,
      "Ġbrut": 2945,
      "Ġbeautifully": 2946,
      "uper": 2947,
      "Ġbeauty": 2948,
      "Ġoccas": 2949,
      "gest": 2950,
      "Ġotherwise": 2951,
      "Ġmissing": 2952,
      "?\"": 2953,
      "ĠCom": 2954,
      "ĠAfter": 2955,
      "ĠMor": 2956,
      "Ġcross": 2957,
      "Ġtension": 2958,
      "oman": 2959,
      "ĠUS": 2960,
      "Ġroles": 2961,
      "Ġic": 2962,
      "ĠLetterboxd": 2963,
      "Ġ50": 2964,
      "Ġ.": 2965,
      "Ġhistorical": 2966,
      "bers": 2967,
      "Ġmurd": 2968,
      "ĠSam": 2969,
      "Ġporn": 2970,
      "Ġten": 2971,
      "Ġdiscuss": 2972,
      "Ġsleep": 2973,
      "Ġweek": 2974,
      "Ġmanages": 2975,
      "ained": 2976,
      "hor": 2977,
      "Ġgem": 2978,
      "Ġtheme": 2979,
      "Very": 2980,
      "Ġepisodes": 2981,
      "Ġ15": 2982,
      "Some": 2983,
      "Ġframe": 2984,
      "ggest": 2985,
      "was": 2986,
      "Ġresp": 2987,
      "omin": 2988,
      "fer": 2989,
      "ĠGood": 2990,
      "ĠQu": 2991,
      "gen": 2992,
      "Ġbur": 2993,
      "entially": 2994,
      "Ġrevenge": 2995,
      "Ġanti": 2996,
      "Ġmas": 2997,
      "Ġbizarre": 2998,
      "Ġ60": 2999,
      "Ġperspective": 3000,
      "illy": 3001,
      "rag": 3002,
      "ears": 3003,
      "Ġpassion": 3004,
      "ĠPaul": 3005,
      "Ġreading": 3006,
      "ĠFrank": 3007,
      "Ġsoft": 3008,
      "Ġcannot": 3009,
      "face": 3010,
      "vered": 3011,
      "fi": 3012,
      "Ġshame": 3013,
      "Ġforced": 3014,
      "Ġrepresent": 3015,
      "unny": 3016,
      "Ġaf": 3017,
      "Ġnorm": 3018,
      "Ġrevol": 3019,
      "ĠFl": 3020,
      "alk": 3021,
      "Ġnecess": 3022,
      "ĠBra": 3023,
      "erry": 3024,
      "irth": 3025,
      "Ġ193": 3026,
      "Ġ100": 3027,
      "ailable": 3028,
      "vern": 3029,
      "Ġsuggest": 3030,
      "Ġfast": 3031,
      "ĠAmerica": 3032,
      "Ġfollowing": 3033,
      "Ġintrigu": 3034,
      "ĠGeorge": 3035,
      "Ġcrew": 3036,
      "Ġpopular": 3037,
      "Ġwrite": 3038,
      "Ġvibe": 3039,
      "Ġge": 3040,
      "ĠAng": 3041,
      "Ġimage": 3042,
      "Ġcredits": 3043,
      "that": 3044,
      "Ġawesome": 3045,
      "urs": 3046,
      "ĠMon": 3047,
      "Ġnostal": 3048,
      "Ġplenty": 3049,
      "Ġcompet": 3050,
      "Ġpack": 3051,
      "Ġcause": 3052,
      "ama": 3053,
      "Ġadult": 3054,
      "Ġbrain": 3055,
      "Ġmood": 3056,
      "Ġbal": 3057,
      "Ġroad": 3058,
      "ya": 3059,
      "Ġunfortunately": 3060,
      "chie": 3061,
      "Ġwait": 3062,
      "Ġkilled": 3063,
      "Ġleading": 3064,
      "Ġwall": 3065,
      "Ġcru": 3066,
      "Ġchildhood": 3067,
      "Ġconvers": 3068,
      "mistry": 3069,
      "AL": 3070,
      "Ġpredict": 3071,
      "Ġstep": 3072,
      "Ġnoir": 3073,
      "Ġearlier": 3074,
      "Ġrecogn": 3075,
      "omen": 3076,
      "Ġpublic": 3077,
      "ĠWorld": 3078,
      "eresting": 3079,
      "Ġspect": 3080,
      "ĠRichard": 3081,
      "ĠPar": 3082,
      "?!": 3083,
      "Ġdude": 3084,
      "itles": 3085,
      "ceed": 3086,
      "Ġspent": 3087,
      "Ġsurreal": 3088,
      "Ġquickly": 3089,
      "aff": 3090,
      "Ġtext": 3091,
      "Ġbrings": 3092,
      "Ġcreepy": 3093,
      "Ġchoice": 3094,
      "Ġcomic": 3095,
      "Ġrelig": 3096,
      "Ġadventure": 3097,
      "Ġtried": 3098,
      "ynam": 3099,
      "work": 3100,
      "Ġcraft": 3101,
      "ĠAust": 3102,
      "Ġproduced": 3103,
      "ĠPro": 3104,
      "itted": 3105,
      "Ġstoryt": 3106,
      "Ġchemistry": 3107,
      "ada": 3108,
      "ider": 3109,
      "Ġsave": 3110,
      "udd": 3111,
      "cent": 3112,
      "Ġdirectors": 3113,
      "He": 3114,
      "Ġcelebr": 3115,
      "Ġsurprise": 3116,
      "Ġmill": 3117,
      "inn": 3118,
      "Ġfilled": 3119,
      "Ġimmediately": 3120,
      "riter": 3121,
      "Ġuses": 3122,
      "Ġfamous": 3123,
      "Ġpacing": 3124,
      "rey": 3125,
      "Ġhair": 3126,
      "Ġreviews": 3127,
      "bt": 3128,
      "espite": 3129,
      "Ġyourself": 3130,
      "Ġannoying": 3131,
      "ustr": 3132,
      "Ġparty": 3133,
      "Ġ#": 3134,
      "aper": 3135,
      "Ġtruth": 3136,
      "lex": 3137,
      "olf": 3138,
      "Ġprofess": 3139,
      "Ġaverage": 3140,
      "Ġjoke": 3141,
      "olid": 3142,
      "Ġdepth": 3143,
      "atur": 3144,
      "Ġdramatic": 3145,
      "Ġinspired": 3146,
      "Ġforward": 3147,
      "Ġinsight": 3148,
      "Ġtest": 3149,
      "ĠSch": 3150,
      "ĠMart": 3151,
      "Ġcurrent": 3152,
      "ĠYork": 3153,
      "Ġtast": 3154,
      "asher": 3155,
      "Another": 3156,
      "Ġconflict": 3157,
      "Ġpurp": 3158,
      "ban": 3159,
      "room": 3160,
      "Ġtelevision": 3161,
      "iously": 3162,
      "ĠMaybe": 3163,
      "budget": 3164,
      "Ġcontent": 3165,
      "Ġmist": 3166,
      "inese": 3167,
      "Ġlady": 3168,
      "Ġherself": 3169,
      "Ġlay": 3170,
      "Ġlegend": 3171,
      "iding": 3172,
      "ĠEuro": 3173,
      "Ġhighly": 3174,
      "ini": 3175,
      "round": 3176,
      "Ġtv": 3177,
      "Ġdraw": 3178,
      "action": 3179,
      "orts": 3180,
      "idden": 3181,
      "men": 3182,
      "Ġsusp": 3183,
      "rait": 3184,
      "ĠSm": 3185,
      "ague": 3186,
      "Ġstat": 3187,
      "!!!!": 3188,
      "een": 3189,
      ",\"": 3190,
      "Ġgone": 3191,
      "Ġolder": 3192,
      "oom": 3193,
      "ims": 3194,
      "Ġmagic": 3195,
      "Ġtypical": 3196,
      "vant": 3197,
      "Ġbreat": 3198,
      "ĠAND": 3199,
      "Ġquiet": 3200,
      "Ġhy": 3201,
      "ortun": 3202,
      "Ġsister": 3203,
      "Ġshown": 3204,
      "Ġgold": 3205,
      "Ġfinding": 3206,
      "Ġregard": 3207,
      "ĠThen": 3208,
      "Ġtraum": 3209,
      "ring": 3210,
      "Ġlanguage": 3211,
      "Ġrecently": 3212,
      "Watched": 3213,
      "set": 3214,
      "Ġformer": 3215,
      "come": 3216,
      "Ġ195": 3217,
      "Ġcomfort": 3218,
      "Ġentry": 3219,
      "!\"": 3220,
      "Ġstudio": 3221,
      "ping": 3222,
      "ga": 3223,
      "Ġnone": 3224,
      "Ġintim": 3225,
      "Ġhappening": 3226,
      "Ġinvestig": 3227,
      "Ġpresence": 3228,
      "Ġexperimental": 3229,
      "asons": 3230,
      "Ġansw": 3231,
      "Ġlol": 3232,
      "Ġwhether": 3233,
      "Ġmemory": 3234,
      "Ġfighting": 3235,
      "Ġdynam": 3236,
      "ases": 3237,
      "boy": 3238,
      "Ġindustry": 3239,
      "ĠGra": 3240,
      "cast": 3241,
      "ived": 3242,
      "yl": 3243,
      "Ġbiggest": 3244,
      "Ġwood": 3245,
      "ression": 3246,
      "bel": 3247,
      "Ġcrimin": 3248,
      "Ġvillain": 3249,
      "Ġfeaturing": 3250,
      "ipp": 3251,
      "ift": 3252,
      "kward": 3253,
      "Ġseg": 3254,
      "Ġmod": 3255,
      "ĠKong": 3256,
      "Ġsituation": 3257,
      "Ġridiculous": 3258,
      "orry": 3259,
      "apes": 3260,
      "Ġexplore": 3261,
      "Ġindivid": 3262,
      "OM": 3263,
      "Ġstandard": 3264,
      "who": 3265,
      "Ġseriously": 3266,
      "Ġinte": 3267,
      "Ġanime": 3268,
      "Ġindie": 3269,
      "ID": 3270,
      "Ġna": 3271,
      "aganda": 3272,
      "ops": 3273,
      "oration": 3274,
      "ened": 3275,
      "Ġreminded": 3276,
      "olic": 3277,
      "Ġgovern": 3278,
      "Ġeventually": 3279,
      "ashion": 3280,
      "uel": 3281,
      "Ġcompl": 3282,
      "cher": 3283,
      "Ġmultiple": 3284,
      "Ġpun": 3285,
      "Ġtrip": 3286,
      "Ġpieces": 3287,
      "Ġoffic": 3288,
      "ĠGl": 3289,
      "ius": 3290,
      "Ġviewer": 3291,
      "OW": 3292,
      "ĠNow": 3293,
      "Ġgoof": 3294,
      "Ġmeant": 3295,
      "ĠHong": 3296,
      "hh": 3297,
      "une": 3298,
      "ĠWestern": 3299,
      "Ġstorytelling": 3300,
      "Ġleaves": 3301,
      "bl": 3302,
      "Ġavailable": 3303,
      "bor": 3304,
      "Ġcontem": 3305,
      "Ġseason": 3306,
      "ĠIr": 3307,
      "str": 3308,
      "Ġmovement": 3309,
      "Ġstudent": 3310,
      "film": 3311,
      "inct": 3312,
      "Ġsatis": 3313,
      "Ġtim": 3314,
      "kin": 3315,
      "Ġachie": 3316,
      "Ġnarration": 3317,
      "Ġrese": 3318,
      "rel": 3319,
      "Ġlif": 3320,
      "Ġtheater": 3321,
      "ager": 3322,
      "look": 3323,
      "aming": 3324,
      "II": 3325,
      "Ġrewatch": 3326,
      "Ġstunning": 3327,
      "just": 3328,
      "sequ": 3329,
      "annel": 3330,
      "Ġplaces": 3331,
      "ogy": 3332,
      "Ġrealize": 3333,
      "Ġapparently": 3334,
      "Ġconsidering": 3335,
      "Ġaccept": 3336,
      "you": 3337,
      "ĠFe": 3338,
      "Ġawkward": 3339,
      "AD": 3340,
      "pected": 3341,
      "ita": 3342,
      "Ġaccident": 3343,
      "pir": 3344,
      "Ġdesper": 3345,
      "dden": 3346,
      "Ġfurther": 3347,
      "Ġtour": 3348,
      "Ġfantasy": 3349,
      "Ġmach": 3350,
      "Ġtrain": 3351,
      "ĠDisney": 3352,
      "Ġserial": 3353,
      "Ġviolent": 3354,
      "Ġallow": 3355,
      "Ġjo": 3356,
      "reaming": 3357,
      "ĠNight": 3358,
      "Ġcaught": 3359,
      "yle": 3360,
      "Ġkick": 3361,
      "Ġthanks": 3362,
      "leg": 3363,
      "LE": 3364,
      "Ġplease": 3365,
      "lessly": 3366,
      "Ġindividual": 3367,
      "ivity": 3368,
      "Ġnor": 3369,
      "After": 3370,
      "bum": 3371,
      "ĠKore": 3372,
      "Ġbuilding": 3373,
      "bert": 3374,
      "Ġspot": 3375,
      "oil": 3376,
      "Ġrefere": 3377,
      "ken": 3378,
      "Ġflat": 3379,
      "azy": 3380,
      "ĠJoe": 3381,
      "ective": 3382,
      "ĠLa": 3383,
      "ĠKing": 3384,
      "Ġbed": 3385,
      "Ġlandsc": 3386,
      "ih": 3387,
      "ĠBer": 3388,
      "Ġyeah": 3389,
      "ressing": 3390,
      "Ġpal": 3391,
      "Ġportrait": 3392,
      "ĠPeter": 3393,
      "Ġunex": 3394,
      "ified": 3395,
      "ites": 3396,
      "Ġburn": 3397,
      "Ġdreams": 3398,
      "Ġdiv": 3399,
      "breaking": 3400,
      "Ġca": 3401,
      "Ġsinging": 3402,
      "now": 3403,
      "esque": 3404,
      "Ġunc": 3405,
      "Ġabove": 3406,
      "Ġmyster": 3407,
      "Ġsearch": 3408,
      "ding": 3409,
      "Ġopin": 3410,
      "Ġmir": 3411,
      "ĠMr": 3412,
      "Ġpropaganda": 3413,
      "Ġmemories": 3414,
      "ique": 3415,
      "Ġball": 3416,
      "Ġchall": 3417,
      "anks": 3418,
      "Ġine": 3419,
      "ĠAny": 3420,
      "ij": 3421,
      "inary": 3422,
      "well": 3423,
      "Ġgore": 3424,
      "ĠJim": 3425,
      "core": 3426,
      "Ġserv": 3427,
      "berg": 3428,
      "ressive": 3429,
      "Ġcreated": 3430,
      "Ġforever": 3431,
      "Ġimpro": 3432,
      "iety": 3433,
      "Ġdeserves": 3434,
      "Ġflaw": 3435,
      "Ġintense": 3436,
      "ĠHor": 3437,
      "Ġdecis": 3438,
      "AM": 3439,
      "Ġrepe": 3440,
      "Ġthank": 3441,
      "Ġprim": 3442,
      "Ġexciting": 3443,
      "Ġsudden": 3444,
      "ette": 3445,
      "Ġbegins": 3446,
      "Ġhost": 3447,
      "Ġsubtitles": 3448,
      "Ġwarm": 3449,
      "Ġobject": 3450,
      "herent": 3451,
      "Ġcold": 3452,
      "Ġstructure": 3453,
      "ĠOver": 3454,
      "Ġqueer": 3455,
      "???": 3456,
      "ĠJo": 3457,
      "riage": 3458,
      "Well": 3459,
      "gl": 3460,
      "ĠDo": 3461,
      "ode": 3462,
      "Ġremake": 3463,
      "ari": 3464,
      "Ġalien": 3465,
      "Ġvalue": 3466,
      "ĠIN": 3467,
      "ĠTra": 3468,
      "uit": 3469,
      "list": 3470,
      "Ġslasher": 3471,
      "scar": 3472,
      "Ġvamp": 3473,
      "Ġdeliver": 3474,
      "Ġ,": 3475,
      "Ġrough": 3476,
      "Ġwrote": 3477,
      "Ġrecent": 3478,
      "nter": 3479,
      "Ġdrink": 3480,
      "Ġdouble": 3481,
      "Ġaesthetic": 3482,
      "Ġask": 3483,
      "autiful": 3484,
      "Ġslowly": 3485,
      "ability": 3486,
      "Ġsick": 3487,
      "Ġvibes": 3488,
      "ĠPat": 3489,
      "Ġknowing": 3490,
      "Ġsurround": 3491,
      "ĠFrom": 3492,
      "Ġfear": 3493,
      "Ġalbum": 3494,
      "ye": 3495,
      "pro": 3496,
      "arted": 3497,
      "Ġlocation": 3498,
      "vert": 3499,
      "inema": 3500,
      "osition": 3501,
      "Ġmeets": 3502,
      "Ġimposs": 3503,
      "Ġmer": 3504,
      "Ġbeat": 3505,
      "Ġexecution": 3506,
      "house": 3507,
      "ĠChinese": 3508,
      "HS": 3509,
      "Ġanyway": 3510,
      "Ġconstantly": 3511,
      "On": 3512,
      "Ġquestions": 3513,
      "Ġmoves": 3514,
      "Ġyouth": 3515,
      "odies": 3516,
      "Ġbasic": 3517,
      "Ġcentury": 3518,
      "Ġopportun": 3519,
      "Ġgags": 3520,
      "Ġcontrol": 3521,
      "Ġphysical": 3522,
      "Ġfaces": 3523,
      "ĠMad": 3524,
      "itional": 3525,
      "Ġgar": 3526,
      "Ġzomb": 3527,
      "Ġsyn": 3528,
      "Ġdub": 3529,
      "Ġmonster": 3530,
      "vin": 3531,
      "Ġsqu": 3532,
      "irty": 3533,
      "Ġcopy": 3534,
      "No": 3535,
      "Ġemotions": 3536,
      "aze": 3537,
      "Ġattack": 3538,
      "ĠMost": 3539,
      "!)": 3540,
      "Just": 3541,
      "Ġbene": 3542,
      "Ġanth": 3543,
      "Ġmotion": 3544,
      "Ġadded": 3545,
      "Ġnightm": 3546,
      "Ġconcert": 3547,
      "Ġbroad": 3548,
      "Ġ194": 3549,
      "Ġcomedic": 3550,
      "Ġsal": 3551,
      "ometimes": 3552,
      "Ġcompany": 3553,
      "De": 3554,
      "Ġkilling": 3555,
      "Ġconsider": 3556,
      "Ġstuck": 3557,
      "Ġforgotten": 3558,
      "esb": 3559,
      "Ġgovernment": 3560,
      "uses": 3561,
      "Ġbits": 3562,
      "Ġju": 3563,
      "ĠInst": 3564,
      "azz": 3565,
      "Ġinformation": 3566,
      "Ġcha": 3567,
      "lie": 3568,
      "?)": 3569,
      "bb": 3570,
      "eries": 3571,
      "Ġappears": 3572,
      "Ġproblems": 3573,
      "gged": 3574,
      "Don": 3575,
      "Ġhits": 3576,
      "yr": 3577,
      "aker": 3578,
      "even": 3579,
      "ĠUnfortunately": 3580,
      "Ġsci": 3581,
      "Ġremark": 3582,
      "Ġspend": 3583,
      "Ġdepict": 3584,
      "Ġremains": 3585,
      "reg": 3586,
      "ĠWho": 3587,
      "lying": 3588,
      "Ġmemorable": 3589,
      "UT": 3590,
      "lix": 3591,
      "Ġobsc": 3592,
      "Ġpriv": 3593,
      "ĠPol": 3594,
      "Ġcentral": 3595,
      "Ġclever": 3596,
      "ĠMex": 3597,
      "Ġalive": 3598,
      "ĠAfr": 3599,
      "Ġteacher": 3600,
      "Ġpossibly": 3601,
      "Ġjud": 3602,
      "unted": 3603,
      "enge": 3604,
      "anced": 3605,
      "esy": 3606,
      "awa": 3607,
      "ruction": 3608,
      "Ġreveal": 3609,
      "Ġsour": 3610,
      "Ġchoices": 3611,
      "Ġemp": 3612,
      "Ġmixed": 3613,
      "Ġvision": 3614,
      "Ġnons": 3615,
      "That": 3616,
      "Ġpace": 3617,
      "Ġepic": 3618,
      "Ġbecoming": 3619,
      "Ġintriguing": 3620,
      "Ġ/": 3621,
      "Ġsix": 3622,
      "Ġfood": 3623,
      "Ġ40": 3624,
      "ĠSim": 3625,
      "Ġseemingly": 3626,
      "ocal": 3627,
      "Ġwitness": 3628,
      "aven": 3629,
      "Ġshowc": 3630,
      "Ġcapital": 3631,
      "Ġride": 3632,
      "Bl": 3633,
      "Ġboys": 3634,
      "Ġfit": 3635,
      "Ġpurpose": 3636,
      "Ġbored": 3637,
      "Ġstruggle": 3638,
      "Ġforce": 3639,
      "ushed": 3640,
      "down": 3641,
      "Ġtotal": 3642,
      "How": 3643,
      "iron": 3644,
      "Ġfashion": 3645,
      "Ġfinish": 3646,
      "ĠHere": 3647,
      "Ġmart": 3648,
      "Ġbirth": 3649,
      "bly": 3650,
      "Ġfeelings": 3651,
      "Ġimagery": 3652,
      "ĠDay": 3653,
      "Ġbattle": 3654,
      "ĠBen": 3655,
      "Ġidentity": 3656,
      "Ġuncom": 3657,
      "ĠPal": 3658,
      "Ġprogram": 3659,
      "Ġpolitics": 3660,
      "umes": 3661,
      "Ġunlike": 3662,
      "gue": 3663,
      "Ġexists": 3664,
      "Ġcow": 3665,
      "Ġtraged": 3666,
      "Really": 3667,
      "Ġrelationships": 3668,
      "ĠEurope": 3669,
      "Ġstreet": 3670,
      "Ġinnoc": 3671,
      "ano": 3672,
      "Ġchanged": 3673,
      "Ġpredictable": 3674,
      "Ġlog": 3675,
      "Ġcommon": 3676,
      "omething": 3677,
      "ament": 3678,
      "ET": 3679,
      "sters": 3680,
      "Ġdecade": 3681,
      "Ġmembers": 3682,
      "Ġdistur": 3683,
      "itary": 3684,
      "Ġdanger": 3685,
      "ĠScott": 3686,
      "gar": 3687,
      "mon": 3688,
      "ros": 3689,
      "Ġonto": 3690,
      "inger": 3691,
      "vey": 3692,
      "Ġpair": 3693,
      "Ġaware": 3694,
      "Ġinit": 3695,
      "Ġtragic": 3696,
      "known": 3697,
      "ĠMore": 3698,
      "Ġlived": 3699,
      "Ġsupporting": 3700,
      "Ġmonths": 3701,
      "Ġcommentary": 3702,
      "Ġcollege": 3703,
      "Ġdoll": 3704,
      "Ġkey": 3705,
      "Ġdancing": 3706,
      "IG": 3707,
      "Ġcultural": 3708,
      "oop": 3709,
      "ste": 3710,
      "Ġstore": 3711,
      "IL": 3712,
      "ĠRay": 3713,
      "Ġfresh": 3714,
      "Ġputting": 3715,
      "ateur": 3716,
      "earing": 3717,
      "Ġscreenplay": 3718,
      "Ġdef": 3719,
      "Ġflash": 3720,
      "Ġmarried": 3721,
      "Pretty": 3722,
      "Ġstoryline": 3723,
      "ivers": 3724,
      "Ġpath": 3725,
      "Ġhall": 3726,
      "inge": 3727,
      "Ġconsist": 3728,
      "ĠWW": 3729,
      "Ġdu": 3730,
      "Ġbland": 3731,
      "At": 3732,
      "ĠSouth": 3733,
      "rian": 3734,
      "Ġdefin": 3735,
      "Ġneg": 3736,
      "ĠBoy": 3737,
      "Ġrout": 3738,
      "owd": 3739,
      "Ġcollection": 3740,
      "Ġspecific": 3741,
      "ĠWal": 3742,
      "Ġtrail": 3743,
      "TV": 3744,
      "ja": 3745,
      "Ġarri": 3746,
      "Ġluck": 3747,
      "Ġattempts": 3748,
      "Ġdetails": 3749,
      "Ġutter": 3750,
      "Ġcredit": 3751,
      "etime": 3752,
      "ĠAustral": 3753,
      "ĠNet": 3754,
      "Ġgoofy": 3755,
      "Ġorgan": 3756,
      "Ġaffect": 3757,
      "whel": 3758,
      "uts": 3759,
      "Oh": 3760,
      "Ġcatch": 3761,
      "ĠNaz": 3762,
      "flix": 3763,
      "iche": 3764,
      "ĠWhy": 3765,
      "aur": 3766,
      "ading": 3767,
      "arts": 3768,
      "Ġâ": 3769,
      "ĠRed": 3770,
      "Ġign": 3771,
      "Ġcy": 3772,
      "movie": 3773,
      "Ġauth": 3774,
      "Ġexploitation": 3775,
      "Ġthrow": 3776,
      "Ġaspects": 3777,
      "ĠWest": 3778,
      "Ġlikely": 3779,
      "gia": 3780,
      "ĠReally": 3781,
      "Ġraw": 3782,
      "Ġhorrible": 3783,
      "Ġspectac": 3784,
      "Ġpil": 3785,
      "Ġheads": 3786,
      "Ġlesb": 3787,
      "uster": 3788,
      "Ġpresented": 3789,
      "Ġdisplay": 3790,
      "aint": 3791,
      "ĠMal": 3792,
      "Ġmental": 3793,
      "Ġloud": 3794,
      "Ġbon": 3795,
      "Ġaffair": 3796,
      "Ġenv": 3797,
      "rick": 3798,
      "cra": 3799,
      "Ġchore": 3800,
      "Ġhyp": 3801,
      "Ġreasons": 3802,
      "ules": 3803,
      "izes": 3804,
      "ham": 3805,
      "ledge": 3806,
      "Ġimpossible": 3807,
      "Ġrate": 3808,
      "Ġbor": 3809,
      "Ġtrash": 3810,
      "Ġcaptures": 3811,
      "Ġescape": 3812,
      "life": 3813,
      "Ġhig": 3814,
      "Ġearth": 3815,
      "Ġsitting": 3816,
      "imal": 3817,
      "Ġ18": 3818,
      "minute": 3819,
      "asing": 3820,
      "idence": 3821,
      "Ġreflect": 3822,
      "aded": 3823,
      "Ġthoughts": 3824,
      "eper": 3825,
      "Ġcommer": 3826,
      "Ġplus": 3827,
      "Ġfunn": 3828,
      "ruce": 3829,
      "ĠVHS": 3830,
      "Ġshare": 3831,
      "Ġdoubt": 3832,
      "onestly": 3833,
      "Ġwanna": 3834,
      "Ġlaughs": 3835,
      "lection": 3836,
      "Ġbull": 3837,
      "ĠThese": 3838,
      "ani": 3839,
      "Ġvisually": 3840,
      "Ġtort": 3841,
      "Ġdied": 3842,
      "Ġpen": 3843,
      "Ġ12": 3844,
      "Ġthreat": 3845,
      "Ġcollect": 3846,
      "Every": 3847,
      "Ġdirecting": 3848,
      "Ġunexpected": 3849,
      "rem": 3850,
      "orthy": 3851,
      "ands": 3852,
      "Ġshooting": 3853,
      "ĠJean": 3854,
      "Ġoh": 3855,
      "Ġ2000": 3856,
      "Ġwaiting": 3857,
      "ĠX": 3858,
      "AY": 3859,
      "Ġleaving": 3860,
      "Ġbrutal": 3861,
      "Ġnews": 3862,
      "oking": 3863,
      "ensive": 3864,
      "Ġeduc": 3865,
      "IC": 3866,
      "ibility": 3867,
      "Ġunderstanding": 3868,
      "Ġdrug": 3869,
      "Ġclaim": 3870,
      "ĠJones": 3871,
      "Ġgirlfriend": 3872,
      "While": 3873,
      "Ġdrunk": 3874,
      "ĠBob": 3875,
      "ify": 3876,
      "Ġcolour": 3877,
      "Ġgiant": 3878,
      "ĠIts": 3879,
      "Ġtaste": 3880,
      "Ġsubtle": 3881,
      "Ġpoorly": 3882,
      "Ġmarriage": 3883,
      "ĠBill": 3884,
      "year": 3885,
      "Ġblind": 3886,
      "ribut": 3887,
      "Ġacted": 3888,
      "Ġterror": 3889,
      "Ġsexy": 3890,
      "Ġopinion": 3891,
      "Ġsun": 3892,
      "Ġfestival": 3893,
      "athy": 3894,
      "ĠWas": 3895,
      "Ġpunch": 3896,
      "Ġexcited": 3897,
      "Ġexistence": 3898,
      "director": 3899,
      "Ġstret": 3900,
      "ĠDead": 3901,
      "Ġsomewhere": 3902,
      "Ġearn": 3903,
      "uous": 3904,
      "ĠHam": 3905,
      "ander": 3906,
      "illa": 3907,
      "Ġnud": 3908,
      "Ġshad": 3909,
      "Ġcorrupt": 3910,
      "ĠEm": 3911,
      "Ġsuccessful": 3912,
      "shit": 3913,
      "Ġestab": 3914,
      "Ġrequ": 3915,
      "Ġlighting": 3916,
      "Ġneigh": 3917,
      "But": 3918,
      "Ġdemon": 3919,
      "Ġclimax": 3920,
      "Ġissue": 3921,
      "umbers": 3922,
      "Ġentertainment": 3923,
      "vable": 3924,
      "Ġexpectations": 3925,
      "BC": 3926,
      "Ġ*": 3927,
      "ĠBig": 3928,
      "Ġmount": 3929,
      "Ġlisten": 3930,
      "others": 3931,
      "Ġcrowd": 3932,
      "Ġmoral": 3933,
      "natural": 3934,
      "Ġdecades": 3935,
      "ĠWood": 3936,
      "ĠTe": 3937,
      "Ġscreening": 3938,
      "Ġcarry": 3939,
      "Ġfights": 3940,
      "ĠMovie": 3941,
      "Ġbag": 3942,
      "Ġlad": 3943,
      "ĠMel": 3944,
      "THE": 3945,
      "ued": 3946,
      "ploy": 3947,
      "Ġsav": 3948,
      "aches": 3949,
      "Ġhelped": 3950,
      "Ġlau": 3951,
      "Ġfake": 3952,
      "Ġtragedy": 3953,
      "Ġedited": 3954,
      "while": 3955,
      "Ġboo": 3956,
      "ivil": 3957,
      "Ġtough": 3958,
      "Ġfocused": 3959,
      "ĠGirl": 3960,
      "Ġdetective": 3961,
      "Un": 3962,
      "Ġkills": 3963,
      "ĠWill": 3964,
      "Ġnote": 3965,
      "Ġdrag": 3966,
      "Ġsuspense": 3967,
      "Ġlikes": 3968,
      "000": 3969,
      "Ġconcern": 3970,
      "Ġcomplic": 3971,
      "Ġhumour": 3972,
      "aa": 3973,
      "Ġled": 3974,
      "Ġclub": 3975,
      "asure": 3976,
      "Ġmyth": 3977,
      "Ġsees": 3978,
      "Ġspl": 3979,
      "ĠST": 3980,
      "Ġnormal": 3981,
      "Ġauthor": 3982,
      "Ġast": 3983,
      "Ġtho": 3984,
      "ĠHard": 3985,
      "Ġmere": 3986,
      "Ġamateur": 3987,
      "oned": 3988,
      "Ġden": 3989,
      "appe": 3990,
      "Ġfiction": 3991,
      "Ġempt": 3992,
      "Ġproud": 3993,
      "itious": 3994,
      "Ġeat": 3995,
      "Ġprint": 3996,
      "ached": 3997,
      "Ġstarting": 3998,
      "Ġphotograp": 3999
    },
    "merges": [
      [
        "Ġ",
        "t"
      ],
      [
        "Ġ",
        "a"
      ],
      [
        "i",
        "n"
      ],
      [
        "h",
        "e"
      ],
      [
        "Ġ",
        "s"
      ],
      [
        "r",
        "e"
      ],
      [
        "Ġ",
        "o"
      ],
      [
        "Ġt",
        "he"
      ],
      [
        "Ġ",
        "w"
      ],
      [
        "i",
        "s"
      ],
      [
        "e",
        "r"
      ],
      [
        "i",
        "t"
      ],
      [
        "Ġ",
        "f"
      ],
      [
        "n",
        "d"
      ],
      [
        "a",
        "t"
      ],
      [
        "Ġ",
        "b"
      ],
      [
        "Ġ",
        "m"
      ],
      [
        "in",
        "g"
      ],
      [
        "Ġ",
        "c"
      ],
      [
        "e",
        "n"
      ],
      [
        "e",
        "s"
      ],
      [
        "o",
        "r"
      ],
      [
        "o",
        "n"
      ],
      [
        "Ġt",
        "h"
      ],
      [
        "o",
        "u"
      ],
      [
        "Ġo",
        "f"
      ],
      [
        "a",
        "l"
      ],
      [
        "a",
        "n"
      ],
      [
        "a",
        "r"
      ],
      [
        "Ġ",
        "p"
      ],
      [
        "Ġ",
        "d"
      ],
      [
        "Ġa",
        "nd"
      ],
      [
        "Ġ",
        "h"
      ],
      [
        "Ġ",
        "l"
      ],
      [
        "e",
        "d"
      ],
      [
        "Ġt",
        "o"
      ],
      [
        "Ġ",
        "in"
      ],
      [
        "l",
        "y"
      ],
      [
        "a",
        "s"
      ],
      [
        "i",
        "l"
      ],
      [
        "o",
        "m"
      ],
      [
        "i",
        "c"
      ],
      [
        "Ġ",
        "g"
      ],
      [
        "Ġ",
        "I"
      ],
      [
        "u",
        "t"
      ],
      [
        "Ġ",
        "e"
      ],
      [
        "Ġ",
        "it"
      ],
      [
        "s",
        "t"
      ],
      [
        "l",
        "e"
      ],
      [
        "o",
        "t"
      ],
      [
        "Ġ",
        "is"
      ],
      [
        "Ġ",
        "n"
      ],
      [
        "v",
        "e"
      ],
      [
        "c",
        "t"
      ],
      [
        "Ġb",
        "e"
      ],
      [
        "â",
        "Ģ"
      ],
      [
        "Ġo",
        "n"
      ],
      [
        "Ġ",
        "re"
      ],
      [
        "i",
        "on"
      ],
      [
        "en",
        "t"
      ],
      [
        "o",
        "w"
      ],
      [
        "i",
        "m"
      ],
      [
        "e",
        "t"
      ],
      [
        "Ġth",
        "at"
      ],
      [
        "e",
        "l"
      ],
      [
        "Ġs",
        "t"
      ],
      [
        "v",
        "er"
      ],
      [
        "Ġth",
        "is"
      ],
      [
        "Ġ",
        "T"
      ],
      [
        "a",
        "d"
      ],
      [
        "Ġm",
        "o"
      ],
      [
        "c",
        "h"
      ],
      [
        "a",
        "y"
      ],
      [
        "g",
        "h"
      ],
      [
        "Ġw",
        "h"
      ],
      [
        "i",
        "d"
      ],
      [
        "Ġ",
        "he"
      ],
      [
        "it",
        "h"
      ],
      [
        "a",
        "m"
      ],
      [
        "'",
        "s"
      ],
      [
        "i",
        "e"
      ],
      [
        "Ġf",
        "or"
      ],
      [
        "Ġ",
        "u"
      ],
      [
        "o",
        "l"
      ],
      [
        "Ġw",
        "ith"
      ],
      [
        "k",
        "e"
      ],
      [
        "Ġ",
        "y"
      ],
      [
        "âĢ",
        "Ļ"
      ],
      [
        "il",
        "m"
      ],
      [
        "Ġa",
        "n"
      ],
      [
        "s",
        "e"
      ],
      [
        "i",
        "r"
      ],
      [
        "Ġw",
        "as"
      ],
      [
        "Ġf",
        "ilm"
      ],
      [
        "Ġb",
        "ut"
      ],
      [
        "c",
        "e"
      ],
      [
        "Ġa",
        "s"
      ],
      [
        "Ġl",
        "i"
      ],
      [
        "Ġa",
        "l"
      ],
      [
        "r",
        "o"
      ],
      [
        "r",
        "a"
      ],
      [
        "Ġ",
        "S"
      ],
      [
        "Ġ",
        "A"
      ],
      [
        "u",
        "r"
      ],
      [
        "o",
        "o"
      ],
      [
        "u",
        "l"
      ],
      [
        "al",
        "ly"
      ],
      [
        "Ġs",
        "e"
      ],
      [
        "Ġs",
        "h"
      ],
      [
        "Ġy",
        "ou"
      ],
      [
        "t",
        "er"
      ],
      [
        "c",
        "k"
      ],
      [
        "l",
        "d"
      ],
      [
        "Ġ",
        "B"
      ],
      [
        "r",
        "i"
      ],
      [
        "u",
        "n"
      ],
      [
        "Ġh",
        "a"
      ],
      [
        "he",
        "r"
      ],
      [
        "il",
        "l"
      ],
      [
        "Ġ",
        "M"
      ],
      [
        "v",
        "ie"
      ],
      [
        "om",
        "e"
      ],
      [
        "ĠT",
        "he"
      ],
      [
        "gh",
        "t"
      ],
      [
        "Ġ",
        "C"
      ],
      [
        "Ġf",
        "r"
      ],
      [
        "ou",
        "t"
      ],
      [
        "Ġ",
        "j"
      ],
      [
        "Ġd",
        "o"
      ],
      [
        "Ġa",
        "b"
      ],
      [
        "a",
        "g"
      ],
      [
        "i",
        "f"
      ],
      [
        "p",
        "e"
      ],
      [
        "Ġ",
        "k"
      ],
      [
        "e",
        "m"
      ],
      [
        "Ġs",
        "o"
      ],
      [
        "is",
        "t"
      ],
      [
        "u",
        "st"
      ],
      [
        "Ġa",
        "t"
      ],
      [
        "Ġe",
        "x"
      ],
      [
        "a",
        "k"
      ],
      [
        "u",
        "m"
      ],
      [
        "es",
        "s"
      ],
      [
        "Ġc",
        "h"
      ],
      [
        "Ġn",
        "ot"
      ],
      [
        "or",
        "t"
      ],
      [
        "Ġ",
        "H"
      ],
      [
        "at",
        "ion"
      ],
      [
        "e",
        "re"
      ],
      [
        "u",
        "s"
      ],
      [
        "Ġ",
        "W"
      ],
      [
        "er",
        "s"
      ],
      [
        "es",
        "t"
      ],
      [
        "a",
        "b"
      ],
      [
        "Ġli",
        "ke"
      ],
      [
        "Ġc",
        "om"
      ],
      [
        "ar",
        "t"
      ],
      [
        "Ġ",
        "("
      ],
      [
        "Ġh",
        "is"
      ],
      [
        "Ġm",
        "e"
      ],
      [
        "Ġin",
        "t"
      ],
      [
        "ver",
        "y"
      ],
      [
        "Ġon",
        "e"
      ],
      [
        "an",
        "t"
      ],
      [
        "Ġd",
        "e"
      ],
      [
        "u",
        "re"
      ],
      [
        "Ġ",
        "D"
      ],
      [
        "Ġmo",
        "vie"
      ],
      [
        "Ġfr",
        "om"
      ],
      [
        "ou",
        "ld"
      ],
      [
        "Ġ",
        "r"
      ],
      [
        "a",
        "nd"
      ],
      [
        "Ġa",
        "re"
      ],
      [
        "o",
        "p"
      ],
      [
        "'",
        "t"
      ],
      [
        "a",
        "in"
      ],
      [
        "i",
        "es"
      ],
      [
        "i",
        "ve"
      ],
      [
        "el",
        "l"
      ],
      [
        "Ġab",
        "out"
      ],
      [
        "Ġ",
        "v"
      ],
      [
        "q",
        "u"
      ],
      [
        "Ġb",
        "y"
      ],
      [
        "Ġm",
        "y"
      ],
      [
        "t",
        "h"
      ],
      [
        "Ġc",
        "on"
      ],
      [
        "Ġ",
        "L"
      ],
      [
        "Ġn",
        "e"
      ],
      [
        "oo",
        "d"
      ],
      [
        "Ġl",
        "o"
      ],
      [
        "p",
        "p"
      ],
      [
        "Ġwh",
        "o"
      ],
      [
        "in",
        "d"
      ],
      [
        "at",
        "e"
      ],
      [
        "ou",
        "gh"
      ],
      [
        "Ġal",
        "l"
      ],
      [
        "Ġs",
        "u"
      ],
      [
        "Ġ",
        "P"
      ],
      [
        "Ġf",
        "e"
      ],
      [
        "Ġs",
        "ome"
      ],
      [
        "Ġp",
        "l"
      ],
      [
        "i",
        "re"
      ],
      [
        "Ġ",
        "F"
      ],
      [
        "Ġha",
        "ve"
      ],
      [
        "as",
        "t"
      ],
      [
        "Ġs",
        "c"
      ],
      [
        "Ġw",
        "at"
      ],
      [
        "ou",
        "s"
      ],
      [
        "Ġw",
        "or"
      ],
      [
        "Ġ",
        "R"
      ],
      [
        "Ġw",
        "he"
      ],
      [
        ".",
        "."
      ],
      [
        "im",
        "e"
      ],
      [
        "Ġj",
        "ust"
      ],
      [
        "Ġa",
        "ct"
      ],
      [
        "Ġo",
        "ut"
      ],
      [
        "i",
        "g"
      ],
      [
        "a",
        "ct"
      ],
      [
        "Ġ",
        "G"
      ],
      [
        "ĠI",
        "t"
      ],
      [
        "ar",
        "d"
      ],
      [
        "or",
        "y"
      ],
      [
        "o",
        "s"
      ],
      [
        "on",
        "g"
      ],
      [
        "Ġmo",
        "re"
      ],
      [
        "i",
        "ght"
      ],
      [
        "Ġu",
        "n"
      ],
      [
        "Ġp",
        "ro"
      ],
      [
        "v",
        "en"
      ],
      [
        "on",
        "e"
      ],
      [
        "al",
        "l"
      ],
      [
        "a",
        "p"
      ],
      [
        "a",
        "ck"
      ],
      [
        "Ġ",
        "J"
      ],
      [
        "a",
        "u"
      ],
      [
        "Ġp",
        "re"
      ],
      [
        "o",
        "re"
      ],
      [
        "ou",
        "nd"
      ],
      [
        "Ġthe",
        "y"
      ],
      [
        "it",
        "e"
      ],
      [
        "Ġ",
        "N"
      ],
      [
        "Ġl",
        "e"
      ],
      [
        "u",
        "d"
      ],
      [
        "Ġu",
        "p"
      ],
      [
        "ic",
        "h"
      ],
      [
        "it",
        "y"
      ],
      [
        "Ġw",
        "e"
      ],
      [
        "re",
        "at"
      ],
      [
        "h",
        "is"
      ],
      [
        "Ġo",
        "r"
      ],
      [
        "f",
        "e"
      ],
      [
        "o",
        "d"
      ],
      [
        "Ġc",
        "an"
      ],
      [
        "Ġt",
        "r"
      ],
      [
        "Ġwat",
        "ch"
      ],
      [
        "Ġre",
        "ally"
      ],
      [
        "Ġhe",
        "r"
      ],
      [
        "Ġg",
        "et"
      ],
      [
        "Ġ",
        "en"
      ],
      [
        "n",
        "t"
      ],
      [
        "Ġh",
        "as"
      ],
      [
        "g",
        "e"
      ],
      [
        "Ġm",
        "an"
      ],
      [
        "Ġit",
        "s"
      ],
      [
        "Ġ",
        "E"
      ],
      [
        "Ġwh",
        "at"
      ],
      [
        "T",
        "he"
      ],
      [
        "a",
        "ke"
      ],
      [
        "id",
        "e"
      ],
      [
        "Ġ",
        "i"
      ],
      [
        "a",
        "re"
      ],
      [
        "h",
        "ing"
      ],
      [
        "Ġa",
        "r"
      ],
      [
        "o",
        "g"
      ],
      [
        "oo",
        "k"
      ],
      [
        "Ġt",
        "ime"
      ],
      [
        "c",
        "i"
      ],
      [
        "it",
        "t"
      ],
      [
        "u",
        "ch"
      ],
      [
        "Ġ",
        "im"
      ],
      [
        "Ġg",
        "ood"
      ],
      [
        "Ġch",
        "ar"
      ],
      [
        "Ġh",
        "ow"
      ],
      [
        "ar",
        "y"
      ],
      [
        "am",
        "e"
      ],
      [
        "ou",
        "r"
      ],
      [
        "p",
        "t"
      ],
      [
        "ab",
        "le"
      ],
      [
        "Ġ",
        "O"
      ],
      [
        "Ġg",
        "o"
      ],
      [
        "Ġthe",
        "re"
      ],
      [
        "Ġint",
        "o"
      ],
      [
        "Ġbe",
        "c"
      ],
      [
        "p",
        "l"
      ],
      [
        "in",
        "e"
      ],
      [
        "Ġ",
        "K"
      ],
      [
        "Ġthe",
        "ir"
      ],
      [
        "p",
        "er"
      ],
      [
        "s",
        "s"
      ],
      [
        "Ġ",
        "very"
      ],
      [
        "Ġ",
        "1"
      ],
      [
        "Ġth",
        "an"
      ],
      [
        "Ġst",
        "ory"
      ],
      [
        "ay",
        "s"
      ],
      [
        "Ġk",
        "n"
      ],
      [
        "Ġm",
        "uch"
      ],
      [
        "ag",
        "e"
      ],
      [
        "ad",
        "e"
      ],
      [
        "Ġn",
        "o"
      ],
      [
        "o",
        "y"
      ],
      [
        "a",
        "c"
      ],
      [
        "Ġp",
        "er"
      ],
      [
        "in",
        "k"
      ],
      [
        "s",
        "o"
      ],
      [
        "ic",
        "k"
      ],
      [
        "Ġan",
        "y"
      ],
      [
        "Ġwhe",
        "n"
      ],
      [
        "Ġ",
        "\""
      ],
      [
        "Ġc",
        "l"
      ],
      [
        "Ġ",
        "qu"
      ],
      [
        "Ġth",
        "r"
      ],
      [
        "i",
        "v"
      ],
      [
        "Ġse",
        "e"
      ],
      [
        "a",
        "v"
      ],
      [
        "Ġfe",
        "el"
      ],
      [
        "âĢ",
        "¦"
      ],
      [
        "e",
        "ar"
      ],
      [
        "ic",
        "e"
      ],
      [
        "Ġwh",
        "ich"
      ],
      [
        "he",
        "d"
      ],
      [
        "Ġmo",
        "st"
      ],
      [
        "Ġw",
        "ould"
      ],
      [
        "ire",
        "ct"
      ],
      [
        "nd",
        "er"
      ],
      [
        "t",
        "her"
      ],
      [
        "r",
        "y"
      ],
      [
        "Ġ",
        "if"
      ],
      [
        "Ġthe",
        "m"
      ],
      [
        "Ġh",
        "ad"
      ],
      [
        "Ġp",
        "e"
      ],
      [
        "t",
        "y"
      ],
      [
        "i",
        "b"
      ],
      [
        "f",
        "f"
      ],
      [
        "Ġwor",
        "k"
      ],
      [
        "o",
        "st"
      ],
      [
        "Ġchar",
        "act"
      ],
      [
        "f",
        "ul"
      ],
      [
        "is",
        "h"
      ],
      [
        "m",
        "ent"
      ],
      [
        "i",
        "ous"
      ],
      [
        "Ġlo",
        "ve"
      ],
      [
        "an",
        "g"
      ],
      [
        "as",
        "s"
      ],
      [
        "Ġe",
        "very"
      ],
      [
        "m",
        "an"
      ],
      [
        "Ġe",
        "ven"
      ],
      [
        "Ġo",
        "ver"
      ],
      [
        "Ġd",
        "id"
      ],
      [
        "en",
        "ce"
      ],
      [
        "ic",
        "al"
      ],
      [
        "Ġbe",
        "t"
      ],
      [
        "au",
        "se"
      ],
      [
        "Ġkn",
        "ow"
      ],
      [
        "il",
        "e"
      ],
      [
        "Ġe",
        "nd"
      ],
      [
        "u",
        "e"
      ],
      [
        "i",
        "an"
      ],
      [
        "n",
        "e"
      ],
      [
        "p",
        "le"
      ],
      [
        "ir",
        "st"
      ],
      [
        "Ġf",
        "un"
      ],
      [
        "Ġa",
        "d"
      ],
      [
        "Ġon",
        "ly"
      ],
      [
        "Ġdo",
        "es"
      ],
      [
        "Ġa",
        "m"
      ],
      [
        "f",
        "or"
      ],
      [
        "e",
        "p"
      ],
      [
        "Ġd",
        "irect"
      ],
      [
        "Ġg",
        "reat"
      ],
      [
        "op",
        "le"
      ],
      [
        "Ġw",
        "ay"
      ],
      [
        "Ġto",
        "o"
      ],
      [
        "Ġm",
        "ade"
      ],
      [
        "Ġ",
        "âĢ"
      ],
      [
        "Ġl",
        "ook"
      ],
      [
        "Ġth",
        "ing"
      ],
      [
        "Ġo",
        "ther"
      ],
      [
        "Ġh",
        "im"
      ],
      [
        "Ġt",
        "w"
      ],
      [
        "Ġs",
        "p"
      ],
      [
        "Ġsh",
        "ort"
      ],
      [
        "om",
        "et"
      ],
      [
        "Ġpe",
        "ople"
      ],
      [
        "i",
        "z"
      ],
      [
        "Ġw",
        "ere"
      ],
      [
        "ow",
        "n"
      ],
      [
        "Ġf",
        "irst"
      ],
      [
        "Ġp",
        "art"
      ],
      [
        "Ġs",
        "he"
      ],
      [
        "in",
        "t"
      ],
      [
        "Ġdo",
        "c"
      ],
      [
        "i",
        "al"
      ],
      [
        "er",
        "t"
      ],
      [
        "at",
        "ed"
      ],
      [
        "Ġbe",
        "ing"
      ],
      [
        "Ġth",
        "ink"
      ],
      [
        "Ġbec",
        "ause"
      ],
      [
        "o",
        "se"
      ],
      [
        "t",
        "e"
      ],
      [
        "el",
        "f"
      ],
      [
        "Ġfilm",
        "s"
      ],
      [
        "a",
        "ce"
      ],
      [
        "Ġb",
        "l"
      ],
      [
        "pe",
        "ct"
      ],
      [
        "Ġu",
        "s"
      ],
      [
        "Ġal",
        "so"
      ],
      [
        "Ġd",
        "is"
      ],
      [
        "itt",
        "le"
      ],
      [
        "Ġw",
        "ell"
      ],
      [
        "Ġof",
        "f"
      ],
      [
        "Ġc",
        "ould"
      ],
      [
        "ak",
        "es"
      ],
      [
        "u",
        "al"
      ],
      [
        "l",
        "l"
      ],
      [
        "Ġ",
        "Y"
      ],
      [
        "Ġbe",
        "en"
      ],
      [
        "Ġhe",
        "re"
      ],
      [
        "Ġ",
        "2"
      ],
      [
        "ot",
        "her"
      ],
      [
        "Ġ",
        "-"
      ],
      [
        "Ġp",
        "o"
      ],
      [
        "um",
        "ent"
      ],
      [
        "ere",
        "st"
      ],
      [
        "r",
        "u"
      ],
      [
        "w",
        "e"
      ],
      [
        "f",
        "ter"
      ],
      [
        "t",
        "ing"
      ],
      [
        "re",
        "d"
      ],
      [
        "Ġsc",
        "en"
      ],
      [
        "Ġy",
        "ear"
      ],
      [
        "re",
        "ss"
      ],
      [
        "Ġl",
        "ittle"
      ],
      [
        "Ġthr",
        "ough"
      ],
      [
        "T",
        "his"
      ],
      [
        "Ġa",
        "g"
      ],
      [
        "h",
        "at"
      ],
      [
        "Ġmo",
        "v"
      ],
      [
        "Ġs",
        "omet"
      ],
      [
        "a",
        "w"
      ],
      [
        "ĠT",
        "his"
      ],
      [
        "o",
        "nd"
      ],
      [
        "ak",
        "ing"
      ],
      [
        "ĠC",
        "h"
      ],
      [
        "Ġre",
        "al"
      ],
      [
        "Ġm",
        "in"
      ],
      [
        "Ġd",
        "on"
      ],
      [
        "u",
        "ally"
      ],
      [
        "Ġsh",
        "ow"
      ],
      [
        "i",
        "p"
      ],
      [
        "Ġm",
        "ake"
      ],
      [
        "c",
        "es"
      ],
      [
        "an",
        "s"
      ],
      [
        "ic",
        "t"
      ],
      [
        "ut",
        "e"
      ],
      [
        "u",
        "ck"
      ],
      [
        "Ġli",
        "fe"
      ],
      [
        "g",
        "et"
      ],
      [
        "Ġg",
        "u"
      ],
      [
        "ct",
        "ion"
      ],
      [
        "Ġt",
        "e"
      ],
      [
        "il",
        "d"
      ],
      [
        "ar",
        "k"
      ],
      [
        "Ġb",
        "r"
      ],
      [
        "Ġwhe",
        "re"
      ],
      [
        "an",
        "ce"
      ],
      [
        "h",
        "y"
      ],
      [
        "âĢ",
        "Ŀ"
      ],
      [
        "en",
        "s"
      ],
      [
        "o",
        "b"
      ],
      [
        "r",
        "am"
      ],
      [
        "Ġ",
        "V"
      ],
      [
        "Ġint",
        "erest"
      ],
      [
        "Ġ",
        "ent"
      ],
      [
        "t",
        "ty"
      ],
      [
        "i",
        "a"
      ],
      [
        "c",
        "c"
      ],
      [
        "..",
        "."
      ],
      [
        "Ġd",
        "es"
      ],
      [
        "Ġdoc",
        "ument"
      ],
      [
        "Ġst",
        "ill"
      ],
      [
        "s",
        "h"
      ],
      [
        "Ġ",
        "ra"
      ],
      [
        "n",
        "y"
      ],
      [
        "Ġf",
        "l"
      ],
      [
        "Ġ",
        "ro"
      ],
      [
        "ul",
        "t"
      ],
      [
        "at",
        "ing"
      ],
      [
        "Ġl",
        "ot"
      ],
      [
        "Ġp",
        "r"
      ],
      [
        "vie",
        "w"
      ],
      [
        "Ġs",
        "er"
      ],
      [
        "b",
        "e"
      ],
      [
        "Ġb",
        "ack"
      ],
      [
        "c",
        "hed"
      ],
      [
        "Ġs",
        "l"
      ],
      [
        "Ġg",
        "r"
      ],
      [
        "Ġw",
        "ant"
      ],
      [
        "i",
        "ly"
      ],
      [
        "a",
        "ch"
      ],
      [
        "r",
        "it"
      ],
      [
        "ur",
        "n"
      ],
      [
        "ol",
        "l"
      ],
      [
        "n",
        "g"
      ],
      [
        "is",
        "e"
      ],
      [
        "Ġpl",
        "ay"
      ],
      [
        "Ġre",
        "m"
      ],
      [
        "Ġb",
        "it"
      ],
      [
        "Ġc",
        "o"
      ],
      [
        "m",
        "er"
      ],
      [
        "Ġse",
        "en"
      ],
      [
        "th",
        "ing"
      ],
      [
        "ar",
        "r"
      ],
      [
        "Ġne",
        "ver"
      ],
      [
        "Ġsomet",
        "hing"
      ],
      [
        "o",
        "c"
      ],
      [
        "Ġa",
        "fter"
      ],
      [
        "ar",
        "ly"
      ],
      [
        "Ġu",
        "nder"
      ],
      [
        "w",
        "n"
      ],
      [
        "fe",
        "ct"
      ],
      [
        "Ġyou",
        "r"
      ],
      [
        "Ġtw",
        "o"
      ],
      [
        "v",
        "ed"
      ],
      [
        "v",
        "es"
      ],
      [
        "in",
        "em"
      ],
      [
        "v",
        "ing"
      ],
      [
        "Ġw",
        "ill"
      ],
      [
        "Ġpre",
        "tty"
      ],
      [
        "or",
        "s"
      ],
      [
        "d",
        "u"
      ],
      [
        "Ġg",
        "en"
      ],
      [
        "Ġim",
        "p"
      ],
      [
        "'",
        "m"
      ],
      [
        "Ġin",
        "c"
      ],
      [
        "ver",
        "s"
      ],
      [
        "'",
        "ve"
      ],
      [
        "ion",
        "s"
      ],
      [
        "Ġb",
        "ad"
      ],
      [
        "Ġk",
        "ind"
      ],
      [
        "ol",
        "d"
      ],
      [
        "Ġthe",
        "n"
      ],
      [
        "Ġh",
        "or"
      ],
      [
        "Ġ1",
        "9"
      ],
      [
        "Ġthe",
        "se"
      ],
      [
        "Ġ",
        "ri"
      ],
      [
        "ĠS",
        "t"
      ],
      [
        "Ġt",
        "al"
      ],
      [
        "Ġs",
        "ur"
      ],
      [
        "Ġs",
        "pe"
      ],
      [
        "Ġe",
        "ver"
      ],
      [
        "a",
        "z"
      ],
      [
        "Ġdocument",
        "ary"
      ],
      [
        "Ġmov",
        "ies"
      ],
      [
        "ul",
        "l"
      ],
      [
        "Ġb",
        "est"
      ],
      [
        "Ġs",
        "ay"
      ],
      [
        "Ġwh",
        "ile"
      ],
      [
        "Ġw",
        "om"
      ],
      [
        "Ġt",
        "ra"
      ],
      [
        "Ġde",
        "c"
      ],
      [
        "Ġa",
        "w"
      ],
      [
        "a",
        "ut"
      ],
      [
        "ent",
        "s"
      ],
      [
        "ve",
        "l"
      ],
      [
        "Ġre",
        "c"
      ],
      [
        "b",
        "le"
      ],
      [
        "Ġe",
        "m"
      ],
      [
        "ð",
        "Ł"
      ],
      [
        "re",
        "e"
      ],
      [
        "Ġm",
        "us"
      ],
      [
        "ĠâĢ",
        "ľ"
      ],
      [
        "Ġs",
        "et"
      ],
      [
        "b",
        "er"
      ],
      [
        "Ġg",
        "ot"
      ],
      [
        "im",
        "es"
      ],
      [
        "t",
        "he"
      ],
      [
        "Ġc",
        "inem"
      ],
      [
        "!",
        "!"
      ],
      [
        "at",
        "ure"
      ],
      [
        "Ġsu",
        "b"
      ],
      [
        "Ġse",
        "em"
      ],
      [
        "ou",
        "ght"
      ],
      [
        "Ġl",
        "ong"
      ],
      [
        "ĠA",
        "nd"
      ],
      [
        "Ġper",
        "for"
      ],
      [
        "Ġwatch",
        "ing"
      ],
      [
        "o",
        "ot"
      ],
      [
        "ra",
        "p"
      ],
      [
        "Ġ",
        "U"
      ],
      [
        "Ġcharact",
        "er"
      ],
      [
        "Ġinterest",
        "ing"
      ],
      [
        "at",
        "h"
      ],
      [
        "y",
        "ing"
      ],
      [
        "f",
        "ore"
      ],
      [
        "Ġcom",
        "p"
      ],
      [
        "Ġcom",
        "ed"
      ],
      [
        "Ġman",
        "y"
      ],
      [
        ")",
        "."
      ],
      [
        "ab",
        "ly"
      ],
      [
        "Ġf",
        "ind"
      ],
      [
        "Ġbet",
        "ter"
      ],
      [
        "r",
        "or"
      ],
      [
        "g",
        "in"
      ],
      [
        "Ġf",
        "am"
      ],
      [
        "if",
        "f"
      ],
      [
        "as",
        "e"
      ],
      [
        "ĠB",
        "ut"
      ],
      [
        "at",
        "ive"
      ],
      [
        "Ġcon",
        "t"
      ],
      [
        "at",
        "her"
      ],
      [
        "l",
        "es"
      ],
      [
        "Ġp",
        "ers"
      ],
      [
        "i",
        "gh"
      ],
      [
        "e",
        "ct"
      ],
      [
        "n",
        "ing"
      ],
      [
        "Ġcharact",
        "ers"
      ],
      [
        "Ġgo",
        "ing"
      ],
      [
        "Ġar",
        "t"
      ],
      [
        "Ġc",
        "r"
      ],
      [
        "Ġc",
        "ou"
      ],
      [
        "Ġre",
        "l"
      ],
      [
        "is",
        "m"
      ],
      [
        "w",
        "ays"
      ],
      [
        "ert",
        "ain"
      ],
      [
        "ie",
        "nd"
      ],
      [
        "Ġdid",
        "n"
      ],
      [
        "Ġm",
        "om"
      ],
      [
        "Ġha",
        "pp"
      ],
      [
        "re",
        "en"
      ],
      [
        "en",
        "se"
      ],
      [
        "ar",
        "s"
      ],
      [
        "a",
        "il"
      ],
      [
        "u",
        "b"
      ],
      [
        "ic",
        "ally"
      ],
      [
        "j",
        "oy"
      ],
      [
        "Ġth",
        "ough"
      ],
      [
        "Ġwor",
        "ld"
      ],
      [
        "Ġin",
        "s"
      ],
      [
        "d",
        "er"
      ],
      [
        "Ġyear",
        "s"
      ],
      [
        ")",
        ","
      ],
      [
        "Ġdoes",
        "n"
      ],
      [
        "Ġf",
        "in"
      ],
      [
        "Ġre",
        "s"
      ],
      [
        "Ġn",
        "ow"
      ],
      [
        "Ġst",
        "art"
      ],
      [
        "ig",
        "n"
      ],
      [
        "Ġsh",
        "ot"
      ],
      [
        "Ġ2",
        "0"
      ],
      [
        "Ġbe",
        "fore"
      ],
      [
        "Ġar",
        "ound"
      ],
      [
        "ci",
        "al"
      ],
      [
        "Ġbe",
        "aut"
      ],
      [
        "is",
        "s"
      ],
      [
        "we",
        "en"
      ],
      [
        "Ġag",
        "ain"
      ],
      [
        "f",
        "t"
      ],
      [
        "Ġin",
        "ter"
      ],
      [
        "Ġen",
        "joy"
      ],
      [
        "s",
        "elf"
      ],
      [
        "ut",
        "es"
      ],
      [
        "l",
        "ess"
      ],
      [
        "if",
        "ul"
      ],
      [
        "Ġpl",
        "ot"
      ],
      [
        "Ġo",
        "ld"
      ],
      [
        "Ġs",
        "m"
      ],
      [
        "ir",
        "l"
      ],
      [
        "Ġth",
        "ose"
      ],
      [
        "Ġm",
        "akes"
      ],
      [
        "n",
        "ess"
      ],
      [
        "Ġh",
        "um"
      ],
      [
        "on",
        "s"
      ],
      [
        "Ġo",
        "wn"
      ],
      [
        "Ġc",
        "he"
      ],
      [
        "ot",
        "h"
      ],
      [
        "Ġne",
        "w"
      ],
      [
        "er",
        "y"
      ],
      [
        "Ġsu",
        "ch"
      ],
      [
        "Ġs",
        "ame"
      ],
      [
        "Ġo",
        "b"
      ],
      [
        "at",
        "er"
      ],
      [
        "Ġperfor",
        "man"
      ],
      [
        "m",
        "e"
      ],
      [
        "Ġd",
        "iff"
      ],
      [
        "Ġd",
        "own"
      ],
      [
        "l",
        "i"
      ],
      [
        "Ġne",
        "ed"
      ],
      [
        "k",
        "ing"
      ],
      [
        "Ġact",
        "ually"
      ],
      [
        "Ġbet",
        "ween"
      ],
      [
        "Ġal",
        "ways"
      ],
      [
        "ir",
        "d"
      ],
      [
        "ĠI",
        "n"
      ],
      [
        "Ġwat",
        "ched"
      ],
      [
        "ation",
        "s"
      ],
      [
        "Ġ",
        "ke"
      ],
      [
        "i",
        "ence"
      ],
      [
        "u",
        "p"
      ],
      [
        "Ġat",
        "t"
      ],
      [
        "Ġs",
        "im"
      ],
      [
        "Ġpo",
        "int"
      ],
      [
        "Ġst",
        "r"
      ],
      [
        "Ġmin",
        "utes"
      ],
      [
        "g",
        "g"
      ],
      [
        "Ġdirect",
        "or"
      ],
      [
        "Ġa",
        "pp"
      ],
      [
        "a",
        "ir"
      ],
      [
        "a",
        "ve"
      ],
      [
        "Ġd",
        "ram"
      ],
      [
        "ĠThe",
        "re"
      ],
      [
        "Ġen",
        "ough"
      ],
      [
        "Ġex",
        "per"
      ],
      [
        "Ġm",
        "ay"
      ],
      [
        "Ġgu",
        "y"
      ],
      [
        "Ġthing",
        "s"
      ],
      [
        "I",
        "t"
      ],
      [
        "ib",
        "le"
      ],
      [
        "o",
        "ck"
      ],
      [
        "Ġpers",
        "on"
      ],
      [
        "re",
        "n"
      ],
      [
        "w",
        "ard"
      ],
      [
        "j",
        "ect"
      ],
      [
        "og",
        "rap"
      ],
      [
        "Ġqu",
        "ite"
      ],
      [
        "Ġcomed",
        "y"
      ],
      [
        "x",
        "t"
      ],
      [
        "ĠH",
        "e"
      ],
      [
        "k",
        "s"
      ],
      [
        "a",
        "h"
      ],
      [
        "Ġpro",
        "du"
      ],
      [
        "Ġt",
        "er"
      ],
      [
        "l",
        "ing"
      ],
      [
        "ĠA",
        "l"
      ],
      [
        "Ġmus",
        "ic"
      ],
      [
        "ur",
        "ing"
      ],
      [
        "p",
        "r"
      ],
      [
        "Ġt",
        "ri"
      ],
      [
        "c",
        "ed"
      ],
      [
        "it",
        "s"
      ],
      [
        "e",
        "w"
      ],
      [
        "he",
        "re"
      ],
      [
        "Ġex",
        "pl"
      ],
      [
        "Ġs",
        "ound"
      ],
      [
        "Ġfeel",
        "s"
      ],
      [
        "Ġfe",
        "w"
      ],
      [
        "or",
        "d"
      ],
      [
        "ate",
        "ly"
      ],
      [
        "Ġth",
        "ought"
      ],
      [
        "Ġin",
        "v"
      ],
      [
        "Ġbeaut",
        "iful"
      ],
      [
        "Ġe",
        "v"
      ],
      [
        "ce",
        "pt"
      ],
      [
        "Ġri",
        "ght"
      ],
      [
        "Ġw",
        "r"
      ],
      [
        "re",
        "am"
      ],
      [
        "os",
        "s"
      ],
      [
        "ap",
        "t"
      ],
      [
        "el",
        "t"
      ],
      [
        "Ġ",
        "&"
      ],
      [
        "Â",
        "ł"
      ],
      [
        "Ġsh",
        "ould"
      ],
      [
        "he",
        "s"
      ],
      [
        "as",
        "h"
      ],
      [
        "Ġh",
        "ard"
      ],
      [
        "Ġin",
        "d"
      ],
      [
        "Ġt",
        "urn"
      ],
      [
        "Ġan",
        "im"
      ],
      [
        "f",
        "in"
      ],
      [
        "ion",
        "al"
      ],
      [
        "Ġb",
        "ig"
      ],
      [
        "k",
        "ed"
      ],
      [
        "Ġse",
        "c"
      ],
      [
        "Ġhor",
        "ror"
      ],
      [
        "o",
        "h"
      ],
      [
        "Ġle",
        "ad"
      ],
      [
        "Ġscen",
        "e"
      ],
      [
        "er",
        "a"
      ],
      [
        "Ġf",
        "uck"
      ],
      [
        "Ġc",
        "ol"
      ],
      [
        "Ġv",
        "is"
      ],
      [
        "Ġ",
        "es"
      ],
      [
        "m",
        "ost"
      ],
      [
        "Ġ",
        "ide"
      ],
      [
        "ing",
        "s"
      ],
      [
        "he",
        "n"
      ],
      [
        "al",
        "e"
      ],
      [
        "Ġfr",
        "iend"
      ],
      [
        "Ġ",
        "'"
      ],
      [
        "ĠS",
        "h"
      ],
      [
        "al",
        "f"
      ],
      [
        "Ġse",
        "x"
      ],
      [
        "Ġc",
        "ast"
      ],
      [
        "'",
        "re"
      ],
      [
        "Ġb",
        "as"
      ],
      [
        "Ġscen",
        "es"
      ],
      [
        "Ġc",
        "am"
      ],
      [
        "Ġab",
        "s"
      ],
      [
        "Ġwh",
        "y"
      ],
      [
        "Ġl",
        "ast"
      ],
      [
        "Ġcom",
        "ple"
      ],
      [
        "Ġb",
        "oth"
      ],
      [
        "Ġa",
        "p"
      ],
      [
        "u",
        "ff"
      ],
      [
        "Ġyou",
        "ng"
      ],
      [
        "Ġg",
        "irl"
      ],
      [
        "f",
        "fect"
      ],
      [
        "Ġk",
        "ill"
      ],
      [
        "Ġdiff",
        "ere"
      ],
      [
        "Ġt",
        "ell"
      ],
      [
        "Ġr",
        "un"
      ],
      [
        "Ġk",
        "id"
      ],
      [
        "n",
        "a"
      ],
      [
        "Ġh",
        "igh"
      ],
      [
        "Ġa",
        "cc"
      ],
      [
        "Ġf",
        "ar"
      ],
      [
        "Ġact",
        "ion"
      ],
      [
        "Ġt",
        "ake"
      ],
      [
        "Ġex",
        "pect"
      ],
      [
        "Ġsc",
        "reen"
      ],
      [
        "Ġget",
        "s"
      ],
      [
        "at",
        "ch"
      ],
      [
        "ere",
        "d"
      ],
      [
        "Ġser",
        "ies"
      ],
      [
        "Ġbe",
        "l"
      ],
      [
        "Ġt",
        "imes"
      ],
      [
        "Ġ",
        "3"
      ],
      [
        "Ġwho",
        "le"
      ],
      [
        "Ġ",
        "ed"
      ],
      [
        "Ġn",
        "arr"
      ],
      [
        "au",
        "gh"
      ],
      [
        "Ġch",
        "ild"
      ],
      [
        "e",
        "ad"
      ],
      [
        "Ġfe",
        "ature"
      ],
      [
        "Ġo",
        "ur"
      ],
      [
        "in",
        "ce"
      ],
      [
        "Ġis",
        "n"
      ],
      [
        "Ġs",
        "a"
      ],
      [
        "Ġf",
        "av"
      ],
      [
        "Ġc",
        "are"
      ],
      [
        "at",
        "ic"
      ],
      [
        "Ġp",
        "ut"
      ],
      [
        "Ġcon",
        "s"
      ],
      [
        "Ġp",
        "ol"
      ],
      [
        "Ġan",
        "other"
      ],
      [
        "Ġfun",
        "ny"
      ],
      [
        "Ġg",
        "l"
      ],
      [
        "Ġh",
        "alf"
      ],
      [
        "Ġd",
        "el"
      ],
      [
        "s",
        "c"
      ],
      [
        "Ġs",
        "ure"
      ],
      [
        "an",
        "e"
      ],
      [
        "l",
        "ed"
      ],
      [
        "e",
        "c"
      ],
      [
        "e",
        "ver"
      ],
      [
        "Ġin",
        "st"
      ],
      [
        "Ġh",
        "ist"
      ],
      [
        "ing",
        "ly"
      ],
      [
        "Ġm",
        "aking"
      ],
      [
        "ĠY",
        "ou"
      ],
      [
        "Ġcl",
        "ass"
      ],
      [
        "b",
        "ably"
      ],
      [
        "Ġha",
        "nd"
      ],
      [
        "o",
        "x"
      ],
      [
        "Ġfam",
        "ily"
      ],
      [
        "Ġst",
        "y"
      ],
      [
        "o",
        "ol"
      ],
      [
        "ter",
        "n"
      ],
      [
        "Ġex",
        "c"
      ],
      [
        "Ġf",
        "ound"
      ],
      [
        "i",
        "o"
      ],
      [
        "ci",
        "ally"
      ],
      [
        "Ġnot",
        "hing"
      ],
      [
        "Ġpre",
        "s"
      ],
      [
        "od",
        "y"
      ],
      [
        "Ġc",
        "le"
      ],
      [
        "Ġf",
        "elt"
      ],
      [
        "Ġd",
        "ay"
      ],
      [
        "Ġwom",
        "an"
      ],
      [
        "Ġany",
        "thing"
      ],
      [
        "ow",
        "er"
      ],
      [
        "ou",
        "se"
      ],
      [
        "Ġhe",
        "l"
      ],
      [
        "Ġdiffere",
        "nt"
      ],
      [
        "on",
        "t"
      ],
      [
        "n",
        "er"
      ],
      [
        "ad",
        "y"
      ],
      [
        "Ġact",
        "ing"
      ],
      [
        "oll",
        "ow"
      ],
      [
        "Ġim",
        "ag"
      ],
      [
        "0",
        "0"
      ],
      [
        "it",
        "ion"
      ],
      [
        "Ġal",
        "most"
      ],
      [
        "Ġm",
        "ain"
      ],
      [
        "o",
        "k"
      ],
      [
        "as",
        "on"
      ],
      [
        "Ġo",
        "p"
      ],
      [
        "Ġdram",
        "a"
      ],
      [
        "i",
        "x"
      ],
      [
        "Ġhe",
        "art"
      ],
      [
        "ic",
        "ul"
      ],
      [
        "it",
        "ing"
      ],
      [
        "Ġcom",
        "m"
      ],
      [
        "Ġcinem",
        "a"
      ],
      [
        "ic",
        "s"
      ],
      [
        "an",
        "ge"
      ],
      [
        "Ġwith",
        "out"
      ],
      [
        "Ġle",
        "ast"
      ],
      [
        "ic",
        "an"
      ],
      [
        "ol",
        "ute"
      ],
      [
        "t",
        "en"
      ],
      [
        "qu",
        "e"
      ],
      [
        "Ġl",
        "et"
      ],
      [
        "Ġw",
        "ar"
      ],
      [
        "pe",
        "cially"
      ],
      [
        "Ġe",
        "ffect"
      ],
      [
        "ĠT",
        "h"
      ],
      [
        "c",
        "o"
      ],
      [
        "p",
        "h"
      ],
      [
        "ie",
        "ce"
      ],
      [
        "Ġc",
        "reat"
      ],
      [
        "at",
        "es"
      ],
      [
        "m",
        "ing"
      ],
      [
        "Ġex",
        "t"
      ],
      [
        "Ġn",
        "ice"
      ],
      [
        "Ġf",
        "oot"
      ],
      [
        "ort",
        "h"
      ],
      [
        "Ġt",
        "it"
      ],
      [
        "Ġm",
        "ight"
      ],
      [
        "Ġc",
        "all"
      ],
      [
        "an",
        "k"
      ],
      [
        "Ġy",
        "et"
      ],
      [
        "Ġtr",
        "ying"
      ],
      [
        "fin",
        "ite"
      ],
      [
        "ograp",
        "hy"
      ],
      [
        "Ġe",
        "p"
      ],
      [
        "Ġl",
        "ess"
      ],
      [
        "Ġpl",
        "ace"
      ],
      [
        "it",
        "ed"
      ],
      [
        "ist",
        "s"
      ],
      [
        "Ġfilm",
        "m"
      ],
      [
        "sh",
        "ip"
      ],
      [
        "Ġf",
        "act"
      ],
      [
        "d",
        "ay"
      ],
      [
        "Ġ",
        "ðŁ"
      ],
      [
        "Ġevery",
        "thing"
      ],
      [
        "ud",
        "get"
      ],
      [
        "ol",
        "og"
      ],
      [
        "Ġto",
        "get"
      ],
      [
        "Ġtoget",
        "her"
      ],
      [
        "ure",
        "s"
      ],
      [
        "Ġhel",
        "p"
      ],
      [
        "Ġsec",
        "ond"
      ],
      [
        "Ġsur",
        "pr"
      ],
      [
        "Ġde",
        "p"
      ],
      [
        "r",
        "ist"
      ],
      [
        "i",
        "k"
      ],
      [
        "Ġm",
        "em"
      ],
      [
        "Ġf",
        "ollow"
      ],
      [
        "Ġst",
        "and"
      ],
      [
        "Ġ",
        "view"
      ],
      [
        "Ġas",
        "s"
      ],
      [
        "Ġe",
        "l"
      ],
      [
        "Ġent",
        "ire"
      ],
      [
        "ou",
        "nt"
      ],
      [
        "Ġpro",
        "bably"
      ],
      [
        "Ġs",
        "ing"
      ],
      [
        "Ġe",
        "arly"
      ],
      [
        "u",
        "es"
      ],
      [
        "H",
        "E"
      ],
      [
        "st",
        "and"
      ],
      [
        "en",
        "ing"
      ],
      [
        "Ġb",
        "u"
      ],
      [
        "Ġc",
        "ome"
      ],
      [
        "Ġseem",
        "s"
      ],
      [
        "iv",
        "es"
      ],
      [
        "if",
        "e"
      ],
      [
        "finite",
        "ly"
      ],
      [
        "Ġcon",
        "f"
      ],
      [
        "or",
        "ies"
      ],
      [
        "as",
        "ter"
      ],
      [
        "al",
        "ity"
      ],
      [
        "ĠA",
        "mer"
      ],
      [
        "Ġc",
        "ra"
      ],
      [
        "al",
        "s"
      ],
      [
        "in",
        "s"
      ],
      [
        "Ġr",
        "om"
      ],
      [
        "Ġwas",
        "n"
      ],
      [
        "e",
        "e"
      ],
      [
        "e",
        "x"
      ],
      [
        "Ġke",
        "ep"
      ],
      [
        "y",
        "n"
      ],
      [
        "o",
        "nder"
      ],
      [
        "Ġc",
        "re"
      ],
      [
        "in",
        "es"
      ],
      [
        "Ġs",
        "ince"
      ],
      [
        "ar",
        "n"
      ],
      [
        "Ġad",
        "d"
      ],
      [
        "Ġe",
        "le"
      ],
      [
        "ĠF",
        "r"
      ],
      [
        "f",
        "ort"
      ],
      [
        "or",
        "n"
      ],
      [
        "le",
        "as"
      ],
      [
        "Ġtr",
        "ans"
      ],
      [
        "ro",
        "ss"
      ],
      [
        "Ġfor",
        "m"
      ],
      [
        "ist",
        "ic"
      ],
      [
        "Ġem",
        "ot"
      ],
      [
        "Ġco",
        "ol"
      ],
      [
        "oh",
        "n"
      ],
      [
        "c",
        "om"
      ],
      [
        "Ġwom",
        "en"
      ],
      [
        "v",
        "ious"
      ],
      [
        "Ġe",
        "ach"
      ],
      [
        "Ġm",
        "on"
      ],
      [
        "ĠN",
        "ot"
      ],
      [
        "ri",
        "gin"
      ],
      [
        "Ġsu",
        "per"
      ],
      [
        "?",
        "?"
      ],
      [
        "Ġme",
        "an"
      ],
      [
        "ĠW",
        "h"
      ],
      [
        "um",
        "b"
      ],
      [
        "Ġs",
        "ense"
      ],
      [
        "Ġ",
        "vers"
      ],
      [
        "A",
        "n"
      ],
      [
        "Ġmom",
        "ents"
      ],
      [
        "Ġa",
        "c"
      ],
      [
        "s",
        "y"
      ],
      [
        "Ġst",
        "ar"
      ],
      [
        "Ġf",
        "ull"
      ],
      [
        "re",
        "t"
      ],
      [
        "Ġha",
        "ving"
      ],
      [
        "Ġsome",
        "one"
      ],
      [
        "'",
        "d"
      ],
      [
        "i",
        "ed"
      ],
      [
        "Ġg",
        "ive"
      ],
      [
        "Ġp",
        "h"
      ],
      [
        "ĠS",
        "o"
      ],
      [
        "er",
        "ing"
      ],
      [
        "Ġsu",
        "pp"
      ],
      [
        "Ġcomple",
        "te"
      ],
      [
        "Ġh",
        "our"
      ],
      [
        "ĠB",
        "l"
      ],
      [
        "Ġse",
        "qu"
      ],
      [
        "Ġn",
        "ight"
      ],
      [
        "Ġre",
        "f"
      ],
      [
        "Ġes",
        "pecially"
      ],
      [
        "ent",
        "ion"
      ],
      [
        "Ġabs",
        "olute"
      ],
      [
        "Ġent",
        "ertain"
      ],
      [
        "Ġt",
        "akes"
      ],
      [
        "Ġd",
        "uring"
      ],
      [
        "Ġs",
        "il"
      ],
      [
        "Ġwe",
        "ird"
      ],
      [
        "i",
        "er"
      ],
      [
        ".",
        "\""
      ],
      [
        "Ġbel",
        "ie"
      ],
      [
        "d",
        "d"
      ],
      [
        "Ġli",
        "ght"
      ],
      [
        "Ġo",
        "rigin"
      ],
      [
        "Ġr",
        "ather"
      ],
      [
        "Ġw",
        "rit"
      ],
      [
        "re",
        "s"
      ],
      [
        "Ġl",
        "ow"
      ],
      [
        "Ġsh",
        "it"
      ],
      [
        "Ġst",
        "uff"
      ],
      [
        "id",
        "ent"
      ],
      [
        "Ġs",
        "k"
      ],
      [
        "Ġperforman",
        "ce"
      ],
      [
        "Ġa",
        "ud"
      ],
      [
        "on",
        "est"
      ],
      [
        "ur",
        "al"
      ],
      [
        "ĠA",
        "n"
      ],
      [
        "un",
        "g"
      ],
      [
        "Ġc",
        "ar"
      ],
      [
        "ill",
        "er"
      ],
      [
        "Ġs",
        "ol"
      ],
      [
        "Ġm",
        "en"
      ],
      [
        "Ġs",
        "ch"
      ],
      [
        "oc",
        "us"
      ],
      [
        "Ġhe",
        "ad"
      ],
      [
        "o",
        "pe"
      ],
      [
        "Ġaw",
        "ay"
      ],
      [
        "Ġsty",
        "le"
      ],
      [
        "o",
        "ve"
      ],
      [
        "Ġs",
        "ong"
      ],
      [
        "Ġper",
        "fect"
      ],
      [
        "b",
        "ut"
      ],
      [
        "ne",
        "y"
      ],
      [
        "a",
        "pp"
      ],
      [
        "ĠT",
        "hat"
      ],
      [
        "Ġst",
        "ud"
      ],
      [
        "st",
        "er"
      ],
      [
        "Ġd",
        "ist"
      ],
      [
        "an",
        "c"
      ],
      [
        "l",
        "ud"
      ],
      [
        "ire",
        "d"
      ],
      [
        "Ġw",
        "onder"
      ],
      [
        "ment",
        "s"
      ],
      [
        "Ġ",
        "5"
      ],
      [
        "ĠR",
        "e"
      ],
      [
        "ĠD",
        "e"
      ],
      [
        "or",
        "ing"
      ],
      [
        "Ġgen",
        "er"
      ],
      [
        "Ġd",
        "one"
      ],
      [
        "id",
        "d"
      ],
      [
        "Ġfav",
        "or"
      ],
      [
        "Ġst",
        "ru"
      ],
      [
        "Ġe",
        "y"
      ],
      [
        "il",
        "ar"
      ],
      [
        "i",
        "et"
      ],
      [
        "at",
        "ter"
      ],
      [
        "Ġre",
        "view"
      ],
      [
        "Ġre",
        "p"
      ],
      [
        "Ġfoot",
        "age"
      ],
      [
        "Ġd",
        "et"
      ],
      [
        "Ġli",
        "ve"
      ],
      [
        "am",
        "es"
      ],
      [
        "Ġhist",
        "ory"
      ],
      [
        "ri",
        "pt"
      ],
      [
        "Ġsa",
        "id"
      ],
      [
        "Ġide",
        "a"
      ],
      [
        "it",
        "er"
      ],
      [
        "as",
        "c"
      ],
      [
        "âĢ",
        "Ķ"
      ],
      [
        "Ġh",
        "ome"
      ],
      [
        "Ġf",
        "ight"
      ],
      [
        "Ġend",
        "ing"
      ],
      [
        "Ġprodu",
        "ction"
      ],
      [
        "y",
        "p"
      ],
      [
        "Ġgo",
        "es"
      ],
      [
        "Ġun",
        "t"
      ],
      [
        "Ġget",
        "ting"
      ],
      [
        "Ġm",
        "ar"
      ],
      [
        "s",
        "on"
      ],
      [
        "Ġhum",
        "an"
      ],
      [
        "Ġg",
        "ra"
      ],
      [
        "m",
        "s"
      ],
      [
        "Ġunder",
        "stand"
      ],
      [
        "Ġre",
        "st"
      ],
      [
        "E",
        "R"
      ],
      [
        "Ġ",
        "9"
      ],
      [
        "f",
        "r"
      ],
      [
        "Ġb",
        "oy"
      ],
      [
        "Ġlo",
        "ved"
      ],
      [
        "Ġcom",
        "es"
      ],
      [
        "I",
        "N"
      ],
      [
        "Ġth",
        "ree"
      ],
      [
        "Ġevery",
        "one"
      ],
      [
        "Ġf",
        "ocus"
      ],
      [
        "Ġc",
        "ult"
      ],
      [
        "Ġc",
        "our"
      ],
      [
        "g",
        "r"
      ],
      [
        "Ġex",
        "p"
      ],
      [
        "are",
        "nt"
      ],
      [
        "Ġlook",
        "s"
      ],
      [
        "Ġbe",
        "h"
      ],
      [
        "Ġap",
        "pe"
      ],
      [
        "Ġb",
        "udget"
      ],
      [
        "1",
        "9"
      ],
      [
        "Ġ",
        "4"
      ],
      [
        "Ġp",
        "ost"
      ],
      [
        "m",
        "ed"
      ],
      [
        "Ġs",
        "w"
      ],
      [
        "ĠA",
        "s"
      ],
      [
        "Ġp",
        "ass"
      ],
      [
        "Ġp",
        "ower"
      ],
      [
        "Ġdo",
        "ing"
      ],
      [
        "Ġd",
        "ial"
      ],
      [
        "Ġcou",
        "nt"
      ],
      [
        "Ġc",
        "ertain"
      ],
      [
        "Ġvers",
        "ion"
      ],
      [
        "i",
        "en"
      ],
      [
        "Ġsurpr",
        "is"
      ],
      [
        "Ġexper",
        "ience"
      ],
      [
        "Ġm",
        "ur"
      ],
      [
        "Ġm",
        "ed"
      ],
      [
        "Ġde",
        "finitely"
      ],
      [
        "Ġspe",
        "cial"
      ],
      [
        "Ġits",
        "elf"
      ],
      [
        "en",
        "g"
      ],
      [
        "ap",
        "s"
      ],
      [
        "Ġre",
        "ad"
      ],
      [
        "at",
        "t"
      ],
      [
        "Ġm",
        "iss"
      ],
      [
        "Ġact",
        "ors"
      ],
      [
        "w",
        "h"
      ],
      [
        "Ġm",
        "ind"
      ],
      [
        "un",
        "t"
      ],
      [
        "i",
        "ke"
      ],
      [
        "Ġp",
        "ort"
      ],
      [
        "Ġter",
        "ri"
      ],
      [
        "Ġv",
        "ide"
      ],
      [
        "ra",
        "ct"
      ],
      [
        "Ġlo",
        "c"
      ],
      [
        "Ġlook",
        "ing"
      ],
      [
        "m",
        "y"
      ],
      [
        "Ġinc",
        "red"
      ],
      [
        "ful",
        "ly"
      ],
      [
        "l",
        "and"
      ],
      [
        "v",
        "ent"
      ],
      [
        "ĠW",
        "e"
      ],
      [
        "it",
        "ies"
      ],
      [
        "Ġf",
        "all"
      ],
      [
        "ĠJ",
        "ohn"
      ],
      [
        "ĠM",
        "ar"
      ],
      [
        "is",
        "od"
      ],
      [
        "iz",
        "ed"
      ],
      [
        "Ġg",
        "i"
      ],
      [
        "o",
        "ice"
      ],
      [
        "c",
        "ess"
      ],
      [
        "em",
        "pt"
      ],
      [
        "Ġd",
        "ra"
      ],
      [
        "Ġli",
        "ked"
      ],
      [
        "Ġw",
        "orth"
      ],
      [
        "Ġc",
        "ame"
      ],
      [
        "Ġto",
        "p"
      ],
      [
        "Ġ",
        "8"
      ],
      [
        "Ġcam",
        "era"
      ],
      [
        "Ġsm",
        "all"
      ],
      [
        "Ġm",
        "ess"
      ],
      [
        "re",
        "ak"
      ],
      [
        "Ġe",
        "as"
      ],
      [
        "Ġcou",
        "ple"
      ],
      [
        "an",
        "n"
      ],
      [
        "Ġon",
        "ce"
      ],
      [
        "Ġre",
        "t"
      ],
      [
        "ib",
        "ly"
      ],
      [
        "Ġperforman",
        "ces"
      ],
      [
        "ent",
        "ly"
      ],
      [
        "u",
        "g"
      ],
      [
        "Ġtit",
        "le"
      ],
      [
        "Ġnarr",
        "ative"
      ],
      [
        "Ġs",
        "ad"
      ],
      [
        "ĠS",
        "he"
      ],
      [
        "it",
        "her"
      ],
      [
        "i",
        "ol"
      ],
      [
        "Ġdial",
        "og"
      ],
      [
        "z",
        "y"
      ],
      [
        "ell",
        "ing"
      ],
      [
        "us",
        "s"
      ],
      [
        "ĠB",
        "e"
      ],
      [
        "Ġre",
        "g"
      ],
      [
        "Ġsee",
        "ing"
      ],
      [
        "ĠT",
        "V"
      ],
      [
        "w",
        "ay"
      ],
      [
        "Ġel",
        "se"
      ],
      [
        "Ġsl",
        "ow"
      ],
      [
        "ĠCh",
        "rist"
      ],
      [
        "ill",
        "i"
      ],
      [
        "un",
        "ch"
      ],
      [
        "Ġpl",
        "ays"
      ],
      [
        "et",
        "s"
      ],
      [
        "ĠThe",
        "y"
      ],
      [
        "Ġc",
        "apt"
      ],
      [
        "Ġp",
        "oss"
      ],
      [
        "Ġu",
        "se"
      ],
      [
        "Ġunt",
        "il"
      ],
      [
        "Ġp",
        "iece"
      ],
      [
        "Ġsch",
        "ool"
      ],
      [
        "'",
        "ll"
      ],
      [
        "Ġd",
        "ream"
      ],
      [
        "Ġbe",
        "gin"
      ],
      [
        "in",
        "ess"
      ],
      [
        "ul",
        "ar"
      ],
      [
        "am",
        "p"
      ],
      [
        "Ġfavor",
        "ite"
      ],
      [
        "Ġbl",
        "ack"
      ],
      [
        "a",
        "x"
      ],
      [
        "Ġs",
        "aw"
      ],
      [
        "o",
        "on"
      ],
      [
        "I",
        "n"
      ],
      [
        "Ġun",
        "i"
      ],
      [
        "Ġc",
        "ent"
      ],
      [
        "Ġrem",
        "em"
      ],
      [
        "az",
        "ing"
      ],
      [
        "Ġanim",
        "ation"
      ],
      [
        "n",
        "ot"
      ],
      [
        "ĠA",
        "r"
      ],
      [
        "Ġdirect",
        "ed"
      ],
      [
        "Ġep",
        "isod"
      ],
      [
        "Ġl",
        "augh"
      ],
      [
        "Ġs",
        "ort"
      ],
      [
        "Ġc",
        "ur"
      ],
      [
        "Ġp",
        "ain"
      ],
      [
        "p",
        "ite"
      ],
      [
        "Ġp",
        "ast"
      ],
      [
        "Ġh",
        "onest"
      ],
      [
        "ro",
        "p"
      ],
      [
        "Ġd",
        "ark"
      ],
      [
        "es",
        "tern"
      ],
      [
        "or",
        "k"
      ],
      [
        "Ġwork",
        "s"
      ],
      [
        "Ġc",
        "ut"
      ],
      [
        "he",
        "t"
      ],
      [
        "Ġj",
        "ob"
      ],
      [
        "Ġs",
        "y"
      ],
      [
        "at",
        "s"
      ],
      [
        "Ġpart",
        "icul"
      ],
      [
        "a",
        "j"
      ],
      [
        "Ġimp",
        "ress"
      ],
      [
        "Ġinst",
        "ead"
      ],
      [
        "r",
        "ay"
      ],
      [
        "Ġre",
        "ason"
      ],
      [
        "ĠI",
        "f"
      ],
      [
        "Ġde",
        "ath"
      ],
      [
        "Ġm",
        "ust"
      ],
      [
        "Ġfilmm",
        "ak"
      ],
      [
        "if",
        "ic"
      ],
      [
        "Ġstr",
        "ong"
      ],
      [
        "Ġorigin",
        "al"
      ],
      [
        "Ġro",
        "le"
      ],
      [
        "ĠB",
        "r"
      ],
      [
        "um",
        "p"
      ],
      [
        "Ġrel",
        "ation"
      ],
      [
        "Ġle",
        "ft"
      ],
      [
        "o",
        "v"
      ],
      [
        "Ġl",
        "iter"
      ],
      [
        "Ġus",
        "ed"
      ],
      [
        "Ġcon",
        "c"
      ],
      [
        "ot",
        "t"
      ],
      [
        "Ġfuck",
        "ing"
      ],
      [
        "os",
        "ed"
      ],
      [
        "le",
        "y"
      ],
      [
        "v",
        "is"
      ],
      [
        "ol",
        "ly"
      ],
      [
        "u",
        "nd"
      ],
      [
        "Ġst",
        "ars"
      ],
      [
        "Ġl",
        "ack"
      ],
      [
        "u",
        "ly"
      ],
      [
        "Ġhapp",
        "en"
      ],
      [
        "Ġmay",
        "be"
      ],
      [
        "is",
        "on"
      ],
      [
        "ĠH",
        "ow"
      ],
      [
        "Ġof",
        "ten"
      ],
      [
        "o",
        "int"
      ],
      [
        "ow",
        "s"
      ],
      [
        "Ġhim",
        "self"
      ],
      [
        "Ġbec",
        "om"
      ],
      [
        "ation",
        "al"
      ],
      [
        "Ġv",
        "iol"
      ],
      [
        "Ġvis",
        "ual"
      ],
      [
        "th",
        "ough"
      ],
      [
        "Ġ",
        "Z"
      ],
      [
        "Ġpol",
        "it"
      ],
      [
        "Ġinc",
        "lud"
      ],
      [
        "âĢ",
        "ľ"
      ],
      [
        "Ġin",
        "f"
      ],
      [
        "ain",
        "s"
      ],
      [
        "ĠAmer",
        "ican"
      ],
      [
        "es",
        "e"
      ],
      [
        "Ġp",
        "op"
      ],
      [
        "Ġc",
        "op"
      ],
      [
        "Ġshow",
        "s"
      ],
      [
        "id",
        "es"
      ],
      [
        "Ġl",
        "ater"
      ],
      [
        "ĠW",
        "hat"
      ],
      [
        "ĠT",
        "HE"
      ],
      [
        "Ġst",
        "op"
      ],
      [
        "Ġabsolute",
        "ly"
      ],
      [
        "Ġsub",
        "ject"
      ],
      [
        "ĠC",
        "l"
      ],
      [
        "Ġenjoy",
        "ed"
      ],
      [
        "Ġsc",
        "ript"
      ],
      [
        "ĠU",
        "n"
      ],
      [
        "Ġst",
        "ra"
      ],
      [
        "Ġmost",
        "ly"
      ],
      [
        "or",
        "ge"
      ],
      [
        "Ġal",
        "ong"
      ],
      [
        "Ġ",
        "z"
      ],
      [
        "Ġst",
        "ories"
      ],
      [
        "re",
        "me"
      ],
      [
        "Ġgu",
        "ess"
      ],
      [
        "Ġp",
        "ar"
      ],
      [
        "Ġde",
        "ep"
      ],
      [
        "Ġrelation",
        "ship"
      ],
      [
        "w",
        "ood"
      ],
      [
        "Ġf",
        "an"
      ],
      [
        "Ġm",
        "et"
      ],
      [
        "one",
        "y"
      ],
      [
        "el",
        "s"
      ],
      [
        "Ġwant",
        "ed"
      ],
      [
        "Ġgen",
        "re"
      ],
      [
        "Ġ",
        "7"
      ],
      [
        "g",
        "er"
      ],
      [
        "iv",
        "ing"
      ],
      [
        "Ġplay",
        "ing"
      ],
      [
        "Ġen",
        "g"
      ],
      [
        "th",
        "is"
      ],
      [
        "are",
        "d"
      ],
      [
        "Ġfriend",
        "s"
      ],
      [
        "im",
        "ent"
      ],
      [
        "Ġh",
        "ouse"
      ],
      [
        "Ġpr",
        "ot"
      ],
      [
        "un",
        "k"
      ],
      [
        "Ġtr",
        "uly"
      ],
      [
        "Ġw",
        "ish"
      ],
      [
        "Ġc",
        "or"
      ],
      [
        "Ġqu",
        "est"
      ],
      [
        "Ġcour",
        "se"
      ],
      [
        "Ġlo",
        "st"
      ],
      [
        "Ġl",
        "ist"
      ],
      [
        "Ġw",
        "ent"
      ],
      [
        "ie",
        "f"
      ],
      [
        "Ġimp",
        "ort"
      ],
      [
        "m",
        "in"
      ],
      [
        "Ġcomplete",
        "ly"
      ],
      [
        "Ġm",
        "el"
      ],
      [
        "Ġsol",
        "id"
      ],
      [
        "ap",
        "an"
      ],
      [
        "Ġtr",
        "ue"
      ],
      [
        "g",
        "u"
      ],
      [
        "Ġs",
        "we"
      ],
      [
        "ou",
        "p"
      ],
      [
        "iv",
        "al"
      ],
      [
        "ut",
        "ion"
      ],
      [
        "Ġl",
        "and"
      ],
      [
        "Ġfin",
        "al"
      ],
      [
        "Ġmom",
        "ent"
      ],
      [
        "Ġagain",
        "st"
      ],
      [
        "Ġatt",
        "empt"
      ],
      [
        "t",
        "o"
      ],
      [
        "Ġb",
        "oring"
      ],
      [
        "Ġbeh",
        "ind"
      ],
      [
        "le",
        "ase"
      ],
      [
        "Ġpres",
        "ent"
      ],
      [
        "or",
        "m"
      ],
      [
        "Ġf",
        "ant"
      ],
      [
        "Ġdec",
        "ent"
      ],
      [
        "Ġinv",
        "ol"
      ],
      [
        "Ġvide",
        "o"
      ],
      [
        "li",
        "ke"
      ],
      [
        "Ġd",
        "r"
      ],
      [
        "Ã",
        "©"
      ],
      [
        "a",
        "pe"
      ],
      [
        "Ġdialog",
        "ue"
      ],
      [
        "ar",
        "ing"
      ],
      [
        "Ġs",
        "elf"
      ],
      [
        "Ġwor",
        "d"
      ],
      [
        "ag",
        "es"
      ],
      [
        "s",
        "ide"
      ],
      [
        "Ġplay",
        "ed"
      ],
      [
        "Ġf",
        "air"
      ],
      [
        "Ġs",
        "it"
      ],
      [
        "Ġthr",
        "iller"
      ],
      [
        "Ġentertain",
        "ing"
      ],
      [
        "Ġwh",
        "ite"
      ],
      [
        "re",
        "ady"
      ],
      [
        "Ġcinem",
        "at"
      ],
      [
        "The",
        "re"
      ],
      [
        "Ġm",
        "aster"
      ],
      [
        "Ġbelie",
        "ve"
      ],
      [
        "Ġd",
        "ri"
      ],
      [
        "Ġf",
        "asc"
      ],
      [
        "Ġam",
        "azing"
      ],
      [
        "Ġex",
        "act"
      ],
      [
        "Ġn",
        "ame"
      ],
      [
        "iz",
        "e"
      ],
      [
        "a",
        "i"
      ],
      [
        "ant",
        "ly"
      ],
      [
        "on",
        "y"
      ],
      [
        "ow",
        "ing"
      ],
      [
        "o",
        "f"
      ],
      [
        "Ġb",
        "ra"
      ],
      [
        "ore",
        "d"
      ],
      [
        "ĠL",
        "e"
      ],
      [
        "ter",
        "s"
      ],
      [
        "u",
        "c"
      ],
      [
        "ĠR",
        "ob"
      ],
      [
        "Ġm",
        "ag"
      ],
      [
        "il",
        "ity"
      ],
      [
        "Ġf",
        "ace"
      ],
      [
        "ĠS",
        "c"
      ],
      [
        "ch",
        "n"
      ],
      [
        "Ġs",
        "at"
      ],
      [
        "ent",
        "ial"
      ],
      [
        "ut",
        "h"
      ],
      [
        "ĠS",
        "p"
      ],
      [
        "ud",
        "e"
      ],
      [
        "Ġal",
        "ready"
      ],
      [
        "ot",
        "e"
      ],
      [
        "le",
        "ct"
      ],
      [
        "t",
        "ime"
      ],
      [
        "Ġcon",
        "st"
      ],
      [
        "b",
        "r"
      ],
      [
        "A",
        "N"
      ],
      [
        "Ġm",
        "other"
      ],
      [
        "I",
        "f"
      ],
      [
        "Ġh",
        "ope"
      ],
      [
        "l",
        "ine"
      ],
      [
        "Ġex",
        "ist"
      ],
      [
        "Ġm",
        "is"
      ],
      [
        "itt",
        "en"
      ],
      [
        "t",
        "ra"
      ],
      [
        "Ġb",
        "ook"
      ],
      [
        "d",
        "e"
      ],
      [
        "os",
        "p"
      ],
      [
        "g",
        "y"
      ],
      [
        "Ġremem",
        "ber"
      ],
      [
        "i",
        "el"
      ],
      [
        "pl",
        "ay"
      ],
      [
        "id",
        "ed"
      ],
      [
        "pp",
        "ed"
      ],
      [
        "Ġf",
        "ather"
      ],
      [
        "ic",
        "a"
      ],
      [
        "Ġkid",
        "s"
      ],
      [
        "Ġcons",
        "id"
      ],
      [
        "Ġne",
        "xt"
      ],
      [
        "fort",
        "un"
      ],
      [
        "Ġfeel",
        "ing"
      ],
      [
        "Ġm",
        "atter"
      ],
      [
        "Ġli",
        "ves"
      ],
      [
        "om",
        "b"
      ],
      [
        "u",
        "se"
      ],
      [
        "u",
        "ine"
      ],
      [
        "ac",
        "es"
      ],
      [
        "Ġl",
        "ate"
      ],
      [
        "Ġshot",
        "s"
      ],
      [
        "o",
        "ke"
      ],
      [
        "Ġgr",
        "oup"
      ],
      [
        "il",
        "i"
      ],
      [
        "Ġp",
        "ict"
      ],
      [
        "is",
        "hed"
      ],
      [
        "ri",
        "ght"
      ],
      [
        "it",
        "al"
      ],
      [
        "for",
        "m"
      ],
      [
        "l",
        "ight"
      ],
      [
        "Ġf",
        "ore"
      ],
      [
        "o",
        "e"
      ],
      [
        "Ġcr",
        "ime"
      ],
      [
        "h",
        "ow"
      ],
      [
        "Ġtal",
        "king"
      ],
      [
        "ure",
        "d"
      ],
      [
        "Ġmo",
        "ve"
      ],
      [
        "Ġkind",
        "a"
      ],
      [
        "A",
        "T"
      ],
      [
        "Ġb",
        "ro"
      ],
      [
        "Ġact",
        "or"
      ],
      [
        "Ġw",
        "ife"
      ],
      [
        "Ġ9",
        "0"
      ],
      [
        "b",
        "y"
      ],
      [
        "Ġdes",
        "ign"
      ],
      [
        "on",
        "es"
      ],
      [
        "me",
        "nd"
      ],
      [
        "ward",
        "s"
      ],
      [
        "ĠA",
        "ll"
      ],
      [
        "Ġdis",
        "c"
      ],
      [
        "le",
        "t"
      ],
      [
        "Ġaud",
        "ience"
      ],
      [
        "c",
        "hes"
      ],
      [
        "Ġp",
        "sy"
      ],
      [
        "Ġbec",
        "ome"
      ],
      [
        "Ġins",
        "p"
      ],
      [
        "u",
        "be"
      ],
      [
        "Ġcom",
        "ing"
      ],
      [
        "Ġ",
        "6"
      ],
      [
        "ren",
        "ch"
      ],
      [
        "ĠJ",
        "apan"
      ],
      [
        "ĠâĢ",
        "Ķ"
      ],
      [
        "Ġs",
        "ide"
      ],
      [
        "ro",
        "du"
      ],
      [
        "r",
        "ic"
      ],
      [
        "Ġpre",
        "m"
      ],
      [
        "Ġrem",
        "ind"
      ],
      [
        "Ġc",
        "ase"
      ],
      [
        "Ġmy",
        "self"
      ],
      [
        "l",
        "ish"
      ],
      [
        "an",
        "y"
      ],
      [
        "Ġfasc",
        "in"
      ],
      [
        "Ġto",
        "day"
      ],
      [
        "Ġad",
        "apt"
      ],
      [
        "Ġcl",
        "ose"
      ],
      [
        "Ġbas",
        "ed"
      ],
      [
        "Ġv",
        "ib"
      ],
      [
        "ĠN",
        "ew"
      ],
      [
        "Ġt",
        "ou"
      ],
      [
        "Ġinter",
        "view"
      ],
      [
        "Ġe",
        "ff"
      ],
      [
        "Ġob",
        "vious"
      ],
      [
        "w",
        "hat"
      ],
      [
        "it",
        "ch"
      ],
      [
        "Ġe",
        "ither"
      ],
      [
        "s",
        "el"
      ],
      [
        "Ġhe",
        "ll"
      ],
      [
        "Ġtr",
        "y"
      ],
      [
        "arr",
        "ing"
      ],
      [
        "n",
        "ce"
      ],
      [
        "k",
        "y"
      ],
      [
        "Ġstra",
        "ight"
      ],
      [
        "Ġm",
        "or"
      ],
      [
        "ĠF",
        "or"
      ],
      [
        "Ġd",
        "ays"
      ],
      [
        "Ġto",
        "t"
      ],
      [
        "Ġle",
        "vel"
      ],
      [
        "Ġwor",
        "st"
      ],
      [
        "Ġpro",
        "ble"
      ],
      [
        "ive",
        "ly"
      ],
      [
        "Ġcomm",
        "un"
      ],
      [
        "Ġs",
        "le"
      ],
      [
        "re",
        "ci"
      ],
      [
        "Ġpo",
        "or"
      ],
      [
        "Ġany",
        "one"
      ],
      [
        "R",
        "E"
      ],
      [
        "in",
        "c"
      ],
      [
        "Ġd",
        "em"
      ],
      [
        "ĠB",
        "rit"
      ],
      [
        "ĠAl",
        "so"
      ],
      [
        "olly",
        "wood"
      ],
      [
        "Ġv",
        "ar"
      ],
      [
        "Ġwr",
        "ong"
      ],
      [
        "er",
        "man"
      ],
      [
        "Ġan",
        "t"
      ],
      [
        "ĠA",
        "t"
      ],
      [
        "Ġab",
        "le"
      ],
      [
        "Ġcinemat",
        "ography"
      ],
      [
        "Ġser",
        "ious"
      ],
      [
        "Ġsing",
        "le"
      ],
      [
        ".",
        "âĢĿ"
      ],
      [
        "Ġfl",
        "ick"
      ],
      [
        "Ġde",
        "ad"
      ],
      [
        "re",
        "w"
      ],
      [
        "Ġa",
        "v"
      ],
      [
        "Ġo",
        "pp"
      ],
      [
        "Ġw",
        "a"
      ],
      [
        "ri",
        "ed"
      ],
      [
        "g",
        "ed"
      ],
      [
        "N",
        "ot"
      ],
      [
        "Ġgi",
        "ven"
      ],
      [
        "m",
        "as"
      ],
      [
        "Ġperson",
        "al"
      ],
      [
        "en",
        "e"
      ],
      [
        "at",
        "ched"
      ],
      [
        "Ġcould",
        "n"
      ],
      [
        "idd",
        "le"
      ],
      [
        "Ġc",
        "ute"
      ],
      [
        "Ġs",
        "n"
      ],
      [
        "ast",
        "ic"
      ],
      [
        "Ġv",
        "ill"
      ],
      [
        "ar",
        "ch"
      ],
      [
        "Ġliter",
        "ally"
      ],
      [
        "Ġc",
        "red"
      ],
      [
        "er",
        "n"
      ],
      [
        "Ġf",
        "em"
      ],
      [
        "b",
        "ox"
      ],
      [
        "Ġsim",
        "ple"
      ],
      [
        "Ġbu",
        "ild"
      ],
      [
        "Ġv",
        "oice"
      ],
      [
        "Ġwith",
        "in"
      ],
      [
        "Ġmur",
        "der"
      ],
      [
        "Ġto",
        "wn"
      ],
      [
        "Ġ",
        "Q"
      ],
      [
        "ol",
        "es"
      ],
      [
        "ĠF",
        "ilm"
      ],
      [
        "Ġcon",
        "cept"
      ],
      [
        "ĠM",
        "y"
      ],
      [
        "ĠO",
        "ne"
      ],
      [
        "Ġn",
        "on"
      ],
      [
        "Ġtal",
        "k"
      ],
      [
        "en",
        "n"
      ],
      [
        "sel",
        "ves"
      ],
      [
        "Ġpr",
        "om"
      ],
      [
        "Ġsc",
        "ore"
      ],
      [
        "Ġmo",
        "der"
      ],
      [
        "O",
        "N"
      ],
      [
        "..",
        ".."
      ],
      [
        "Ġcount",
        "ry"
      ],
      [
        "Ġeffect",
        "s"
      ],
      [
        "Ġo",
        "cc"
      ],
      [
        "in",
        "ed"
      ],
      [
        "ot",
        "s"
      ],
      [
        "Ġgen",
        "uine"
      ],
      [
        "Ġg",
        "ives"
      ],
      [
        "Ġf",
        "ine"
      ],
      [
        "w",
        "here"
      ],
      [
        "2",
        "0"
      ],
      [
        "Ġthrough",
        "out"
      ],
      [
        "Ġclass",
        "ic"
      ],
      [
        "Ġmin",
        "ute"
      ],
      [
        "Ġm",
        "ix"
      ],
      [
        "Ġm",
        "ot"
      ],
      [
        "on",
        "na"
      ],
      [
        "om",
        "mend"
      ],
      [
        "Ġbecom",
        "es"
      ],
      [
        "Ġext",
        "reme"
      ],
      [
        "am",
        "n"
      ],
      [
        "Ġact",
        "ual"
      ],
      [
        "ĠN",
        "o"
      ],
      [
        "Ġqu",
        "ality"
      ],
      [
        "Ġle",
        "arn"
      ],
      [
        "Ġchild",
        "ren"
      ],
      [
        "Ġstru",
        "gg"
      ],
      [
        "at",
        "or"
      ],
      [
        "l",
        "er"
      ],
      [
        "r",
        "al"
      ],
      [
        "Ġte",
        "chn"
      ],
      [
        "ĠS",
        "e"
      ],
      [
        "Ġcare",
        "er"
      ],
      [
        "Ġan",
        "g"
      ],
      [
        "S",
        "t"
      ],
      [
        "Ġ1",
        "0"
      ],
      [
        "Ġh",
        "old"
      ],
      [
        "Ġp",
        "ur"
      ],
      [
        "gr",
        "ound"
      ],
      [
        "Ġf",
        "re"
      ],
      [
        "Ġob",
        "s"
      ],
      [
        "ict",
        "ion"
      ],
      [
        "Ġto",
        "ld"
      ],
      [
        "o",
        "ff"
      ],
      [
        "c",
        "y"
      ],
      [
        "Ġexact",
        "ly"
      ],
      [
        "Ġapp",
        "reci"
      ],
      [
        "Y",
        "ou"
      ],
      [
        "t",
        "ed"
      ],
      [
        "Ġed",
        "iting"
      ],
      [
        "Ġw",
        "al"
      ],
      [
        "Ġpro",
        "f"
      ],
      [
        "Ġac",
        "ross"
      ],
      [
        "Ġan",
        "n"
      ],
      [
        "ĠâĢ",
        "ĺ"
      ],
      [
        "Ġl",
        "ine"
      ],
      [
        "m",
        "a"
      ],
      [
        "in",
        "a"
      ],
      [
        "ĠW",
        "ar"
      ],
      [
        "v",
        "ol"
      ],
      [
        "h",
        "aps"
      ],
      [
        "Ġsu",
        "cc"
      ],
      [
        "ou",
        "d"
      ],
      [
        "Ġis",
        "s"
      ],
      [
        "Ġimport",
        "ant"
      ],
      [
        "et",
        "y"
      ],
      [
        "fortun",
        "ately"
      ],
      [
        "Ġso",
        "ci"
      ],
      [
        "Ġdes",
        "pite"
      ],
      [
        "b",
        "s"
      ],
      [
        "Ġb",
        "reak"
      ],
      [
        "ĠI",
        "s"
      ],
      [
        "ĠS",
        "ome"
      ],
      [
        "Ġemot",
        "ional"
      ],
      [
        "Ġro",
        "om"
      ],
      [
        "ag",
        "ed"
      ],
      [
        "nd",
        "s"
      ],
      [
        "ic",
        "es"
      ],
      [
        "Ġmoder",
        "n"
      ],
      [
        "Ġl",
        "ar"
      ],
      [
        "Ġtoo",
        "k"
      ],
      [
        "t",
        "s"
      ],
      [
        "Ġwrit",
        "ing"
      ],
      [
        "Ġeff",
        "ort"
      ],
      [
        "Ġwe",
        "e"
      ],
      [
        "Ġf",
        "ig"
      ],
      [
        "en",
        "ces"
      ],
      [
        "Ġbl",
        "ood"
      ],
      [
        "O",
        "ne"
      ],
      [
        "Ġ8",
        "0"
      ],
      [
        "Ġwork",
        "ing"
      ],
      [
        "Ġh",
        "it"
      ],
      [
        "y",
        "pe"
      ],
      [
        "Ġmus",
        "ical"
      ],
      [
        "Ġhe",
        "ro"
      ],
      [
        "Ġw",
        "ays"
      ],
      [
        "i",
        "ally"
      ],
      [
        "Ġswe",
        "et"
      ],
      [
        "W",
        "hat"
      ],
      [
        "Ġo",
        "dd"
      ],
      [
        "Ġey",
        "es"
      ],
      [
        "us",
        "h"
      ],
      [
        "Ġpro",
        "ject"
      ],
      [
        "Ġ",
        "era"
      ],
      [
        "Ġcall",
        "ed"
      ],
      [
        "Ġturn",
        "s"
      ],
      [
        "Ġb",
        "and"
      ],
      [
        "Ġp",
        "ot"
      ],
      [
        "Ġstr",
        "ange"
      ],
      [
        "itt",
        "ing"
      ],
      [
        "ant",
        "ic"
      ],
      [
        "ag",
        "ing"
      ],
      [
        "Ġf",
        "ail"
      ],
      [
        "ĠD",
        "av"
      ],
      [
        "Ġst",
        "re"
      ],
      [
        "Ġd",
        "ou"
      ],
      [
        "l",
        "t"
      ],
      [
        "Ġstart",
        "ed"
      ],
      [
        "Ġmy",
        "st"
      ],
      [
        "Ġpart",
        "s"
      ],
      [
        "Ġp",
        "at"
      ],
      [
        "Ġa",
        "ge"
      ],
      [
        "ag",
        "on"
      ],
      [
        "Ġm",
        "iddle"
      ],
      [
        "Ġg",
        "od"
      ],
      [
        "Ġex",
        "am"
      ],
      [
        "Ġc",
        "art"
      ],
      [
        "Ġb",
        "o"
      ],
      [
        "Ġterri",
        "ble"
      ],
      [
        "ac",
        "ed"
      ],
      [
        "re",
        "al"
      ],
      [
        "Ġbr",
        "other"
      ],
      [
        "Ġv",
        "al"
      ],
      [
        "Ġag",
        "o"
      ],
      [
        "Ġcon",
        "ne"
      ],
      [
        "Ġli",
        "ving"
      ],
      [
        "L",
        "L"
      ],
      [
        "Ġpsy",
        "ch"
      ],
      [
        "Ġcont",
        "r"
      ],
      [
        "ur",
        "y"
      ],
      [
        "augh",
        "ter"
      ],
      [
        "Ġf",
        "ut"
      ],
      [
        "am",
        "ed"
      ],
      [
        "u",
        "k"
      ],
      [
        "Ġex",
        "cept"
      ],
      [
        "Ġrec",
        "ommend"
      ],
      [
        "nd",
        "ing"
      ],
      [
        "Ġuni",
        "que"
      ],
      [
        "ot",
        "ic"
      ],
      [
        "Ġfin",
        "ally"
      ],
      [
        "b",
        "all"
      ],
      [
        "o",
        "le"
      ],
      [
        "M",
        "y"
      ],
      [
        "Ġcont",
        "in"
      ],
      [
        "Ġover",
        "all"
      ],
      [
        "vel",
        "op"
      ],
      [
        "Ġdel",
        "i"
      ],
      [
        "Ġpro",
        "v"
      ],
      [
        "Ġh",
        "ot"
      ],
      [
        "Ġqu",
        "ick"
      ],
      [
        "Ġcertain",
        "ly"
      ],
      [
        "i",
        "od"
      ],
      [
        "Ġm",
        "oney"
      ],
      [
        "Ġhum",
        "or"
      ],
      [
        "Ġp",
        "leas"
      ],
      [
        "S",
        "T"
      ],
      [
        "Ġstart",
        "s"
      ],
      [
        "ĠM",
        "an"
      ],
      [
        "Ġsomet",
        "imes"
      ],
      [
        "Ġde",
        "al"
      ],
      [
        "us",
        "ed"
      ],
      [
        "Ġm",
        "ater"
      ],
      [
        "Ġsub",
        "t"
      ],
      [
        "olog",
        "y"
      ],
      [
        "p",
        "ly"
      ],
      [
        "Ġw",
        "on"
      ],
      [
        "Ġo",
        "k"
      ],
      [
        "p",
        "s"
      ],
      [
        "ou",
        "l"
      ],
      [
        "Ġguy",
        "s"
      ],
      [
        "ang",
        "er"
      ],
      [
        "on",
        "ic"
      ],
      [
        "IN",
        "G"
      ],
      [
        "it",
        "ive"
      ],
      [
        "Ġwr",
        "itten"
      ],
      [
        "Ġother",
        "s"
      ],
      [
        "od",
        "ram"
      ],
      [
        "ous",
        "ly"
      ],
      [
        "Ġg",
        "ay"
      ],
      [
        "is",
        "ter"
      ],
      [
        "g",
        "an"
      ],
      [
        "d",
        "y"
      ],
      [
        "re",
        "ad"
      ],
      [
        "Ġend",
        "s"
      ],
      [
        "Ġst",
        "ri"
      ],
      [
        "Ġso",
        "cial"
      ],
      [
        "ĠI",
        "nd"
      ],
      [
        "Ġkn",
        "ew"
      ],
      [
        "ĠO",
        "n"
      ],
      [
        "a",
        "el"
      ],
      [
        "Ġsh",
        "oot"
      ],
      [
        "Ġtal",
        "e"
      ],
      [
        "Ġsucc",
        "ess"
      ],
      [
        "ĠBrit",
        "ish"
      ],
      [
        "Ġde",
        "v"
      ],
      [
        "ter",
        "box"
      ],
      [
        "m",
        "osp"
      ],
      [
        "Ġepisod",
        "e"
      ],
      [
        "m",
        "b"
      ],
      [
        "Ġad",
        "m"
      ],
      [
        "at",
        "ural"
      ],
      [
        "Ġb",
        "ody"
      ],
      [
        "et",
        "t"
      ],
      [
        "is",
        "ed"
      ],
      [
        "Ġg",
        "onna"
      ],
      [
        "b",
        "ody"
      ],
      [
        "Ġst",
        "e"
      ],
      [
        "Ġph",
        "ot"
      ],
      [
        "Ġ",
        "ve"
      ],
      [
        "Ġb",
        "us"
      ],
      [
        "Ġf",
        "our"
      ],
      [
        "av",
        "ing"
      ],
      [
        "h",
        "ost"
      ],
      [
        "Ġfascin",
        "ating"
      ],
      [
        "Ġwant",
        "s"
      ],
      [
        "Ġmater",
        "ial"
      ],
      [
        "i",
        "ent"
      ],
      [
        "Ġp",
        "ri"
      ],
      [
        "Ġw",
        "estern"
      ],
      [
        "Ġhe",
        "av"
      ],
      [
        "o",
        "es"
      ],
      [
        "it",
        "ation"
      ],
      [
        "ar",
        "ies"
      ],
      [
        "pp",
        "ing"
      ],
      [
        "g",
        "s"
      ],
      [
        "al",
        "d"
      ],
      [
        "he",
        "l"
      ],
      [
        "Ġknow",
        "n"
      ],
      [
        "Ġhapp",
        "y"
      ],
      [
        "Ġthem",
        "selves"
      ],
      [
        "us",
        "ing"
      ],
      [
        "Ġche",
        "ck"
      ],
      [
        "ab",
        "y"
      ],
      [
        "Ġparticul",
        "arly"
      ],
      [
        "Ġat",
        "mosp"
      ],
      [
        "Ġex",
        "ec"
      ],
      [
        "ian",
        "s"
      ],
      [
        "Ġw",
        "ild"
      ],
      [
        "A",
        "R"
      ],
      [
        "ok",
        "es"
      ],
      [
        "Ġre",
        "leas"
      ],
      [
        "ĠM",
        "c"
      ],
      [
        "h",
        "ood"
      ],
      [
        "ĠP",
        "l"
      ],
      [
        "ĠG",
        "od"
      ],
      [
        "Ġg",
        "ang"
      ],
      [
        "Ġt",
        "aking"
      ],
      [
        "b",
        "ing"
      ],
      [
        "Ġdes",
        "er"
      ],
      [
        "Ġfor",
        "g"
      ],
      [
        "ill",
        "ed"
      ],
      [
        "Ġhe",
        "ard"
      ],
      [
        "Ġd",
        "i"
      ],
      [
        "terbox",
        "d"
      ],
      [
        "Ġmel",
        "odram"
      ],
      [
        "Ġs",
        "on"
      ],
      [
        "pl",
        "ic"
      ],
      [
        "ĠC",
        "ar"
      ],
      [
        "out",
        "h"
      ],
      [
        "ak",
        "en"
      ],
      [
        "Ġf",
        "ree"
      ],
      [
        "ĠD",
        "on"
      ],
      [
        "nd",
        "ed"
      ],
      [
        "el",
        "ess"
      ],
      [
        "Ġper",
        "iod"
      ],
      [
        "ĠE",
        "ng"
      ],
      [
        "ilar",
        "ious"
      ],
      [
        "Ġdes",
        "c"
      ],
      [
        "an",
        "ces"
      ],
      [
        "tra",
        "ck"
      ],
      [
        "Ġn",
        "ature"
      ],
      [
        "Ġb",
        "le"
      ],
      [
        "Ġj",
        "our"
      ],
      [
        "Ġenjoy",
        "able"
      ],
      [
        "Ġapp",
        "ro"
      ],
      [
        "Ġ",
        "ess"
      ],
      [
        "Ġp",
        "ick"
      ],
      [
        "Ġbas",
        "ically"
      ],
      [
        "ell",
        "ent"
      ],
      [
        "ir",
        "c"
      ],
      [
        "Ġch",
        "ang"
      ],
      [
        "w",
        "atch"
      ],
      [
        "Ġshort",
        "s"
      ],
      [
        "c",
        "ing"
      ],
      [
        "Ġb",
        "unch"
      ],
      [
        "in",
        "o"
      ],
      [
        "!!",
        "!"
      ],
      [
        "Ġcol",
        "le"
      ],
      [
        "is",
        "ing"
      ],
      [
        "Ġdet",
        "ail"
      ],
      [
        "Ġop",
        "ening"
      ],
      [
        "ich",
        "ael"
      ],
      [
        "u",
        "ro"
      ],
      [
        "Ġsp",
        "ir"
      ],
      [
        "O",
        "U"
      ],
      [
        "fr",
        "iend"
      ],
      [
        "c",
        "on"
      ],
      [
        "ent",
        "y"
      ],
      [
        "Ġs",
        "ign"
      ],
      [
        "Ġev",
        "ent"
      ],
      [
        "in",
        "ation"
      ],
      [
        "ard",
        "s"
      ],
      [
        "ke",
        "y"
      ],
      [
        "Ġprem",
        "ise"
      ],
      [
        "Ġc",
        "rit"
      ],
      [
        "Ġbr",
        "ing"
      ],
      [
        "Ġt",
        "reat"
      ],
      [
        "Ġc",
        "ity"
      ],
      [
        "Ġviol",
        "ence"
      ],
      [
        "ub",
        "l"
      ],
      [
        "Ġdirect",
        "ion"
      ],
      [
        "g",
        "ic"
      ],
      [
        "ĠðŁ",
        "ĺ"
      ],
      [
        "c",
        "he"
      ],
      [
        "Ġte",
        "en"
      ],
      [
        "av",
        "es"
      ],
      [
        "Ġwho",
        "se"
      ],
      [
        "Ġcle",
        "arly"
      ],
      [
        "Ġg",
        "ame"
      ],
      [
        "om",
        "p"
      ],
      [
        "O",
        "R"
      ],
      [
        "A",
        "s"
      ],
      [
        "Ġt",
        "yp"
      ],
      [
        "u",
        "ge"
      ],
      [
        "Ġh",
        "om"
      ],
      [
        "Ġincred",
        "ible"
      ],
      [
        "Ġ",
        "ir"
      ],
      [
        "Ġimag",
        "es"
      ],
      [
        "ur",
        "d"
      ],
      [
        "Ġsp",
        "ace"
      ],
      [
        "a",
        "ul"
      ],
      [
        "Ġpre",
        "d"
      ],
      [
        "Ġsl",
        "ight"
      ],
      [
        "Ġsim",
        "ply"
      ],
      [
        "Ġmov",
        "ing"
      ],
      [
        "u",
        "z"
      ],
      [
        "E",
        "N"
      ],
      [
        "ul",
        "ly"
      ],
      [
        "Ġmyst",
        "ery"
      ],
      [
        "l",
        "u"
      ],
      [
        "Ġt",
        "ype"
      ],
      [
        "ĠH",
        "ollywood"
      ],
      [
        "Ġfut",
        "ure"
      ],
      [
        "Ġthink",
        "ing"
      ],
      [
        "Ġam",
        "b"
      ],
      [
        "Ġr",
        "id"
      ],
      [
        "Ġh",
        "ate"
      ],
      [
        "eng",
        "th"
      ],
      [
        "Ġpict",
        "ure"
      ],
      [
        "Ġs",
        "us"
      ],
      [
        "re",
        "nt"
      ],
      [
        "ĠF",
        "rench"
      ],
      [
        "ili",
        "ar"
      ],
      [
        "h",
        "a"
      ],
      [
        "an",
        "ch"
      ],
      [
        "Ġhonest",
        "ly"
      ],
      [
        "Ġme",
        "ans"
      ],
      [
        "app",
        "oint"
      ],
      [
        "b",
        "and"
      ],
      [
        "Ġsupp",
        "ort"
      ],
      [
        "Ġret",
        "urn"
      ],
      [
        "ĠJ",
        "ust"
      ],
      [
        "em",
        "ent"
      ],
      [
        "Ġdis",
        "co"
      ],
      [
        "het",
        "ic"
      ],
      [
        "Ġra",
        "nd"
      ],
      [
        "ĠC",
        "an"
      ],
      [
        "S",
        "o"
      ],
      [
        "Ġcle",
        "ar"
      ],
      [
        "Ġpolit",
        "ical"
      ],
      [
        "Ġset",
        "ting"
      ],
      [
        "as",
        "ed"
      ],
      [
        "Ġsound",
        "track"
      ],
      [
        "Ġsay",
        "ing"
      ],
      [
        "Ġhappen",
        "ed"
      ],
      [
        "Ġno",
        "vel"
      ],
      [
        "Ġincred",
        "ibly"
      ],
      [
        "Ġb",
        "ar"
      ],
      [
        "Ġwonder",
        "ful"
      ],
      [
        "c",
        "er"
      ],
      [
        "o",
        "ver"
      ],
      [
        "Ġrom",
        "ance"
      ],
      [
        "Ġh",
        "op"
      ],
      [
        "Ġextreme",
        "ly"
      ],
      [
        "Ġcult",
        "ure"
      ],
      [
        "Ġcon",
        "v"
      ],
      [
        "ĠG",
        "erman"
      ],
      [
        "Ġc",
        "ap"
      ],
      [
        "Ġb",
        "are"
      ],
      [
        "Ġde",
        "velop"
      ],
      [
        "Ġpro",
        "g"
      ],
      [
        "Ġs",
        "ens"
      ],
      [
        "Ġ-",
        "-"
      ],
      [
        "Ġchar",
        "ming"
      ],
      [
        "Ġsong",
        "s"
      ],
      [
        "Ġon",
        "es"
      ],
      [
        "ĠW",
        "ith"
      ],
      [
        "Ġbegin",
        "ning"
      ],
      [
        "Ġfilmmak",
        "er"
      ],
      [
        "o",
        "vie"
      ],
      [
        "p",
        "or"
      ],
      [
        "Ġh",
        "ilarious"
      ],
      [
        "Ġhour",
        "s"
      ],
      [
        "ar",
        "a"
      ],
      [
        "ĠM",
        "ay"
      ],
      [
        "Ġm",
        "aj"
      ],
      [
        "Ġtri",
        "es"
      ],
      [
        "Ġm",
        "ark"
      ],
      [
        "o",
        "id"
      ],
      [
        "w",
        "ise"
      ],
      [
        "ĠM",
        "e"
      ],
      [
        "Ġto",
        "wards"
      ],
      [
        "ĠHow",
        "ever"
      ],
      [
        "Ġun",
        "f"
      ],
      [
        "Ġhapp",
        "ens"
      ],
      [
        "ĠA",
        "m"
      ],
      [
        "Ġrand",
        "om"
      ],
      [
        "Ġsim",
        "ilar"
      ],
      [
        "l",
        "in"
      ],
      [
        "Ġ20",
        "1"
      ],
      [
        "Ġg",
        "iving"
      ],
      [
        "ac",
        "ing"
      ],
      [
        "Ġcra",
        "zy"
      ],
      [
        "e",
        "ah"
      ],
      [
        "il",
        "t"
      ],
      [
        "y",
        "ond"
      ],
      [
        "Ġd",
        "ue"
      ],
      [
        "Ġeas",
        "y"
      ],
      [
        "lt",
        "im"
      ],
      [
        "Ġport",
        "ray"
      ],
      [
        "Ġg",
        "ave"
      ],
      [
        "Ġs",
        "ays"
      ],
      [
        "iz",
        "ing"
      ],
      [
        "Ġkill",
        "er"
      ],
      [
        "Ġwould",
        "n"
      ],
      [
        "Ġtou",
        "ch"
      ],
      [
        "Ġse",
        "ver"
      ],
      [
        "ur",
        "t"
      ],
      [
        "ĠW",
        "hen"
      ],
      [
        "Ġsil",
        "ly"
      ],
      [
        "c",
        "l"
      ],
      [
        "iel",
        "d"
      ],
      [
        "Ġpro",
        "p"
      ],
      [
        "Ġquest",
        "ion"
      ],
      [
        "Ġam",
        "ount"
      ],
      [
        "Ġ",
        "ill"
      ],
      [
        "m",
        "p"
      ],
      [
        "ĠChrist",
        "mas"
      ],
      [
        "ĠP",
        "r"
      ],
      [
        "ĠL",
        "et"
      ],
      [
        "Ġdis",
        "appoint"
      ],
      [
        "ĠG",
        "e"
      ],
      [
        "Ġinv",
        "est"
      ],
      [
        "b",
        "ed"
      ],
      [
        "Ġes",
        "c"
      ],
      [
        "Ġreal",
        "ity"
      ],
      [
        "ĠE",
        "very"
      ],
      [
        "Ġm",
        "id"
      ],
      [
        "up",
        "id"
      ],
      [
        "Ġspe",
        "c"
      ],
      [
        "ĠRob",
        "ert"
      ],
      [
        "Ġrom",
        "antic"
      ],
      [
        "Ġatt",
        "ention"
      ],
      [
        "Ġa",
        "ut"
      ],
      [
        "Ġch",
        "ange"
      ],
      [
        "Ġsever",
        "al"
      ],
      [
        "ri",
        "es"
      ],
      [
        "Ġele",
        "ments"
      ],
      [
        "Ġp",
        "ull"
      ],
      [
        "Ġim",
        "m"
      ],
      [
        "or",
        "ld"
      ],
      [
        "us",
        "band"
      ],
      [
        "Ġen",
        "er"
      ],
      [
        "Ġche",
        "ap"
      ],
      [
        "am",
        "b"
      ],
      [
        "Ġas",
        "pect"
      ],
      [
        "Ġro",
        "ck"
      ],
      [
        "Ġloc",
        "al"
      ],
      [
        "Ġsu",
        "ff"
      ],
      [
        "ĠWh",
        "ile"
      ],
      [
        "Ġc",
        "at"
      ],
      [
        "Ġso",
        "on"
      ],
      [
        "Ġtal",
        "ent"
      ],
      [
        "Ġe",
        "ar"
      ],
      [
        "Ġl",
        "im"
      ],
      [
        "Ġp",
        "arent"
      ],
      [
        "Ġ3",
        "0"
      ],
      [
        "Ġ",
        "er"
      ],
      [
        "f",
        "ying"
      ],
      [
        "ant",
        "s"
      ],
      [
        "Ġd",
        "aughter"
      ],
      [
        "Ġte",
        "am"
      ],
      [
        "art",
        "h"
      ],
      [
        "Ġey",
        "e"
      ],
      [
        "ĠJapan",
        "ese"
      ],
      [
        "Ġturn",
        "ed"
      ],
      [
        "ĠS",
        "te"
      ],
      [
        "Ġgra",
        "nd"
      ],
      [
        "Ġfeature",
        "s"
      ],
      [
        "Ġsome",
        "how"
      ],
      [
        "ad",
        "es"
      ],
      [
        "ĠE",
        "d"
      ],
      [
        "ĠIt",
        "al"
      ],
      [
        "ĠCh",
        "ar"
      ],
      [
        "Ġfilmm",
        "aking"
      ],
      [
        "Ġh",
        "ar"
      ],
      [
        "Ġd",
        "ig"
      ],
      [
        "ĠH",
        "ar"
      ],
      [
        "illi",
        "am"
      ],
      [
        "Ġreleas",
        "ed"
      ],
      [
        "e",
        "le"
      ],
      [
        "ens",
        "ion"
      ],
      [
        "Ġhor",
        "ri"
      ],
      [
        "er",
        "v"
      ],
      [
        "ru",
        "pt"
      ],
      [
        "Ġn",
        "um"
      ],
      [
        "Ġra",
        "re"
      ],
      [
        "Ġus",
        "ual"
      ],
      [
        "O",
        "V"
      ],
      [
        "Ġp",
        "os"
      ],
      [
        "Ġimpress",
        "ive"
      ],
      [
        "ĠJ",
        "ack"
      ],
      [
        "\"",
        "."
      ],
      [
        "Ġexpect",
        "ed"
      ],
      [
        "Ġop",
        "en"
      ],
      [
        "te",
        "xt"
      ],
      [
        "b",
        "ack"
      ],
      [
        "Ġt",
        "one"
      ],
      [
        "Ġthe",
        "at"
      ],
      [
        "Ġw",
        "in"
      ],
      [
        "Ġc",
        "ry"
      ],
      [
        "Ġmaj",
        "or"
      ],
      [
        "Ġprot",
        "agon"
      ],
      [
        "Ġs",
        "ent"
      ],
      [
        "Ġun",
        "s"
      ],
      [
        "Ġrun",
        "ning"
      ],
      [
        "Ġres",
        "pect"
      ],
      [
        "ion",
        "ally"
      ],
      [
        "E",
        "S"
      ],
      [
        "Ġhist",
        "or"
      ],
      [
        "Ġexper",
        "iment"
      ],
      [
        "ip",
        "s"
      ],
      [
        "irect",
        "or"
      ],
      [
        "Ġde",
        "but"
      ],
      [
        "au",
        "ght"
      ],
      [
        "ĠK",
        "e"
      ],
      [
        "Ġtw",
        "ist"
      ],
      [
        "h",
        "ic"
      ],
      [
        "Ġsoci",
        "ety"
      ],
      [
        "Ġsur",
        "v"
      ],
      [
        "Ġsex",
        "ual"
      ],
      [
        "R",
        "e"
      ],
      [
        "Ġp",
        "ure"
      ],
      [
        "Ġhow",
        "ever"
      ],
      [
        "Ġlead",
        "s"
      ],
      [
        "ir",
        "t"
      ],
      [
        "Ġc",
        "ost"
      ],
      [
        "ĠA",
        "d"
      ],
      [
        "Ġlar",
        "ge"
      ],
      [
        "o",
        "ved"
      ],
      [
        "oo",
        "f"
      ],
      [
        "A",
        "l"
      ],
      [
        "Ġal",
        "one"
      ],
      [
        "Ġsupp",
        "osed"
      ],
      [
        "T",
        "h"
      ],
      [
        "Ġhe",
        "ar"
      ],
      [
        "ĠE",
        "ven"
      ],
      [
        "Ġ7",
        "0"
      ],
      [
        "he",
        "ad"
      ],
      [
        "Ġgreat",
        "est"
      ],
      [
        "Ġexc",
        "ellent"
      ],
      [
        "Ġup",
        "on"
      ],
      [
        "ĠT",
        "r"
      ],
      [
        "Ġsil",
        "ent"
      ],
      [
        "Ġsit",
        "u"
      ],
      [
        "or",
        "able"
      ],
      [
        "Ġfam",
        "iliar"
      ],
      [
        "itt",
        "y"
      ],
      [
        "ĠO",
        "r"
      ],
      [
        "C",
        "h"
      ],
      [
        "Ġre",
        "ve"
      ],
      [
        "as",
        "y"
      ],
      [
        "Ġh",
        "usband"
      ],
      [
        "ĠH",
        "is"
      ],
      [
        "Ġtr",
        "ad"
      ],
      [
        "Ġst",
        "upid"
      ],
      [
        "Ġposs",
        "ible"
      ],
      [
        "Ġpol",
        "ice"
      ],
      [
        "Ġatmosp",
        "here"
      ],
      [
        "Ġe",
        "qu"
      ],
      [
        "Ġproble",
        "m"
      ],
      [
        "Ġsome",
        "what"
      ],
      [
        "ill",
        "s"
      ],
      [
        "Ġ",
        "id"
      ],
      [
        "Ġth",
        "ird"
      ],
      [
        "Ġdec",
        "ided"
      ],
      [
        "I",
        "S"
      ],
      [
        "a",
        "id"
      ],
      [
        "Ġj",
        "okes"
      ],
      [
        "Ġword",
        "s"
      ],
      [
        "Ġfem",
        "ale"
      ],
      [
        "Ġ19",
        "7"
      ],
      [
        "z",
        "e"
      ],
      [
        "Ġexp",
        "ress"
      ],
      [
        "Ġlook",
        "ed"
      ],
      [
        "Ġcre",
        "ep"
      ],
      [
        "Ġrec",
        "ord"
      ],
      [
        "ĠT",
        "om"
      ],
      [
        "re",
        "tty"
      ],
      [
        "Ġb",
        "i"
      ],
      [
        "Ġide",
        "as"
      ],
      [
        "ac",
        "y"
      ],
      [
        "Ġu",
        "ltim"
      ],
      [
        "Ġinvol",
        "ved"
      ],
      [
        "i",
        "or"
      ],
      [
        "Ġneed",
        "ed"
      ],
      [
        "Ġwor",
        "se"
      ],
      [
        "Ġm",
        "ult"
      ],
      [
        "f",
        "ic"
      ],
      [
        "Ġd",
        "est"
      ],
      [
        "ĠJ",
        "e"
      ],
      [
        "Ġem",
        "b"
      ],
      [
        "Ġwork",
        "ed"
      ],
      [
        "Ġart",
        "ist"
      ],
      [
        "Ġcom",
        "b"
      ],
      [
        "y",
        "s"
      ],
      [
        "ĠJ",
        "ames"
      ],
      [
        "Ġentire",
        "ly"
      ],
      [
        "re",
        "aking"
      ],
      [
        "Ġback",
        "ground"
      ],
      [
        "Ġal",
        "though"
      ],
      [
        "Ġd",
        "amn"
      ],
      [
        "oo",
        "se"
      ],
      [
        "Ġdo",
        "g"
      ],
      [
        "Ġst",
        "age"
      ],
      [
        "Ġqu",
        "e"
      ],
      [
        "ĠL",
        "ike"
      ],
      [
        "Ġst",
        "arring"
      ],
      [
        "ĠDav",
        "id"
      ],
      [
        "W",
        "h"
      ],
      [
        "ar",
        "re"
      ],
      [
        "Ġinclud",
        "ing"
      ],
      [
        "Ġst",
        "ay"
      ],
      [
        "ate",
        "ver"
      ],
      [
        "Ġfor",
        "get"
      ],
      [
        "Ġadapt",
        "ation"
      ],
      [
        "and",
        "a"
      ],
      [
        "Ġle",
        "g"
      ],
      [
        "u",
        "ra"
      ],
      [
        "Ġm",
        "il"
      ],
      [
        "Ġpre",
        "vious"
      ],
      [
        "Ġap",
        "art"
      ],
      [
        "g",
        "es"
      ],
      [
        "Ġg",
        "host"
      ],
      [
        "Ġg",
        "un"
      ],
      [
        "hy",
        "s"
      ],
      [
        "es",
        "ome"
      ],
      [
        "W",
        "hen"
      ],
      [
        "Ġcol",
        "or"
      ],
      [
        "Ġha",
        "ven"
      ],
      [
        "Ġfind",
        "s"
      ],
      [
        "Ġd",
        "ad"
      ],
      [
        "Ġ19",
        "8"
      ],
      [
        "Ġgenuine",
        "ly"
      ],
      [
        "Ġact",
        "ress"
      ],
      [
        "Ġhand",
        "s"
      ],
      [
        "Ġneed",
        "s"
      ],
      [
        "Ġtot",
        "ally"
      ],
      [
        "ĠP",
        "et"
      ],
      [
        "a",
        "f"
      ],
      [
        "Ġper",
        "haps"
      ],
      [
        "Ġc",
        "irc"
      ],
      [
        "Ġint",
        "ri"
      ],
      [
        "Ġfair",
        "ly"
      ],
      [
        "it",
        "ions"
      ],
      [
        "Ġor",
        "der"
      ],
      [
        "ĠT",
        "o"
      ],
      [
        "Ġgl",
        "ad"
      ],
      [
        "a",
        "im"
      ],
      [
        "Ġ20",
        "2"
      ],
      [
        "Ġcam",
        "p"
      ],
      [
        "Ġam",
        "ong"
      ],
      [
        "Ġre",
        "lease"
      ],
      [
        "Ġte",
        "le"
      ],
      [
        "Ġad",
        "vent"
      ],
      [
        "Ġm",
        "ad"
      ],
      [
        "Ġg",
        "ag"
      ],
      [
        "ver",
        "se"
      ],
      [
        "in",
        "ing"
      ],
      [
        "O",
        "O"
      ],
      [
        "Ġspe",
        "ak"
      ],
      [
        "Ġanim",
        "ated"
      ],
      [
        "ubl",
        "ic"
      ],
      [
        "-",
        "-"
      ],
      [
        "Ġb",
        "ox"
      ],
      [
        "Ġins",
        "ane"
      ],
      [
        "Ġlong",
        "er"
      ],
      [
        "Ġf",
        "ans"
      ],
      [
        "Ġfilmmak",
        "ers"
      ],
      [
        "Ġcl",
        "im"
      ],
      [
        "Ġf",
        "ive"
      ],
      [
        "Ġstru",
        "ct"
      ],
      [
        "Ġbr",
        "illi"
      ],
      [
        "Ġf",
        "ully"
      ],
      [
        "ĠH",
        "er"
      ],
      [
        "Ġin",
        "form"
      ],
      [
        "c",
        "le"
      ],
      [
        "p",
        "ar"
      ],
      [
        "ou",
        "n"
      ],
      [
        "p",
        "iece"
      ],
      [
        "Ġbe",
        "yond"
      ],
      [
        "ĠM",
        "ichael"
      ],
      [
        "ĠW",
        "ell"
      ],
      [
        "pect",
        "ive"
      ],
      [
        "Ġus",
        "ing"
      ],
      [
        "Ġres",
        "ult"
      ],
      [
        "Ġfr",
        "ont"
      ],
      [
        "Ġ",
        "ut"
      ],
      [
        "Ġgirl",
        "s"
      ],
      [
        "Ġl",
        "ang"
      ],
      [
        "s",
        "w"
      ],
      [
        "arent",
        "ly"
      ],
      [
        "im",
        "in"
      ],
      [
        "med",
        "i"
      ],
      [
        "Ġp",
        "ay"
      ],
      [
        "Ġre",
        "d"
      ],
      [
        "Ġshow",
        "ing"
      ],
      [
        "re",
        "st"
      ],
      [
        "Ġare",
        "n"
      ],
      [
        "est",
        "ival"
      ],
      [
        "vis",
        "ion"
      ],
      [
        "Ġm",
        "ention"
      ],
      [
        "Ġann",
        "oy"
      ],
      [
        "Ġgr",
        "ound"
      ],
      [
        "Ġfant",
        "astic"
      ],
      [
        "Ġsh",
        "ock"
      ],
      [
        "Ġne",
        "ar"
      ],
      [
        "Ġsu",
        "ck"
      ],
      [
        "Ġfav",
        "our"
      ],
      [
        "ven",
        "ge"
      ],
      [
        "Ġext",
        "ra"
      ],
      [
        "r",
        "on"
      ],
      [
        "ĠA",
        "N"
      ],
      [
        "ĠP",
        "e"
      ],
      [
        "Ġfilm",
        "ed"
      ],
      [
        "us",
        "ion"
      ],
      [
        "al",
        "th"
      ],
      [
        "T",
        "ube"
      ],
      [
        "Ġmon",
        "th"
      ],
      [
        "Ġexpl",
        "o"
      ],
      [
        "v",
        "il"
      ],
      [
        "s",
        "p"
      ],
      [
        "Ġs",
        "um"
      ],
      [
        "Ġpower",
        "ful"
      ],
      [
        "i",
        "est"
      ],
      [
        "Ġf",
        "a"
      ],
      [
        "\"",
        ","
      ],
      [
        "Ġr",
        "ad"
      ],
      [
        "r",
        "is"
      ],
      [
        "ire",
        "s"
      ],
      [
        "Ġd",
        "ull"
      ],
      [
        "Ġme",
        "et"
      ],
      [
        "ĠEng",
        "lish"
      ],
      [
        "Ġind",
        "ust"
      ],
      [
        "Ġro",
        "b"
      ],
      [
        "ĠN",
        "e"
      ],
      [
        "Ġcart",
        "oon"
      ],
      [
        "Ġvar",
        "ious"
      ],
      [
        "Ġsurpris",
        "ingly"
      ],
      [
        "Ġwrit",
        "er"
      ],
      [
        "Ġint",
        "rodu"
      ],
      [
        "Ġev",
        "il"
      ],
      [
        "ĠD",
        "an"
      ],
      [
        "Ġaw",
        "ful"
      ],
      [
        "Ġappe",
        "ar"
      ],
      [
        "res",
        "ent"
      ],
      [
        "Ġo",
        "per"
      ],
      [
        "ill",
        "ing"
      ],
      [
        "Ġsound",
        "s"
      ],
      [
        "ĠT",
        "H"
      ],
      [
        "Ġeas",
        "ily"
      ],
      [
        "Ġt",
        "aken"
      ],
      [
        "st",
        "em"
      ],
      [
        "Ġr",
        "ich"
      ],
      [
        "op",
        "h"
      ],
      [
        "Ġe",
        "t"
      ],
      [
        "ick",
        "s"
      ],
      [
        "Ġiss",
        "ues"
      ],
      [
        "Ġsequ",
        "el"
      ],
      [
        "Ġev",
        "ents"
      ],
      [
        "ction",
        "s"
      ],
      [
        "Ġinf",
        "lu"
      ],
      [
        "Ġind",
        "e"
      ],
      [
        "ci",
        "ous"
      ],
      [
        "Ġener",
        "gy"
      ],
      [
        "E",
        "D"
      ],
      [
        "Ġh",
        "uge"
      ],
      [
        "ĠâĢ",
        "ĵ"
      ],
      [
        "Ġ19",
        "9"
      ],
      [
        "Ġset",
        "s"
      ],
      [
        "ic",
        "ult"
      ],
      [
        "Ġcinem",
        "atic"
      ],
      [
        "Ġcl",
        "os"
      ],
      [
        "Ġc",
        "oll"
      ],
      [
        "Ġear",
        "li"
      ],
      [
        "Ġa",
        "est"
      ],
      [
        "al",
        "ing"
      ],
      [
        "Ġimag",
        "ine"
      ],
      [
        "g",
        "o"
      ],
      [
        "Ġ",
        "ident"
      ],
      [
        "ĠP",
        "h"
      ],
      [
        "I",
        "T"
      ],
      [
        "Ġm",
        "ent"
      ],
      [
        "ut",
        "ed"
      ],
      [
        "ĠL",
        "ove"
      ],
      [
        "orge",
        "ous"
      ],
      [
        "ĠW",
        "illiam"
      ],
      [
        "Ġne",
        "arly"
      ],
      [
        "Ġjour",
        "ney"
      ],
      [
        "Ġmess",
        "age"
      ],
      [
        "Ġmean",
        "ing"
      ],
      [
        "Ġw",
        "ind"
      ],
      [
        "Ġt",
        "on"
      ],
      [
        "ĠSt",
        "ill"
      ],
      [
        "ĠC",
        "on"
      ],
      [
        "Ġout",
        "side"
      ],
      [
        "iv",
        "id"
      ],
      [
        "Ġforg",
        "ot"
      ],
      [
        "in",
        "y"
      ],
      [
        "Ġend",
        "ed"
      ],
      [
        "ĠYou",
        "Tube"
      ],
      [
        "r",
        "ated"
      ],
      [
        "Ġ20",
        "0"
      ],
      [
        "Ġspir",
        "it"
      ],
      [
        "ct",
        "or"
      ],
      [
        "Ġappreci",
        "ate"
      ],
      [
        "Ġd",
        "ance"
      ],
      [
        "st",
        "al"
      ],
      [
        "1",
        "0"
      ],
      [
        "Ġke",
        "pt"
      ],
      [
        "S",
        "h"
      ],
      [
        "ich",
        "ard"
      ],
      [
        "Ġappro",
        "ach"
      ],
      [
        "ï",
        "¸"
      ],
      [
        "Ġl",
        "ength"
      ],
      [
        "Ġin",
        "n"
      ],
      [
        "O",
        "T"
      ],
      [
        "et",
        "h"
      ],
      [
        "Ġsurpris",
        "ed"
      ],
      [
        "Ġa",
        "ff"
      ],
      [
        "Ġpoint",
        "s"
      ],
      [
        "l",
        "o"
      ],
      [
        "m",
        "m"
      ],
      [
        "un",
        "ning"
      ],
      [
        "Ġdel",
        "ight"
      ],
      [
        "ï¸",
        "ı"
      ],
      [
        "Ġpro",
        "cess"
      ],
      [
        "ĠB",
        "ar"
      ],
      [
        "Ġobs",
        "ess"
      ],
      [
        "Ġparent",
        "s"
      ],
      [
        "Ġseem",
        "ed"
      ],
      [
        "wh",
        "ich"
      ],
      [
        "r",
        "ow"
      ],
      [
        "Ġinterest",
        "ed"
      ],
      [
        "ct",
        "ed"
      ],
      [
        "Ġf",
        "ell"
      ],
      [
        "Ġim",
        "medi"
      ],
      [
        "ien",
        "ces"
      ],
      [
        "V",
        "D"
      ],
      [
        "n",
        "o"
      ],
      [
        "Ġpr",
        "ison"
      ],
      [
        "an",
        "a"
      ],
      [
        "ver",
        "age"
      ],
      [
        "Ġm",
        "ass"
      ],
      [
        "Ġd",
        "ru"
      ],
      [
        "F",
        "or"
      ],
      [
        "Ġmelodram",
        "a"
      ],
      [
        "Ġbare",
        "ly"
      ],
      [
        "ĠP",
        "er"
      ],
      [
        "t",
        "a"
      ],
      [
        "ðŁ",
        "ĺ"
      ],
      [
        "ĠS",
        "w"
      ],
      [
        "Ġle",
        "ave"
      ],
      [
        "Ġrun",
        "time"
      ],
      [
        "Ġknow",
        "s"
      ],
      [
        "Ġperfect",
        "ly"
      ],
      [
        "Ġlove",
        "ly"
      ],
      [
        "Ġeng",
        "aging"
      ],
      [
        "ĠD",
        "is"
      ],
      [
        "Ġra",
        "c"
      ],
      [
        "Ġcommun",
        "ity"
      ],
      [
        "Ġpl",
        "an"
      ],
      [
        "Ġchar",
        "m"
      ],
      [
        "um",
        "e"
      ],
      [
        "p",
        "ed"
      ],
      [
        "Ġdiff",
        "icult"
      ],
      [
        "Ġ",
        ":"
      ],
      [
        "b",
        "o"
      ],
      [
        "Ġmed",
        "i"
      ],
      [
        "ie",
        "ces"
      ],
      [
        "Ġtra",
        "ck"
      ],
      [
        "Ġb",
        "aby"
      ],
      [
        "Ġc",
        "ond"
      ],
      [
        "Ġhigh",
        "light"
      ],
      [
        "Ġnum",
        "ber"
      ],
      [
        "Ġr",
        "ating"
      ],
      [
        "Ġtell",
        "ing"
      ],
      [
        "Ġsequ",
        "ence"
      ],
      [
        "k",
        "es"
      ],
      [
        "Ġwat",
        "er"
      ],
      [
        "Ġpot",
        "ential"
      ],
      [
        "og",
        "n"
      ],
      [
        "o",
        "ices"
      ],
      [
        "Ġexpect",
        "ing"
      ],
      [
        "ĠR",
        "uss"
      ],
      [
        "m",
        "ark"
      ],
      [
        "Ġwh",
        "atever"
      ],
      [
        "Ġcon",
        "text"
      ],
      [
        "Ġsy",
        "stem"
      ],
      [
        "ab",
        "or"
      ],
      [
        "ĠG",
        "reat"
      ],
      [
        "ge",
        "nd"
      ],
      [
        "Ġparticul",
        "ar"
      ],
      [
        "ed",
        "y"
      ],
      [
        "Ġp",
        "hys"
      ],
      [
        "is",
        "hing"
      ],
      [
        "m",
        "ist"
      ],
      [
        "w",
        "ar"
      ],
      [
        "iz",
        "ation"
      ],
      [
        "t",
        "on"
[...]
