{
  "version": "1.0",
  "truncation": null,
  "padding": null,
  "added_tokens": [
    {
      "id": 0,
      "content": "<PAD>",
      "single_word": false,
      "lstrip": false,
      "rstrip": false,
      "normalized": false,
      "special": true
    },
    {
      "id": 1,
      "content": "<EOS>",
      "single_word": false,
      "lstrip": false,
      "rstrip": false,
      "normalized": false,
      "special": true
    },
    {
      "id": 2,
      "content": "<BOS>",
      "single_word": false,
      "lstrip": false,
      "rstrip": false,
      "normalized": false,
      "special": true
    }
  ],
  "normalizer": null,
  "pre_tokenizer": {
    "type": "ByteLevel",
    "add_prefix_space": false,
    "trim_offsets": true,
    "use_regex": true
  },
  "post_processor": null,
  "decoder": {
    "type": "ByteLevel",
    "add_prefix_space": true,
    "trim_offsets": true,
    "use_regex": true
  },
  "model": {
    "type": "BPE",
    "dropout": null,
    "unk_token": null,
    "continuing_subword_prefix": null,
    "end_of_word_suffix": null,
    "fuse_unk": false,
    "byte_fallback": false,
    "ignore_merges": false,
    "vocab": {
      "<PAD>": 0,
      "<EOS>": 1,
      "<BOS>": 2,
      "!": 3,
      "\"": 4,
      "'": 5,
      "(": 6,
      ")": 7,
      ",": 8,
      "-": 9,
      ".": 10,
      "0": 11,
      "1": 12,
      "2": 13,
      "3": 14,
      "4": 15,
      "5": 16,
      "6": 17,
      "7": 18,
      "8": 19,
      "9": 20,
      ":": 21,
      ";": 22,
      "?": 23,
      "A": 24,
      "B": 25,
      "C": 26,
      "D": 27,
      "E": 28,
      "F": 29,
      "G": 30,
      "H": 31,
      "I": 32,
      "J": 33,
      "K": 34,
      "L": 35,
      "M": 36,
      "N": 37,
      "O": 38,
      "P": 39,
      "Q": 40,
      "R": 41,
      "S": 42,
      "T": 43,
      "U": 44,
      "V": 45,
      "W": 46,
      "X": 47,
      "Y": 48,
      "Z": 49,
      "a": 50,
      "b": 51,
      "c": 52,
      "d": 53,
      "e": 54,
      "f": 55,
      "g": 56,
      "h": 57,
      "i": 58,
      "j": 59,
      "k": 60,
      "l": 61,
      "m": 62,
      "n": 63,
      "o": 64,
      "p": 65,
      "q": 66,
      "r": 67,
      "s": 68,
      "t": 69,
      "u": 70,
      "v": 71,
      "w": 72,
      "x": 73,
      "y": 74,
      "z": 75,
      "¨": 76,
      "©": 77,
      "¯": 78,
      "Â": 79,
      "â": 80,
      "Ġ": 81,
      "Ģ": 82,
      "Ĥ": 83,
      "ħ": 84,
      "ł": 85,
      "Ġt": 86,
      "Ġa": 87,
      "in": 88,
      "he": 89,
      "Ġs": 90,
      "re": 91,
      "Ġw": 92,
      "Ġo": 93,
      "Ġthe": 94,
      "is": 95,
      "er": 96,
      "Ġf": 97,
      "Ġm": 98,
      "it": 99,
      "at": 100,
      "Ġb": 101,
      "nd": 102,
      "ing": 103,
      "en": 104,
      "Ġc": 105,
      "or": 106,
      "es": 107,
      "on": 108,
      "Ġth": 109,
      "ou": 110,
      "an": 111,
      "Ġd": 112,
      "al": 113,
      "Ġp": 114,
      "ar": 115,
      "Ġl": 116,
      "Ġof": 117,
      "Ġh": 118,
      "Ġand": 119,
      "ed": 120,
      "Ġto": 121,
      "as": 122,
      "Ġin": 123,
      "il": 124,
      "ly": 125,
      "om": 126,
      "Ġg": 127,
      "ic": 128,
      "ut": 129,
      "Ġe": 130,
      "ĠI": 131,
      "le": 132,
      "st": 133,
      "ot": 134,
      "Ġn": 135,
      "Ġit": 136,
      "Ġis": 137,
      "ve": 138,
      "et": 139,
      "ct": 140,
      "el": 141,
      "Ġon": 142,
      "ent": 143,
      "Ġre": 144,
      "Ġthis": 145,
      "im": 146,
      "ion": 147,
      "ow": 148,
      "ver": 149,
      "ad": 150,
      "Ġbe": 151,
      "Ġst": 152,
      "ch": 153,
      "'s": 154,
      "Ġmo": 155,
      "Ġthat": 156,
      "ay": 157,
      "ĠT": 158,
      "ie": 159,
      "gh": 160,
      "am": 161,
      "id": 162,
      "un": 163,
      "Ġy": 164,
      "ke": 165,
      "ol": 166,
      "Ġfor": 167,
      "Ġwh": 168,
      "ith": 169,
      "Ġhe": 170,
      "ilm": 171,
      "Ġwas": 172,
      "Ġwith": 173,
      "Ġan": 174,
      "ir": 175,
      "Ġfilm": 176,
      "se": 177,
      "Ġbut": 178,
      "oo": 179,
      "Ġli": 180,
      "ce": 181,
      "ra": 182,
      "ĠS": 183,
      "Ġal": 184,
      "ur": 185,
      "Ġas": 186,
      "ul": 187,
      "ĠA": 188,
      "ro": 189,
      "Ġsh": 190,
      "ally": 191,
      "Ġse": 192,
      "Ġyou": 193,
      "ck": 194,
      "ld": 195,
      "ter": 196,
      "ĠB": 197,
      "Ġha": 198,
      "us": 199,
      "Ġk": 200,
      "ri": 201,
      "vie": 202,
      "Ġj": 203,
      "ĠM": 204,
      "ill": 205,
      "..": 206,
      "Ġdo": 207,
      "her": 208,
      "ome": 209,
      "ĠC": 210,
      "ag": 211,
      "Ġme": 212,
      "ght": 213,
      "ak": 214,
      "'t": 215,
      "out": 216,
      "Ġab": 217,
      "um": 218,
      "ust": 219,
      "if": 220,
      "Ġso": 221,
      "Ġfr": 222,
      "ist": 223,
      "ort": 224,
      "est": 225,
      "pe": 226,
      "Ġde": 227,
      "Ġat": 228,
      "up": 229,
      "ĠThe": 230,
      "Ġex": 231,
      "Ġch": 232,
      "Ġnot": 233,
      "ab": 234,
      "ess": 235,
      "em": 236,
      "ere": 237,
      "Ġmovie": 238,
      "Ġlike": 239,
      "ĠW": 240,
      "ĠH": 241,
      "ant": 242,
      "ation": 243,
      "very": 244,
      "art": 245,
      "ers": 246,
      "ould": 247,
      "ĠD": 248,
      "qu": 249,
      "Ġcom": 250,
      "Ġv": 251,
      "Ġmy": 252,
      "Ġone": 253,
      "Ġr": 254,
      "ood": 255,
      "Ġint": 256,
      "Ġlo": 257,
      "op": 258,
      "ell": 259,
      "and": 260,
      "ure": 261,
      "th": 262,
      "Ġare": 263,
      "ain": 264,
      "Ġwat": 265,
      "Ġabout": 266,
      "ies": 267,
      "Ġfrom": 268,
      "Ġne": 269,
      "ĠL": 270,
      "ĠF": 271,
      "ive": 272,
      "ĠP": 273,
      "Ġhis": 274,
      "ap": 275,
      "Ġ(": 276,
      "ind": 277,
      "Ġhave": 278,
      "Ġcon": 279,
      "ast": 280,
      "Ġall": 281,
      "Ġby": 282,
      "ate": 283,
      "Ġsome": 284,
      "os": 285,
      "Ġsc": 286,
      "ough": 287,
      "Ġfe": 288,
      "Ġjust": 289,
      "ĠR": 290,
      "ime": 291,
      "Ġpl": 292,
      "ig": 293,
      "ire": 294,
      "ĠG": 295,
      "Ġun": 296,
      "Ġact": 297,
      "Ġwor": 298,
      "ous": 299,
      "Ġwhe": 300,
      "Ġwho": 301,
      "his": 302,
      "ory": 303,
      "ong": 304,
      "ang": 305,
      "Ġout": 306,
      "one": 307,
      "ard": 308,
      "ud": 309,
      "ight": 310,
      "uch": 311,
      "Ġmore": 312,
      "all": 313,
      "ĠN": 314,
      "The": 315,
      "act": 316,
      "Ġpre": 317,
      "ore": 318,
      "ite": 319,
      "ack": 320,
      "reat": 321,
      "ĠJ": 322,
      "Ġle": 323,
      "Ġwatch": 324,
      "Ġpro": 325,
      "ven": 326,
      "od": 327,
      "Ġen": 328,
      "Ġi": 329,
      "ound": 330,
      "au": 331,
      "ĠIt": 332,
      "Ġup": 333,
      "fe": 334,
      "Ġthey": 335,
      "Ġwe": 336,
      "Ġreally": 337,
      "Ġcan": 338,
      "ry": 339,
      "Ġgood": 340,
      "pp": 341,
      "ĠE": 342,
      "ity": 343,
      "ich": 344,
      "ake": 345,
      "Ġget": 346,
      "ook": 347,
      "nt": 348,
      "Ġman": 349,
      "Ġwhat": 350,
      "Ġor": 351,
      "itt": 352,
      "are": 353,
      "Ġqu": 354,
      "hing": 355,
      "Ġhas": 356,
      "og": 357,
      "Ġ\"": 358,
      "ide": 359,
      "Ġtime": 360,
      "ci": 361,
      "able": 362,
      "ary": 363,
      "Ġits": 364,
      "Ġgo": 365,
      "Ġim": 366,
      "ine": 367,
      "che": 368,
      "Ġar": 369,
      "ĠO": 370,
      "ade": 371,
      "our": 372,
      "oy": 373,
      "ĠK": 374,
      "Ġno": 375,
      "Ġthan": 376,
      "Ġhow": 377,
      "Ġher": 378,
      "ame": 379,
      "Ġvery": 380,
      "!!": 381,
      "Ġper": 382,
      "ll": 383,
      "ss": 384,
      "ub": 385,
      "Ġstory": 386,
      "Ġchar": 387,
      "Ġmuch": 388,
      "ne": 389,
      "av": 390,
      "Ġ1": 391,
      "Ġlove": 392,
      "ick": 393,
      "Ġthere": 394,
      "ays": 395,
      "ink": 396,
      "ty": 397,
      "age": 398,
      "iv": 399,
      "ge": 400,
      "ice": 401,
      "pl": 402,
      "Ġinto": 403,
      "now": 404,
      "Ġbec": 405,
      "Ġsee": 406,
      "Ġpe": 407,
      "Ġany": 408,
      "Ġwould": 409,
      "Ġcl": 410,
      "ib": 411,
      "Ġwhen": 412,
      "pt": 413,
      "...": 414,
      "nder": 415,
      "ish": 416,
      "This": 417,
      "Ġfun": 418,
      "Ġtr": 419,
      "so": 420,
      "Ġfeel": 421,
      "Ġtheir": 422,
      "Ġthr": 423,
      "Ġshort": 424,
      "Ġu": 425,
      "uck": 426,
      "ac": 427,
      "Ġam": 428,
      "Ġpo": 429,
      "Ġif": 430,
      "Ġend": 431,
      "ff": 432,
      "ian": 433,
      "ars": 434,
      "Ġhad": 435,
      "Ġbet": 436,
      "ass": 437,
      "Ġevery": 438,
      "Ġdid": 439,
      "ful": 440,
      "Ġmost": 441,
      "ep": 442,
      "man": 443,
      "Ġgreat": 444,
      "ue": 445,
      "Ġad": 446,
      "ment": 447,
      "Ġmade": 448,
      "ther": 449,
      "Ġover": 450,
      "Ġknow": 451,
      "ious": 452,
      "Ġthem": 453,
      "ple": 454,
      "Ġwork": 455,
      "Ġtoo": 456,
      "ny": 457,
      "irect": 458,
      "ople": 459,
      "Ġlook": 460,
      "ert": 461,
      "Ġ2": 462,
      "Ġcharact": 463,
      "Ġdoc": 464,
      "Ġeven": 465,
      "Ġthing": 466,
      "ence": 467,
      "Ġonly": 468,
      "ile": 469,
      "ical": 470,
      "hat": 471,
      "Ġwhich": 472,
      "for": 473,
      "Ġway": 474,
      "irst": 475,
      "ause": 476,
      "Ġdoes": 477,
      "Ġpeople": 478,
      "ittle": 479,
      "te": 480,
      "'m": 481,
      "Ġsp": 482,
      "Ġwere": 483,
      "Ġtw": 484,
      "omet": 485,
      "Ġco": 486,
      "int": 487,
      "ia": 488,
      "ument": 489,
      "iz": 490,
      "erest": 491,
      "Ġpart": 492,
      "Ġthink": 493,
      "Ġcould": 494,
      "Ġdirect": 495,
      "Ġlittle": 496,
      "Ġ-": 497,
      "ute": 498,
      "Ġmin": 499,
      "Ġwell": 500,
      "ated": 501,
      "'ve": 502,
      "ĠY": 503,
      "ial": 504,
      "per": 505,
      "Ġbl": 506,
      "we": 507,
      "Ġbeing": 508,
      "Ġother": 509,
      "ched": 510,
      "ose": 511,
      "Ġte": 512,
      "ual": 513,
      "Ġgu": 514,
      "Ġmak": 515,
      "pect": 516,
      "Ġhere": 517,
      "Ġfirst": 518,
      "ace": 519,
      "Ġshow": 520,
      "Ġye": 521,
      "other": 522,
      "Ġhim": 523,
      "aw": 524,
      "Ġus": 525,
      "elf": 526,
      "hy": 527,
      "tty": 528,
      "Ġdis": 529,
      "ult": 530,
      "Ġmake": 531,
      "Ġoff": 532,
      "Ġag": 533,
      "Ġmov": 534,
      "red": 535,
      "Ġfilms": 536,
      "Ġshe": 537,
      "Ġbecause": 538,
      "Ġscen": 539,
      "Ġbeen": 540,
      "ip": 541,
      "Ġreal": 542,
      "ah": 543,
      "ĠCh": 544,
      "Ġdocument": 545,
      "ress": 546,
      "ting": 547,
      "Ġinterest": 548,
      "ans": 549,
      "Ġwant": 550,
      "ĠV": 551,
      "Ġsomet": 552,
      "get": 553,
      "ark": 554,
      "ild": 555,
      "ost": 556,
      "own": 557,
      "Ġlife": 558,
      "ob": 559,
      "fter": 560,
      "Ġbr": 561,
      "ually": 562,
      "Ġent": 563,
      "Ġdes": 564,
      "ens": 565,
      "Ġalso": 566,
      "Ġra": 567,
      "Ġdon": 568,
      "Ġthrough": 569,
      "ram": 570,
      "co": 571,
      "Ġyour": 572,
      "inem": 573,
      "ces": 574,
      "Ġser": 575,
      "Ġpr": 576,
      "ict": 577,
      "Ġstill": 578,
      "Ġbit": 579,
      "Ġsl": 580,
      "ĠThis": 581,
      "Ġfl": 582,
      "ance": 583,
      "ction": 584,
      "Ġlot": 585,
      "view": 586,
      "Ġbad": 587,
      "Ġro": 588,
      "ating": 589,
      "Ġwill": 590,
      "ved": 591,
      "thing": 592,
      "Ġwhere": 593,
      "the": 594,
      "Ġever": 595,
      "Ġgr": 596,
      "Ġcr": 597,
      "cc": 598,
      "ise": 599,
      "Ġback": 600,
      "Ġnever": 601,
      "Ġpretty": 602,
      "az": 603,
      "ach": 604,
      "Ġhor": 605,
      "aut": 606,
      "sh": 607,
      "fect": 608,
      "Ġbest": 609,
      "Ġrem": 610,
      "urn": 611,
      "ily": 612,
      "Ġseen": 613,
      "Ġplay": 614,
      "mer": 615,
      "Ġdocumentary": 616,
      "oc": 617,
      "Ġsomething": 618,
      "oll": 619,
      "ng": 620,
      "Ġunder": 621,
      "Ġstr": 622,
      "Ġkind": 623,
      "Ġri": 624,
      "vers": 625,
      "ug": 626,
      "Ġbetter": 627,
      "arly": 628,
      "arr": 629,
      "Ġcinem": 630,
      "Ġtal": 631,
      "Ġimp": 632,
      "ving": 633,
      "Ġgen": 634,
      "Ġmovies": 635,
      "ves": 636,
      "Ġafter": 637,
      "Ġwr": 638,
      "ull": 639,
      "Ġinteresting": 640,
      "Ġgot": 641,
      "Ġtwo": 642,
      "ĠSt": 643,
      "Ġwatching": 644,
      "Ġthese": 645,
      "ble": 646,
      "ors": 647,
      "old": 648,
      "Ġmus": 649,
      "Ġaw": 650,
      "Ġsay": 651,
      "Ġem": 652,
      "be": 653,
      "Ġsur": 654,
      "Ġtra": 655,
      "Ġinc": 656,
      "wn": 657,
      "Ġthen": 658,
      "du": 659,
      "Ġspe": 660,
      "imes": 661,
      "ĠU": 662,
      "Ġdec": 663,
      "ought": 664,
      "ber": 665,
      "Ġwom": 666,
      "Ġ20": 667,
      "Ġfuck": 668,
      "ions": 669,
      "ree": 670,
      "Ġcomed": 671,
      "Ġlong": 672,
      "Ġ19": 673,
      "iful": 674,
      "vel": 675,
      "ase": 676,
      "ath": 677,
      "oot": 678,
      "ents": 679,
      "Ġperfor": 680,
      "autiful": 681,
      "rap": 682,
      "ror": 683,
      "inal": 684,
      "me": 685,
      "ik": 686,
      "Ġwhile": 687,
      "joy": 688,
      "Ġneed": 689,
      "Ġsub": 690,
      "Ġhapp": 691,
      "Ġsup": 692,
      "ature": 693,
      "Ġpers": 694,
      "Ġrec": 695,
      "Ġset": 696,
      "Ġke": 697,
      ".\"": 698,
      "Ġgoing": 699,
      "ery": 700,
      "iss": 701,
      "fore": 702,
      "Ġche": 703,
      "ably": 704,
      "utes": 705,
      "ning": 706,
      "iend": 707,
      "igh": 708,
      "irl": 709,
      "iff": 710,
      "les": 711,
      "ways": 712,
      "Ġfind": 713,
      "ĠAnd": 714,
      "Ġseem": 715,
      "Ġfam": 716,
      "Ġcomp": 717,
      "Ġins": 718,
      "Ġmany": 719,
      "Ġwatched": 720,
      "It": 721,
      "'re": 722,
      "Ġmom": 723,
      "Ġenjoy": 724,
      "Ġter": 725,
      "ertain": 726,
      "ism": 727,
      "Ġcharacter": 728,
      "Ġnow": 729,
      "ather": 730,
      "ect": 731,
      "Ġcont": 732,
      "ail": 733,
      "ird": 734,
      "ative": 735,
      "Ġart": 736,
      "Ġcou": 737,
      "Ġworld": 738,
      "Ġcharacters": 739,
      "ense": 740,
      "Ġminutes": 741,
      "uff": 742,
      "reen": 743,
      "Ġguy": 744,
      "Ġthough": 745,
      "Ġes": 746,
      "Ġagain": 747,
      "Ġrel": 748,
      "Ġsm": 749,
      "Ġshot": 750,
      "cial": 751,
      "ĠBut": 752,
      "Ġanim": 753,
      "Ġold": 754,
      "ign": 755,
      "Ġhum": 756,
      "ft": 757,
      "Ġstart": 758,
      "Ġmakes": 759,
      "Ġshould": 760,
      "ons": 761,
      "der": 762,
      "Ġplot": 763,
      "ically": 764,
      ").": 765,
      "Ġbeautiful": 766,
      "Ġsa": 767,
      "Ġactually": 768,
      "Ġbefore": 769,
      "Ġperforman": 770,
      "Ġdidn": 771,
      "Ġ'": 772,
      "less": 773,
      "li": 774,
      "Ġalways": 775,
      "iting": 776,
      "self": 777,
      "Ġres": 778,
      "aking": 779,
      "Ġenough": 780,
      "??": 781,
      "Ġthose": 782,
      "ren": 783,
      "Ġyears": 784,
      "Ġaround": 785,
      "king": 786,
      "Ġdown": 787,
      "Ġinter": 788,
      "Ġnew": 789,
      "ness": 790,
      "Ġsim": 791,
      "Ġthings": 792,
      "elt": 793,
      "Ġsuch": 794,
      "Ġcomedy": 795,
      "Ġdram": 796,
      "Ġsame": 797,
      "ater": 798,
      "Ġperson": 799,
      "ible": 800,
      "Ġob": 801,
      "Ġdoesn": 802,
      "ience": 803,
      "Ġsound": 804,
      "Ġdiff": 805,
      "na": 806,
      "Ġthought": 807,
      "ks": 808,
      "Ġtry": 809,
      "ween": 810,
      "Ġmusic": 811,
      "ream": 812,
      "here": 813,
      "ked": 814,
      "Ġpoint": 815,
      "pr": 816,
      "Ġquite": 817,
      "air": 818,
      "Ġright": 819,
      "Ġatt": 820,
      "Ġown": 821,
      "its": 822,
      "oth": 823,
      "....": 824,
      "era": 825,
      "rig": 826,
      "Ġapp": 827,
      "Ġmay": 828,
      "ations": 829,
      "xt": 830,
      "ord": 831,
      "fin": 832,
      "cept": 833,
      "Ġfunny": 834,
      "ward": 835,
      "Ġgirl": 836,
      "Ġbetween": 837,
      "Ġhard": 838,
      "ograp": 839,
      "Ġexper": 840,
      "Ġmen": 841,
      "ock": 842,
      "ĠIn": 843,
      "atch": 844,
      "Ġkid": 845,
      "Ġhorror": 846,
      "oss": 847,
      "ĠAl": 848,
      "ash": 849,
      "oh": 850,
      "ject": 851,
      "io": 852,
      "ĠBr": 853,
      "ĠSh": 854,
      "uring": 855,
      "Ġide": 856,
      "Ġ3": 857,
      "ling": 858,
      "Ġtri": 859,
      "Ġel": 860,
      "Ġvis": 861,
      "Ġinv": 862,
      "alf": 863,
      "Ġfeels": 864,
      "Ġbig": 865,
      "Ġscene": 866,
      "ond": 867,
      "Ġwhy": 868,
      "Ġcol": 869,
      "ave": 870,
      "Ġprodu": 871,
      "Ġind": 872,
      "Ġev": 873,
      "Ġfriend": 874,
      "Ġdirector": 875,
      "hen": 876,
      "Ġsex": 877,
      "Ġturn": 878,
      "Ġabs": 879,
      "Ġfew": 880,
      "apt": 881,
      "ional": 882,
      "Ġfav": 883,
      "Ġexpl": 884,
      "Ġap": 885,
      "Ġdel": 886,
      "Ġkill": 887,
      "Ġcast": 888,
      "ont": 889,
      "ately": 890,
      "ĠHe": 891,
      "ced": 892,
      "ane": 893,
      "ĠThere": 894,
      "Ġed": 895,
      "Ġexpect": 896,
      "akes": 897,
      "most": 898,
      "Ġlast": 899,
      "iter": 900,
      "Ġcam": 901,
      "Ġtell": 902,
      "ok": 903,
      "ffect": 904,
      "Ġchild": 905,
      "Ġbel": 906,
      "Ġlead": 907,
      "Ġput": 908,
      "ings": 909,
      "Ġwhole": 910,
      "Ġcinema": 911,
      "ins": 912,
      "Ġrun": 913,
      "Ġsure": 914,
      "Ġnothing": 915,
      "Ġscenes": 916,
      "augh": 917,
      "Ġcomple": 918,
      "An": 919,
      "hed": 920,
      "Ġtimes": 921,
      "Ġgets": 922,
      "Ġhist": 923,
      "ox": 924,
      "Ġhalf": 925,
      "ee": 926,
      "Ġbas": 927,
      "Ġhigh": 928,
      "),": 929,
      "ale": 930,
      "sc": 931,
      "Ġtake": 932,
      "ĠTH": 933,
      "ER": 934,
      "Ġclass": 935,
      "Ġnice": 936,
      "olute": 937,
      "Ġz": 938,
      "'d": 939,
      "Ġacc": 940,
      "atic": 941,
      "Ġacting": 942,
      "Ġdi": 943,
      "ec": 944,
      "ool": 945,
      "Ġdiffere": 946,
      "Ġday": 947,
      "Ġfar": 948,
      "Ġseries": 949,
      "Ġgl": 950,
      "ster": 951,
      "ody": 952,
      "Ġaction": 953,
      "Ġscreen": 954,
      "tern": 955,
      "Ġlet": 956,
      "ead": 957,
      "Ġmaking": 958,
      "ĠYou": 959,
      "Ġheart": 960,
      "Ġanother": 961,
      "Ġfelt": 962,
      "ingly": 963,
      "Ġyoung": 964,
      "ung": 965,
      "Ġshit": 966,
      "Ġpol": 967,
      "bably": 968,
      "Ġnarr": 969,
      "Ġsu": 970,
      "ered": 971,
      "ix": 972,
      "this": 973,
      "Ġfeature": 974,
      "cond": 975,
      "arn": 976,
      "iece": 977,
      "Ġcool": 978,
      "Ġanything": 979,
      "rist": 980,
      "ower": 981,
      "IN": 982,
      "ope": 983,
      "Ġinst": 984,
      "Ġexc": 985,
      "Ġour": 986,
      "Ġmas": 987,
      "!!!!": 988,
      "Ġsty": 989,
      "eng": 990,
      "Ġcare": 991,
      "Ġboth": 992,
      "Ġfound": 993,
      "led": 994,
      "Ġdrama": 995,
      "ason": 996,
      "ady": 997,
      "que": 998,
      "ince": 999,
      "app": 1000,
      "Ġimag": 1001,
      "orth": 1002,
      "ming": 1003,
      "Ġfamily": 1004,
      "Ġhand": 1005,
      "Ġep": 1006,
      "Ġop": 1007,
      "ange": 1008,
      "Ġmem": 1009,
      "ouse": 1010,
      "Ġwoman": 1011,
      "ank": 1012,
      "Ġwithout": 1013,
      "Ġcons": 1014,
      "Ġleast": 1015,
      "Ġwar": 1016,
      "ever": 1017,
      "ier": 1018,
      "Ġyear": 1019,
      "Ġisn": 1020,
      "Ġbu": 1021,
      "Ġpres": 1022,
      "Ġeverything": 1023,
      "ition": 1024,
      "orn": 1025,
      "Ġass": 1026,
      "Ġhel": 1027,
      "Ġdifferent": 1028,
      "finite": 1029,
      "day": 1030,
      "icul": 1031,
      "Ġeffect": 1032,
      "Ġfoot": 1033,
      "Ġcle": 1034,
      "Ġque": 1035,
      "Ġalmost": 1036,
      "onder": 1037,
      "Ġcra": 1038,
      "cially": 1039,
      "ican": 1040,
      "ew": 1041,
      "Ġmain": 1042,
      "ph": 1043,
      "Ġcall": 1044,
      "ĠNot": 1045,
      "Ġtit": 1046,
      "ography": 1047,
      "ĠTh": 1048,
      "udget": 1049,
      "Ġsecond": 1050,
      "'ll": 1051,
      "ics": 1052,
      "ues": 1053,
      "ove": 1054,
      "oring": 1055,
      "Ġcreat": 1056,
      "Ġext": 1057,
      "finitely": 1058,
      "Ġrom": 1059,
      "Ġless": 1060,
      "Ġvers": 1061,
      "Ġfin": 1062,
      "Ġweird": 1063,
      "Ġdep": 1064,
      "Ġmight": 1065,
      "ten": 1066,
      "Ġcomm": 1067,
      "olog": 1068,
      "umb": 1069,
      "Ġsing": 1070,
      "Ġsurpr": 1071,
      "Ġfucking": 1072,
      "Ġtrying": 1073,
      "Ġstand": 1074,
      "Ġending": 1075,
      "Ġyet": 1076,
      "Ġsol": 1077,
      "Ġtoget": 1078,
      "Ġsil": 1079,
      "Ġtogether": 1080,
      "Ġcome": 1081,
      "00": 1082,
      "Ġcre": 1083,
      "ists": 1084,
      "Ġhour": 1085,
      "Ġentertain": 1086,
      "sy": 1087,
      "pecially": 1088,
      "Ġmon": 1089,
      "ount": 1090,
      "Ġstar": 1091,
      "stand": 1092,
      "Ġentire": 1093,
      "Ġhappen": 1094,
      "ollow": 1095,
      "Ġplace": 1096,
      "ited": 1097,
      "ates": 1098,
      "Ġabsolute": 1099,
      "Ġkeep": 1100,
      "Ġcar": 1101,
      "ohn": 1102,
      "Ġemot": 1103,
      "Ġsch": 1104,
      "fort": 1105,
      "ese": 1106,
      "Ġ5": 1107,
      "Ġhelp": 1108,
      "Ġview": 1109,
      "ories": 1110,
      "yn": 1111,
      "ien": 1112,
      "Ġsomeone": 1113,
      "Ġsuper": 1114,
      "Ġconf": 1115,
      "Ġprobably": 1116,
      "Ġstuff": 1117,
      "ives": 1118,
      "ures": 1119,
      "ship": 1120,
      "Ġearly": 1121,
      "Ġsk": 1122,
      "res": 1123,
      "Ġgive": 1124,
      "ĠRe": 1125,
      "Ġdr": 1126,
      "Ġele": 1127,
      "ife": 1128,
      "Ġadd": 1129,
      "Ġwomen": 1130,
      "Ġmean": 1131,
      "Ġtrans": 1132,
      "ĠAn": 1133,
      "Ġfilmm": 1134,
      "Ġsong": 1135,
      "Ġnight": 1136,
      "istic": 1137,
      "Ġfact": 1138,
      "leas": 1139,
      "Ġlow": 1140,
      "onest": 1141,
      "ret": 1142,
      "ality": 1143,
      "iet": 1144,
      "Ġfavor": 1145,
      "ying": 1146,
      "ĠFr": 1147,
      "Ġfull": 1148,
      "ye": 1149,
      "ex": 1150,
      "Ġdone": 1151,
      "Ġseems": 1152,
      "Ġwonder": 1153,
      "Ġreview": 1154,
      "my": 1155,
      "Ġloved": 1156,
      "Ġbelie": 1157,
      "ho": 1158,
      "Ġliked": 1159,
      "Ġmoments": 1160,
      "ĠAmer": 1161,
      "Ġac": 1162,
      "Ġwasn": 1163,
      "ross": 1164,
      "Ġlive": 1165,
      "Ġanimation": 1166,
      "ĠBl": 1167,
      "aj": 1168,
      "ai": 1169,
      "com": 1170,
      "ĠDe": 1171,
      "Ġhaving": 1172,
      "Ġperfect": 1173,
      "ner": 1174,
      "Ġboy": 1175,
      "Ġidea": 1176,
      "Ġperformance": 1177,
      "ugg": 1178,
      "als": 1179,
      "Ġform": 1180,
      "Ġorig": 1181,
      "ĠSo": 1182,
      "Ġph": 1183,
      "Ġlight": 1184,
      "iller": 1185,
      "Ġcomplete": 1186,
      "Ġsense": 1187,
      "Ġsequ": 1188,
      "Ġdan": 1189,
      "ney": 1190,
      "Ġhead": 1191,
      "Ġgra": 1192,
      "Ġstyle": 1193,
      "ya": 1194,
      "Ġunt": 1195,
      "Ġduring": 1196,
      "Ġmar": 1197,
      "Ġsince": 1198,
      "Ġlooks": 1199,
      "Ġeach": 1200,
      "In": 1201,
      "iously": 1202,
      "Ġhistory": 1203,
      "Ġversion": 1204,
      "Ġrather": 1205,
      "uk": 1206,
      "amp": 1207,
      "Ġ4": 1208,
      "Ġfollow": 1209,
      "Ġla": 1210,
      "Ġterri": 1211,
      "isod": 1212,
      "idd": 1213,
      "AN": 1214,
      "Ġbeg": 1215,
      "ention": 1216,
      "ering": 1217,
      "ired": 1218,
      "Ġpar": 1219,
      "ilar": 1220,
      "Ġfootage": 1221,
      "Ġsupp": 1222,
      "att": 1223,
      "Ġaway": 1224,
      "Ġfight": 1225,
      "ude": 1226,
      "ident": 1227,
      "Ġref": 1228,
      "not": 1229,
      "Ġsad": 1230,
      "Ġaud": 1231,
      "ru": 1232,
      "Ġhuman": 1233,
      "Not": 1234,
      "zy": 1235,
      "Ġmiss": 1236,
      "azing": 1237,
      "Ġgoes": 1238,
      "unt": 1239,
      "Ġgetting": 1240,
      "Ġmed": 1241,
      "Ġrep": 1242,
      "ĠThat": 1243,
      "ike": 1244,
      "Ġespecially": 1245,
      "Ġstud": 1246,
      "Ġdoing": 1247,
      "land": 1248,
      "son": 1249,
      "Ġtakes": 1250,
      "ames": 1251,
      "ript": 1252,
      "cing": 1253,
      "Ġvide": 1254,
      "Ġgener": 1255,
      "Ġspecial": 1256,
      "ural": 1257,
      "yp": 1258,
      "Ġhome": 1259,
      "Ġdist": 1260,
      "Ġeveryone": 1261,
      "Ġrest": 1262,
      "Ġworth": 1263,
      "ann": 1264,
      "19": 1265,
      "Ġpower": 1266,
      "Ġdream": 1267,
      "Ġbudget": 1268,
      "ĠFilm": 1269,
      "Ġexp": 1270,
      "Ġsaid": 1271,
      "but": 1272,
      "ĠBe": 1273,
      "ĠChrist": 1274,
      "Ġexperience": 1275,
      "Ġunderstand": 1276,
      "gr": 1277,
      "Ġswe": 1278,
      "Ġproduction": 1279,
      "Ġdial": 1280,
      "Ġmess": 1281,
      "Ġmind": 1282,
      "Ġdefinitely": 1283,
      "Ġincred": 1284,
      "Ġsurpris": 1285,
      "oon": 1286,
      "Ġepisod": 1287,
      "ax": 1288,
      "ments": 1289,
      "atter": 1290,
      "Ġdet": 1291,
      "ms": 1292,
      "und": 1293,
      "Ġtop": 1294,
      "Ġwish": 1295,
      "fr": 1296,
      "asc": 1297,
      "Ġcult": 1298,
      "uss": 1299,
      "Ġboring": 1300,
      "Ġvo": 1301,
      "Ġlaugh": 1302,
      "Ġstars": 1303,
      "reak": 1304,
      "Ġfavorite": 1305,
      "Ġpiece": 1306,
      "Ġmur": 1307,
      "unch": 1308,
      "ets": 1309,
      "ibly": 1310,
      "Ġlooking": 1311,
      "Ġslow": 1312,
      "Ġfinal": 1313,
      "Ġthree": 1314,
      "Ġpass": 1315,
      "ĠTV": 1316,
      "AT": 1317,
      "Ġtitle": 1318,
      "Ġdra": 1319,
      "Ġelse": 1320,
      "arent": 1321,
      "Ġcount": 1322,
      "Ġbeh": 1323,
      "Ġperformances": 1324,
      "vent": 1325,
      "aring": 1326,
      "What": 1327,
      "llll": 1328,
      "ocus": 1329,
      "Ġuni": 1330,
      "ches": 1331,
      "Ġstop": 1332,
      "ied": 1333,
      "illi": 1334,
      "ĠTHE": 1335,
      "Ġactors": 1336,
      "Ġfall": 1337,
      "Ġmust": 1338,
      "Ġ9": 1339,
      "med": 1340,
      "If": 1341,
      "Ġsaw": 1342,
      "dd": 1343,
      "Ġschool": 1344,
      "Ġonce": 1345,
      "ump": 1346,
      "Ġdialog": 1347,
      "fully": 1348,
      "aps": 1349,
      "lease": 1350,
      "Ġ8": 1351,
      "Ġcame": 1352,
      "OO": 1353,
      "Ġport": 1354,
      "Ġliter": 1355,
      "ening": 1356,
      "ĠAr": 1357,
      "ĠJohn": 1358,
      "ract": 1359,
      "elling": 1360,
      "ott": 1361,
      "Ġuse": 1362,
      "Ġfan": 1363,
      "atched": 1364,
      "Ġyang": 1365,
      "::": 1366,
      "ival": 1367,
      "estern": 1368,
      "Ġdeep": 1369,
      "Âł": 1370,
      "Ġcomes": 1371,
      "cess": 1372,
      "You": 1373,
      "ines": 1374,
      "Ġseeing": 1375,
      "Ġcertain": 1376,
      "ats": 1377,
      "Ġsw": 1378,
      "Ġgi": 1379,
      "Ġremem": 1380,
      "Ġread": 1381,
      "Ġcour": 1382,
      "Ġappe": 1383,
      "Ġcouple": 1384,
      "Ġitself": 1385,
      "Ġdecent": 1386,
      "Ġeas": 1387,
      "Ġpain": 1388,
      "rop": 1389,
      "Ġvi": 1390,
      "Ġcur": 1391,
      "ov": 1392,
      "Ġoriginal": 1393,
      "Ġmet": 1394,
      "ĠWe": 1395,
      "nya": 1396,
      "Ġdark": 1397,
      "Ġenjoyed": 1398,
      "Ġposs": 1399,
      "Ġreg": 1400,
      "Ġcamera": 1401,
      "Ġvisual": 1402,
      "Ġguess": 1403,
      "iness": 1404,
      "ities": 1405,
      "Ġhonest": 1406,
      "Ġcut": 1407,
      "Ġimpress": 1408,
      "Ġsmall": 1409,
      "ither": 1410,
      "way": 1411,
      "ley": 1412,
      "Ġjob": 1413,
      "Ġuntil": 1414,
      "ma": 1415,
      "gg": 1416,
      "oint": 1417,
      "ork": 1418,
      "Ġwanted": 1419,
      "mas": 1420,
      "St": 1421,
      "orge": 1422,
      "Ġloc": 1423,
      "Ġreason": 1424,
      "empt": 1425,
      "Ġcute": 1426,
      "Ġret": 1427,
      "Ġmel": 1428,
      "There": 1429,
      "ized": 1430,
      "Ġblack": 1431,
      "ĠZ": 1432,
      "Ġabsolutely": 1433,
      "Ġstrong": 1434,
      "Ġcapt": 1435,
      "ĠMar": 1436,
      "ational": 1437,
      "cl": 1438,
      "uly": 1439,
      "Ġfocus": 1440,
      "Ġdeath": 1441,
      "Ġinstead": 1442,
      "Ġamazing": 1443,
      "Ġused": 1444,
      "ĠAs": 1445,
      "Ġentertaining": 1446,
      "Ġlack": 1447,
      "ĠWh": 1448,
      "iment": 1449,
      "hes": 1450,
      "Ġstra": 1451,
      "els": 1452,
      "Ġ202": 1453,
      "My": 1454,
      "ES": 1455,
      "Ġsy": 1456,
      "olly": 1457,
      "Ġeng": 1458,
      "ĠUn": 1459,
      "ger": 1460,
      "ray": 1461,
      "reme": 1462,
      "Ġpast": 1463,
      "unk": 1464,
      "Ġleft": 1465,
      "Ġsolid": 1466,
      "Ġnarrative": 1467,
      "ĠThey": 1468,
      "ĠWhat": 1469,
      "Ġsort": 1470,
      "Ġfriends": 1471,
      "Ġlost": 1472,
      "Ġdirected": 1473,
      "omb": 1474,
      "ison": 1475,
      "ĠShe": 1476,
      "de": 1477,
      "to": 1478,
      "Ġworks": 1479,
      "Ġincl": 1480,
      "IS": 1481,
      "Ġgay": 1482,
      "ular": 1483,
      "ĠCl": 1484,
      "Ġvideo": 1485,
      "oney": 1486,
      "Ġword": 1487,
      "het": 1488,
      "ific": 1489,
      "Ġbra": 1490,
      "Ġquest": 1491,
      "Ġplays": 1492,
      "Ġhell": 1493,
      "cy": 1494,
      "how": 1495,
      "vis": 1496,
      "Ġimport": 1497,
      "orm": 1498,
      "Ġwent": 1499,
      "cer": 1500,
      "what": 1501,
      "Ġshows": 1502,
      "AR": 1503,
      "pite": 1504,
      "Ġmaster": 1505,
      "Ġcop": 1506,
      "Ġfant": 1507,
      "Ġsat": 1508,
      "One": 1509,
      "ica": 1510,
      "ently": 1511,
      "Ġ7": 1512,
      "Ġmag": 1513,
      "ains": 1514,
      "ution": 1515,
      "Ġkids": 1516,
      "Ġlist": 1517,
      "Ġscript": 1518,
      "EN": 1519,
      "amn": 1520,
      "Ġstories": 1521,
      "Ġparticul": 1522,
      "Ġhope": 1523,
      "Ġcinemat": 1524,
      "Ġtrue": 1525,
      "Ġviol": 1526,
      "ĠHow": 1527,
      "ON": 1528,
      "Ġcent": 1529,
      "Ġbelieve": 1530,
      "Ġplaying": 1531,
      "osed": 1532,
      "Ġtruly": 1533,
      "Ġkinda": 1534,
      "Ġmaybe": 1535,
      "Ġmoment": 1536,
      "wood": 1537,
      "ĠIf": 1538,
      "iving": 1539,
      "Ġpolit": 1540,
      "ows": 1541,
      "ING": 1542,
      "Ġrole": 1543,
      "ared": 1544,
      "ube": 1545,
      "ina": 1546,
      "Ġsubject": 1547,
      "apan": 1548,
      "ĠLe": 1549,
      "ief": 1550,
      "br": 1551,
      "Ġmis": 1552,
      "Ġbecom": 1553,
      "yes": 1554,
      "Ġthriller": 1555,
      "ari": 1556,
      "Ġhouse": 1557,
      "Ġmostly": 1558,
      "Ġrelation": 1559,
      "ĠAmerican": 1560,
      "Ġwhite": 1561,
      "Ġfilmmak": 1562,
      "Ġinf": 1563,
      "box": 1564,
      "ones": 1565,
      "OR": 1566,
      "ides": 1567,
      "uc": 1568,
      "ored": 1569,
      "Ġworst": 1570,
      "ters": 1571,
      "?\"": 1572,
      "!!!": 1573,
      "Ġalong": 1574,
      "ascin": 1575,
      "Ġpop": 1576,
      "ha": 1577,
      "ĠSp": 1578,
      "Ġhimself": 1579,
      "Ġexist": 1580,
      "ote": 1581,
      "oke": 1582,
      "min": 1583,
      "Ġfair": 1584,
      "Ġcompletely": 1585,
      "Ġsit": 1586,
      "Ġface": 1587,
      "iel": 1588,
      "though": 1589,
      "ĠSc": 1590,
      "Ġname": 1591,
      "Ġland": 1592,
      "ential": 1593,
      "Ġbehind": 1594,
      "ĠSe": 1595,
      "oe": 1596,
      "Ġgenre": 1597,
      "Ġang": 1598,
      "ape": 1599,
      "Ġvib": 1600,
      "Ġremember": 1601,
      "Ġgod": 1602,
      "Ġlater": 1603,
      "ino": 1604,
      "let": 1605,
      "ages": 1606,
      "Ġrelationship": 1607,
      "chn": 1608,
      "AA": 1609,
      "mend": 1610,
      "ony": 1611,
      "Ġdialogue": 1612,
      "LL": 1613,
      "Ġpresent": 1614,
      "ili": 1615,
      "right": 1616,
      "Ġexact": 1617,
      "OU": 1618,
      "ried": 1619,
      "line": 1620,
      "osp": 1621,
      "onna": 1622,
      "time": 1623,
      "Ġliterally": 1624,
      "oup": 1625,
      "like": 1626,
      "Ġwrong": 1627,
      "ready": 1628,
      "gy": 1629,
      "ij": 1630,
      "Ġinvol": 1631,
      "use": 1632,
      "Ġdesign": 1633,
      "bs": 1634,
      "Ġdri": 1635,
      "Ġagainst": 1636,
      "Ġve": 1637,
      "Ġoften": 1638,
      "ĠRob": 1639,
      "form": 1640,
      "Ġtou": 1641,
      "Ġpoor": 1642,
      "Ġprot": 1643,
      "light": 1644,
      "tra": 1645,
      "uine": 1646,
      "Ġsimple": 1647,
      "Ġattempt": 1648,
      "udd": 1649,
      "rench": 1650,
      "Ġnon": 1651,
      "Ġest": 1652,
      "Ġmor": 1653,
      "Ġwal": 1654,
      "ek": 1655,
      "side": 1656,
      "Ġwa": 1657,
      "itten": 1658,
      "Ġinsp": 1659,
      "Ġcor": 1660,
      "Ġplayed": 1661,
      "ize": 1662,
      "Ġfore": 1663,
      "Ġmyself": 1664,
      "Ġant": 1665,
      "Re": 1666,
      "Ġcourse": 1667,
      "aces": 1668,
      "Ġtalking": 1669,
      "Ġdead": 1670,
      "Ġprem": 1671,
      "Ġsle": 1672,
      "Ġtoday": 1673,
      "Ġsweet": 1674,
      "Ġself": 1675,
      "Ġbro": 1676,
      "Ġmother": 1677,
      "Ġcinematography": 1678,
      "Ġalready": 1679,
      "Ġ6": 1680,
      "ara": 1681,
      "Ġhot": 1682,
      "So": 1683,
      "erman": 1684,
      "astic": 1685,
      "Ġfeeling": 1686,
      "fortun": 1687,
      "enn": 1688,
      "Ġpict": 1689,
      "Ġav": 1690,
      "terbox": 1691,
      "!\"": 1692,
      "Ġshots": 1693,
      "Ġtalk": 1694,
      "Ġimportant": 1695,
      "Ġstraight": 1696,
      "Ġflick": 1697,
      "ene": 1698,
      "Ġconcept": 1699,
      "Ġcoming": 1700,
      "Ġok": 1701,
      "Ġfine": 1702,
      "ital": 1703,
      "itch": 1704,
      "Ġnext": 1705,
      "owing": 1706,
      "Ġminute": 1707,
      "Ġtot": 1708,
      "Ġdog": 1709,
      "Ġbook": 1710,
      "Ġcrime": 1711,
      "ler": 1712,
      "ĠAll": 1713,
      "Ġanyone": 1714,
      "Ġremind": 1715,
      "Ġmatter": 1716,
      "Ġ10": 1717,
      "reci": 1718,
      "ided": 1719,
      "Ġcolle": 1720,
      "lish": 1721,
      "uth": 1722,
      "--": 1723,
      "inning": 1724,
      "Ġsingle": 1725,
      "ommend": 1726,
      "Ġfascin": 1727,
      "Ġproble": 1728,
      "Ġactor": 1729,
      "Ġlevel": 1730,
      "play": 1731,
      "rew": 1732,
      "oof": 1733,
      "ĠNo": 1734,
      "Ġconsid": 1735,
      "Ġhate": 1736,
      "Ġlives": 1737,
      "new": 1738,
      "terboxd": 1739,
      "Ġann": 1740,
      "ĠBrit": 1741,
      "any": 1742,
      "Ġpsy": 1743,
      "by": 1744,
      "Ġdays": 1745,
      "Ġ:": 1746,
      "Ġdeser": 1747,
      "ility": 1748,
      "ished": 1749,
      "ted": 1750,
      "ric": 1751,
      "ih": 1752,
      "Ġconst": 1753,
      "ots": 1754,
      "Ġdie": 1755,
      "Ġbecome": 1756,
      "ama": 1757,
      "Ġmot": 1758,
      "Ġterrible": 1759,
      "nce": 1760,
      "Ġ90": 1761,
      "Ġguys": 1762,
      "Ġson": 1763,
      "Ġside": 1764,
      "mp": 1765,
      "Ġpot": 1766,
      "Ġclassic": 1767,
      "Ġfather": 1768,
      "aby": 1769,
      "oles": 1770,
      "arch": 1771,
      "wards": 1772,
      "Ġmove": 1773,
      "Ġvoice": 1774,
      "Ġlearn": 1775,
      "Ġadapt": 1776,
      "ured": 1777,
      "iddle": 1778,
      "ada": 1779,
      "Ġdem": 1780,
      "ollywood": 1781,
      "Ġclose": 1782,
      "Ġinterview": 1783,
      "Ġgroup": 1784,
      "Ġepisode": 1785,
      "Ġeff": 1786,
      "arl": 1787,
      "Ġinclud": 1788,
      "retty": 1789,
      "where": 1790,
      "Ġeffects": 1791,
      "Ġaudience": 1792,
      "AS": 1793,
      "ĠQ": 1794,
      "ged": 1795,
      "Ġpost": 1796,
      "Ġfem": 1797,
      "ator": 1798,
      "Ġcred": 1799,
      "antly": 1800,
      "Ġediting": 1801,
      "ĠInd": 1802,
      "Ġcart": 1803,
      "Ġactual": 1804,
      "Ġwife": 1805,
      "ky": 1806,
      "Ġera": 1807,
      "Ġchildren": 1808,
      "ĠNew": 1809,
      "Ġmix": 1810,
      "Ġtold": 1811,
      "Ġbo": 1812,
      "Ġer": 1813,
      "Ġeither": 1814,
      "ĠJapan": 1815,
      "Ġprop": 1816,
      "Ġquality": 1817,
      "Ġvill": 1818,
      "ĠAlso": 1819,
      "Ġeyes": 1820,
      "body": 1821,
      "ĠAt": 1822,
      "Ġgonna": 1823,
      "ovie": 1824,
      "oud": 1825,
      "ustr": 1826,
      "ED": 1827,
      "HH": 1828,
      "ĠOne": 1829,
      "Ġbased": 1830,
      "sel": 1831,
      "aging": 1832,
      "vol": 1833,
      "pped": 1834,
      "vious": 1835,
      "Ġscore": 1836,
      "Ġbuild": 1837,
      "Ġlate": 1838,
      "Ġmurder": 1839,
      "ined": 1840,
      "Ġmusical": 1841,
      "ana": 1842,
      "ts": 1843,
      "alian": 1844,
      "Ġgives": 1845,
      "ĠMy": 1846,
      "oes": 1847,
      "ĠSome": 1848,
      "Ġprom": 1849,
      "key": 1850,
      "ety": 1851,
      "Ġappreci": 1852,
      "Th": 1853,
      "\".": 1854,
      "Ġcommun": 1855,
      "ground": 1856,
      "Ġcountry": 1857,
      "remely": 1858,
      "ively": 1859,
      "Ġgenuine": 1860,
      "Ġemotional": 1861,
      "Ġpersonal": 1862,
      "Ġenjoyable": 1863,
      "Ġbreak": 1864,
      "real": 1865,
      "Ġexactly": 1866,
      "20": 1867,
      "ĠIs": 1868,
      "ĠFor": 1869,
      "ype": 1870,
      "Ġrecommend": 1871,
      "Ġna": 1872,
      "Ġtechn": 1873,
      "ient": 1874,
      "iction": 1875,
      "Ġmoder": 1876,
      "Ġblood": 1877,
      "Ġopp": 1878,
      "Ġcase": 1879,
      "ald": 1880,
      "OV": 1881,
      "using": 1882,
      "avid": 1883,
      "ett": 1884,
      "Ġprof": 1885,
      "Ġiss": 1886,
      "anger": 1887,
      "Ġstrange": 1888,
      "Ġable": 1889,
      "Ġroom": 1890,
      "Ġknew": 1891,
      "Ġtook": 1892,
      "fortunately": 1893,
      "Ġpleas": 1894,
      "ĠMan": 1895,
      "Ġsoci": 1896,
      "Ġpat": 1897,
      "ush": 1898,
      "Ġexec": 1899,
      "ball": 1900,
      "Ġfail": 1901,
      "arring": 1902,
      "Ġma": 1903,
      "wh": 1904,
      "Ġfut": 1905,
      "oul": 1906,
      "Ġthroughout": 1907,
      "Ġhold": 1908,
      "Ġfre": 1909,
      "ĠGod": 1910,
      "watch": 1911,
      "Ġband": 1912,
      "Ġhit": 1913,
      "of": 1914,
      "ita": 1915,
      "As": 1916,
      "Ġval": 1917,
      "Ġhappened": 1918,
      "Ġcry": 1919,
      "off": 1920,
      "TH": 1921,
      "Ġwriting": 1922,
      "track": 1923,
      "Ġdisc": 1924,
      "ole": 1925,
      "Ġobs": 1926,
      "ellent": 1927,
      "Ġstrugg": 1928,
      "amb": 1929,
      "Ġgiven": 1930,
      "Ġsn": 1931,
      "Ġcho": 1932,
      "Ġodd": 1933,
      "Ġparts": 1934,
      "Ġwestern": 1935,
      "Ġshorts": 1936,
      "Ġcouldn": 1937,
      "Ġdou": 1938,
      "Ġtown": 1939,
      "ze": 1940,
      "vin": 1941,
      "Ġoverall": 1942,
      "Ġcrazy": 1943,
      "Ġcalled": 1944,
      "host": 1945,
      "selves": 1946,
      "Ġpur": 1947,
      "Ġexcept": 1948,
      "rodu": 1949,
      "itting": 1950,
      "Ġste": 1951,
      "ians": 1952,
      "Ġliving": 1953,
      "Ġhumor": 1954,
      "ology": 1955,
      "ka": 1956,
      "anda": 1957,
      "Ġhappy": 1958,
      "aged": 1959,
      "Ġstarted": 1960,
      "Ġmyst": 1961,
      "Ġtale": 1962,
      "otic": 1963,
      "Ġmiddle": 1964,
      "urb": 1965,
      "ael": 1966,
      "Ġline": 1967,
      "Ġbecomes": 1968,
      "upid": 1969,
      "Ġdev": 1970,
      "Ġforg": 1971,
      "Ġage": 1972,
      "Ġmodern": 1973,
      "hehe": 1974,
      "okes": 1975,
      "aling": 1976,
      "estival": 1977,
      "no": 1978,
      "Ġhom": 1979,
      "Ġeffort": 1980,
      "Ġhero": 1981,
      "Ġunique": 1982,
      "Ġocc": 1983,
      "omp": 1984,
      "ĠBritish": 1985,
      "Ġsubt": 1986,
      "ices": 1987,
      "antic": 1988,
      "Al": 1989,
      "Ġir": 1990,
      "haps": 1991,
      "ĠPl": 1992,
      "Ġ80": 1993,
      "nding": 1994,
      "Ġpsych": 1995,
      "Ġ201": 1996,
      "Ġsometimes": 1997,
      "mosp": 1998,
      "odram": 1999,
      "ron": 2000,
      "aced": 2001,
      "ences": 2002,
      "Ġturns": 2003,
      "itive": 2004,
      "used": 2005,
      "Ġacross": 2006,
      "Ġago": 2007,
      "Ġfascinating": 2008,
      "Ġwon": 2009,
      "Ġcareer": 2010,
      "RE": 2011,
      "Ġsoundtrack": 2012,
      "Ġsilly": 2013,
      "Ġwild": 2014,
      "Ġwithin": 2015,
      "Ġends": 2016,
      "Ġdespite": 2017,
      "Ġbus": 2018,
      "nds": 2019,
      "Ġhilar": 2020,
      "Ġbar": 2021,
      "Ġquick": 2022,
      "Ġgame": 2023,
      "Ġwants": 2024,
      "Ġcertainly": 2025,
      "Ġmoney": 2026,
      "Ġini": 2027,
      "Ġhours": 2028,
      "Ġfig": 2029,
      "Ġways": 2030,
      "ĠChristmas": 2031,
      "Ġbrother": 2032,
      "Ġstre": 2033,
      "Ġworking": 2034,
      "Ġge": 2035,
      "ĠJust": 2036,
      "Ġfinally": 2037,
      "Ġda": 2038,
      "Ġtwist": 2039,
      "imp": 2040,
      "ichael": 2041,
      "hood": 2042,
      "read": 2043,
      "amed": 2044,
      "Ġpred": 2045,
      "Ġwritten": 2046,
      "Ġ--": 2047,
      "Be": 2048,
      "agon": 2049,
      "Ġcontin": 2050,
      "Very": 2051,
      "ĠAm": 2052,
      "aries": 2053,
      "ndom": 2054,
      "appoint": 2055,
      "oved": 2056,
      "Ġproject": 2057,
      "Ġbunch": 2058,
      "Ġcheck": 2059,
      "Ġgreatest": 2060,
      "Ġwonderful": 2061,
      "urd": 2062,
      "Ch": 2063,
      "aybe": 2064,
      "aa": 2065,
      "Ġatmosp": 2066,
      "uz": 2067,
      "Ġlos": 2068,
      "Ġchang": 2069,
      "Ġcharming": 2070,
      "Ġexam": 2071,
      "Ġfree": 2072,
      "Ġcap": 2073,
      "ĠOn": 2074,
      "Ġslight": 2075,
      "Ġpremise": 2076,
      "velop": 2077,
      "When": 2078,
      "Ġshoot": 2079,
      "Ġlar": 2080,
      "outh": 2081,
      "ĠAN": 2082,
      "Ġmater": 2083,
      "ury": 2084,
      "CK": 2085,
      "Ġbody": 2086,
      "ĠMc": 2087,
      "ccess": 2088,
      "Ġdeli": 2089,
      "iod": 2090,
      "Ġmelodram": 2091,
      "Ġrid": 2092,
      "Ġincredible": 2093,
      "urt": 2094,
      "ards": 2095,
      "Ġconne": 2096,
      "ĠDon": 2097,
      "Ġble": 2098,
      "We": 2099,
      "hh": 2100,
      "eless": 2101,
      "ised": 2102,
      "gic": 2103,
      "Ġstarts": 2104,
      "Ġstupid": 2105,
      "ination": 2106,
      "Ġgave": 2107,
      "Ġmoving": 2108,
      "aughter": 2109,
      "Ġcat": 2110,
      "aving": 2111,
      "Ġsus": 2112,
      "Ġothers": 2113,
      "Ġvar": 2114,
      "Ġver": 2115,
      "Ġadm": 2116,
      "ising": 2117,
      "ĠEng": 2118,
      "ta": 2119,
      "Sh": 2120,
      "ys": 2121,
      "Some": 2122,
      "Ġhappens": 2123,
      "ura": 2124,
      "ister": 2125,
      "atural": 2126,
      "Ġpick": 2127,
      "aul": 2128,
      "Ġsocial": 2129,
      "ĠLet": 2130,
      "Ġbi": 2131,
      "Ġsimp": 2132,
      "ially": 2133,
      "irc": 2134,
      "Ġtouch": 2135,
      "fying": 2136,
      "Ġcontr": 2137,
      "Ġprov": 2138,
      "Ġparticularly": 2139,
      "Ġhu": 2140,
      "Ġfour": 2141,
      "ength": 2142,
      "Ġfuture": 2143,
      "Ġstri": 2144,
      "anch": 2145,
      "Ġphot": 2146,
      "illed": 2147,
      "Ġmaterial": 2148,
      "con": 2149,
      "ĠCan": 2150,
      "Ġsent": 2151,
      "Ġrandom": 2152,
      "Ġneeds": 2153,
      "go": 2154,
      "ero": 2155,
      "gu": 2156,
      "wise": 2157,
      "Ġdesc": 2158,
      "ously": 2159,
      "nded": 2160,
      "Ġnature": 2161,
      "Ġpri": 2162,
      "uct": 2163,
      "Ġheard": 2164,
      "Ġhorri": 2165,
      "gan": 2166,
      "Ġgrand": 2167,
      "Ġmystery": 2168,
      "mb": 2169,
      "Ġtype": 2170,
      "Ġspace": 2171,
      "Ġid": 2172,
      "Ġdisappoint": 2173,
      "Ġesc": 2174,
      "He": 2175,
      "Ġsuck": 2176,
      "Ġdirection": 2177,
      "Ġromance": 2178,
      "ement": 2179,
      "Ġheav": 2180,
      "Ġteen": 2181,
      "Ġgang": 2182,
      "Ġtaking": 2183,
      "Ġlooked": 2184,
      "lic": 2185,
      "Ġbring": 2186,
      "Ġpicture": 2187,
      "Ġsongs": 2188,
      "Ġdad": 2189,
      "itation": 2190,
      "Ġess": 2191,
      "Ġworse": 2192,
      "Ġneeded": 2193,
      "Ġexpected": 2194,
      "Ġaut": 2195,
      "Ġjour": 2196,
      "orable": 2197,
      "Ġincredibly": 2198,
      "viously": 2199,
      "Ġspir": 2200,
      "friend": 2201,
      "Ġdamn": 2202,
      "That": 2203,
      "Ġult": 2204,
      "piece": 2205,
      "Ġsupport": 2206,
      "ĠPr": 2207,
      "aves": 2208,
      "llllllll": 2209,
      "Ġcreep": 2210,
      "Ġbasically": 2211,
      "Ġsec": 2212,
      "Ġ30": 2213,
      "Ġund": 2214,
      "Ġhonestly": 2215,
      "Ġimages": 2216,
      "Ġhistor": 2217,
      "arth": 2218,
      "Ġanimated": 2219,
      "Ġhop": 2220,
      "orld": 2221,
      "Ġperiod": 2222,
      "ele": 2223,
      "ĠWar": 2224,
      "aken": 2225,
      "Ġrock": 2226,
      "ja": 2227,
      "lu": 2228,
      "itty": 2229,
      "uel": 2230,
      "Ġtalent": 2231,
      "Ġthemselves": 2232,
      "bb": 2233,
      "Ġknown": 2234,
      "Ġthinking": 2235,
      "Ġextremely": 2236,
      "Ġsign": 2237,
      "Ġbare": 2238,
      "Ġamb": 2239,
      "Ġuns": 2240,
      "head": 2241,
      "Watched": 2242,
      "Ġculture": 2243,
      "Ġtreat": 2244,
      "verse": 2245,
      "ton": 2246,
      "plic": 2247,
      "Ġsuccess": 2248,
      "Ġforget": 2249,
      "Ġcheap": 2250,
      "Ġsimply": 2251,
      "Ġleg": 2252,
      "la": 2253,
      "ĠKe": 2254,
      "ĠMe": 2255,
      "arry": 2256,
      "ĠEd": 2257,
      "Ġsays": 2258,
      "Ġchange": 2259,
      "Ġdetail": 2260,
      "ĠFrench": 2261,
      "Ġcity": 2262,
      "No": 2263,
      "ully": 2264,
      "reaking": 2265,
      "Ġopening": 2266,
      "Ġlang": 2267,
      "Ġles": 2268,
      "IT": 2269,
      "Ġreleas": 2270,
      "Ġsilent": 2271,
      "hetic": 2272,
      "pping": 2273,
      "lect": 2274,
      "Ġones": 2275,
      "::::": 2276,
      "iliar": 2277,
      "Ġfavour": 2278,
      "Ġgiving": 2279,
      "ĠTr": 2280,
      "Ġunf": 2281,
      "Ġbeginning": 2282,
      "ĠGe": 2283,
      "Ġsens": 2284,
      "rent": 2285,
      "Ġamount": 2286,
      "Ġviolence": 2287,
      "mm": 2288,
      "Ġmid": 2289,
      "ĠHollywood": 2290,
      "Ġimpressive": 2291,
      "Ġill": 2292,
      "Ġinsane": 2293,
      "Ġalone": 2294,
      "ield": 2295,
      "Ġprog": 2296,
      "OT": 2297,
      "Ġeye": 2298,
      "Ġmad": 2299,
      "Ġpure": 2300,
      "Ġtries": 2301,
      "Ġener": 2302,
      "Ġmeans": 2303,
      "acing": 2304,
      "ĠGerman": 2305,
      "Ġkiller": 2306,
      "Ġexcellent": 2307,
      "Ġclearly": 2308,
      "ants": 2309,
      "Ġappro": 2310,
      "Ġmark": 2311,
      "ĠEvery": 2312,
      "Ġsaying": 2313,
      "Ġgirls": 2314,
      "ased": 2315,
      "hel": 2316,
      "ries": 2317,
      "anna": 2318,
      "Ġsomehow": 2319,
      "rup": 2320,
      "Ġjokes": 2321,
      "Ġbaby": 2322,
      "Ġeasy": 2323,
      "Ġhilarious": 2324,
      "Ġtyp": 2325,
      "verage": 2326,
      "Ġevent": 2327,
      "Ġquestion": 2328,
      "Ġturned": 2329,
      "Ġdull": 2330,
      "enty": 2331,
      "Ġdest": 2332,
      "For": 2333,
      "lin": 2334,
      "lo": 2335,
      "eresting": 2336,
      "Ġdisco": 2337,
      "Ġmil": 2338,
      "Ġexperiment": 2339,
      "yond": 2340,
      "Ġlonger": 2341,
      "ances": 2342,
      "Ġcamp": 2343,
      "Ġcost": 2344,
      "Ġdig": 2345,
      "Ġpull": 2346,
      "Ġsuff": 2347,
      "Ġgag": 2348,
      "Ġannoy": 2349,
      "Ġhear": 2350,
      "band": 2351,
      "ĠAd": 2352,
      "fic": 2353,
      "?!": 2354,
      "por": 2355,
      "Ġsetting": 2356,
      "Ġpolitical": 2357,
      "ini": 2358,
      "Ġstay": 2359,
      "Ġimm": 2360,
      "Ġattention": 2361,
      "ĠSte": 2362,
      "Ġparent": 2363,
      "Ġrespect": 2364,
      "Ġdevelop": 2365,
      "Ġposter": 2366,
      "Ġwords": 2367,
      "Ġfa": 2368,
      "ĠPe": 2369,
      "Ġje": 2370,
      "Ġportray": 2371,
      "Ġghost": 2372,
      "izing": 2373,
      "arre": 2374,
      "Ġgun": 2375,
      "AL": 2376,
      "Ġsurv": 2377,
      "Ġinvest": 2378,
      "arb": 2379,
      "Tube": 2380,
      "Ġreality": 2381,
      "Ġtowards": 2382,
      "ĠJack": 2383,
      "Ġromantic": 2384,
      "ris": 2385,
      "aster": 2386,
      "imate": 2387,
      "cent": 2388,
      "Ġpos": 2389,
      "........": 2390,
      "Ġrunning": 2391,
      "esome": 2392,
      "ension": 2393,
      "Ġsociety": 2394,
      "Just": 2395,
      "ĠRobert": 2396,
      "ades": 2397,
      "Ġpowerful": 2398,
      "Ġfantastic": 2399,
      "Ġbackground": 2400,
      "ips": 2401,
      "orgeous": 2402,
      "Ġng": 2403,
      "aught": 2404,
      "Ġcolor": 2405,
      "illiam": 2406,
      "Ġdue": 2407,
      "Ġpossible": 2408,
      "Ġsoon": 2409,
      "ĠNe": 2410,
      "Ġreturn": 2411,
      "Ġfilmmaking": 2412,
      "Ġusual": 2413,
      "Ġrare": 2414,
      "erv": 2415,
      "ĠGreat": 2416,
      "Ġak": 2417,
      "Ġcartoon": 2418,
      "irt": 2419,
      "Ġut": 2420,
      "Ġmaj": 2421,
      "back": 2422,
      "ĠVery": 2423,
      "ionally": 2424,
      "Ġworked": 2425,
      "Ġinvolved": 2426,
      "ĠLove": 2427,
      "Ġopen": 2428,
      "Ġresult": 2429,
      "ĠOr": 2430,
      "imately": 2431,
      "ĠDavid": 2432,
      "Ġfilmmaker": 2433,
      "Ġaspect": 2434,
      "ĠHowever": 2435,
      "Ġbrilli": 2436,
      "Ġatmosphere": 2437,
      "Ġwouldn": 2438,
      "ills": 2439,
      "Ġawful": 2440,
      "Ġemp": 2441,
      "Ġinform": 2442,
      "unny": 2443,
      "ĠWith": 2444,
      "Ġfans": 2445,
      "oop": 2446,
      "umber": 2447,
      "eter": 2448,
      "Ġleads": 2449,
      "!!!!!!!!": 2450,
      "asy": 2451,
      "Ġrac": 2452,
      "Ġsimilar": 2453,
      "Another": 2454,
      "Ġfeatures": 2455,
      "Ġred": 2456,
      "Ġsever": 2457,
      "oose": 2458,
      "iest": 2459,
      "Ġlovely": 2460,
      "Ġclear": 2461,
      "Ġ70": 2462,
      "Ġevil": 2463,
      "Ġsupposed": 2464,
      "Ġproblem": 2465,
      "Why": 2466,
      "Ġcomb": 2467,
      "Ġsomewhat": 2468,
      "Ġtheat": 2469,
      "Ġfive": 2470,
      "Ġsexual": 2471,
      "Ġextra": 2472,
      "Ġsitu": 2473,
      "Ġelements": 2474,
      "Ġcrit": 2475,
      "Ġcinematic": 2476,
      "oph": 2477,
      "usband": 2478,
      "ior": 2479,
      "Ġfairly": 2480,
      "atever": 2481,
      "Ġet": 2482,
      "Ġnovel": 2483,
      "Ġyes": 2484,
      "Ġideas": 2485,
      "Ġtotally": 2486,
      "Ġteam": 2487,
      "text": 2488,
      "Ġthird": 2489,
      "Ġadvent": 2490,
      "Ġdance": 2491,
      "ga": 2492,
      "Ġadaptation": 2493,
      "ĠJapanese": 2494,
      "Ġlim": 2495,
      "ĠYouTube": 2496,
      "hic": 2497,
      "Ġintrig": 2498,
      "ĠJames": 2499,
      "Ġequ": 2500,
      "Ġemb": 2501,
      "Ġfamiliar": 2502,
      "\",": 2503,
      "ille": 2504,
      "And": 2505,
      "Ġglad": 2506,
      "ĠWell": 2507,
      "Ġseveral": 2508,
      "Ġdaughter": 2509,
      "rest": 2510,
      "Ġber": 2511,
      "Ġhands": 2512,
      "Ġmasterpiece": 2513,
      "acy": 2514,
      "Ġprotagon": 2515,
      "ression": 2516,
      "Ġtone": 2517,
      "Ġplease": 2518,
      "Ġforgot": 2519,
      "sw": 2520,
      "Ġear": 2521,
      "ĠDan": 2522,
      "Ġwater": 2523,
      "Ġdecided": 2524,
      "ges": 2525,
      "Ġgenuinely": 2526,
      "Ġokay": 2527,
      "Ġtele": 2528,
      "Ġsum": 2529,
      "Ġmessage": 2530,
      "Ġsounds": 2531,
      "Ġrecord": 2532,
      "Ġended": 2533,
      "Ġstarring": 2534,
      "ĠStill": 2535,
      "Ġreleased": 2536,
      "How": 2537,
      "ining": 2538,
      "OM": 2539,
      "Well": 2540,
      "Ġfavourite": 2541,
      "Ġpay": 2542,
      "Ġpolice": 2543,
      "stal": 2544,
      "resent": 2545,
      "Ġsurprisingly": 2546,
      "uma": 2547,
      "arm": 2548,
      "onic": 2549,
      "ĠTom": 2550,
      "Ġfire": 2551,
      "???": 2552,
      "ĠTo": 2553,
      "uted": 2554,
      "Ġsequel": 2555,
      "mark": 2556,
      "unning": 2557,
      "Ġactress": 2558,
      "wo": 2559,
      "Ġwhose": 2560,
      "gend": 2561,
      "Ġfemale": 2562,
      "Ġexpecting": 2563,
      "Ġshowing": 2564,
      "Ġfell": 2565,
      "Ġmult": 2566,
      "De": 2567,
      "Ġcirc": 2568,
      "uh": 2569,
      "Ġapart": 2570,
      "Ġspec": 2571,
      "ĠMichael": 2572,
      "Ġdebut": 2573,
      "over": 2574,
      "Ġreve": 2575,
      "EE": 2576,
      "Ġrich": 2577,
      "Ġspeak": 2578,
      "illing": 2579,
      "Ġartist": 2580,
      "ublic": 2581,
      "icks": 2582,
      "Ġissues": 2583,
      "Ġhusband": 2584,
      "Ġgem": 2585,
      "oor": 2586,
      "ĠEven": 2587,
      "Ġengaging": 2588,
      "ilt": 2589,
      "rit": 2590,
      "sp": 2591,
      "Ġ200": 2592,
      "Ġstage": 2593,
      "ĠLike": 2594,
      "Ġ.": 2595,
      "Ġment": 2596,
      "upp": 2597,
      "Ġalthough": 2598,
      "arently": 2599,
      "Ġusing": 2600,
      "hys": 2601,
      "Ġwin": 2602,
      "more": 2603,
      "ern": 2604,
      "Ġlocal": 2605,
      "Ġmedi": 2606,
      "OW": 2607,
      "Ġton": 2608,
      "eth": 2609,
      "Ġimagine": 2610,
      "Ġhowever": 2611,
      "Ġentirely": 2612,
      "Ġdumb": 2613,
      "ging": 2614,
      "ctor": 2615,
      "Ġkn": 2616,
      "ĠDis": 2617,
      "usion": 2618,
      "ressed": 2619,
      "Ġenergy": 2620,
      "oid": 2621,
      "Ġfront": 2622,
      "ĠGood": 2623,
      "Ġlength": 2624,
      "Ġru": 2625,
      "Ġfilmed": 2626,
      "Ġtrad": 2627,
      "Ġrad": 2628,
      "ĠEx": 2629,
      "cle": 2630,
      "that": 2631,
      "Ġappreciate": 2632,
      "Ġeffective": 2633,
      "ĠJe": 2634,
      "Ġmajor": 2635,
      "VD": 2636,
      "ĠHall": 2637,
      "kan": 2638,
      "Ġplan": 2639,
      "Ġporn": 2640,
      "Ġbox": 2641,
      "Ġbeyond": 2642,
      "ĠPer": 2643,
      "ĠWhen": 2644,
      "ĠEnglish": 2645,
      "Ġsleep": 2646,
      "ala": 2647,
      "IL": 2648,
      "Ġupon": 2649,
      "Ġdelight": 2650,
      "Ġlol": 2651,
      "icult": 2652,
      "ST": 2653,
      "row": 2654,
      "Ġkept": 2655,
      "Ġinde": 2656,
      "pective": 2657,
      "auty": 2658,
      "Ġpotential": 2659,
      "aked": 2660,
      "uing": 2661,
      "Ġvisuals": 2662,
      "atching": 2663,
      "Ġserious": 2664,
      "Ġindust": 2665,
      "Ġshock": 2666,
      "Ġmeet": 2667,
      "venge": 2668,
      "Pretty": 2669,
      "Ġtre": 2670,
      "Ġ197": 2671,
      "ros": 2672,
      "Ġlarge": 2673,
      "bo": 2674,
      "par": 2675,
      "Ġpoints": 2676,
      "ĠLetterboxd": 2677,
      "Ġgorgeous": 2678,
      "Ġorder": 2679,
      "Ġsoul": 2680,
      "anc": 2681,
      "Ġamong": 2682,
      "Ġinspir": 2683,
      "Ġdeal": 2684,
      "mist": 2685,
      "Ġfinds": 2686,
      "CH": 2687,
      "Ġrelease": 2688,
      "ula": 2689,
      "Really": 2690,
      "Ġbrain": 2691,
      "erson": 2692,
      "Ġground": 2693,
      "ĠCon": 2694,
      "alth": 2695,
      "Ġic": 2696,
      "Ġjump": 2697,
      "Ġaf": 2698,
      "ĠAND": 2699,
      "oun": 2700,
      "Ġaest": 2701,
      "Ġinn": 2702,
      "Ġtelling": 2703,
      "AM": 2704,
      "af": 2705,
      "ken": 2706,
      "ĠWhile": 2707,
      "Ġpun": 2708,
      "stem": 2709,
      "ume": 2710,
      "Ġincluding": 2711,
      "Ġnear": 2712,
      "Ġleave": 2713,
      "war": 2714,
      "Ġrating": 2715,
      "ĠEl": 2716,
      "gen": 2717,
      "Ġwind": 2718,
      "was": 2719,
      "aganda": 2720,
      "Ġseemed": 2721,
      "ĠIN": 2722,
      "Ġfully": 2723,
      "Ġmelodrama": 2724,
      "ĠRuss": 2725,
      "Ġdude": 2726,
      "Ġlesb": 2727,
      "Ġten": 2728,
      "Ġoper": 2729,
      "ata": 2730,
      "cious": 2731,
      "Ġclos": 2732,
      "Ġawesome": 2733,
      "Ġfilmmakers": 2734,
      "Ġperhaps": 2735,
      "Ġappear": 2736,
      "ĠWilliam": 2737,
      "Ġspirit": 2738,
      "ĠSw": 2739,
      "Ġhuge": 2740,
      "itions": 2741,
      "Ġslightly": 2742,
      "ichard": 2743,
      "Ġnearly": 2744,
      "rom": 2745,
      "Ġmention": 2746,
      "Ġpoet": 2747,
      "Ġknows": 2748,
      "Ġrob": 2749,
      "vision": 2750,
      "oly": 2751,
      "Ġbag": 2752,
      "ĠHis": 2753,
      "Ġsurprised": 2754,
      "iny": 2755,
      "Ġevents": 2756,
      "ires": 2757,
      "Ġmer": 2758,
      "Ġeasily": 2759,
      "Ġhaven": 2760,
      "Oh": 2761,
      "Ġaverage": 2762,
      "Ġ198": 2763,
      "AD": 2764,
      "Ġmeaning": 2765,
      "Ġjourney": 2766,
      "kes": 2767,
      "Ġparents": 2768,
      "Ġconc": 2769,
      "Ġpredict": 2770,
      "Ġobsess": 2771,
      "edy": 2772,
      "Ġ15": 2773,
      "uit": 2774,
      "illy": 2775,
      "Ġpen": 2776,
      "Ġcharm": 2777,
      "Ġdocumentaries": 2778,
      "Ġbrilliant": 2779,
      "Ġmonth": 2780,
      "fer": 2781,
      "Ġpa": 2782,
      "Ġhighlight": 2783,
      "Ġfol": 2784,
      "medi": 2785,
      "olid": 2786,
      "ped": 2787,
      "Ġcompelling": 2788,
      "Ġbarely": 2789,
      "Ġcreepy": 2790,
      "Ġstruct": 2791,
      "Ġ199": 2792,
      "Ġannoying": 2793,
      "osh": 2794,
      "oitation": 2795,
      "ĠCom": 2796,
      "Ġaren": 2797,
      "men": 2798,
      "Ġdifficult": 2799,
      "attle": 2800,
      "ĠOF": 2801,
      "Ġmass": 2802,
      "Ġperfectly": 2803,
      "ID": 2804,
      "film": 2805,
      "Ġruntime": 2806,
      "Ġenc": 2807,
      "They": 2808,
      "Ġsequence": 2809,
      "Every": 2810,
      "rated": 2811,
      "Ġridicul": 2812,
      "Ġsi": 2813,
      "Ġwhatever": 2814,
      "you": 2815,
      "Ġclim": 2816,
      "ki": 2817,
      "dy": 2818,
      "orry": 2819,
      "Ġder": 2820,
      "Ġarch": 2821,
      "Ġair": 2822,
      "Ġprison": 2823,
      "omen": 2824,
      "Ġoutside": 2825,
      "Ġviewing": 2826,
      "Ġident": 2827,
      "Ġweak": 2828,
      "irth": 2829,
      "ĠPh": 2830,
      "Ġotherwise": 2831,
      "ato": 2832,
      "Ġcomment": 2833,
      "Ġsave": 2834,
      "Ġintrodu": 2835,
      "unting": 2836,
      "Ġtrack": 2837,
      "ĠDVD": 2838,
      "Ġtravel": 2839,
      "lor": 2840,
      "ivid": 2841,
      "LE": 2842,
      "een": 2843,
      "Un": 2844,
      "fi": 2845,
      "Ġjoy": 2846,
      "Ġbeautifully": 2847,
      "Ġintern": 2848,
      "Wh": 2849,
      "uy": 2850,
      "Ġbiz": 2851,
      "cted": 2852,
      "ĠChe": 2853,
      "ĠGr": 2854,
      "Ġtaken": 2855,
      "Ġanime": 2856,
      "Ġinside": 2857,
      "ĠHer": 2858,
      "Ġcannot": 2859,
      "Ġbur": 2860,
      "ugs": 2861,
      "Ġroll": 2862,
      "ishing": 2863,
      "hor": 2864,
      "Ġaff": 2865,
      "Ġfur": 2866,
      "Ġinterested": 2867,
      "Great": 2868,
      "oooo": 2869,
      "acher": 2870,
      "ĠCol": 2871,
      "Ġhair": 2872,
      "ctions": 2873,
      "ares": 2874,
      "bed": 2875,
      "Ġyourself": 2876,
      "Ġsystem": 2877,
      "Ġlots": 2878,
      "rag": 2879,
      "ims": 2880,
      "ĠWorld": 2881,
      "Ġexperien": 2882,
      "Ġmedia": 2883,
      "ament": 2884,
      "Ġimpact": 2885,
      "pend": 2886,
      "Ġcoll": 2887,
      "Ġtrou": 2888,
      "ĠBlack": 2889,
      "Ġearli": 2890,
      "Ġprocess": 2891,
      "Ġheavy": 2892,
      "anks": 2893,
      "Ġnostal": 2894,
      "Ġcreative": 2895,
      "Ġnorm": 2896,
      "ogn": 2897,
      "ĠPro": 2898,
      "Ġinflu": 2899,
      "On": 2900,
      "ĠUS": 2901,
      "Ġvan": 2902,
      "Ġlangu": 2903,
      "Ġchildhood": 2904,
      "Ġexplain": 2905,
      "Ġfeat": 2906,
      "ado": 2907,
      "ĠQu": 2908,
      "Ġseg": 2909,
      "inn": 2910,
      "Ġinterviews": 2911,
      "Ġbeauty": 2912,
      "UT": 2913,
      "ios": 2914,
      "Ġfast": 2915,
      "ider": 2916,
      "Ġbang": 2917,
      "orts": 2918,
      "inema": 2919,
      "ĠLee": 2920,
      "Ġlady": 2921,
      "ĠIS": 2922,
      "uper": 2923,
      "Ġchance": 2924,
      "Ġpropaganda": 2925,
      "ailable": 2926,
      "za": 2927,
      "ps": 2928,
      "cher": 2929,
      "Ġbrought": 2930,
      "ĠItalian": 2931,
      "ĠMon": 2932,
      "Ġvibe": 2933,
      "ises": 2934,
      "Ġmulti": 2935,
      "Ġsets": 2936,
      "Ġmale": 2937,
      "Ġnumber": 2938,
      "Ġcover": 2939,
      "ieces": 2940,
      "Ġepisodes": 2941,
      "Ġphys": 2942,
      "Ġabsurd": 2943,
      "scar": 2944,
      "Ġsecret": 2945,
      "Ġhang": 2946,
      "Ġcontext": 2947,
      "Ġanti": 2948,
      "adi": 2949,
      "Ġkilled": 2950,
      "boy": 2951,
      "mistry": 2952,
      "II": 2953,
      "Ġjoke": 2954,
      "Ġlaw": 2955,
      "Ġvarious": 2956,
      "Ġtap": 2957,
      "Ġkeeps": 2958,
      "Ġtast": 2959,
      "Ġcond": 2960,
      "ization": 2961,
      "ĠFe": 2962,
      "Ġexample": 2963,
      "Ġimmedi": 2964,
      "Ġmissing": 2965,
      "Ġcommunity": 2966,
      "gest": 2967,
      "ante": 2968,
      "AY": 2969,
      "ius": 2970,
      "Ġbusiness": 2971,
      "Ġtells": 2972,
      "come": 2973,
      "ĠMor": 2974,
      "bel": 2975,
      "Ġbrut": 2976,
      "Ġrepresent": 2977,
      "Ġtv": 2978,
      "Ġwrite": 2979,
      "lex": 2980,
      "Ġapproach": 2981,
      "Ġsequences": 2982,
      "Ġprotagonist": 2983,
      "ano": 2984,
      "abor": 2985,
      "Ġcomplex": 2986,
      "urs": 2987,
      "aly": 2988,
      "Ġball": 2989,
      "ral": 2990,
      "Ġcross": 2991,
      "Ġbrief": 2992,
      "ometimes": 2993,
      "Ġsal": 2994,
      "Ġcredits": 2995,
      "ĠSam": 2996,
      "Ġtension": 2997,
      "Ġmood": 2998,
      "Ġtried": 2999,
      "ĠSm": 3000,
      "enge": 3001,
      "Ġach": 3002,
      "Ġdeeply": 3003,
      "Ġwanna": 3004,
      "Ġfalls": 3005,
      "just": 3006,
      "val": 3007,
      "Ġbal": 3008,
      "Int": 3009,
      "Ġchemistry": 3010,
      "Ġwit": 3011,
      "room": 3012,
      "Ġ50": 3013,
      "Ġinsight": 3014,
      "ĠMovie": 3015,
      "Ġlines": 3016,
      "olf": 3017,
      "Ġweek": 3018,
      "Ġpract": 3019,
      "All": 3020,
      "inally": 3021,
      "itles": 3022,
      "Ġshame": 3023,
      "Ġproper": 3024,
      "rupt": 3025,
      "ressing": 3026,
      "Ġbecame": 3027,
      "Ġadventure": 3028,
      "Ġdeserves": 3029,
      "Ġwall": 3030,
      "Ġtheme": 3031,
      "Ġ193": 3032,
      "Ġcreate": 3033,
      "Ġtest": 3034,
      ",\"": 3035,
      "ali": 3036,
      "Ġyeah": 3037,
      "lict": 3038,
      "ological": 3039,
      "Ġadult": 3040,
      "je": 3041,
      "ĠSch": 3042,
      "Ġdrag": 3043,
      "ĠBra": 3044,
      "Ġmurd": 3045,
      "Ġrewatch": 3046,
      "Ġmanages": 3047,
      "ĠTHIS": 3048,
      "Ġsold": 3049,
      "ĠFestival": 3050,
      "elebr": 3051,
      "anya": 3052,
      "bt": 3053,
      "Ġcause": 3054,
      "Ġunfortunately": 3055,
      "Don": 3056,
      "alk": 3057,
      "Ġnamed": 3058,
      "Ġsoft": 3059,
      "Good": 3060,
      "Ġsurreal": 3061,
      "Ġobviously": 3062,
      "Ġwait": 3063,
      "Ġnatural": 3064,
      "oman": 3065,
      "ET": 3066,
      "Ġmir": 3067,
      "Ġtem": 3068,
      "Ġcomic": 3069,
      "Ġvict": 3070,
      "Ġhistorical": 3071,
      "rey": 3072,
      "Ġrevenge": 3073,
      "Ġcompet": 3074,
      "Ġpack": 3075,
      "Ġrelig": 3076,
      "cast": 3077,
      "isa": 3078,
      "ued": 3079,
      "vered": 3080,
      "ĠAng": 3081,
      "Ġpassion": 3082,
      "ĠPaul": 3083,
      "Ġdescri": 3084,
      "Ġgeneral": 3085,
      "Ġparticular": 3086,
      "Ġvibes": 3087,
      "Ġbizarre": 3088,
      "Ġwood": 3089,
      "engan": 3090,
      "Ġrevol": 3091,
      "Ġchoice": 3092,
      "Ġgold": 3093,
      "ressive": 3094,
      "Ġroad": 3095,
      "Ġtrip": 3096,
      "oom": 3097,
      "ipp": 3098,
      "Ġmagic": 3099,
      "une": 3100,
      "ĠYOU": 3101,
      "cessary": 3102,
      "oofy": 3103,
      "Ġforced": 3104,
      "Ġ,": 3105,
      "inge": 3106,
      "ando": 3107,
      "Ġparty": 3108,
      "Ġthemes": 3109,
      "bl": 3110,
      "Ġmist": 3111,
      "Ġlog": 3112,
      "work": 3113,
      "Ġusually": 3114,
      "aper": 3115,
      "Ġlegend": 3116,
      "Ġforever": 3117,
      "Ġstate": 3118,
      "Ġstep": 3119,
      "Ġcas": 3120,
      "Ġstoryt": 3121,
      "Ġreviews": 3122,
      "omin": 3123,
      "opp": 3124,
      "Ġ60": 3125,
      "ĠGeorge": 3126,
      "Ġsurprise": 3127,
      "Ġexecution": 3128,
      "Ġdramatic": 3129,
      "breaking": 3130,
      "ste": 3131,
      "Ġpacing": 3132,
      "Ġmemb": 3133,
      "ĠFrank": 3134,
      "ites": 3135,
      "Ġreading": 3136,
      "erry": 3137,
      "atur": 3138,
      "Ġobvious": 3139,
      "aff": 3140,
      "ĠAmerica": 3141,
      "Ġultimately": 3142,
      "Ġcomfort": 3143,
      "Ġterms": 3144,
      "Ġexperimental": 3145,
      "Ġcontent": 3146,
      "Ġdiscuss": 3147,
      "Ġzomb": 3148,
      "budget": 3149,
      "Ġcelebr": 3150,
      "Ġstandard": 3151,
      "face": 3152,
      "Ġsusp": 3153,
      "Ġfigure": 3154,
      "Ġ196": 3155,
      "wr": 3156,
      "Ġperspective": 3157,
      "Ġoccas": 3158,
      "Ġhappening": 3159,
      "Ġbed": 3160,
      "ĠOf": 3161,
      "Ġtim": 3162,
      "Ġden": 3163,
      "Ġresp": 3164,
      "Ġframe": 3165,
      "Ġgone": 3166,
      "ĠCar": 3167,
      "ĠGra": 3168,
      "yl": 3169,
      "Ġtext": 3170,
      "Ġspect": 3171,
      "Ġsatis": 3172,
      "Ġprofess": 3173,
      "Ġpal": 3174,
      "Ġridiculous": 3175,
      "ida": 3176,
      "Ġimage": 3177,
      "Ġinspired": 3178,
      "Ġsqu": 3179,
      "Ġroles": 3180,
      "ette": 3181,
      "Ġmemory": 3182,
      "idden": 3183,
      "inese": 3184,
      "Ġstunning": 3185,
      "ĠRichard": 3186,
      "vant": 3187,
      "Ġmill": 3188,
      "vern": 3189,
      "ores": 3190,
      "Ġindie": 3191,
      "Se": 3192,
      "Ġfilled": 3193,
      "Ġmach": 3194,
      "str": 3195,
      "Ġca": 3196,
      "Ġprevious": 3197,
      "Ġbreat": 3198,
      "Ġpublic": 3199,
      "Ġtrain": 3200,
      "Ġcow": 3201,
      "olutely": 3202,
      "Ġnoir": 3203,
      "Ġforward": 3204,
      "arily": 3205,
      "annel": 3206,
      "Ġbon": 3207,
      "Ġconvers": 3208,
      "Ġsinging": 3209,
      "Ġthanks": 3210,
      "Ġdengan": 3211,
      "awa": 3212,
      "Ġfeaturing": 3213,
      "Ġcrew": 3214,
      "Ġpor": 3215,
      "Ġnarration": 3216,
      "ĠTO": 3217,
      "inda": 3218,
      "Ġdepth": 3219,
      "Ġnightm": 3220,
      "Me": 3221,
      "UCK": 3222,
      "Ġvillain": 3223,
      "Ġseason": 3224,
      "Ġfamous": 3225,
      "Ġfighting": 3226,
      "Ġcraft": 3227,
      "Ġhighly": 3228,
      "Ġkick": 3229,
      "ĠMr": 3230,
      "Ġquickly": 3231,
      "uts": 3232,
      "ĠMart": 3233,
      "rait": 3234,
      "Ġalb": 3235,
      "Ġplaces": 3236,
      "kward": 3237,
      "ague": 3238,
      "ani": 3239,
      "Ġavailable": 3240,
      "Ġdreams": 3241,
      "????": 3242,
      "Ġrecogn": 3243,
      "Ġmotion": 3244,
      "Ġbiggest": 3245,
      "IE": 3246,
      "Ġstudent": 3247,
      "Ġmod": 3248,
      ".)": 3249,
      "Ġbrings": 3250,
      "ĠDisney": 3251,
      "uggest": 3252,
      "Ġansw": 3253,
      "Ġlay": 3254,
      "Ġthank": 3255,
      "Ġcrim": 3256,
      "ĠMaybe": 3257,
      "Ġentry": 3258,
      "asher": 3259,
      "Ġprim": 3260,
      "Ġvamp": 3261,
      "Ġdrink": 3262,
      "After": 3263,
      "Ġtruth": 3264,
      "rem": 3265,
      "ĠDo": 3266,
      "Ġburn": 3267,
      "udes": 3268,
      "oil": 3269,
      "Ġsick": 3270,
      "olic": 3271,
      "ĠST": 3272,
      "asons": 3273,
      "Ġdirectors": 3274,
      "well": 3275,
      "Ġmal": 3276,
      "lix": 3277,
      "Ġmi": 3278,
      "ĠHor": 3279,
      "Ġleading": 3280,
      "ĠLa": 3281,
      "ĠNight": 3282,
      "Is": 3283,
      "ift": 3284,
      "Ġlanguage": 3285,
      "ĠEur": 3286,
      "pected": 3287,
      "Ġseriously": 3288,
      "Ġsuggest": 3289,
      "ynam": 3290,
      "IG": 3291,
      "ĠIr": 3292,
      "azz": 3293,
      "Ġspot": 3294,
      "Ġdiv": 3295,
      "ĠKore": 3296,
      "why": 3297,
      "Ġspent": 3298,
      "Ġfollows": 3299,
      "Love": 3300,
      "ĠAfter": 3301,
      "aya": 3302,
      "Ġmeets": 3303,
      "Ġpredictable": 3304,
      "Ġquiet": 3305,
      "Ġeat": 3306,
      "entially": 3307,
      "ĠPar": 3308,
      "ĠYork": 3309,
      "ĠEn": 3310,
      "itted": 3311,
      "At": 3312,
      "Ġdraw": 3313,
      "reaming": 3314,
      "know": 3315,
      "vert": 3316,
      "Ġremake": 3317,
      "Ġshown": 3318,
      "ogy": 3319,
      "Ġlif": 3320,
      "Ġproduced": 3321,
      "Ġpurp": 3322,
      "Ġindustry": 3323,
      "Ġstorytelling": 3324,
      "set": 3325,
      "Ġjo": 3326,
      "AAAA": 3327,
      "Ġreminded": 3328,
      "Ġexciting": 3329,
      "ceed": 3330,
      "which": 3331,
      "look": 3332,
      "Ġnone": 3333,
      "ode": 3334,
      "Ġwee": 3335,
      "ses": 3336,
      "rel": 3337,
      "Ġcold": 3338,
      "Ġune": 3339,
      "Ġuna": 3340,
      "round": 3341,
      "Ġimmediately": 3342,
      "espite": 3343,
      "Ġanth": 3344,
      "Ġlisten": 3345,
      "Ġserial": 3346,
      "Ġtelevision": 3347,
      "ĠIT": 3348,
      "Ġawkward": 3349,
      "aming": 3350,
      "ĠBer": 3351,
      "Ġuses": 3352,
      "Ġaccident": 3353,
      "Ġfollowing": 3354,
      "Ġcompl": 3355,
      "Ġinte": 3356,
      "Ġunex": 3357,
      "action": 3358,
      "Ġconflict": 3359,
      "ubi": 3360,
      "Ġmonster": 3361,
      "iding": 3362,
      "Ġfinding": 3363,
      "bert": 3364,
      "Ġask": 3365,
      "ĠWho": 3366,
      "Ġletterboxd": 3367,
      "list": 3368,
      "Ġetc": 3369,
      "Ġflat": 3370,
      "IC": 3371,
      "ortun": 3372,
      "Ġnons": 3373,
      "Ġboys": 3374,
      "yle": 3375,
      "Ġalive": 3376,
      "ashion": 3377,
      "ĠCr": 3378,
      "ito": 3379,
      "Ġtheater": 3380,
      "asa": 3381,
      "Ġregard": 3382,
      "Ġsituation": 3383,
      "Ġinvestig": 3384,
      "ĠWH": 3385,
      "Ġcurrent": 3386,
      "kin": 3387,
      "watched": 3388,
      "Ġrefere": 3389,
      "Ġplenty": 3390,
      "with": 3391,
      "do": 3392,
      "Ġqueer": 3393,
      "ena": 3394,
      "arted": 3395,
      "ĠChar": 3396,
      "Ġwarm": 3397,
      "Ġtypical": 3398,
      "oration": 3399,
      "Ġachie": 3400,
      "ique": 3401,
      "irector": 3402,
      "Ġearlier": 3403,
      "etf": 3404,
      "Ġpopular": 3405,
      "HHHH": 3406,
      "ĠWestern": 3407,
      "Ġbeat": 3408,
      "ivity": 3409,
      "Ġmeant": 3410,
      "Ġfood": 3411,
      "Ġdancing": 3412,
      "Ġconcert": 3413,
      "Ġstat": 3414,
      "Ġsexy": 3415,
      "Ġkiss": 3416,
      "ops": 3417,
      "Ġsister": 3418,
      "Ġnor": 3419,
      "ĠDay": 3420,
      "ĠKing": 3421,
      "Am": 3422,
      "who": 3423,
      "inary": 3424,
      "ĠMad": 3425,
      "ĠThen": 3426,
      "ĠPeter": 3427,
      "azy": 3428,
      "Ġdub": 3429,
      "Ġfantasy": 3430,
      "ding": 3431,
      "Ġtour": 3432,
      "Ġhy": 3433,
      "berg": 3434,
      "Ġhorrible": 3435,
      "alam": 3436,
      "Ġviolent": 3437,
      "onestly": 3438,
      "Ġya": 3439,
      "ĠJoe": 3440,
      "Ġoh": 3441,
      "Ġ195": 3442,
      "Ġrough": 3443,
      "Ġhat": 3444,
      "Ġchall": 3445,
      "Ġleaves": 3446,
      "Ġconsidering": 3447,
      "ring": 3448,
      "VER": 3449,
      "Ġfunn": 3450,
      "etflix": 3451,
      "Ġaccept": 3452,
      "Ġgags": 3453,
      "Ġpresence": 3454,
      "Ġalbum": 3455,
      "ĠKong": 3456,
      "Ġmemories": 3457,
      "aining": 3458,
      "Ġopin": 3459,
      "Ġbored": 3460,
      "bing": 3461,
      "Ġserv": 3462,
      "Ġfinish": 3463,
      "core": 3464,
      "Ġoffic": 3465,
      "Ġgovern": 3466,
      "ived": 3467,
      "Ġsubtitles": 3468,
      "Ġcha": 3469,
      "Ġfear": 3470,
      "iety": 3471,
      "Ġallow": 3472,
      "Ġsem": 3473,
      "Ġgore": 3474,
      "EL": 3475,
      "Ġpieces": 3476,
      "Ġbuilding": 3477,
      "Ġdynam": 3478,
      "Ġbits": 3479,
      "Ġlesbian": 3480,
      "ĠTra": 3481,
      "Ġrecently": 3482,
      "pir": 3483,
      "irty": 3484,
      "Ġdu": 3485,
      "Ġadded": 3486,
      "Ġintense": 3487,
      "han": 3488,
      "illa": 3489,
      "ĠJim": 3490,
      "ĠMa": 3491,
      "ĠReally": 3492,
      "hehehehe": 3493,
      "ĠFl": 3494,
      "Ġtrash": 3495,
      "Ġapparently": 3496,
      "ective": 3497,
      "ĠSO": 3498,
      "ĠYe": 3499,
      "Ġmemorable": 3500,
      "vo": 3501,
      "reg": 3502,
      "etime": 3503,
      "Ġjud": 3504,
      "ĠMore": 3505,
      "Ġolder": 3506,
      "ĠSH": 3507,
      "Ġsin": 3508,
      "Ġur": 3509,
      "Ġconvin": 3510,
      "esy": 3511,
      "Ġindivid": 3512,
      "Ġviewer": 3513,
      "cred": 3514,
      "Ġwriter": 3515,
      "Ġvalue": 3516,
      "Ġteacher": 3517,
      "Ġemotions": 3518,
      "Ġalien": 3519,
      "Ġmultiple": 3520,
      "Ġdin": 3521,
      "Ġstudio": 3522,
      "Ġsearch": 3523,
      "Ġcreated": 3524,
      "Ġlandsc": 3525,
      "Ġchanged": 3526,
      "cul": 3527,
      "ager": 3528,
      "Film": 3529,
      "Ġimpro": 3530,
      "Ġneg": 3531,
      "Ġrealize": 3532,
      "Ġbirth": 3533,
      "Ġcaught": 3534,
      "Ġhits": 3535,
      "udden": 3536,
      "Ġflaw": 3537,
      "Ġride": 3538,
      "Ġclever": 3539,
      "ii": 3540,
      "Ġabove": 3541,
      "Ġcontem": 3542,
      "ora": 3543,
      "riage": 3544,
      "Ġcla": 3545,
      "Ġpus": 3546,
      "Bl": 3547,
      "Ġherself": 3548,
      "Ġfaces": 3549,
      "Ġexists": 3550,
      "Ġsyn": 3551,
      "Ġslasher": 3552,
      "Ġtho": 3553,
      "Ġacted": 3554,
      "ĠNow": 3555,
      "Ġ194": 3556,
      "Ġportrait": 3557,
      "ossible": 3558,
      "ified": 3559,
      "ĠPat": 3560,
      "Ġscary": 3561,
      "zz": 3562,
      "Ġeen": 3563,
      "aze": 3564,
      "Ġbasic": 3565,
      "Ġproblems": 3566,
      "table": 3567,
      "Ġepic": 3568,
      "Ġdouble": 3569,
      "Ġwel": 3570,
      "ĠOver": 3571,
      "Ġmovement": 3572,
      "ĠX": 3573,
      "Ġwatchable": 3574,
      "appy": 3575,
      "cra": 3576,
      "Ġintriguing": 3577,
      "ĠHong": 3578,
      "inct": 3579,
      "Ġfly": 3580,
      "Ġvs": 3581,
      "Ġrepe": 3582,
      "Ġkilling": 3583,
      "ĠBen": 3584,
      "Ġdesper": 3585,
      "ateur": 3586,
      "Ġcopy": 3587,
      "asi": 3588,
      "uster": 3589,
      "Ġplus": 3590,
      "llllllllllllllll": 3591,
      "ision": 3592,
      "Ġ12": 3593,
      "iron": 3594,
      "herent": 3595,
      "shit": 3596,
      "Ġcapital": 3597,
      "can": 3598,
      "Ġdisturb": 3599,
      "Ġfestival": 3600,
      "Ġmyster": 3601,
      "Ġlaughs": 3602,
      "ux": 3603,
      "Ġwrote": 3604,
      "Ġquestions": 3605,
      "Ġattack": 3606,
      "fuck": 3607,
      "Ġbland": 3608,
      "Ġrese": 3609,
      "aven": 3610,
      "ĠWal": 3611,
      "Ġearth": 3612,
      "Ġeventually": 3613,
      "HS": 3614,
      "Ġuniverse": 3615,
      "iche": 3616,
      "Ġsci": 3617,
      "Ġaesthetic": 3618,
      "AK": 3619,
      "bly": 3620,
      "ĠTe": 3621,
      "aka": 3622,
      "ĠJo": 3623,
      "gia": 3624,
      "ĠBoy": 3625,
      "Ġrate": 3626,
      "esque": 3627,
      "Ġcentury": 3628,
      "Ġpace": 3629,
      "OL": 3630,
      "sequ": 3631,
      "sters": 3632,
      "Ġgoofy": 3633,
      "Ġmixed": 3634,
      "made": 3635,
      "agine": 3636,
      "Ġgent": 3637,
      "eries": 3638,
      "Ġuncom": 3639,
      "Ġine": 3640,
      "Ġcomedic": 3641,
      "Ġanyway": 3642,
      "Ġhaunt": 3643,
      "vil": 3644,
      "Ġpossibly": 3645,
      "Ġdoll": 3646,
      "Ġmere": 3647,
      "Ġ40": 3648,
      "Ġwhether": 3649,
      "Ġindividual": 3650,
      "yr": 3651,
      "lessly": 3652,
      "ico": 3653,
      "bor": 3654,
      "ĠPol": 3655,
      "Ġobject": 3656,
      "Ġdied": 3657,
      "Ġimagery": 3658,
      "ĠWhy": 3659,
      "arts": 3660,
      "Ġforgotten": 3661,
      "gl": 3662,
      "Ġsun": 3663,
      "Ġtraged": 3664,
      "bu": 3665,
      "house": 3666,
      "Ġbene": 3667,
      "Ġfurther": 3668,
      "ĠChinese": 3669,
      "movie": 3670,
      "whel": 3671,
      "Like": 3672,
      "Ġknowing": 3673,
      "Man": 3674,
      "Ġtotal": 3675,
      "::::::::": 3676,
      "ener": 3677,
      "apes": 3678,
      "Ġinvent": 3679,
      "Ġ:)": 3680,
      "Ex": 3681,
      "minute": 3682,
      "Ġnormal": 3683,
      "Ġcriminal": 3684,
      "Ġtragic": 3685,
      "Ġracist": 3686,
      "Ġbattle": 3687,
      "Ġhall": 3688,
      "ĠAustr": 3689,
      "Ġslowly": 3690,
      "bsolutely": 3691,
      "onton": 3692,
      "ham": 3693,
      "Ġhorse": 3694,
      "ache": 3695,
      "Ġhost": 3696,
      "ĠON": 3697,
      "VE": 3698,
      "Ġfeelings": 3699,
      "osition": 3700,
      "Ġbull": 3701,
      "esus": 3702,
      "odies": 3703,
      "Ġ18": 3704,
      "Ġopportun": 3705,
      "Ġcontrol": 3706,
      "inger": 3707,
      "ĠMost": 3708,
      "omething": 3709,
      "Ġpunch": 3710,
      "Ġsav": 3711,
      "ading": 3712,
      "Ġlocation": 3713,
      "Ġformer": 3714,
      "rick": 3715,
      "Ġwaiting": 3716,
      "Ġlad": 3717,
      "Ġ100": 3718,
      "But": 3719,
      "Ġtaste": 3720,
      "Ġthoughts": 3721,
      "AH": 3722,
      "gent": 3723,
      "Ġdeliver": 3724,
      "Ġspend": 3725,
      "ained": 3726,
      "Ġcollection": 3727,
      "Interesting": 3728,
      "Ġfrustr": 3729,
      "Ġmoves": 3730,
      "Ġ...": 3731,
      "Ġboo": 3732,
      "Ġinformation": 3733,
      "Ġstuck": 3734,
      "Ġcommer": 3735,
      "rian": 3736,
      "Ġvision": 3737,
      "down": 3738,
      "Ġsam": 3739,
      "Ġsorry": 3740,
      "IM": 3741,
      "IR": 3742,
      "Ġconcl": 3743,
      "Ġremains": 3744,
      "mo": 3745,
      "ĠNothing": 3746,
      "ALL": 3747,
      "Ġseconds": 3748,
      "Ġprogram": 3749,
      "Le": 3750,
      "Ġx": 3751,
      "Ġsudden": 3752,
      "ĠAny": 3753,
      "Ġputting": 3754,
      "ĠPal": 3755,
      "Ġremark": 3756,
      "ĠUnfortunately": 3757,
      "uan": 3758,
      "Ġeduc": 3759,
      "Ġdrunk": 3760,
      "arsh": 3761,
      "Ġloud": 3762,
      "Ġpil": 3763,
      "ĠWas": 3764,
      "Ġfashion": 3765,
      "Ġlau": 3766,
      "pro": 3767,
      "ĠLOV": 3768,
      "Ġutter": 3769,
      "imal": 3770,
      "ĠScott": 3771,
      "Ġstruggle": 3772,
      "Ġgovernment": 3773,
      "ba": 3774,
      "ĠGl": 3775,
      "never": 3776,
      "va": 3777,
      "Ġum": 3778,
      "Ġchoices": 3779,
      "Ġbitch": 3780,
      "Ġcommentary": 3781,
      "mar": 3782,
      "Ġinnoc": 3783,
      "idn": 3784,
      "Ġpeak": 3785,
      "Ġsix": 3786,
      "Ġdefin": 3787,
      "Ġstoryline": 3788,
      "Ġstructure": 3789,
      "Ġtort": 3790,
      "ocre": 3791,
      "Ġtouching": 3792,
      "Ġfit": 3793,
      "ĠMex": 3794,
      "Ġpoorly": 3795,
      "Ġdari": 3796,
      "vey": 3797,
      "urpr": 3798,
      "Ġsurround": 3799,
      "ĠAfr": 3800,
      "they": 3801,
      "Can": 3802,
      "ruction": 3803,
      "Ġpurpose": 3804,
      "Qu": 3805,
      "Ġcal": 3806,
      "Ġcolour": 3807,
      "Ġthrow": 3808,
      "umentary": 3809,
      "umes": 3810,
      "Ġconsider": 3811,
      "TV": 3812,
      "gar": 3813,
      "uses": 3814,
      "Ġmart": 3815,
      "ĠCG": 3816,
      "Ġrecent": 3817,
      "Ġmental": 3818,
      "ĠRed": 3819,
      "ivers": 3820,
      "ami": 3821,
      "Ġyouth": 3822,
      "Ġbecoming": 3823,
      "ĠCinema": 3824,
      "Ġhyp": 3825,
      "Ġforce": 3826,
      "Ġconstantly": 3827,
      "Ġdanger": 3828,
      "Ġluck": 3829,
      "ability": 3830,
      "Ġreveal": 3831,
      "Ġlived": 3832,
      "Ġstreet": 3833,
      "Who": 3834,
      "uce": 3835,
      "xual": 3836,
      "Ok": 3837,
      "Ġgiant": 3838,
      "ĠWood": 3839,
      "orthy": 3840,
      "Ġsupporting": 3841,
      "vable": 3842,
      "Ġju": 3843,
      "Ġdestro": 3844,
      "Ġwitness": 3845,
      "ids": 3846,
      "da": 3847,
      "Ġtrail": 3848,
      "lection": 3849,
      "ĠGu": 3850,
      "ĠNaz": 3851,
      "Ġfake": 3852,
      "Ġamusing": 3853,
      "ĠOscar": 3854,
      "Ġraw": 3855,
      "Ġgotta": 3856,
      "Ġshowc": 3857,
      "More": 3858,
      "itional": 3859,
      "ĠWW": 3860,
      "ĠDr": 3861,
      "ĠIndian": 3862,
      "Ġom": 3863,
      "BC": 3864,
      "Ġcatch": 3865,
      "Ġrout": 3866,
      "Ġphysical": 3867,
      "Ġfresh": 3868,
      "ĠSouth": 3869,
      "ĠDead": 3870,
      "Ġ2000": 3871,
      "ĠRay": 3872,
      "Ġgenius": 3873,
      "Ġwaste": 3874,
      "Ġpolitics": 3875,
      "Ġunexpected": 3876,
      "ander": 3877,
      "Ġunderrated": 3878,
      "ĠWill": 3879,
      "Ġcrow": 3880,
      "ĠFrom": 3881,
      "Ġclimax": 3882,
      "First": 3883,
      "Ġign": 3884,
      "UN": 3885,
      "Ġflash": 3886,
      "Ġchrist": 3887,
      "Ġhar": 3888,
      "Ġfucked": 3889,
      "ĠBob": 3890,
      "Ġheads": 3891,
      "Ġcrying": 3892,
      "Ġsuspense": 3893,
      "Ġanimals": 3894,
      "Ġvisually": 3895,
      "ensive": 3896,
      "To": 3897,
      "ĠMal": 3898,
      "?)": 3899,
      "iro": 3900,
      "ĠIts": 3901,
      "Ġamateur": 3902,
      "Ġhumour": 3903,
      "While": 3904,
      "Ġspectac": 3905,
      "itary": 3906,
      "Ġshitty": 3907,
      "ĠHar": 3908,
      "Ġdoubt": 3909,
      "Ġwalk": 3910,
      "Ġtalented": 3911,
      "Ġbroad": 3912,
      "Ġentertainment": 3913,
      "Ġdemon": 3914,
      "Ġpan": 3915,
      "aded": 3916,
      "aint": 3917,
      "Ġanymore": 3918,
      "Ġbrutal": 3919,
      "ira": 3920,
      "Ġrip": 3921,
      "Ġrelationships": 3922,
      "Ġko": 3923,
      "Ġshowed": 3924,
      "ĠHam": 3925,
      "Ġwearing": 3926,
      "umbers": 3927,
      "Beautiful": 3928,
      "Ġsour": 3929,
      "Ġscreenplay": 3930,
      "Ġconv": 3931,
      "Ġcommercial": 3932,
      "Ġcy": 3933,
      "Ġfights": 3934,
      "ĠRE": 3935,
      "ĠEm": 3936,
      "ĠPart": 3937,
      "Ġcredit": 3938,
      "ti": 3939,
      "Ġmont": 3940,
      "Ġdate": 3941,
      "Ġsmart": 3942,
      "Ġdro": 3943,
      "Ġmarried": 3944,
      "KK": 3945,
      "Ġcollege": 3946,
      "Ġmissed": 3947,
      "ĠInst": 3948,
      "Ġdepict": 3949,
      "Ġpriv": 3950,
      "unn": 3951,
      "ĠSl": 3952,
      "Ġappears": 3953,
      "With": 3954,
      "life": 3955,
      "ĠGirl": 3956,
      "Ġsubtle": 3957,
      "leep": 3958,
      "ĠNOT": 3959,
      "Ġenv": 3960,
      "Ġobsc": 3961,
      "Ġterror": 3962,
      "Ġyout": 3963,
      "osa": 3964,
      "Ġunlike": 3965,
      "ĠOh": 3966,
      "Ġmoral": 3967,
      "Ġcarry": 3968,
      "asure": 3969,
      "Ġcultural": 3970,
      "Ġil": 3971,
      "Ġblind": 3972,
      "ĠVHS": 3973,
      "FF": 3974,
      "anta": 3975,
      "Ġdirecting": 3976,
      "Ġreasons": 3977,
      "ĠMel": 3978,
      "Ġgeneric": 3979,
      "Ġkey": 3980,
      "emy": 3981,
      "there": 3982,
      "Ġedited": 3983,
      "Ġphone": 3984,
      "Ġexecuted": 3985,
      "ras": 3986,
      "Ġsitting": 3987,
      "Ġpel": 3988,
      "Ġimpossible": 3989,
      "Ġpara": 3990,
      "gly": 3991,
      "Ġloves": 3992,
      "ĠFUCK": 3993,
      "Ġseemingly": 3994,
      "Ġopinion": 3995,
      "Ġhig": 3996,
      "adian": 3997,
      ".....": 3998,
      "ooks": 3999
    },
    "merges": [
      [
        "Ġ",
        "t"
      ],
      [
        "Ġ",
        "a"
      ],
      [
        "i",
        "n"
      ],
      [
        "h",
        "e"
      ],
      [
        "Ġ",
        "s"
      ],
      [
        "r",
        "e"
      ],
      [
        "Ġ",
        "w"
      ],
      [
        "Ġ",
        "o"
      ],
      [
        "Ġt",
        "he"
      ],
      [
        "i",
        "s"
      ],
      [
        "e",
        "r"
      ],
      [
        "Ġ",
        "f"
      ],
      [
        "Ġ",
        "m"
      ],
      [
        "i",
        "t"
      ],
      [
        "a",
        "t"
      ],
      [
        "Ġ",
        "b"
      ],
      [
        "n",
        "d"
      ],
      [
        "in",
        "g"
      ],
      [
        "e",
        "n"
      ],
      [
        "Ġ",
        "c"
      ],
      [
        "o",
        "r"
      ],
      [
        "e",
        "s"
      ],
      [
        "o",
        "n"
      ],
      [
        "Ġt",
        "h"
      ],
      [
        "o",
        "u"
      ],
      [
        "a",
        "n"
      ],
      [
        "Ġ",
        "d"
      ],
      [
        "a",
        "l"
      ],
      [
        "Ġ",
        "p"
      ],
      [
        "a",
        "r"
      ],
      [
        "Ġ",
        "l"
      ],
      [
        "Ġo",
        "f"
      ],
      [
        "Ġ",
        "h"
      ],
      [
        "Ġa",
        "nd"
      ],
      [
        "e",
        "d"
      ],
      [
        "Ġt",
        "o"
      ],
      [
        "a",
        "s"
      ],
      [
        "Ġ",
        "in"
      ],
      [
        "i",
        "l"
      ],
      [
        "l",
        "y"
      ],
      [
        "o",
        "m"
      ],
      [
        "Ġ",
        "g"
      ],
      [
        "i",
        "c"
      ],
      [
        "u",
        "t"
      ],
      [
        "Ġ",
        "e"
      ],
      [
        "Ġ",
        "I"
      ],
      [
        "l",
        "e"
      ],
      [
        "s",
        "t"
      ],
      [
        "o",
        "t"
      ],
      [
        "Ġ",
        "n"
      ],
      [
        "Ġ",
        "it"
      ],
      [
        "Ġ",
        "is"
      ],
      [
        "v",
        "e"
      ],
      [
        "e",
        "t"
      ],
      [
        "c",
        "t"
      ],
      [
        "e",
        "l"
      ],
      [
        "Ġo",
        "n"
      ],
      [
        "en",
        "t"
      ],
      [
        "Ġ",
        "re"
      ],
      [
        "Ġth",
        "is"
      ],
      [
        "i",
        "m"
      ],
      [
        "i",
        "on"
      ],
      [
        "o",
        "w"
      ],
      [
        "v",
        "er"
      ],
      [
        "a",
        "d"
      ],
      [
        "Ġb",
        "e"
      ],
      [
        "Ġs",
        "t"
      ],
      [
        "c",
        "h"
      ],
      [
        "'",
        "s"
      ],
      [
        "Ġm",
        "o"
      ],
      [
        "Ġth",
        "at"
      ],
      [
        "a",
        "y"
      ],
      [
        "Ġ",
        "T"
      ],
      [
        "i",
        "e"
      ],
      [
        "g",
        "h"
      ],
      [
        "a",
        "m"
      ],
      [
        "i",
        "d"
      ],
      [
        "u",
        "n"
      ],
      [
        "Ġ",
        "y"
      ],
      [
        "k",
        "e"
      ],
      [
        "o",
        "l"
      ],
      [
        "Ġf",
        "or"
      ],
      [
        "Ġw",
        "h"
      ],
      [
        "it",
        "h"
      ],
      [
        "Ġ",
        "he"
      ],
      [
        "il",
        "m"
      ],
      [
        "Ġw",
        "as"
      ],
      [
        "Ġw",
        "ith"
      ],
      [
        "Ġa",
        "n"
      ],
      [
        "i",
        "r"
      ],
      [
        "Ġf",
        "ilm"
      ],
      [
        "s",
        "e"
      ],
      [
        "Ġb",
        "ut"
      ],
      [
        "o",
        "o"
      ],
      [
        "Ġl",
        "i"
      ],
      [
        "c",
        "e"
      ],
      [
        "r",
        "a"
      ],
      [
        "Ġ",
        "S"
      ],
      [
        "Ġa",
        "l"
      ],
      [
        "u",
        "r"
      ],
      [
        "Ġa",
        "s"
      ],
      [
        "u",
        "l"
      ],
      [
        "Ġ",
        "A"
      ],
      [
        "r",
        "o"
      ],
      [
        "Ġs",
        "h"
      ],
      [
        "al",
        "ly"
      ],
      [
        "Ġs",
        "e"
      ],
      [
        "Ġy",
        "ou"
      ],
      [
        "c",
        "k"
      ],
      [
        "l",
        "d"
      ],
      [
        "t",
        "er"
      ],
      [
        "Ġ",
        "B"
      ],
      [
        "Ġh",
        "a"
      ],
      [
        "u",
        "s"
      ],
      [
        "Ġ",
        "k"
      ],
      [
        "r",
        "i"
      ],
      [
        "v",
        "ie"
      ],
      [
        "Ġ",
        "j"
      ],
      [
        "Ġ",
        "M"
      ],
      [
        "il",
        "l"
      ],
      [
        ".",
        "."
      ],
      [
        "Ġd",
        "o"
      ],
      [
        "he",
        "r"
      ],
      [
        "om",
        "e"
      ],
      [
        "Ġ",
        "C"
      ],
      [
        "a",
        "g"
      ],
      [
        "Ġm",
        "e"
      ],
      [
        "gh",
        "t"
      ],
      [
        "a",
        "k"
      ],
      [
        "'",
        "t"
      ],
      [
        "ou",
        "t"
      ],
      [
        "Ġa",
        "b"
      ],
      [
        "u",
        "m"
      ],
      [
        "u",
        "st"
      ],
      [
        "i",
        "f"
      ],
      [
        "Ġs",
        "o"
      ],
      [
        "Ġf",
        "r"
      ],
      [
        "is",
        "t"
      ],
      [
        "or",
        "t"
      ],
      [
        "es",
        "t"
      ],
      [
        "p",
        "e"
      ],
      [
        "Ġd",
        "e"
      ],
      [
        "Ġa",
        "t"
      ],
      [
        "u",
        "p"
      ],
      [
        "ĠT",
        "he"
      ],
      [
        "Ġe",
        "x"
      ],
      [
        "Ġc",
        "h"
      ],
      [
        "Ġn",
        "ot"
      ],
      [
        "a",
        "b"
      ],
      [
        "es",
        "s"
      ],
      [
        "e",
        "m"
      ],
      [
        "e",
        "re"
      ],
      [
        "Ġmo",
        "vie"
      ],
      [
        "Ġli",
        "ke"
      ],
      [
        "Ġ",
        "W"
      ],
      [
        "Ġ",
        "H"
      ],
      [
        "an",
        "t"
      ],
      [
        "at",
        "ion"
      ],
      [
        "ver",
        "y"
      ],
      [
        "ar",
        "t"
      ],
      [
        "er",
        "s"
      ],
      [
        "ou",
        "ld"
      ],
      [
        "Ġ",
        "D"
      ],
      [
        "q",
        "u"
      ],
      [
        "Ġc",
        "om"
      ],
      [
        "Ġ",
        "v"
      ],
      [
        "Ġm",
        "y"
      ],
      [
        "Ġon",
        "e"
      ],
      [
        "Ġ",
        "r"
      ],
      [
        "oo",
        "d"
      ],
      [
        "Ġin",
        "t"
      ],
      [
        "Ġl",
        "o"
      ],
      [
        "o",
        "p"
      ],
      [
        "el",
        "l"
      ],
      [
        "a",
        "nd"
      ],
      [
        "u",
        "re"
      ],
      [
        "t",
        "h"
      ],
      [
        "Ġa",
        "re"
      ],
      [
        "a",
        "in"
      ],
      [
        "Ġw",
        "at"
      ],
      [
        "Ġab",
        "out"
      ],
      [
        "i",
        "es"
      ],
      [
        "Ġfr",
        "om"
      ],
      [
        "Ġn",
        "e"
      ],
      [
        "Ġ",
        "L"
      ],
      [
        "Ġ",
        "F"
      ],
      [
        "i",
        "ve"
      ],
      [
        "Ġ",
        "P"
      ],
      [
        "Ġh",
        "is"
      ],
      [
        "a",
        "p"
      ],
      [
        "Ġ",
        "("
      ],
      [
        "in",
        "d"
      ],
      [
        "Ġha",
        "ve"
      ],
      [
        "Ġc",
        "on"
      ],
      [
        "as",
        "t"
      ],
      [
        "Ġal",
        "l"
      ],
      [
        "Ġb",
        "y"
      ],
      [
        "at",
        "e"
      ],
      [
        "Ġs",
        "ome"
      ],
      [
        "o",
        "s"
      ],
      [
        "Ġs",
        "c"
      ],
      [
        "ou",
        "gh"
      ],
      [
        "Ġf",
        "e"
      ],
      [
        "Ġj",
        "ust"
      ],
      [
        "Ġ",
        "R"
      ],
      [
        "im",
        "e"
      ],
      [
        "Ġp",
        "l"
      ],
      [
        "i",
        "g"
      ],
      [
        "i",
        "re"
      ],
      [
        "Ġ",
        "G"
      ],
      [
        "Ġ",
        "un"
      ],
      [
        "Ġa",
        "ct"
      ],
      [
        "Ġw",
        "or"
      ],
      [
        "ou",
        "s"
      ],
      [
        "Ġw",
        "he"
      ],
      [
        "Ġwh",
        "o"
      ],
      [
        "h",
        "is"
      ],
      [
        "or",
        "y"
      ],
      [
        "on",
        "g"
      ],
      [
        "an",
        "g"
      ],
      [
        "Ġo",
        "ut"
      ],
      [
        "on",
        "e"
      ],
      [
        "ar",
        "d"
      ],
      [
        "u",
        "d"
      ],
      [
        "i",
        "ght"
      ],
      [
        "u",
        "ch"
      ],
      [
        "Ġmo",
        "re"
      ],
      [
        "al",
        "l"
      ],
      [
        "Ġ",
        "N"
      ],
      [
        "T",
        "he"
      ],
      [
        "a",
        "ct"
      ],
      [
        "Ġp",
        "re"
      ],
      [
        "o",
        "re"
      ],
      [
        "it",
        "e"
      ],
      [
        "a",
        "ck"
      ],
      [
        "re",
        "at"
      ],
      [
        "Ġ",
        "J"
      ],
      [
        "Ġl",
        "e"
      ],
      [
        "Ġwat",
        "ch"
      ],
      [
        "Ġp",
        "ro"
      ],
      [
        "v",
        "en"
      ],
      [
        "o",
        "d"
      ],
      [
        "Ġ",
        "en"
      ],
      [
        "Ġ",
        "i"
      ],
      [
        "ou",
        "nd"
      ],
      [
        "a",
        "u"
      ],
      [
        "ĠI",
        "t"
      ],
      [
        "Ġ",
        "up"
      ],
      [
        "f",
        "e"
      ],
      [
        "Ġthe",
        "y"
      ],
      [
        "Ġw",
        "e"
      ],
      [
        "Ġre",
        "ally"
      ],
      [
        "Ġc",
        "an"
      ],
      [
        "r",
        "y"
      ],
      [
        "Ġg",
        "ood"
      ],
      [
        "p",
        "p"
      ],
      [
        "Ġ",
        "E"
      ],
      [
        "it",
        "y"
      ],
      [
        "ic",
        "h"
      ],
      [
        "a",
        "ke"
      ],
      [
        "Ġg",
        "et"
      ],
      [
        "oo",
        "k"
      ],
      [
        "n",
        "t"
      ],
      [
        "Ġm",
        "an"
      ],
      [
        "Ġwh",
        "at"
      ],
      [
        "Ġo",
        "r"
      ],
      [
        "it",
        "t"
      ],
      [
        "a",
        "re"
      ],
      [
        "Ġ",
        "qu"
      ],
      [
        "h",
        "ing"
      ],
      [
        "Ġh",
        "as"
      ],
      [
        "o",
        "g"
      ],
      [
        "Ġ",
        "\""
      ],
      [
        "id",
        "e"
      ],
      [
        "Ġt",
        "ime"
      ],
      [
        "c",
        "i"
      ],
      [
        "ab",
        "le"
      ],
      [
        "ar",
        "y"
      ],
      [
        "Ġit",
        "s"
      ],
      [
        "Ġg",
        "o"
      ],
      [
        "Ġ",
        "im"
      ],
      [
        "in",
        "e"
      ],
      [
        "c",
        "he"
      ],
      [
        "Ġa",
        "r"
      ],
      [
        "Ġ",
        "O"
      ],
      [
        "ad",
        "e"
      ],
      [
        "ou",
        "r"
      ],
      [
        "o",
        "y"
      ],
      [
        "Ġ",
        "K"
      ],
      [
        "Ġn",
        "o"
      ],
      [
        "Ġth",
        "an"
      ],
      [
        "Ġh",
        "ow"
      ],
      [
        "Ġhe",
        "r"
      ],
      [
        "am",
        "e"
      ],
      [
        "Ġ",
        "very"
      ],
      [
        "!",
        "!"
      ],
      [
        "Ġp",
        "er"
      ],
      [
        "l",
        "l"
      ],
      [
        "s",
        "s"
      ],
      [
        "u",
        "b"
      ],
      [
        "Ġst",
        "ory"
      ],
      [
        "Ġch",
        "ar"
      ],
      [
        "Ġm",
        "uch"
      ],
      [
        "n",
        "e"
      ],
      [
        "a",
        "v"
      ],
      [
        "Ġ",
        "1"
      ],
      [
        "Ġlo",
        "ve"
      ],
      [
        "ic",
        "k"
      ],
      [
        "Ġthe",
        "re"
      ],
      [
        "ay",
        "s"
      ],
      [
        "in",
        "k"
      ],
      [
        "t",
        "y"
      ],
      [
        "ag",
        "e"
      ],
      [
        "i",
        "v"
      ],
      [
        "g",
        "e"
      ],
      [
        "ic",
        "e"
      ],
      [
        "p",
        "l"
      ],
      [
        "Ġint",
        "o"
      ],
      [
        "n",
        "ow"
      ],
      [
        "Ġbe",
        "c"
      ],
      [
        "Ġse",
        "e"
      ],
      [
        "Ġp",
        "e"
      ],
      [
        "Ġan",
        "y"
      ],
      [
        "Ġw",
        "ould"
      ],
      [
        "Ġc",
        "l"
      ],
      [
        "i",
        "b"
      ],
      [
        "Ġwhe",
        "n"
      ],
      [
        "p",
        "t"
      ],
      [
        "..",
        "."
      ],
      [
        "nd",
        "er"
      ],
      [
        "is",
        "h"
      ],
      [
        "T",
        "his"
      ],
      [
        "Ġf",
        "un"
      ],
      [
        "Ġt",
        "r"
      ],
      [
        "s",
        "o"
      ],
      [
        "Ġfe",
        "el"
      ],
      [
        "Ġthe",
        "ir"
      ],
      [
        "Ġth",
        "r"
      ],
      [
        "Ġsh",
        "ort"
      ],
      [
        "Ġ",
        "u"
      ],
      [
        "u",
        "ck"
      ],
      [
        "a",
        "c"
      ],
      [
        "Ġa",
        "m"
      ],
      [
        "Ġp",
        "o"
      ],
      [
        "Ġ",
        "if"
      ],
      [
        "Ġe",
        "nd"
      ],
      [
        "f",
        "f"
      ],
      [
        "i",
        "an"
      ],
      [
        "ar",
        "s"
      ],
      [
        "Ġh",
        "ad"
      ],
      [
        "Ġb",
        "et"
      ],
      [
        "as",
        "s"
      ],
      [
        "Ġe",
        "very"
      ],
      [
        "Ġd",
        "id"
      ],
      [
        "f",
        "ul"
      ],
      [
        "Ġmo",
        "st"
      ],
      [
        "e",
        "p"
      ],
      [
        "m",
        "an"
      ],
      [
        "Ġg",
        "reat"
      ],
      [
        "u",
        "e"
      ],
      [
        "Ġa",
        "d"
      ],
      [
        "m",
        "ent"
      ],
      [
        "Ġm",
        "ade"
      ],
      [
        "t",
        "her"
      ],
      [
        "Ġo",
        "ver"
      ],
      [
        "Ġk",
        "now"
      ],
      [
        "i",
        "ous"
      ],
      [
        "Ġthe",
        "m"
      ],
      [
        "p",
        "le"
      ],
      [
        "Ġwor",
        "k"
      ],
      [
        "Ġto",
        "o"
      ],
      [
        "n",
        "y"
      ],
      [
        "ire",
        "ct"
      ],
      [
        "op",
        "le"
      ],
      [
        "Ġl",
        "ook"
      ],
      [
        "er",
        "t"
      ],
      [
        "Ġ",
        "2"
      ],
      [
        "Ġchar",
        "act"
      ],
      [
        "Ġdo",
        "c"
      ],
      [
        "Ġe",
        "ven"
      ],
      [
        "Ġth",
        "ing"
      ],
      [
        "en",
        "ce"
      ],
      [
        "Ġon",
        "ly"
      ],
      [
        "il",
        "e"
      ],
      [
        "ic",
        "al"
      ],
      [
        "h",
        "at"
      ],
      [
        "Ġwh",
        "ich"
      ],
      [
        "f",
        "or"
      ],
      [
        "Ġw",
        "ay"
      ],
      [
        "ir",
        "st"
      ],
      [
        "au",
        "se"
      ],
      [
        "Ġdo",
        "es"
      ],
      [
        "Ġpe",
        "ople"
      ],
      [
        "itt",
        "le"
      ],
      [
        "t",
        "e"
      ],
      [
        "'",
        "m"
      ],
      [
        "Ġs",
        "p"
      ],
      [
        "Ġw",
        "ere"
      ],
      [
        "Ġt",
        "w"
      ],
      [
        "om",
        "et"
      ],
      [
        "Ġc",
        "o"
      ],
      [
        "in",
        "t"
      ],
      [
        "i",
        "a"
      ],
      [
        "um",
        "ent"
      ],
      [
        "i",
        "z"
      ],
      [
        "ere",
        "st"
      ],
      [
        "Ġp",
        "art"
      ],
      [
        "Ġth",
        "ink"
      ],
      [
        "Ġc",
        "ould"
      ],
      [
        "Ġd",
        "irect"
      ],
      [
        "Ġl",
        "ittle"
      ],
      [
        "Ġ",
        "-"
      ],
      [
        "ut",
        "e"
      ],
      [
        "Ġm",
        "in"
      ],
      [
        "Ġw",
        "ell"
      ],
      [
        "at",
        "ed"
      ],
      [
        "'",
        "ve"
      ],
      [
        "Ġ",
        "Y"
      ],
      [
        "i",
        "al"
      ],
      [
        "p",
        "er"
      ],
      [
        "Ġb",
        "l"
      ],
      [
        "w",
        "e"
      ],
      [
        "Ġbe",
        "ing"
      ],
      [
        "Ġo",
        "ther"
      ],
      [
        "che",
        "d"
      ],
      [
        "o",
        "se"
      ],
      [
        "Ġt",
        "e"
      ],
      [
        "u",
        "al"
      ],
      [
        "Ġg",
        "u"
      ],
      [
        "Ġm",
        "ak"
      ],
      [
        "pe",
        "ct"
      ],
      [
        "Ġhe",
        "re"
      ],
      [
        "Ġf",
        "irst"
      ],
      [
        "a",
        "ce"
      ],
      [
        "Ġsh",
        "ow"
      ],
      [
        "Ġy",
        "e"
      ],
      [
        "ot",
        "her"
      ],
      [
        "Ġh",
        "im"
      ],
      [
        "a",
        "w"
      ],
      [
        "Ġ",
        "us"
      ],
      [
        "el",
        "f"
      ],
      [
        "h",
        "y"
      ],
      [
        "t",
        "ty"
      ],
      [
        "Ġd",
        "is"
      ],
      [
        "ul",
        "t"
      ],
      [
        "Ġm",
        "ake"
      ],
      [
        "Ġof",
        "f"
      ],
      [
        "Ġa",
        "g"
      ],
      [
        "Ġmo",
        "v"
      ],
      [
        "re",
        "d"
      ],
      [
        "Ġfilm",
        "s"
      ],
      [
        "Ġs",
        "he"
      ],
      [
        "Ġbec",
        "ause"
      ],
      [
        "Ġsc",
        "en"
      ],
      [
        "Ġbe",
        "en"
      ],
      [
        "i",
        "p"
      ],
      [
        "Ġre",
        "al"
      ],
      [
        "a",
        "h"
      ],
      [
        "ĠC",
        "h"
      ],
      [
        "Ġdoc",
        "ument"
      ],
      [
        "re",
        "ss"
      ],
      [
        "t",
        "ing"
      ],
      [
        "Ġint",
        "erest"
      ],
      [
        "an",
        "s"
      ],
      [
        "Ġw",
        "ant"
      ],
      [
        "Ġ",
        "V"
      ],
      [
        "Ġs",
        "omet"
      ],
      [
        "g",
        "et"
      ],
      [
        "ar",
        "k"
      ],
      [
        "il",
        "d"
      ],
      [
        "o",
        "st"
      ],
      [
        "ow",
        "n"
      ],
      [
        "Ġli",
        "fe"
      ],
      [
        "o",
        "b"
      ],
      [
        "f",
        "ter"
      ],
      [
        "Ġb",
        "r"
      ],
      [
        "u",
        "ally"
      ],
      [
        "Ġ",
        "ent"
      ],
      [
        "Ġd",
        "es"
      ],
      [
        "en",
        "s"
      ],
      [
        "Ġal",
        "so"
      ],
      [
        "Ġ",
        "ra"
      ],
      [
        "Ġd",
        "on"
      ],
      [
        "Ġthr",
        "ough"
      ],
      [
        "r",
        "am"
      ],
      [
        "c",
        "o"
      ],
      [
        "Ġyou",
        "r"
      ],
      [
        "in",
        "em"
      ],
      [
        "c",
        "es"
      ],
      [
        "Ġs",
        "er"
      ],
      [
        "Ġp",
        "r"
      ],
      [
        "ic",
        "t"
      ],
      [
        "Ġst",
        "ill"
      ],
      [
        "Ġb",
        "it"
      ],
      [
        "Ġs",
        "l"
      ],
      [
        "ĠT",
        "his"
      ],
      [
        "Ġf",
        "l"
      ],
      [
        "an",
        "ce"
      ],
      [
        "ct",
        "ion"
      ],
      [
        "Ġl",
        "ot"
      ],
      [
        "vie",
        "w"
      ],
      [
        "Ġb",
        "ad"
      ],
      [
        "Ġ",
        "ro"
      ],
      [
        "at",
        "ing"
      ],
      [
        "Ġw",
        "ill"
      ],
      [
        "v",
        "ed"
      ],
      [
        "th",
        "ing"
      ],
      [
        "Ġwhe",
        "re"
      ],
      [
        "t",
        "he"
      ],
      [
        "Ġe",
        "ver"
      ],
      [
        "Ġg",
        "r"
      ],
      [
        "Ġc",
        "r"
      ],
      [
        "c",
        "c"
      ],
      [
        "is",
        "e"
      ],
      [
        "Ġb",
        "ack"
      ],
      [
        "Ġne",
        "ver"
      ],
      [
        "Ġpre",
        "tty"
      ],
      [
        "a",
        "z"
      ],
      [
        "a",
        "ch"
      ],
      [
        "Ġh",
        "or"
      ],
      [
        "a",
        "ut"
      ],
      [
        "s",
        "h"
      ],
      [
        "fe",
        "ct"
      ],
      [
        "Ġb",
        "est"
      ],
      [
        "Ġre",
        "m"
      ],
      [
        "ur",
        "n"
      ],
      [
        "il",
        "y"
      ],
      [
        "Ġse",
        "en"
      ],
      [
        "Ġpl",
        "ay"
      ],
      [
        "m",
        "er"
      ],
      [
        "Ġdocument",
        "ary"
      ],
      [
        "o",
        "c"
      ],
      [
        "Ġsomet",
        "hing"
      ],
      [
        "ol",
        "l"
      ],
      [
        "n",
        "g"
      ],
      [
        "Ġu",
        "nder"
      ],
      [
        "Ġst",
        "r"
      ],
      [
        "Ġk",
        "ind"
      ],
      [
        "Ġ",
        "ri"
      ],
      [
        "ver",
        "s"
      ],
      [
        "u",
        "g"
      ],
      [
        "Ġbet",
        "ter"
      ],
      [
        "ar",
        "ly"
      ],
      [
        "ar",
        "r"
      ],
      [
        "Ġc",
        "inem"
      ],
      [
        "Ġt",
        "al"
      ],
      [
        "Ġim",
        "p"
      ],
      [
        "v",
        "ing"
      ],
      [
        "Ġg",
        "en"
      ],
      [
        "Ġmov",
        "ies"
      ],
      [
        "v",
        "es"
      ],
      [
        "Ġa",
        "fter"
      ],
      [
        "Ġw",
        "r"
      ],
      [
        "ul",
        "l"
      ],
      [
        "Ġinterest",
        "ing"
      ],
      [
        "Ġg",
        "ot"
      ],
      [
        "Ġtw",
        "o"
      ],
      [
        "ĠS",
        "t"
      ],
      [
        "Ġwatch",
        "ing"
      ],
      [
        "Ġthe",
        "se"
      ],
      [
        "b",
        "le"
      ],
      [
        "or",
        "s"
      ],
      [
        "ol",
        "d"
      ],
      [
        "Ġm",
        "us"
      ],
      [
        "Ġa",
        "w"
      ],
      [
        "Ġs",
        "ay"
      ],
      [
        "Ġe",
        "m"
      ],
      [
        "b",
        "e"
      ],
      [
        "Ġs",
        "ur"
      ],
      [
        "Ġt",
        "ra"
      ],
      [
        "Ġin",
        "c"
      ],
      [
        "w",
        "n"
      ],
      [
        "Ġthe",
        "n"
      ],
      [
        "d",
        "u"
      ],
      [
        "Ġs",
        "pe"
      ],
      [
        "im",
        "es"
      ],
      [
        "Ġ",
        "U"
      ],
      [
        "Ġde",
        "c"
      ],
      [
        "ou",
        "ght"
      ],
      [
        "b",
        "er"
      ],
      [
        "Ġw",
        "om"
      ],
      [
        "Ġ2",
        "0"
      ],
      [
        "Ġf",
        "uck"
      ],
      [
        "ion",
        "s"
      ],
      [
        "re",
        "e"
      ],
      [
        "Ġcom",
        "ed"
      ],
      [
        "Ġl",
        "ong"
      ],
      [
        "Ġ1",
        "9"
      ],
      [
        "if",
        "ul"
      ],
      [
        "ve",
        "l"
      ],
      [
        "as",
        "e"
      ],
      [
        "at",
        "h"
      ],
      [
        "o",
        "ot"
      ],
      [
        "ent",
        "s"
      ],
      [
        "Ġper",
        "for"
      ],
      [
        "aut",
        "iful"
      ],
      [
        "ra",
        "p"
      ],
      [
        "r",
        "or"
      ],
      [
        "in",
        "al"
      ],
      [
        "m",
        "e"
      ],
      [
        "i",
        "k"
      ],
      [
        "Ġwh",
        "ile"
      ],
      [
        "j",
        "oy"
      ],
      [
        "Ġne",
        "ed"
      ],
      [
        "Ġs",
        "ub"
      ],
      [
        "Ġha",
        "pp"
      ],
      [
        "Ġs",
        "up"
      ],
      [
        "at",
        "ure"
      ],
      [
        "Ġp",
        "ers"
      ],
      [
        "Ġre",
        "c"
      ],
      [
        "Ġs",
        "et"
      ],
      [
        "Ġ",
        "ke"
      ],
      [
        ".",
        "\""
      ],
      [
        "Ġgo",
        "ing"
      ],
      [
        "er",
        "y"
      ],
      [
        "is",
        "s"
      ],
      [
        "f",
        "ore"
      ],
      [
        "Ġc",
        "he"
      ],
      [
        "ab",
        "ly"
      ],
      [
        "ut",
        "es"
      ],
      [
        "n",
        "ing"
      ],
      [
        "ie",
        "nd"
      ],
      [
        "i",
        "gh"
      ],
      [
        "ir",
        "l"
      ],
      [
        "if",
        "f"
      ],
      [
        "l",
        "es"
      ],
      [
        "w",
        "ays"
      ],
      [
        "Ġf",
        "ind"
      ],
      [
        "ĠA",
        "nd"
      ],
      [
        "Ġse",
        "em"
      ],
      [
        "Ġf",
        "am"
      ],
      [
        "Ġcom",
        "p"
      ],
      [
        "Ġin",
        "s"
      ],
      [
        "Ġman",
        "y"
      ],
      [
        "Ġwat",
        "ched"
      ],
      [
        "I",
        "t"
      ],
      [
        "'",
        "re"
      ],
      [
        "Ġm",
        "om"
      ],
      [
        "Ġen",
        "joy"
      ],
      [
        "Ġt",
        "er"
      ],
      [
        "ert",
        "ain"
      ],
      [
        "is",
        "m"
      ],
      [
        "Ġcharact",
        "er"
      ],
      [
        "Ġn",
        "ow"
      ],
      [
        "at",
        "her"
      ],
      [
        "e",
        "ct"
      ],
      [
        "Ġcon",
        "t"
      ],
      [
        "a",
        "il"
      ],
      [
        "ir",
        "d"
      ],
      [
        "at",
        "ive"
      ],
      [
        "Ġar",
        "t"
      ],
      [
        "Ġc",
        "ou"
      ],
      [
        "Ġwor",
        "ld"
      ],
      [
        "Ġcharact",
        "ers"
      ],
      [
        "en",
        "se"
      ],
      [
        "Ġmin",
        "utes"
      ],
      [
        "u",
        "ff"
      ],
      [
        "re",
        "en"
      ],
      [
        "Ġgu",
        "y"
      ],
      [
        "Ġth",
        "ough"
      ],
      [
        "Ġ",
        "es"
      ],
      [
        "Ġag",
        "ain"
      ],
      [
        "Ġre",
        "l"
      ],
      [
        "Ġs",
        "m"
      ],
      [
        "Ġsh",
        "ot"
      ],
      [
        "ci",
        "al"
      ],
      [
        "ĠB",
        "ut"
      ],
      [
        "Ġan",
        "im"
      ],
      [
        "Ġo",
        "ld"
      ],
      [
        "ig",
        "n"
      ],
      [
        "Ġh",
        "um"
      ],
      [
        "f",
        "t"
      ],
      [
        "Ġst",
        "art"
      ],
      [
        "Ġmak",
        "es"
      ],
      [
        "Ġsh",
        "ould"
      ],
      [
        "on",
        "s"
      ],
      [
        "d",
        "er"
      ],
      [
        "Ġpl",
        "ot"
      ],
      [
        "ic",
        "ally"
      ],
      [
        ")",
        "."
      ],
      [
        "Ġbe",
        "autiful"
      ],
      [
        "Ġs",
        "a"
      ],
      [
        "Ġact",
        "ually"
      ],
      [
        "Ġbe",
        "fore"
      ],
      [
        "Ġperfor",
        "man"
      ],
      [
        "Ġdid",
        "n"
      ],
      [
        "Ġ",
        "'"
      ],
      [
        "l",
        "ess"
      ],
      [
        "l",
        "i"
      ],
      [
        "Ġal",
        "ways"
      ],
      [
        "it",
        "ing"
      ],
      [
        "s",
        "elf"
      ],
      [
        "Ġre",
        "s"
      ],
      [
        "ak",
        "ing"
      ],
      [
        "Ġen",
        "ough"
      ],
      [
        "?",
        "?"
      ],
      [
        "Ġth",
        "ose"
      ],
      [
        "re",
        "n"
      ],
      [
        "Ġye",
        "ars"
      ],
      [
        "Ġar",
        "ound"
      ],
      [
        "k",
        "ing"
      ],
      [
        "Ġd",
        "own"
      ],
      [
        "Ġin",
        "ter"
      ],
      [
        "Ġne",
        "w"
      ],
      [
        "n",
        "ess"
      ],
      [
        "Ġs",
        "im"
      ],
      [
        "Ġthing",
        "s"
      ],
      [
        "el",
        "t"
      ],
      [
        "Ġs",
        "uch"
      ],
      [
        "Ġcomed",
        "y"
      ],
      [
        "Ġd",
        "ram"
      ],
      [
        "Ġs",
        "ame"
      ],
      [
        "at",
        "er"
      ],
      [
        "Ġpers",
        "on"
      ],
      [
        "ib",
        "le"
      ],
      [
        "Ġo",
        "b"
      ],
      [
        "Ġdoes",
        "n"
      ],
      [
        "i",
        "ence"
      ],
      [
        "Ġs",
        "ound"
      ],
      [
        "Ġd",
        "iff"
      ],
      [
        "n",
        "a"
      ],
      [
        "Ġth",
        "ought"
      ],
      [
        "k",
        "s"
      ],
      [
        "Ġt",
        "ry"
      ],
      [
        "we",
        "en"
      ],
      [
        "Ġmus",
        "ic"
      ],
      [
        "re",
        "am"
      ],
      [
        "he",
        "re"
      ],
      [
        "k",
        "ed"
      ],
      [
        "Ġpo",
        "int"
      ],
      [
        "p",
        "r"
      ],
      [
        "Ġqu",
        "ite"
      ],
      [
        "a",
        "ir"
      ],
      [
        "Ġri",
        "ght"
      ],
      [
        "Ġat",
        "t"
      ],
      [
        "Ġo",
        "wn"
      ],
      [
        "it",
        "s"
      ],
      [
        "ot",
        "h"
      ],
      [
        "..",
        ".."
      ],
      [
        "er",
        "a"
      ],
      [
        "ri",
        "g"
      ],
      [
        "Ġa",
        "pp"
      ],
      [
        "Ġm",
        "ay"
      ],
      [
        "ation",
        "s"
      ],
      [
        "x",
        "t"
      ],
      [
        "or",
        "d"
      ],
      [
        "f",
        "in"
      ],
      [
        "ce",
        "pt"
      ],
      [
        "Ġfun",
        "ny"
      ],
      [
        "w",
        "ard"
      ],
      [
        "Ġg",
        "irl"
      ],
      [
        "Ġbet",
        "ween"
      ],
      [
        "Ġh",
        "ard"
      ],
      [
        "og",
        "rap"
      ],
      [
        "Ġex",
        "per"
      ],
      [
        "Ġm",
        "en"
      ],
      [
        "o",
        "ck"
      ],
      [
        "ĠI",
        "n"
      ],
      [
        "at",
        "ch"
      ],
      [
        "Ġk",
        "id"
      ],
      [
        "Ġhor",
        "ror"
      ],
      [
        "os",
        "s"
      ],
      [
        "ĠA",
        "l"
      ],
      [
        "as",
        "h"
      ],
      [
        "o",
        "h"
      ],
      [
        "j",
        "ect"
      ],
      [
        "i",
        "o"
      ],
      [
        "ĠB",
        "r"
      ],
      [
        "ĠS",
        "h"
      ],
      [
        "ur",
        "ing"
      ],
      [
        "Ġ",
        "ide"
      ],
      [
        "Ġ",
        "3"
      ],
      [
        "l",
        "ing"
      ],
      [
        "Ġt",
        "ri"
      ],
      [
        "Ġe",
        "l"
      ],
      [
        "Ġv",
        "is"
      ],
      [
        "Ġin",
        "v"
      ],
      [
        "al",
        "f"
      ],
      [
        "Ġfeel",
        "s"
      ],
      [
        "Ġb",
        "ig"
      ],
      [
        "Ġscen",
        "e"
      ],
      [
        "o",
        "nd"
      ],
      [
        "Ġwh",
        "y"
      ],
      [
        "Ġc",
        "ol"
      ],
      [
        "a",
        "ve"
      ],
      [
        "Ġpro",
        "du"
      ],
      [
        "Ġin",
        "d"
      ],
      [
        "Ġe",
        "v"
      ],
      [
        "Ġfr",
        "iend"
      ],
      [
        "Ġdirect",
        "or"
      ],
      [
        "he",
        "n"
      ],
      [
        "Ġse",
        "x"
      ],
      [
        "Ġt",
        "urn"
      ],
      [
        "Ġab",
        "s"
      ],
      [
        "Ġfe",
        "w"
      ],
      [
        "ap",
        "t"
      ],
      [
        "ion",
        "al"
      ],
      [
        "Ġf",
        "av"
      ],
      [
        "Ġex",
        "pl"
      ],
      [
        "Ġa",
        "p"
      ],
      [
        "Ġd",
        "el"
      ],
      [
        "Ġk",
        "ill"
      ],
      [
        "Ġc",
        "ast"
      ],
      [
        "on",
        "t"
      ],
      [
        "ate",
        "ly"
      ],
      [
        "ĠH",
        "e"
      ],
      [
        "c",
        "ed"
      ],
      [
        "an",
        "e"
      ],
      [
        "ĠThe",
        "re"
      ],
      [
        "Ġ",
        "ed"
      ],
      [
        "Ġex",
        "pect"
      ],
      [
        "ak",
        "es"
      ],
      [
        "m",
        "ost"
      ],
      [
        "Ġl",
        "ast"
      ],
      [
        "it",
        "er"
      ],
      [
        "Ġc",
        "am"
      ],
      [
        "Ġt",
        "ell"
      ],
      [
        "o",
        "k"
      ],
      [
        "f",
        "fect"
      ],
      [
        "Ġch",
        "ild"
      ],
      [
        "Ġb",
        "el"
      ],
      [
        "Ġle",
        "ad"
      ],
      [
        "Ġp",
        "ut"
      ],
      [
        "ing",
        "s"
      ],
      [
        "Ġwho",
        "le"
      ],
      [
        "Ġcinem",
        "a"
      ],
      [
        "in",
        "s"
      ],
      [
        "Ġr",
        "un"
      ],
      [
        "Ġs",
        "ure"
      ],
      [
        "Ġnot",
        "hing"
      ],
      [
        "Ġscen",
        "es"
      ],
      [
        "au",
        "gh"
      ],
      [
        "Ġcom",
        "ple"
      ],
      [
        "A",
        "n"
      ],
      [
        "he",
        "d"
      ],
      [
        "Ġt",
        "imes"
      ],
      [
        "Ġget",
        "s"
      ],
      [
        "Ġh",
        "ist"
      ],
      [
        "o",
        "x"
      ],
      [
        "Ġh",
        "alf"
      ],
      [
        "e",
        "e"
      ],
      [
        "Ġb",
        "as"
      ],
      [
        "Ġh",
        "igh"
      ],
      [
        ")",
        ","
      ],
      [
        "al",
        "e"
      ],
      [
        "s",
        "c"
      ],
      [
        "Ġt",
        "ake"
      ],
      [
        "ĠT",
        "H"
      ],
      [
        "E",
        "R"
      ],
      [
        "Ġcl",
        "ass"
      ],
      [
        "Ġn",
        "ice"
      ],
      [
        "ol",
        "ute"
      ],
      [
        "Ġ",
        "z"
      ],
      [
        "'",
        "d"
      ],
      [
        "Ġa",
        "cc"
      ],
      [
        "at",
        "ic"
      ],
      [
        "Ġact",
        "ing"
      ],
      [
        "Ġd",
        "i"
      ],
      [
        "e",
        "c"
      ],
      [
        "o",
        "ol"
      ],
      [
        "Ġdiff",
        "ere"
      ],
      [
        "Ġd",
        "ay"
      ],
      [
        "Ġf",
        "ar"
      ],
      [
        "Ġser",
        "ies"
      ],
      [
        "Ġg",
        "l"
      ],
      [
        "st",
        "er"
      ],
      [
        "od",
        "y"
      ],
      [
        "Ġact",
        "ion"
      ],
      [
        "Ġsc",
        "reen"
      ],
      [
        "ter",
        "n"
      ],
      [
        "Ġl",
        "et"
      ],
      [
        "e",
        "ad"
      ],
      [
        "Ġmak",
        "ing"
      ],
      [
        "ĠY",
        "ou"
      ],
      [
        "Ġhe",
        "art"
      ],
      [
        "Ġan",
        "other"
      ],
      [
        "Ġf",
        "elt"
      ],
      [
        "ing",
        "ly"
      ],
      [
        "Ġyou",
        "ng"
      ],
      [
        "un",
        "g"
      ],
      [
        "Ġsh",
        "it"
      ],
      [
        "Ġp",
        "ol"
      ],
      [
        "b",
        "ably"
      ],
      [
        "Ġn",
        "arr"
      ],
      [
        "Ġs",
        "u"
      ],
      [
        "ere",
        "d"
      ],
      [
        "i",
        "x"
      ],
      [
        "th",
        "is"
      ],
      [
        "Ġfe",
        "ature"
      ],
      [
        "co",
        "nd"
      ],
      [
        "ar",
        "n"
      ],
      [
        "ie",
        "ce"
      ],
      [
        "Ġco",
        "ol"
      ],
      [
        "Ġany",
        "thing"
      ],
      [
        "r",
        "ist"
      ],
      [
        "ow",
        "er"
      ],
      [
        "I",
        "N"
      ],
      [
        "o",
        "pe"
      ],
      [
        "Ġin",
        "st"
      ],
      [
        "Ġex",
        "c"
      ],
      [
        "Ġo",
        "ur"
      ],
      [
        "Ġm",
        "as"
      ],
      [
        "!!",
        "!!"
      ],
      [
        "Ġst",
        "y"
      ],
      [
        "en",
        "g"
      ],
      [
        "Ġc",
        "are"
      ],
      [
        "Ġb",
        "oth"
      ],
      [
        "Ġf",
        "ound"
      ],
      [
        "l",
        "ed"
      ],
      [
        "Ġdram",
        "a"
      ],
      [
        "as",
        "on"
      ],
      [
        "ad",
        "y"
      ],
      [
        "qu",
        "e"
      ],
      [
        "in",
        "ce"
      ],
      [
        "ap",
        "p"
      ],
      [
        "Ġim",
        "ag"
      ],
      [
        "ort",
        "h"
      ],
      [
        "m",
        "ing"
      ],
      [
        "Ġfam",
        "ily"
      ],
      [
        "Ġha",
        "nd"
      ],
      [
        "Ġe",
        "p"
      ],
      [
        "Ġo",
        "p"
      ],
      [
        "ang",
        "e"
      ],
      [
        "Ġme",
        "m"
      ],
      [
        "ou",
        "se"
      ],
      [
        "Ġwom",
        "an"
      ],
      [
        "an",
        "k"
      ],
      [
        "Ġwith",
        "out"
      ],
      [
        "Ġcon",
        "s"
      ],
      [
        "Ġle",
        "ast"
      ],
      [
        "Ġw",
        "ar"
      ],
      [
        "e",
        "ver"
      ],
      [
        "i",
        "er"
      ],
      [
        "Ġye",
        "ar"
      ],
      [
        "Ġis",
        "n"
      ],
      [
        "Ġb",
        "u"
      ],
      [
        "Ġpre",
        "s"
      ],
      [
        "Ġevery",
        "thing"
      ],
      [
        "it",
        "ion"
      ],
      [
        "or",
        "n"
      ],
      [
        "Ġas",
        "s"
      ],
      [
        "Ġhe",
        "l"
      ],
      [
        "Ġdiffere",
        "nt"
      ],
      [
        "fin",
        "ite"
      ],
      [
        "d",
        "ay"
      ],
      [
        "ic",
        "ul"
      ],
      [
        "Ġe",
        "ffect"
      ],
      [
        "Ġf",
        "oot"
      ],
      [
        "Ġc",
        "le"
      ],
      [
        "Ġqu",
        "e"
      ],
      [
        "Ġal",
        "most"
      ],
      [
        "o",
        "nder"
      ],
      [
        "Ġc",
        "ra"
      ],
      [
        "ci",
        "ally"
      ],
      [
        "ic",
        "an"
      ],
      [
        "e",
        "w"
      ],
      [
        "Ġm",
        "ain"
      ],
      [
        "p",
        "h"
      ],
      [
        "Ġc",
        "all"
      ],
      [
        "ĠN",
        "ot"
      ],
      [
        "Ġt",
        "it"
      ],
      [
        "ograp",
        "hy"
      ],
      [
        "ĠT",
        "h"
      ],
      [
        "ud",
        "get"
      ],
      [
        "Ġse",
        "cond"
      ],
      [
        "'",
        "ll"
      ],
      [
        "ic",
        "s"
      ],
      [
        "u",
        "es"
      ],
      [
        "o",
        "ve"
      ],
      [
        "or",
        "ing"
      ],
      [
        "Ġc",
        "reat"
      ],
      [
        "Ġex",
        "t"
      ],
      [
        "finite",
        "ly"
      ],
      [
        "Ġr",
        "om"
      ],
      [
        "Ġl",
        "ess"
      ],
      [
        "Ġ",
        "vers"
      ],
      [
        "Ġf",
        "in"
      ],
      [
        "Ġwe",
        "ird"
      ],
      [
        "Ġde",
        "p"
      ],
      [
        "Ġm",
        "ight"
      ],
      [
        "t",
        "en"
      ],
      [
        "Ġcom",
        "m"
      ],
      [
        "ol",
        "og"
      ],
      [
        "um",
        "b"
      ],
      [
        "Ġs",
        "ing"
      ],
      [
        "Ġsur",
        "pr"
      ],
      [
        "Ġfuck",
        "ing"
      ],
      [
        "Ġtry",
        "ing"
      ],
      [
        "Ġst",
        "and"
      ],
      [
        "Ġend",
        "ing"
      ],
      [
        "Ġy",
        "et"
      ],
      [
        "Ġs",
        "ol"
      ],
      [
        "Ġto",
        "get"
      ],
      [
        "Ġs",
        "il"
      ],
      [
        "Ġtoget",
        "her"
      ],
      [
        "Ġc",
        "ome"
      ],
      [
        "0",
        "0"
      ],
      [
        "Ġc",
        "re"
      ],
      [
        "ist",
        "s"
      ],
      [
        "Ġh",
        "our"
      ],
      [
        "Ġent",
        "ertain"
      ],
      [
        "s",
        "y"
      ],
      [
        "pe",
        "cially"
      ],
      [
        "Ġm",
        "on"
      ],
      [
        "ou",
        "nt"
      ],
      [
        "Ġst",
        "ar"
      ],
      [
        "st",
        "and"
      ],
      [
        "Ġent",
        "ire"
      ],
      [
        "Ġhapp",
        "en"
      ],
      [
        "oll",
        "ow"
      ],
      [
        "Ġpl",
        "ace"
      ],
      [
        "it",
        "ed"
      ],
      [
        "at",
        "es"
      ],
      [
        "Ġabs",
        "olute"
      ],
      [
        "Ġke",
        "ep"
      ],
      [
        "Ġc",
        "ar"
      ],
      [
        "oh",
        "n"
      ],
      [
        "Ġem",
        "ot"
      ],
      [
        "Ġs",
        "ch"
      ],
      [
        "f",
        "ort"
      ],
      [
        "es",
        "e"
      ],
      [
        "Ġ",
        "5"
      ],
      [
        "Ġhel",
        "p"
      ],
      [
        "Ġ",
        "view"
      ],
      [
        "or",
        "ies"
      ],
      [
        "y",
        "n"
      ],
      [
        "i",
        "en"
      ],
      [
        "Ġsome",
        "one"
      ],
      [
        "Ġsup",
        "er"
      ],
      [
        "Ġcon",
        "f"
      ],
      [
        "Ġpro",
        "bably"
      ],
      [
        "Ġst",
        "uff"
      ],
      [
        "iv",
        "es"
      ],
      [
        "ure",
        "s"
      ],
      [
        "sh",
        "ip"
      ],
      [
        "Ġe",
        "arly"
      ],
      [
        "Ġs",
        "k"
      ],
      [
        "re",
        "s"
      ],
      [
        "Ġg",
        "ive"
      ],
      [
        "ĠR",
        "e"
      ],
      [
        "Ġd",
        "r"
      ],
      [
        "Ġe",
        "le"
      ],
      [
        "if",
        "e"
      ],
      [
        "Ġad",
        "d"
      ],
      [
        "Ġwom",
        "en"
      ],
      [
        "Ġme",
        "an"
      ],
      [
        "Ġtr",
        "ans"
      ],
      [
        "ĠA",
        "n"
      ],
      [
        "Ġfilm",
        "m"
      ],
      [
        "Ġs",
        "ong"
      ],
      [
        "Ġn",
        "ight"
      ],
      [
        "ist",
        "ic"
      ],
      [
        "Ġf",
        "act"
      ],
      [
        "le",
        "as"
      ],
      [
        "Ġl",
        "ow"
      ],
      [
        "on",
        "est"
      ],
      [
        "re",
        "t"
      ],
      [
        "al",
        "ity"
      ],
      [
        "i",
        "et"
      ],
      [
        "Ġfav",
        "or"
      ],
      [
        "y",
        "ing"
      ],
      [
        "ĠF",
        "r"
      ],
      [
        "Ġf",
        "ull"
      ],
      [
        "y",
        "e"
      ],
      [
        "e",
        "x"
      ],
      [
        "Ġd",
        "one"
      ],
      [
        "Ġseem",
        "s"
      ],
      [
        "Ġw",
        "onder"
      ],
      [
        "Ġre",
        "view"
      ],
      [
        "m",
        "y"
      ],
      [
        "Ġlo",
        "ved"
      ],
      [
        "Ġbel",
        "ie"
      ],
      [
        "h",
        "o"
      ],
      [
        "Ġli",
        "ked"
      ],
      [
        "Ġmom",
        "ents"
      ],
      [
        "ĠA",
        "mer"
      ],
      [
        "Ġa",
        "c"
      ],
      [
        "Ġwas",
        "n"
      ],
      [
        "ro",
        "ss"
      ],
      [
        "Ġli",
        "ve"
      ],
      [
        "Ġanim",
        "ation"
      ],
      [
        "ĠB",
        "l"
      ],
      [
        "a",
        "j"
      ],
      [
        "a",
        "i"
      ],
      [
        "c",
        "om"
      ],
      [
        "ĠD",
        "e"
      ],
      [
        "Ġha",
        "ving"
      ],
      [
        "Ġper",
        "fect"
      ],
      [
        "n",
        "er"
      ],
      [
        "Ġb",
        "oy"
      ],
      [
        "Ġide",
        "a"
      ],
      [
        "Ġperforman",
        "ce"
      ],
      [
        "ug",
        "g"
      ],
      [
        "al",
        "s"
      ],
      [
        "Ġfor",
        "m"
      ],
      [
        "Ġo",
        "rig"
      ],
      [
        "ĠS",
        "o"
      ],
      [
        "Ġp",
        "h"
      ],
      [
        "Ġli",
        "ght"
      ],
      [
        "ill",
        "er"
      ],
      [
        "Ġcomple",
        "te"
      ],
      [
        "Ġs",
        "ense"
      ],
      [
        "Ġse",
        "qu"
      ],
      [
        "Ġd",
        "an"
      ],
      [
        "ne",
        "y"
      ],
      [
        "Ġhe",
        "ad"
      ],
      [
        "Ġg",
        "ra"
      ],
      [
        "Ġsty",
        "le"
      ],
      [
        "y",
        "a"
      ],
      [
        "Ġun",
        "t"
      ],
      [
        "Ġd",
        "uring"
      ],
      [
        "Ġm",
        "ar"
      ],
      [
        "Ġs",
        "ince"
      ],
      [
        "Ġlook",
        "s"
      ],
      [
        "Ġe",
        "ach"
      ],
      [
        "I",
        "n"
      ],
      [
        "ious",
        "ly"
      ],
      [
        "Ġhist",
        "ory"
      ],
      [
        "Ġvers",
        "ion"
      ],
      [
        "Ġr",
        "ather"
      ],
      [
        "u",
        "k"
      ],
      [
        "am",
        "p"
      ],
      [
        "Ġ",
        "4"
      ],
      [
        "Ġf",
        "ollow"
      ],
      [
        "Ġl",
        "a"
      ],
      [
        "Ġter",
        "ri"
      ],
      [
        "is",
        "od"
      ],
      [
        "id",
        "d"
      ],
      [
        "A",
        "N"
      ],
      [
        "Ġbe",
        "g"
      ],
      [
        "ent",
        "ion"
      ],
      [
        "er",
        "ing"
      ],
      [
        "ire",
        "d"
      ],
      [
        "Ġp",
        "ar"
      ],
      [
        "il",
        "ar"
      ],
      [
        "Ġfoot",
        "age"
      ],
      [
        "Ġsup",
        "p"
      ],
      [
        "at",
        "t"
      ],
      [
        "Ġaw",
        "ay"
      ],
      [
        "Ġf",
        "ight"
      ],
      [
        "ud",
        "e"
      ],
      [
        "id",
        "ent"
      ],
      [
        "Ġre",
        "f"
      ],
      [
        "n",
        "ot"
      ],
      [
        "Ġs",
        "ad"
      ],
      [
        "Ġa",
        "ud"
      ],
      [
        "r",
        "u"
      ],
      [
        "Ġhum",
        "an"
      ],
      [
        "N",
        "ot"
      ],
      [
        "z",
        "y"
      ],
      [
        "Ġm",
        "iss"
      ],
      [
        "az",
        "ing"
      ],
      [
        "Ġgo",
        "es"
      ],
      [
        "un",
        "t"
      ],
      [
        "Ġget",
        "ting"
      ],
      [
        "Ġm",
        "ed"
      ],
      [
        "Ġre",
        "p"
      ],
      [
        "ĠT",
        "hat"
      ],
      [
        "i",
        "ke"
      ],
      [
        "Ġes",
        "pecially"
      ],
      [
        "Ġst",
        "ud"
      ],
      [
        "Ġdo",
        "ing"
      ],
      [
        "l",
        "and"
      ],
      [
        "s",
        "on"
      ],
      [
        "Ġt",
        "akes"
      ],
      [
        "am",
        "es"
      ],
      [
        "ri",
        "pt"
      ],
      [
        "c",
        "ing"
      ],
      [
        "Ġv",
        "ide"
      ],
      [
        "Ġgen",
        "er"
      ],
      [
        "Ġspe",
        "cial"
      ],
      [
        "ur",
        "al"
      ],
      [
        "y",
        "p"
      ],
      [
        "Ġh",
        "ome"
      ],
      [
        "Ġd",
        "ist"
      ],
      [
        "Ġevery",
        "one"
      ],
      [
        "Ġre",
        "st"
      ],
      [
        "Ġw",
        "orth"
      ],
      [
        "an",
        "n"
      ],
      [
        "1",
        "9"
      ],
      [
        "Ġp",
        "ower"
      ],
      [
        "Ġd",
        "ream"
      ],
      [
        "Ġb",
        "udget"
      ],
      [
        "ĠF",
        "ilm"
      ],
      [
        "Ġex",
        "p"
      ],
      [
        "Ġsa",
        "id"
      ],
      [
        "b",
        "ut"
      ],
      [
        "ĠB",
        "e"
      ],
      [
        "ĠCh",
        "rist"
      ],
      [
        "Ġexper",
        "ience"
      ],
      [
        "Ġunder",
        "stand"
      ],
      [
        "g",
        "r"
      ],
      [
        "Ġs",
        "we"
      ],
      [
        "Ġprodu",
        "ction"
      ],
      [
        "Ġd",
        "ial"
      ],
      [
        "Ġm",
        "ess"
      ],
      [
        "Ġm",
        "ind"
      ],
      [
        "Ġde",
        "finitely"
      ],
      [
        "Ġinc",
        "red"
      ],
      [
        "Ġsurpr",
        "is"
      ],
      [
        "o",
        "on"
      ],
      [
        "Ġep",
        "isod"
      ],
      [
        "a",
        "x"
      ],
      [
        "ment",
        "s"
      ],
      [
        "at",
        "ter"
      ],
      [
        "Ġd",
        "et"
      ],
      [
        "m",
        "s"
      ],
      [
        "u",
        "nd"
      ],
      [
        "Ġto",
        "p"
      ],
      [
        "Ġw",
        "ish"
      ],
      [
        "f",
        "r"
      ],
      [
        "as",
        "c"
      ],
      [
        "Ġc",
        "ult"
      ],
      [
        "us",
        "s"
      ],
      [
        "Ġb",
        "oring"
      ],
      [
        "Ġv",
        "o"
      ],
      [
        "Ġl",
        "augh"
      ],
      [
        "Ġst",
        "ars"
      ],
      [
        "re",
        "ak"
      ],
      [
        "Ġfavor",
        "ite"
      ],
      [
        "Ġp",
        "iece"
      ],
      [
        "Ġm",
        "ur"
      ],
      [
        "un",
        "ch"
      ],
      [
        "et",
        "s"
      ],
      [
        "ib",
        "ly"
      ],
      [
        "Ġlook",
        "ing"
      ],
      [
        "Ġsl",
        "ow"
      ],
      [
        "Ġf",
        "inal"
      ],
      [
        "Ġth",
        "ree"
      ],
      [
        "Ġp",
        "ass"
      ],
      [
        "ĠT",
        "V"
      ],
      [
        "A",
        "T"
      ],
      [
        "Ġtit",
        "le"
      ],
      [
        "Ġd",
        "ra"
      ],
      [
        "Ġel",
        "se"
      ],
      [
        "are",
        "nt"
      ],
      [
        "Ġcou",
        "nt"
      ],
      [
        "Ġbe",
        "h"
      ],
      [
        "Ġperforman",
        "ces"
      ],
      [
        "v",
        "ent"
      ],
      [
        "ar",
        "ing"
      ],
      [
        "W",
        "hat"
      ],
      [
        "ll",
        "ll"
      ],
      [
        "oc",
        "us"
      ],
      [
        "Ġun",
        "i"
      ],
      [
        "che",
        "s"
      ],
      [
        "Ġst",
        "op"
      ],
      [
        "i",
        "ed"
      ],
      [
        "ill",
        "i"
      ],
      [
        "ĠTH",
        "E"
      ],
      [
        "Ġact",
        "ors"
      ],
      [
        "Ġf",
        "all"
      ],
      [
        "Ġm",
        "ust"
      ],
      [
        "Ġ",
        "9"
      ],
      [
        "m",
        "ed"
      ],
      [
        "I",
        "f"
      ],
      [
        "Ġs",
        "aw"
      ],
      [
        "d",
        "d"
      ],
      [
        "Ġsch",
        "ool"
      ],
      [
        "Ġon",
        "ce"
      ],
      [
        "um",
        "p"
      ],
      [
        "Ġdial",
        "og"
      ],
      [
        "ful",
        "ly"
      ],
      [
        "ap",
        "s"
      ],
      [
        "le",
        "ase"
      ],
      [
        "Ġ",
        "8"
      ],
      [
        "Ġc",
        "ame"
      ],
      [
        "O",
        "O"
      ],
      [
        "Ġp",
        "ort"
      ],
      [
        "Ġl",
        "iter"
      ],
      [
        "en",
        "ing"
      ],
      [
        "ĠA",
        "r"
      ],
      [
        "ĠJ",
        "ohn"
      ],
      [
        "ra",
        "ct"
      ],
      [
        "ell",
        "ing"
      ],
      [
        "ot",
        "t"
      ],
      [
        "Ġu",
        "se"
      ],
      [
        "Ġf",
        "an"
      ],
      [
        "at",
        "ched"
      ],
      [
        "Ġy",
        "ang"
      ],
      [
        ":",
        ":"
      ],
      [
        "iv",
        "al"
      ],
      [
        "es",
        "tern"
      ],
      [
        "Ġde",
        "ep"
      ],
      [
        "Â",
        "ł"
      ],
      [
        "Ġcom",
        "es"
      ],
      [
        "c",
        "ess"
      ],
      [
        "Y",
        "ou"
      ],
      [
        "in",
        "es"
      ],
      [
        "Ġsee",
        "ing"
      ],
      [
        "Ġc",
        "ertain"
      ],
      [
        "at",
        "s"
      ],
      [
        "Ġs",
        "w"
      ],
      [
        "Ġg",
        "i"
      ],
      [
        "Ġrem",
        "em"
      ],
      [
        "Ġre",
        "ad"
      ],
      [
        "Ġc",
        "our"
      ],
      [
        "Ġap",
        "pe"
      ],
      [
        "Ġcou",
        "ple"
      ],
      [
        "Ġits",
        "elf"
      ],
      [
        "Ġdec",
        "ent"
      ],
      [
        "Ġe",
        "as"
      ],
      [
        "Ġp",
        "ain"
      ],
      [
        "ro",
        "p"
      ],
      [
        "Ġv",
        "i"
      ],
      [
        "Ġc",
        "ur"
      ],
      [
        "o",
        "v"
      ],
      [
        "Ġorig",
        "inal"
      ],
      [
        "Ġm",
        "et"
      ],
      [
        "ĠW",
        "e"
      ],
      [
        "ny",
        "a"
      ],
      [
        "Ġd",
        "ark"
      ],
      [
        "Ġenjoy",
        "ed"
      ],
      [
        "Ġp",
        "oss"
      ],
      [
        "Ġre",
        "g"
      ],
      [
        "Ġcam",
        "era"
      ],
      [
        "Ġvis",
        "ual"
      ],
      [
        "Ġgu",
        "ess"
      ],
      [
        "in",
        "ess"
      ],
      [
        "it",
        "ies"
      ],
      [
        "Ġh",
        "onest"
      ],
      [
        "Ġc",
        "ut"
      ],
      [
        "Ġimp",
        "ress"
      ],
      [
        "Ġsm",
        "all"
      ],
      [
        "it",
        "her"
      ],
      [
        "w",
        "ay"
      ],
      [
        "le",
        "y"
      ],
      [
        "Ġj",
        "ob"
      ],
      [
        "Ġunt",
        "il"
      ],
      [
        "m",
        "a"
      ],
      [
        "g",
        "g"
      ],
      [
        "o",
        "int"
      ],
      [
        "or",
        "k"
      ],
      [
        "Ġwant",
        "ed"
      ],
      [
        "m",
        "as"
      ],
      [
        "S",
        "t"
      ],
      [
        "or",
        "ge"
      ],
      [
        "Ġlo",
        "c"
      ],
      [
        "Ġre",
        "ason"
      ],
      [
        "em",
        "pt"
      ],
      [
        "Ġc",
        "ute"
      ],
      [
        "Ġre",
        "t"
      ],
      [
        "Ġm",
        "el"
      ],
      [
        "The",
        "re"
      ],
      [
        "iz",
        "ed"
      ],
      [
        "Ġbl",
        "ack"
      ],
      [
        "Ġ",
        "Z"
      ],
      [
        "Ġabsolute",
        "ly"
      ],
      [
        "Ġstr",
        "ong"
      ],
      [
        "Ġc",
        "apt"
      ],
      [
        "ĠM",
        "ar"
      ],
      [
        "ation",
        "al"
      ],
      [
        "c",
        "l"
      ],
      [
        "u",
        "ly"
      ],
      [
        "Ġf",
        "ocus"
      ],
      [
        "Ġde",
        "ath"
      ],
      [
        "Ġinst",
        "ead"
      ],
      [
        "Ġam",
        "azing"
      ],
      [
        "Ġus",
        "ed"
      ],
      [
        "ĠA",
        "s"
      ],
      [
        "Ġentertain",
        "ing"
      ],
      [
        "Ġl",
        "ack"
      ],
      [
        "ĠW",
        "h"
      ],
      [
        "im",
        "ent"
      ],
      [
        "he",
        "s"
      ],
      [
        "Ġst",
        "ra"
      ],
      [
        "el",
        "s"
      ],
      [
        "Ġ20",
        "2"
      ],
      [
        "M",
        "y"
      ],
      [
        "E",
        "S"
      ],
      [
        "Ġs",
        "y"
      ],
      [
        "ol",
        "ly"
      ],
      [
        "Ġen",
        "g"
      ],
      [
        "ĠU",
        "n"
      ],
      [
        "g",
        "er"
      ],
      [
        "r",
        "ay"
      ],
      [
        "re",
        "me"
      ],
      [
        "Ġp",
        "ast"
      ],
      [
        "un",
        "k"
      ],
      [
        "Ġle",
        "ft"
      ],
      [
        "Ġsol",
        "id"
      ],
      [
        "Ġnarr",
        "ative"
      ],
      [
        "ĠThe",
        "y"
      ],
      [
        "ĠW",
        "hat"
      ],
      [
        "Ġs",
        "ort"
      ],
      [
        "Ġfriend",
        "s"
      ],
      [
        "Ġlo",
        "st"
      ],
      [
        "Ġdirect",
        "ed"
      ],
      [
        "om",
        "b"
      ],
      [
        "is",
        "on"
      ],
      [
        "ĠS",
        "he"
      ],
      [
        "d",
        "e"
      ],
      [
        "t",
        "o"
      ],
      [
        "Ġwork",
        "s"
      ],
      [
        "Ġinc",
        "l"
      ],
      [
        "I",
        "S"
      ],
      [
        "Ġg",
        "ay"
      ],
      [
        "ul",
        "ar"
      ],
      [
        "ĠC",
        "l"
      ],
      [
        "Ġvide",
        "o"
      ],
      [
        "one",
        "y"
      ],
      [
        "Ġwor",
        "d"
      ],
      [
        "he",
        "t"
      ],
      [
        "if",
        "ic"
      ],
      [
        "Ġb",
        "ra"
      ],
      [
        "Ġqu",
        "est"
      ],
      [
        "Ġpl",
        "ays"
      ],
      [
        "Ġhe",
        "ll"
      ],
      [
        "c",
        "y"
      ],
      [
        "h",
        "ow"
      ],
      [
        "v",
        "is"
      ],
      [
        "Ġimp",
        "ort"
      ],
      [
        "or",
        "m"
      ],
      [
        "Ġw",
        "ent"
      ],
      [
        "c",
        "er"
      ],
      [
        "w",
        "hat"
      ],
      [
        "Ġshow",
        "s"
      ],
      [
        "A",
        "R"
      ],
      [
        "p",
        "ite"
      ],
      [
        "Ġmas",
        "ter"
      ],
      [
        "Ġc",
        "op"
      ],
      [
        "Ġf",
        "ant"
      ],
      [
        "Ġs",
        "at"
      ],
      [
        "O",
        "ne"
      ],
      [
        "ic",
        "a"
      ],
      [
        "ent",
        "ly"
      ],
      [
        "Ġ",
        "7"
      ],
      [
        "Ġm",
        "ag"
      ],
      [
        "ain",
        "s"
      ],
      [
        "ut",
        "ion"
      ],
      [
        "Ġkid",
        "s"
      ],
      [
        "Ġl",
        "ist"
      ],
      [
        "Ġsc",
        "ript"
      ],
      [
        "E",
        "N"
      ],
      [
        "am",
        "n"
      ],
      [
        "Ġst",
        "ories"
      ],
      [
        "Ġpart",
        "icul"
      ],
      [
        "Ġh",
        "ope"
      ],
      [
        "Ġcinem",
        "at"
      ],
      [
        "Ġtr",
        "ue"
      ],
      [
        "Ġvi",
        "ol"
      ],
      [
        "ĠH",
        "ow"
      ],
      [
        "O",
        "N"
      ],
      [
        "Ġc",
        "ent"
      ],
      [
        "Ġbelie",
        "ve"
      ],
      [
        "Ġplay",
        "ing"
      ],
      [
        "os",
        "ed"
      ],
      [
        "Ġtr",
        "uly"
      ],
      [
        "Ġkind",
        "a"
      ],
      [
        "Ġmay",
        "be"
      ],
      [
        "Ġmom",
        "ent"
      ],
      [
        "w",
        "ood"
      ],
      [
        "ĠI",
        "f"
      ],
      [
        "iv",
        "ing"
      ],
      [
        "Ġpol",
        "it"
      ],
      [
        "ow",
        "s"
      ],
      [
        "IN",
        "G"
      ],
      [
        "Ġro",
        "le"
      ],
      [
        "are",
        "d"
      ],
      [
        "ub",
        "e"
      ],
      [
        "in",
        "a"
      ],
      [
        "Ġsub",
        "ject"
      ],
      [
        "ap",
        "an"
      ],
      [
        "ĠL",
        "e"
      ],
      [
        "ie",
        "f"
      ],
      [
        "b",
        "r"
      ],
      [
        "Ġm",
        "is"
      ],
      [
        "Ġbec",
        "om"
      ],
      [
        "y",
        "es"
      ],
      [
        "Ġthr",
        "iller"
      ],
      [
        "ar",
        "i"
      ],
      [
        "Ġh",
        "ouse"
      ],
      [
        "Ġmost",
        "ly"
      ],
      [
        "Ġrel",
        "ation"
      ],
      [
        "ĠAmer",
        "ican"
      ],
      [
        "Ġwh",
        "ite"
      ],
      [
        "Ġfilmm",
        "ak"
      ],
      [
        "Ġin",
        "f"
      ],
      [
        "b",
        "ox"
      ],
      [
        "on",
        "es"
      ],
      [
        "O",
        "R"
      ],
      [
        "id",
        "es"
      ],
      [
        "u",
        "c"
      ],
      [
        "ore",
        "d"
      ],
      [
        "Ġwor",
        "st"
      ],
      [
        "ter",
        "s"
      ],
      [
        "?",
        "\""
      ],
      [
        "!!",
        "!"
      ],
      [
        "Ġal",
        "ong"
      ],
      [
        "asc",
        "in"
      ],
      [
        "Ġp",
        "op"
      ],
      [
        "h",
        "a"
      ],
      [
        "ĠS",
        "p"
      ],
      [
        "Ġhim",
        "self"
      ],
      [
        "Ġex",
        "ist"
      ],
      [
        "ot",
        "e"
      ],
      [
        "o",
        "ke"
      ],
      [
        "m",
        "in"
      ],
      [
        "Ġf",
        "air"
      ],
      [
        "Ġcomplete",
        "ly"
      ],
      [
        "Ġs",
        "it"
      ],
      [
        "Ġf",
        "ace"
      ],
      [
        "i",
        "el"
      ],
      [
        "th",
        "ough"
      ],
      [
        "ĠS",
        "c"
      ],
      [
        "Ġn",
        "ame"
      ],
      [
        "Ġl",
        "and"
      ],
      [
        "ent",
        "ial"
      ],
      [
        "Ġbeh",
        "ind"
      ],
      [
        "ĠS",
        "e"
      ],
      [
        "o",
        "e"
      ],
      [
        "Ġgen",
        "re"
      ],
      [
        "Ġan",
        "g"
      ],
      [
        "a",
        "pe"
      ],
      [
        "Ġv",
        "ib"
      ],
      [
        "Ġremem",
        "ber"
      ],
      [
        "Ġg",
        "od"
      ],
      [
        "Ġl",
        "ater"
      ],
      [
        "in",
        "o"
      ],
      [
        "le",
        "t"
      ],
      [
        "ag",
        "es"
      ],
      [
        "Ġrelation",
        "ship"
      ],
      [
        "ch",
        "n"
      ],
      [
        "A",
        "A"
      ],
      [
        "me",
        "nd"
      ],
      [
        "on",
        "y"
      ],
      [
        "Ġdialog",
        "ue"
      ],
      [
        "L",
        "L"
      ],
      [
        "Ġpres",
        "ent"
      ],
      [
        "il",
        "i"
      ],
      [
        "ri",
        "ght"
      ],
      [
        "Ġex",
        "act"
      ],
      [
        "O",
        "U"
      ],
      [
        "ri",
        "ed"
      ],
      [
        "l",
        "ine"
      ],
      [
        "os",
        "p"
      ],
      [
        "on",
        "na"
      ],
      [
        "t",
        "ime"
      ],
      [
        "Ġliter",
        "ally"
      ],
      [
        "ou",
        "p"
      ],
      [
        "li",
        "ke"
      ],
      [
        "Ġwr",
        "ong"
      ],
      [
        "re",
        "ady"
      ],
      [
        "g",
        "y"
      ],
      [
        "i",
        "j"
      ],
      [
        "Ġinv",
        "ol"
      ],
      [
        "u",
        "se"
      ],
      [
        "Ġdes",
        "ign"
      ],
      [
        "b",
        "s"
      ],
      [
        "Ġd",
        "ri"
      ],
      [
        "Ġagain",
        "st"
      ],
      [
        "Ġ",
        "ve"
      ],
      [
        "Ġof",
        "ten"
      ],
      [
        "ĠR",
        "ob"
      ],
      [
        "for",
        "m"
      ],
      [
        "Ġt",
        "ou"
      ],
      [
        "Ġpo",
        "or"
      ],
      [
        "Ġpr",
        "ot"
      ],
      [
        "l",
        "ight"
      ],
      [
        "t",
        "ra"
      ],
      [
        "u",
        "ine"
      ],
      [
        "Ġsim",
        "ple"
      ],
      [
        "Ġatt",
        "empt"
      ],
      [
        "ud",
        "d"
      ],
      [
        "ren",
        "ch"
      ],
      [
        "Ġn",
        "on"
      ],
      [
        "Ġ",
        "est"
      ],
      [
        "Ġm",
        "or"
      ],
      [
        "Ġw",
        "al"
      ],
      [
        "e",
        "k"
      ],
      [
        "s",
        "ide"
      ],
      [
        "Ġw",
        "a"
      ],
      [
        "itt",
        "en"
      ],
      [
        "Ġins",
        "p"
      ],
      [
        "Ġc",
        "or"
      ],
      [
        "Ġplay",
        "ed"
      ],
      [
        "iz",
        "e"
      ],
      [
        "Ġf",
        "ore"
      ],
      [
        "Ġmy",
        "self"
      ],
      [
        "Ġan",
        "t"
      ],
      [
        "R",
        "e"
      ],
      [
        "Ġcour",
        "se"
      ],
      [
        "ac",
        "es"
      ],
      [
        "Ġtal",
        "king"
      ],
      [
        "Ġde",
        "ad"
      ],
      [
        "Ġpre",
        "m"
      ],
      [
        "Ġs",
        "le"
      ],
      [
        "Ġto",
        "day"
      ],
      [
        "Ġswe",
        "et"
      ],
      [
        "Ġs",
        "elf"
      ],
      [
        "Ġb",
        "ro"
      ],
      [
        "Ġm",
        "other"
      ],
      [
        "Ġcinemat",
        "ography"
      ],
      [
        "Ġal",
        "ready"
      ],
      [
        "Ġ",
        "6"
      ],
      [
        "ar",
        "a"
      ],
      [
        "Ġh",
        "ot"
      ],
      [
        "S",
        "o"
      ],
      [
        "er",
        "man"
      ],
      [
        "ast",
        "ic"
      ],
      [
        "Ġfeel",
        "ing"
      ],
      [
        "fort",
        "un"
      ],
      [
        "en",
        "n"
      ],
      [
        "Ġp",
        "ict"
      ],
      [
        "Ġa",
        "v"
      ],
      [
        "ter",
        "box"
      ],
      [
        "!",
        "\""
      ],
      [
        "Ġshot",
        "s"
      ],
      [
        "Ġtal",
        "k"
      ],
      [
        "Ġimport",
        "ant"
      ],
      [
        "Ġstra",
        "ight"
      ],
      [
        "Ġfl",
        "ick"
      ],
      [
        "en",
        "e"
      ],
      [
        "Ġcon",
        "cept"
      ],
      [
        "Ġcom",
        "ing"
      ],
      [
        "Ġo",
        "k"
      ],
      [
        "Ġf",
        "ine"
      ],
      [
        "it",
        "al"
      ],
      [
        "it",
        "ch"
      ],
      [
        "Ġne",
        "xt"
      ],
      [
        "ow",
        "ing"
      ],
      [
        "Ġmin",
        "ute"
      ],
      [
        "Ġto",
        "t"
      ],
      [
        "Ġdo",
        "g"
      ],
      [
        "Ġb",
        "ook"
      ],
      [
        "Ġcr",
        "ime"
      ],
      [
        "l",
        "er"
      ],
      [
        "ĠA",
        "ll"
      ],
      [
        "Ġany",
        "one"
      ],
      [
        "Ġrem",
        "ind"
      ],
      [
        "Ġm",
        "atter"
      ],
      [
        "Ġ1",
        "0"
      ],
      [
        "re",
        "ci"
      ],
      [
        "id",
        "ed"
      ],
      [
        "Ġcol",
        "le"
      ],
      [
        "l",
        "ish"
      ],
      [
        "ut",
        "h"
      ],
      [
        "-",
        "-"
      ],
      [
        "in",
        "ning"
      ],
      [
        "Ġsing",
        "le"
      ],
      [
        "om",
        "mend"
      ],
      [
        "Ġf",
        "ascin"
      ],
      [
        "Ġpro",
        "ble"
      ],
      [
        "Ġact",
        "or"
      ],
      [
        "Ġle",
        "vel"
      ],
      [
        "pl",
        "ay"
      ],
      [
        "re",
        "w"
      ],
      [
        "oo",
        "f"
      ],
      [
        "ĠN",
        "o"
      ],
      [
        "Ġcons",
        "id"
      ],
      [
        "Ġh",
        "ate"
      ],
      [
        "Ġli",
        "ves"
      ],
      [
        "ne",
        "w"
      ],
      [
        "terbox",
        "d"
      ],
      [
        "Ġan",
        "n"
      ],
      [
        "ĠBr",
        "it"
      ],
      [
        "an",
        "y"
      ],
      [
        "Ġp",
        "sy"
      ],
      [
        "b",
        "y"
      ],
      [
        "Ġd",
        "ays"
      ],
      [
        "Ġ",
        ":"
      ],
      [
        "Ġdes",
        "er"
      ],
      [
        "il",
        "ity"
      ],
      [
        "is",
        "hed"
      ],
      [
        "t",
        "ed"
      ],
      [
        "r",
        "ic"
      ],
      [
        "i",
        "h"
      ],
      [
        "Ġcon",
        "st"
      ],
      [
        "ot",
        "s"
      ],
      [
        "Ġd",
        "ie"
      ],
      [
        "Ġbec",
        "ome"
      ],
      [
        "am",
        "a"
      ],
      [
        "Ġm",
        "ot"
      ],
      [
        "Ġterri",
        "ble"
      ],
      [
        "n",
        "ce"
      ],
      [
        "Ġ9",
        "0"
      ],
      [
        "Ġguy",
        "s"
      ],
      [
        "Ġs",
        "on"
      ],
      [
        "Ġs",
        "ide"
      ],
      [
        "m",
        "p"
      ],
      [
        "Ġp",
        "ot"
      ],
      [
        "Ġclass",
        "ic"
      ],
      [
        "Ġf",
        "ather"
      ],
      [
        "ab",
        "y"
      ],
      [
        "ol",
        "es"
      ],
      [
        "ar",
        "ch"
      ],
      [
        "ward",
        "s"
      ],
      [
        "Ġmo",
        "ve"
      ],
      [
        "Ġvo",
        "ice"
      ],
      [
        "Ġle",
        "arn"
      ],
      [
        "Ġad",
        "apt"
      ],
      [
        "ure",
        "d"
      ],
      [
        "idd",
        "le"
      ],
      [
        "ad",
        "a"
      ],
      [
        "Ġde",
        "m"
      ],
      [
        "olly",
        "wood"
      ],
      [
        "Ġcl",
        "ose"
      ],
      [
        "Ġinter",
        "view"
      ],
      [
        "Ġgr",
        "oup"
      ],
      [
        "Ġepisod",
        "e"
      ],
      [
        "Ġe",
        "ff"
      ],
      [
        "ar",
        "l"
      ],
      [
        "Ġincl",
        "ud"
      ],
      [
        "re",
        "tty"
      ],
      [
        "w",
        "here"
      ],
      [
        "Ġeffect",
        "s"
      ],
      [
        "Ġaud",
        "ience"
      ],
      [
        "A",
        "S"
      ],
      [
        "Ġ",
        "Q"
      ],
      [
        "g",
        "ed"
      ],
      [
        "Ġpo",
        "st"
      ],
      [
        "Ġf",
        "em"
      ],
      [
        "at",
        "or"
      ],
      [
        "Ġc",
        "red"
      ],
      [
        "ant",
        "ly"
      ],
      [
        "Ġed",
        "iting"
      ],
      [
        "ĠI",
        "nd"
      ],
      [
        "Ġc",
        "art"
      ],
      [
        "Ġact",
        "ual"
      ],
      [
        "Ġw",
        "ife"
      ],
      [
        "k",
        "y"
      ],
      [
        "Ġ",
        "era"
      ],
      [
        "Ġchild",
        "ren"
      ],
      [
        "ĠN",
        "ew"
      ],
      [
        "Ġm",
        "ix"
      ],
      [
        "Ġto",
        "ld"
      ],
      [
        "Ġb",
        "o"
      ],
      [
        "Ġ",
        "er"
      ],
      [
        "Ġe",
        "ither"
      ],
      [
        "ĠJ",
        "apan"
      ],
      [
        "Ġpro",
        "p"
      ],
      [
        "Ġqu",
        "ality"
      ],
      [
        "Ġv",
        "ill"
      ],
      [
        "ĠAl",
        "so"
      ],
      [
        "Ġe",
        "yes"
      ],
      [
        "b",
        "ody"
      ],
      [
        "ĠA",
        "t"
      ],
      [
        "Ġg",
        "onna"
      ],
      [
        "o",
        "vie"
      ],
      [
        "ou",
        "d"
      ],
      [
        "ust",
        "r"
      ],
      [
        "E",
        "D"
      ],
      [
        "H",
        "H"
      ],
      [
        "ĠO",
        "ne"
      ],
      [
        "Ġbas",
        "ed"
      ],
      [
        "s",
        "el"
      ],
      [
        "ag",
        "ing"
      ],
      [
        "v",
        "ol"
      ],
      [
        "pp",
        "ed"
      ],
      [
        "v",
        "ious"
      ],
      [
        "Ġsc",
        "ore"
      ],
      [
        "Ġbu",
        "ild"
      ],
      [
        "Ġl",
        "ate"
      ],
      [
        "Ġmur",
        "der"
      ],
      [
        "in",
        "ed"
      ],
      [
        "Ġmus",
        "ical"
      ],
      [
        "an",
        "a"
      ],
      [
        "t",
        "s"
      ],
      [
        "al",
        "ian"
      ],
      [
        "Ġg",
        "ives"
      ],
      [
        "ĠM",
        "y"
      ],
      [
        "o",
        "es"
      ],
      [
        "ĠS",
        "ome"
      ],
      [
        "Ġpr",
        "om"
      ],
      [
        "ke",
        "y"
      ],
      [
        "et",
        "y"
      ],
      [
        "Ġapp",
        "reci"
      ],
      [
        "T",
        "h"
      ],
      [
        "\"",
        "."
      ],
      [
        "Ġcomm",
        "un"
      ],
      [
        "gr",
        "ound"
      ],
      [
        "Ġcount",
        "ry"
      ],
      [
        "reme",
        "ly"
      ],
      [
        "ive",
        "ly"
      ],
      [
        "Ġgen",
        "uine"
      ],
      [
        "Ġemot",
        "ional"
      ],
      [
        "Ġperson",
        "al"
      ],
      [
        "Ġenjoy",
        "able"
      ],
      [
        "Ġb",
        "reak"
      ],
      [
        "re",
        "al"
      ],
      [
        "Ġexact",
        "ly"
      ],
      [
        "2",
        "0"
      ],
      [
        "ĠI",
        "s"
      ],
      [
        "ĠF",
        "or"
      ],
      [
        "y",
        "pe"
      ],
      [
        "Ġrec",
        "ommend"
      ],
      [
        "Ġn",
        "a"
      ],
      [
        "Ġte",
        "chn"
      ],
      [
        "i",
        "ent"
      ],
      [
        "ict",
        "ion"
      ],
      [
        "Ġmo",
        "der"
      ],
      [
        "Ġbl",
        "ood"
      ],
      [
        "Ġo",
        "pp"
      ],
      [
        "Ġc",
        "ase"
      ],
      [
        "al",
        "d"
      ],
      [
        "O",
        "V"
      ],
      [
        "us",
        "ing"
      ],
      [
        "av",
        "id"
      ],
      [
        "et",
        "t"
      ],
      [
        "Ġpro",
        "f"
      ],
      [
        "Ġis",
        "s"
      ],
      [
        "ang",
        "er"
      ],
      [
        "Ġstr",
        "ange"
      ],
      [
        "Ġab",
        "le"
      ],
      [
        "Ġro",
        "om"
      ],
      [
        "Ġk",
        "new"
      ],
      [
        "Ġtoo",
        "k"
      ],
      [
        "fortun",
        "ately"
      ],
      [
        "Ġp",
        "leas"
      ],
      [
        "ĠM",
        "an"
      ],
      [
        "Ġso",
        "ci"
      ],
      [
        "Ġp",
        "at"
      ],
      [
        "us",
        "h"
      ],
      [
        "Ġex",
        "ec"
      ],
      [
        "b",
        "all"
      ],
      [
        "Ġf",
        "ail"
      ],
      [
        "arr",
        "ing"
      ],
      [
        "Ġm",
        "a"
      ],
      [
        "w",
        "h"
      ],
      [
        "Ġf",
        "ut"
      ],
      [
        "ou",
        "l"
      ],
      [
        "Ġthrough",
        "out"
      ],
      [
        "Ġh",
        "old"
      ],
      [
        "Ġf",
        "re"
      ],
      [
        "ĠG",
        "od"
      ],
      [
        "w",
        "atch"
      ],
      [
        "Ġb",
        "and"
      ],
      [
        "Ġh",
        "it"
      ],
      [
        "o",
        "f"
      ],
      [
        "it",
        "a"
      ],
      [
        "A",
        "s"
      ],
      [
        "Ġv",
        "al"
      ],
      [
        "Ġhappen",
        "ed"
      ],
      [
        "Ġc",
        "ry"
      ],
      [
        "o",
        "ff"
      ],
      [
        "T",
        "H"
      ],
      [
        "Ġwr",
        "iting"
      ],
      [
        "tra",
        "ck"
      ],
      [
        "Ġdis",
        "c"
      ],
      [
        "o",
        "le"
      ],
      [
        "Ġob",
        "s"
      ],
      [
        "ell",
        "ent"
      ],
      [
        "Ġstr",
        "ugg"
      ],
      [
        "am",
        "b"
      ],
      [
        "Ġgi",
        "ven"
      ],
      [
        "Ġs",
        "n"
      ],
      [
        "Ġch",
        "o"
      ],
      [
        "Ġo",
        "dd"
      ],
      [
        "Ġpart",
        "s"
      ],
      [
        "Ġw",
        "estern"
      ],
      [
        "Ġshort",
        "s"
      ],
      [
        "Ġcould",
        "n"
      ],
      [
        "Ġd",
        "ou"
      ],
      [
        "Ġto",
        "wn"
      ],
      [
        "z",
        "e"
      ],
      [
        "v",
        "in"
      ],
      [
        "Ġover",
        "all"
      ],
      [
        "Ġcra",
        "zy"
      ],
      [
        "Ġcall",
        "ed"
      ],
      [
        "h",
        "ost"
      ],
      [
        "sel",
        "ves"
      ],
      [
        "Ġp",
        "ur"
      ],
      [
        "Ġex",
        "cept"
      ],
      [
        "ro",
        "du"
      ],
      [
        "itt",
        "ing"
      ],
      [
        "Ġst",
        "e"
      ],
      [
        "ian",
        "s"
      ],
      [
        "Ġli",
        "ving"
      ],
      [
        "Ġhum",
        "or"
      ],
      [
        "olog",
        "y"
      ],
      [
        "k",
        "a"
      ],
      [
        "and",
        "a"
      ],
      [
        "Ġhapp",
        "y"
      ],
      [
        "ag",
        "ed"
      ],
      [
        "Ġstart",
        "ed"
      ],
      [
        "Ġmy",
        "st"
      ],
      [
        "Ġtal",
        "e"
      ],
      [
        "ot",
        "ic"
      ],
      [
        "Ġm",
        "iddle"
      ],
      [
        "ur",
        "b"
      ],
      [
        "a",
        "el"
      ],
      [
        "Ġl",
        "ine"
      ],
      [
        "Ġbecom",
        "es"
      ],
      [
        "up",
        "id"
      ],
      [
        "Ġde",
        "v"
      ],
      [
        "Ġfor",
        "g"
      ],
      [
        "Ġa",
        "ge"
      ],
      [
        "Ġmoder",
        "n"
      ],
      [
        "he",
        "he"
      ],
      [
        "ok",
        "es"
      ],
      [
        "al",
        "ing"
      ],
      [
        "est",
        "ival"
      ],
      [
        "n",
        "o"
      ],
      [
        "Ġh",
        "om"
      ],
      [
        "Ġeff",
        "ort"
      ],
      [
        "Ġhe",
        "ro"
      ],
      [
        "Ġuni",
        "que"
      ],
      [
        "Ġo",
        "cc"
      ],
      [
        "om",
        "p"
      ],
      [
        "ĠBrit",
        "ish"
      ],
      [
        "Ġsub",
        "t"
      ],
      [
        "ic",
        "es"
      ],
      [
        "ant",
        "ic"
      ],
      [
        "A",
        "l"
      ],
      [
        "Ġ",
        "ir"
      ],
      [
        "h",
        "aps"
      ],
      [
        "ĠP",
        "l"
      ],
      [
        "Ġ8",
        "0"
      ],
      [
        "nd",
        "ing"
      ],
      [
        "Ġpsy",
        "ch"
      ],
      [
        "Ġ20",
        "1"
      ],
      [
        "Ġsomet",
        "imes"
      ],
      [
        "m",
        "osp"
      ],
      [
        "od",
        "ram"
      ],
      [
        "r",
        "on"
      ],
      [
        "ac",
        "ed"
      ],
      [
        "en",
        "ces"
      ],
      [
        "Ġturn",
        "s"
      ],
      [
        "it",
        "ive"
      ],
      [
        "us",
        "ed"
      ],
      [
        "Ġac",
        "ross"
      ],
      [
        "Ġag",
        "o"
      ],
      [
        "Ġfascin",
        "ating"
      ],
      [
        "Ġw",
        "on"
      ],
      [
        "Ġcare",
        "er"
      ],
      [
        "R",
        "E"
      ],
      [
        "Ġsound",
        "track"
      ],
      [
        "Ġsil",
        "ly"
      ],
      [
        "Ġw",
        "ild"
      ],
      [
        "Ġwith",
        "in"
      ],
      [
        "Ġend",
        "s"
      ],
      [
        "Ġdes",
        "pite"
      ],
      [
        "Ġb",
        "us"
      ],
      [
        "nd",
        "s"
      ],
      [
        "Ġh",
        "ilar"
      ],
      [
        "Ġb",
        "ar"
      ],
      [
        "Ġqu",
        "ick"
      ],
      [
        "Ġg",
        "ame"
      ],
      [
        "Ġwant",
        "s"
      ],
      [
        "Ġcertain",
        "ly"
      ],
      [
        "Ġm",
        "oney"
      ],
      [
        "Ġin",
        "i"
      ],
      [
        "Ġhour",
        "s"
      ],
      [
        "Ġf",
        "ig"
      ],
      [
        "Ġw",
        "ays"
      ],
      [
        "ĠChrist",
        "mas"
      ],
      [
        "Ġbr",
        "other"
      ],
      [
        "Ġst",
        "re"
      ],
      [
        "Ġwork",
        "ing"
      ],
      [
        "Ġg",
        "e"
      ],
      [
        "ĠJ",
        "ust"
      ],
      [
        "Ġfin",
        "ally"
      ],
      [
        "Ġd",
        "a"
      ],
      [
        "Ġtw",
        "ist"
      ],
      [
        "im",
        "p"
      ],
      [
        "ich",
        "ael"
      ],
      [
        "h",
        "ood"
      ],
      [
        "re",
        "ad"
      ],
      [
        "am",
        "ed"
      ],
      [
        "Ġpre",
        "d"
      ],
      [
        "Ġwr",
        "itten"
      ],
      [
        "Ġ-",
        "-"
      ],
      [
        "B",
        "e"
      ],
      [
        "ag",
        "on"
      ],
      [
        "Ġcont",
        "in"
      ],
      [
        "V",
        "ery"
      ],
      [
        "ĠA",
        "m"
      ],
      [
        "ar",
        "ies"
      ],
      [
        "nd",
        "om"
      ],
      [
        "app",
        "oint"
      ],
      [
        "o",
        "ved"
      ],
      [
        "Ġpro",
        "ject"
      ],
      [
        "Ġb",
        "unch"
      ],
      [
        "Ġche",
        "ck"
      ],
      [
        "Ġgreat",
        "est"
      ],
      [
        "Ġwonder",
        "ful"
      ],
      [
        "ur",
        "d"
      ],
      [
        "C",
        "h"
      ],
      [
        "ay",
        "be"
      ],
      [
        "a",
        "a"
      ],
      [
        "Ġat",
        "mosp"
      ],
      [
        "u",
        "z"
      ],
      [
        "Ġlo",
        "s"
      ],
      [
        "Ġch",
        "ang"
      ],
      [
        "Ġchar",
        "ming"
      ],
      [
        "Ġex",
        "am"
      ],
      [
        "Ġf",
        "ree"
      ],
      [
        "Ġc",
        "ap"
      ],
      [
        "ĠO",
        "n"
      ],
      [
        "Ġsl",
        "ight"
      ],
      [
        "Ġprem",
        "ise"
      ],
      [
        "vel",
        "op"
      ],
      [
        "W",
        "hen"
      ],
      [
        "Ġsh",
        "oot"
      ],
      [
        "Ġl",
        "ar"
      ],
      [
        "out",
        "h"
      ],
      [
        "ĠA",
        "N"
      ],
      [
        "Ġm",
        "ater"
      ],
      [
        "ur",
        "y"
      ],
      [
        "C",
        "K"
      ],
      [
        "Ġb",
        "ody"
      ],
      [
        "ĠM",
        "c"
      ],
      [
        "cc",
        "ess"
      ],
      [
        "Ġdel",
        "i"
      ],
      [
        "i",
        "od"
      ],
      [
        "Ġmel",
        "odram"
      ],
      [
        "Ġr",
        "id"
      ],
      [
        "Ġincred",
        "ible"
      ],
      [
        "ur",
        "t"
      ],
      [
        "ard",
        "s"
      ],
      [
        "Ġcon",
        "ne"
      ],
      [
        "ĠD",
        "on"
      ],
      [
        "Ġb",
        "le"
      ],
      [
        "W",
        "e"
      ],
      [
        "h",
        "h"
      ],
      [
        "el",
        "ess"
      ],
      [
        "is",
        "ed"
      ],
      [
        "g",
        "ic"
      ],
      [
        "Ġstart",
        "s"
      ],
      [
        "Ġst",
        "upid"
      ],
      [
        "in",
        "ation"
      ],
      [
        "Ġg",
        "ave"
      ],
      [
        "Ġmov",
        "ing"
      ],
      [
        "augh",
        "ter"
      ],
      [
        "Ġc",
        "at"
      ],
      [
        "av",
        "ing"
      ],
      [
        "Ġs",
        "us"
      ],
      [
        "Ġother",
        "s"
      ],
      [
        "Ġv",
        "ar"
      ],
      [
        "Ġ",
        "ver"
      ],
      [
        "Ġad",
        "m"
      ],
      [
        "is",
        "ing"
      ],
      [
        "ĠE",
        "ng"
      ],
      [
        "t",
        "a"
      ],
      [
        "S",
        "h"
      ],
      [
        "y",
        "s"
      ],
      [
        "S",
        "ome"
      ],
      [
        "Ġhapp",
        "ens"
      ],
      [
        "u",
        "ra"
      ],
      [
        "is",
        "ter"
      ],
      [
        "at",
        "ural"
      ],
      [
        "Ġp",
        "ick"
      ],
      [
        "a",
        "ul"
      ],
      [
        "Ġso",
        "cial"
      ],
      [
        "ĠL",
        "et"
      ],
      [
        "Ġb",
        "i"
      ],
      [
        "Ġsim",
        "p"
      ],
      [
        "i",
        "ally"
      ],
      [
        "ir",
        "c"
      ],
      [
        "Ġtou",
        "ch"
      ],
      [
        "f",
        "ying"
      ],
      [
        "Ġcont",
        "r"
      ],
      [
        "Ġpro",
        "v"
      ],
      [
        "Ġparticul",
        "arly"
      ],
      [
        "Ġh",
        "u"
      ],
      [
        "Ġf",
        "our"
      ],
      [
        "eng",
        "th"
      ],
      [
        "Ġfut",
        "ure"
      ],
      [
        "Ġst",
        "ri"
      ],
      [
        "an",
        "ch"
      ],
      [
        "Ġph",
        "ot"
      ],
      [
        "ill",
        "ed"
      ],
      [
        "Ġmater",
        "ial"
      ],
      [
        "c",
        "on"
      ],
      [
        "ĠC",
        "an"
      ],
      [
        "Ġs",
        "ent"
      ],
      [
        "Ġra",
        "ndom"
      ],
      [
        "Ġneed",
        "s"
      ],
      [
        "g",
        "o"
      ],
      [
        "er",
        "o"
      ],
      [
        "g",
        "u"
      ],
      [
        "w",
        "ise"
      ],
      [
        "Ġdes",
        "c"
      ],
      [
        "ous",
        "ly"
      ],
      [
        "nd",
        "ed"
      ],
      [
        "Ġn",
        "ature"
      ],
      [
        "Ġp",
        "ri"
      ],
      [
        "u",
        "ct"
      ],
      [
        "Ġhe",
        "ard"
      ],
      [
        "Ġhor",
        "ri"
      ],
      [
        "g",
        "an"
      ],
      [
        "Ġgra",
        "nd"
      ],
      [
        "Ġmyst",
        "ery"
      ],
      [
        "m",
        "b"
      ],
      [
        "Ġt",
        "ype"
      ],
      [
        "Ġsp",
        "ace"
      ],
      [
        "Ġ",
        "id"
      ],
      [
        "Ġdis",
        "appoint"
      ],
      [
        "Ġes",
        "c"
      ],
      [
        "H",
        "e"
      ],
      [
        "Ġs",
        "uck"
      ],
      [
        "Ġdirect",
        "ion"
      ],
      [
        "Ġrom",
        "ance"
      ],
      [
        "em",
        "ent"
      ],
      [
        "Ġhe",
        "av"
      ],
      [
        "Ġte",
        "en"
      ],
      [
        "Ġg",
        "ang"
      ],
      [
        "Ġt",
        "aking"
      ],
      [
        "Ġlook",
        "ed"
      ],
      [
        "l",
        "ic"
      ],
      [
        "Ġbr",
        "ing"
      ],
      [
        "Ġpict",
        "ure"
      ],
      [
        "Ġsong",
        "s"
      ],
      [
        "Ġd",
        "ad"
      ],
      [
        "it",
        "ation"
      ],
      [
        "Ġ",
        "ess"
      ],
      [
        "Ġwor",
        "se"
      ],
      [
        "Ġneed",
        "ed"
      ],
      [
        "Ġexpect",
        "ed"
      ],
      [
        "Ġa",
        "ut"
      ],
      [
        "Ġj",
        "our"
      ],
      [
        "or",
        "able"
      ],
      [
        "Ġincred",
        "ibly"
      ],
      [
        "v",
        "iously"
      ],
      [
        "Ġsp",
        "ir"
      ],
      [
        "fr",
        "iend"
      ],
      [
        "Ġd",
        "amn"
      ],
      [
        "T",
        "hat"
      ],
      [
        "Ġ",
        "ult"
      ],
      [
        "p",
        "iece"
      ],
      [
        "Ġsupp",
        "ort"
      ],
      [
        "ĠP",
        "r"
      ],
      [
        "av",
        "es"
      ],
      [
        "llll",
        "llll"
      ],
      [
        "Ġcre",
        "ep"
      ],
      [
        "Ġbas",
        "ically"
      ],
      [
        "Ġse",
        "c"
      ],
      [
        "Ġ3",
        "0"
      ],
      [
        "Ġu",
        "nd"
      ],
      [
        "Ġhonest",
        "ly"
      ],
      [
        "Ġimag",
        "es"
      ],
      [
        "Ġhist",
        "or"
      ],
      [
        "art",
        "h"
      ],
      [
        "Ġanim",
        "ated"
      ],
      [
        "Ġh",
        "op"
      ],
      [
        "or",
        "ld"
      ],
      [
        "Ġper",
        "iod"
      ],
      [
        "e",
        "le"
      ],
      [
        "ĠW",
        "ar"
      ],
      [
        "ak",
        "en"
      ],
      [
        "Ġro",
        "ck"
      ],
      [
        "j",
        "a"
      ],
      [
        "l",
        "u"
      ],
      [
        "itt",
        "y"
      ],
      [
        "u",
        "el"
      ],
      [
        "Ġtal",
        "ent"
      ],
      [
        "Ġthem",
        "selves"
      ],
      [
        "b",
        "b"
      ],
      [
        "Ġknow",
        "n"
      ],
      [
        "Ġthink",
        "ing"
      ],
      [
        "Ġext",
        "remely"
      ],
      [
        "Ġs",
        "ign"
      ],
      [
        "Ġb",
        "are"
      ],
      [
        "Ġam",
        "b"
      ],
      [
        "Ġun",
        "s"
      ],
      [
        "he",
        "ad"
      ],
      [
        "W",
        "atched"
      ],
      [
        "Ġcult",
        "ure"
      ],
      [
        "Ġt",
        "reat"
      ],
      [
        "ver",
        "se"
      ],
      [
        "t",
        "on"
      ],
      [
        "pl",
        "ic"
      ],
      [
        "Ġsu",
        "ccess"
      ],
      [
        "Ġfor",
        "get"
      ],
      [
        "Ġche",
        "ap"
      ],
      [
        "Ġsimp",
        "ly"
      ],
      [
        "Ġle",
        "g"
      ],
      [
        "l",
        "a"
      ],
      [
        "ĠK",
        "e"
      ],
      [
        "ĠM",
        "e"
      ],
      [
        "ar",
        "ry"
      ],
      [
        "ĠE",
        "d"
      ],
      [
        "Ġs",
        "ays"
      ],
      [
        "Ġch",
        "ange"
      ],
      [
        "Ġdet",
        "ail"
      ],
      [
        "ĠF",
        "rench"
      ],
      [
        "Ġc",
        "ity"
      ],
      [
        "N",
        "o"
      ],
      [
        "ul",
        "ly"
      ],
      [
        "re",
        "aking"
      ],
      [
        "Ġop",
        "ening"
      ],
      [
        "Ġl",
        "ang"
      ],
      [
        "Ġl",
        "es"
      ],
      [
        "I",
        "T"
      ],
      [
        "Ġre",
        "leas"
      ],
      [
        "Ġsil",
        "ent"
      ],
      [
        "het",
        "ic"
      ],
      [
        "pp",
        "ing"
      ],
      [
        "le",
        "ct"
      ],
      [
        "Ġon",
        "es"
      ],
      [
        "::",
        "::"
      ],
      [
        "ili",
        "ar"
      ],
      [
        "Ġfav",
        "our"
      ],
      [
        "Ġg",
        "iving"
      ],
      [
        "ĠT",
        "r"
      ],
      [
        "Ġun",
        "f"
      ],
      [
        "Ġbeg",
        "inning"
      ],
      [
        "ĠG",
        "e"
      ],
      [
        "Ġs",
        "ens"
      ],
      [
        "re",
        "nt"
      ],
      [
        "Ġam",
        "ount"
      ],
      [
        "Ġviol",
        "ence"
      ],
      [
        "m",
        "m"
      ],
      [
        "Ġm",
        "id"
      ],
      [
        "ĠH",
        "ollywood"
      ],
      [
        "Ġimpress",
        "ive"
      ],
      [
        "Ġ",
        "ill"
      ],
      [
        "Ġins",
        "ane"
      ],
      [
        "Ġal",
        "one"
      ],
      [
        "iel",
        "d"
      ],
      [
        "Ġpro",
        "g"
      ],
      [
        "O",
        "T"
      ],
      [
        "Ġe",
        "ye"
      ],
      [
        "Ġm",
        "ad"
      ],
      [
        "Ġp",
        "ure"
      ],
      [
        "Ġtri",
        "es"
      ],
      [
        "Ġen",
        "er"
      ],
      [
        "Ġme",
        "ans"
      ],
      [
        "ac",
        "ing"
      ],
      [
        "ĠG",
        "erman"
      ],
      [
        "Ġkill",
        "er"
      ],
      [
        "Ġexc",
        "ellent"
      ],
      [
        "Ġcle",
        "arly"
      ],
      [
        "ant",
        "s"
      ],
      [
        "Ġapp",
        "ro"
      ],
      [
        "Ġm",
        "ark"
      ],
      [
        "ĠE",
        "very"
      ],
      [
        "Ġsay",
        "ing"
      ],
      [
        "Ġgirl",
        "s"
      ],
      [
        "as",
        "ed"
      ],
      [
        "he",
        "l"
      ],
      [
        "ri",
        "es"
      ],
      [
        "an",
        "na"
      ],
      [
        "Ġsome",
        "how"
      ],
      [
        "r",
        "up"
      ],
      [
        "Ġj",
        "okes"
      ],
      [
        "Ġb",
        "aby"
      ],
      [
        "Ġeas",
        "y"
      ],
      [
        "Ġhilar",
        "ious"
      ],
      [
        "Ġt",
        "yp"
      ],
      [
        "ver",
        "age"
      ],
      [
        "Ġev",
        "ent"
      ],
      [
        "Ġquest",
        "ion"
      ],
      [
        "Ġturn",
        "ed"
      ],
      [
        "Ġd",
        "ull"
      ],
      [
        "ent",
        "y"
      ],
      [
        "Ġd",
        "est"
      ],
      [
        "F",
        "or"
      ],
      [
        "l",
        "in"
      ],
      [
        "l",
        "o"
      ],
      [
        "erest",
        "ing"
      ],
      [
        "Ġdis",
        "co"
      ],
      [
        "Ġm",
        "il"
      ],
      [
        "Ġexper",
        "iment"
      ],
      [
        "y",
        "ond"
      ],
      [
        "Ġlong",
        "er"
      ],
      [
        "an",
        "ces"
      ],
      [
        "Ġcam",
        "p"
      ],
      [
        "Ġco",
        "st"
      ],
      [
        "Ġd",
        "ig"
      ],
      [
        "Ġp",
        "ull"
      ],
      [
        "Ġs",
        "uff"
      ],
      [
        "Ġg",
        "ag"
      ],
      [
        "Ġann",
        "oy"
      ],
      [
        "Ġhe",
        "ar"
      ],
      [
        "b",
        "and"
      ],
      [
        "ĠA",
        "d"
      ],
      [
        "f",
        "ic"
      ],
      [
        "?",
        "!"
      ],
      [
        "p",
        "or"
      ],
      [
        "Ġset",
        "ting"
      ],
      [
        "Ġpolit",
        "ical"
      ],
      [
        "in",
        "i"
      ],
      [
        "Ġst",
        "ay"
      ],
      [
        "Ġim",
        "m"
      ],
      [
        "Ġatt",
        "ention"
      ],
      [
        "ĠS",
        "te"
      ],
      [
        "Ġp",
        "arent"
      ],
      [
        "Ġres",
        "pect"
      ],
      [
        "Ġde",
        "velop"
      ],
      [
        "Ġpo",
        "ster"
      ],
      [
        "Ġword",
        "s"
      ],
      [
        "Ġf",
        "a"
      ],
      [
        "ĠP",
        "e"
      ],
      [
        "Ġj",
        "e"
      ],
      [
        "Ġport",
        "ray"
      ],
      [
        "Ġg",
        "host"
      ],
      [
        "iz",
        "ing"
      ],
      [
        "ar",
        "re"
      ],
      [
        "Ġg",
        "un"
      ],
      [
        "A",
        "L"
      ],
      [
        "Ġsur",
        "v"
      ],
      [
        "Ġinv",
        "est"
      ],
      [
        "ar",
        "b"
      ],
      [
        "T",
        "ube"
      ],
      [
        "Ġreal",
        "ity"
      ],
      [
        "Ġto",
        "wards"
      ],
      [
        "ĠJ",
        "ack"
      ],
      [
        "Ġrom",
        "antic"
      ],
      [
        "r",
        "is"
      ],
      [
        "as",
        "ter"
      ],
      [
        "im",
        "ate"
      ],
      [
        "c",
        "ent"
      ],
      [
        "Ġp",
        "os"
      ],
      [
        "....",
        "...."
      ],
      [
        "Ġrun",
        "ning"
      ],
      [
        "es",
        "ome"
      ],
      [
        "ens",
        "ion"
      ],
      [
        "Ġsoci",
        "ety"
      ],
      [
        "J",
        "ust"
      ],
      [
        "ĠRob",
        "ert"
      ],
      [
        "ad",
        "es"
      ],
      [
        "Ġpower",
        "ful"
      ],
      [
        "Ġfant",
        "astic"
      ],
      [
        "Ġback",
        "ground"
      ],
      [
        "ip",
        "s"
      ],
      [
        "orge",
        "ous"
      ],
      [
        "Ġn",
        "g"
      ],
      [
        "au",
        "ght"
      ],
      [
        "Ġcol",
        "or"
      ],
      [
        "illi",
        "am"
      ],
      [
        "Ġd",
        "ue"
      ],
      [
        "Ġposs",
        "ible"
      ],
      [
        "Ġso",
        "on"
      ],
      [
        "ĠN",
        "e"
      ],
      [
        "Ġret",
        "urn"
      ],
      [
        "Ġfilmm",
        "aking"
      ],
      [
        "Ġus",
        "ual"
      ],
      [
        "Ġra",
        "re"
      ],
      [
        "er",
        "v"
      ],
      [
        "ĠG",
        "reat"
      ],
      [
        "Ġa",
        "k"
      ],
      [
        "Ġcart",
        "oon"
      ],
      [
        "ir",
        "t"
      ],
      [
        "Ġ",
        "ut"
      ],
      [
        "Ġm",
        "aj"
      ],
      [
        "b",
        "ack"
      ],
      [
        "ĠV",
        "ery"
      ],
      [
        "ion",
        "ally"
      ],
      [
        "Ġwork",
        "ed"
      ],
      [
        "Ġinvol",
        "ved"
      ],
      [
        "ĠL",
        "ove"
      ],
      [
        "Ġop",
        "en"
      ],
      [
        "Ġres",
        "ult"
      ],
      [
        "ĠO",
        "r"
      ],
      [
        "im",
        "ately"
      ],
      [
        "ĠD",
        "avid"
      ],
      [
        "Ġfilmmak",
        "er"
      ],
      [
        "Ġas",
        "pect"
      ],
      [
        "ĠHow",
        "ever"
      ],
      [
        "Ġbr",
        "illi"
      ],
      [
        "Ġatmosp",
        "here"
      ],
      [
        "Ġwould",
        "n"
      ],
      [
        "ill",
        "s"
      ],
      [
        "Ġaw",
        "ful"
      ],
      [
        "Ġem",
        "p"
      ],
      [
        "Ġin",
        "form"
      ],
      [
        "un",
        "ny"
      ],
      [
        "ĠW",
        "ith"
      ],
      [
        "Ġf",
        "ans"
      ],
      [
        "oo",
        "p"
      ],
      [
        "um",
        "ber"
      ],
      [
        "et",
        "er"
      ],
      [
        "Ġlead",
        "s"
      ],
      [
        "!!!!",
        "!!!!"
      ],
      [
        "as",
        "y"
      ],
      [
        "Ġra",
        "c"
      ],
      [
        "Ġsim",
        "ilar"
      ],
      [
        "An",
        "other"
      ],
      [
        "Ġfeature",
        "s"
      ],
      [
        "Ġre",
        "d"
      ],
      [
        "Ġse",
        "ver"
      ],
      [
        "oo",
        "se"
      ],
      [
        "i",
        "est"
      ],
      [
        "Ġlove",
        "ly"
      ],
      [
        "Ġcle",
        "ar"
      ],
      [
        "Ġ7",
        "0"
      ],
      [
        "Ġev",
        "il"
      ],
      [
        "Ġsupp",
        "osed"
      ],
      [
        "Ġproble",
        "m"
      ],
      [
        "W",
        "hy"
      ],
      [
        "Ġcom",
        "b"
      ],
      [
        "Ġsome",
        "what"
      ],
      [
        "Ġthe",
        "at"
      ],
      [
        "Ġf",
        "ive"
      ],
      [
        "Ġsex",
        "ual"
      ],
      [
        "Ġext",
        "ra"
      ],
      [
        "Ġsit",
        "u"
      ],
      [
        "Ġele",
        "ments"
      ],
      [
        "Ġcr",
        "it"
      ],
      [
        "Ġcinem",
        "atic"
      ],
      [
        "op",
        "h"
      ],
      [
        "us",
        "band"
      ],
      [
        "i",
        "or"
      ],
      [
        "Ġfair",
        "ly"
      ],
      [
        "ate",
        "ver"
      ],
      [
        "Ġe",
        "t"
      ],
      [
        "Ġno",
        "vel"
      ],
      [
        "Ġy",
        "es"
      ],
      [
        "Ġide",
        "as"
      ],
      [
        "Ġtot",
        "ally"
      ],
      [
        "Ġte",
        "am"
      ],
      [
        "te",
        "xt"
      ],
      [
        "Ġth",
        "ird"
      ],
      [
        "Ġad",
        "vent"
      ],
      [
        "Ġd",
        "ance"
      ],
      [
        "g",
        "a"
      ],
      [
        "Ġadapt",
        "ation"
      ],
      [
        "ĠJapan",
        "ese"
      ],
      [
        "Ġl",
        "im"
      ],
      [
        "ĠYou",
        "Tube"
      ],
      [
        "h",
        "ic"
      ],
      [
        "Ġint",
        "rig"
      ],
      [
        "ĠJ",
        "ames"
      ],
      [
        "Ġe",
        "qu"
      ],
      [
        "Ġem",
        "b"
      ],
      [
        "Ġfam",
        "iliar"
      ],
      [
        "\"",
        ","
      ],
      [
        "il",
        "le"
      ],
      [
        "A",
        "nd"
      ],
      [
        "Ġgl",
        "ad"
      ],
      [
        "ĠW",
        "ell"
      ],
      [
        "Ġsever",
        "al"
      ],
      [
        "Ġd",
        "aughter"
      ],
      [
        "re",
        "st"
      ],
      [
        "Ġb",
        "er"
      ],
      [
        "Ġhand",
        "s"
      ],
      [
        "Ġmaster",
        "piece"
      ],
      [
        "ac",
        "y"
      ],
      [
        "Ġprot",
        "agon"
      ],
      [
        "ress",
        "ion"
      ],
      [
        "Ġt",
        "one"
      ],
      [
        "Ġp",
        "lease"
      ],
      [
        "Ġforg",
        "ot"
      ],
      [
        "s",
        "w"
      ],
      [
        "Ġe",
        "ar"
      ],
      [
        "ĠD",
        "an"
      ],
      [
        "Ġwat",
        "er"
      ],
      [
        "Ġdec",
        "ided"
      ],
      [
        "g",
        "es"
      ],
      [
        "Ġgenuine",
        "ly"
      ],
      [
        "Ġok",
        "ay"
      ],
      [
        "Ġte",
        "le"
      ],
      [
        "Ġs",
        "um"
      ],
      [
        "Ġmess",
        "age"
      ],
      [
        "Ġsound",
        "s"
      ],
      [
        "Ġrec",
        "ord"
      ],
      [
        "Ġend",
        "ed"
      ],
      [
        "Ġst",
        "arring"
      ],
      [
        "ĠSt",
        "ill"
      ],
      [
        "Ġreleas",
        "ed"
      ],
      [
        "H",
        "ow"
      ],
      [
        "in",
        "ing"
      ],
      [
        "O",
        "M"
      ],
      [
        "W",
        "ell"
      ],
      [
        "Ġfavour",
        "ite"
      ],
      [
        "Ġp",
        "ay"
      ],
      [
        "Ġpol",
        "ice"
      ],
      [
        "st",
        "al"
      ],
      [
        "res",
        "ent"
      ],
      [
        "Ġsurpris",
        "ingly"
      ],
      [
        "um",
        "a"
      ],
      [
        "ar",
        "m"
      ],
      [
        "on",
        "ic"
      ],
      [
        "ĠT",
        "om"
      ],
      [
        "Ġf",
        "ire"
      ],
      [
        "??",
        "?"
      ],
      [
        "ĠT",
        "o"
      ],
      [
        "ut",
        "ed"
      ],
      [
        "Ġsequ",
        "el"
      ],
      [
        "m",
        "ark"
      ],
      [
        "un",
        "ning"
      ],
      [
        "Ġact",
        "ress"
      ],
      [
        "w",
        "o"
      ],
      [
        "Ġwho",
        "se"
      ],
      [
        "ge",
        "nd"
      ],
      [
        "Ġfem",
        "ale"
      ],
      [
        "Ġexpect",
        "ing"
      ],
      [
        "Ġshow",
        "ing"
      ],
      [
        "Ġf",
        "ell"
      ],
      [
        "Ġm",
        "ult"
      ],
      [
        "D",
        "e"
      ],
      [
        "Ġc",
        "irc"
      ],
      [
        "u",
        "h"
      ],
      [
        "Ġap",
        "art"
      ],
      [
        "Ġspe",
        "c"
      ],
      [
        "ĠM",
        "ichael"
      ],
      [
        "Ġde",
        "but"
      ],
      [
        "o",
        "ver"
      ],
      [
        "Ġre",
        "ve"
      ],
      [
        "E",
        "E"
      ],
      [
        "Ġr",
        "ich"
      ],
      [
        "Ġspe",
        "ak"
      ],
      [
        "ill",
        "ing"
      ],
      [
        "Ġart",
        "ist"
      ],
      [
        "ub",
        "lic"
      ],
      [
        "ick",
        "s"
      ],
      [
        "Ġiss",
        "ues"
      ],
      [
        "Ġh",
        "usband"
      ],
      [
        "Ġg",
        "em"
      ],
      [
        "o",
        "or"
      ],
      [
        "ĠE",
        "ven"
      ],
      [
        "Ġeng",
        "aging"
      ],
      [
        "il",
        "t"
      ],
      [
        "r",
        "it"
      ],
      [
        "s",
        "p"
      ],
      [
        "Ġ20",
        "0"
      ],
      [
        "Ġst",
        "age"
      ],
      [
        "ĠL",
        "ike"
      ],
      [
        "Ġ",
        "."
      ],
      [
        "Ġm",
        "ent"
      ],
      [
        "up",
        "p"
      ],
      [
        "Ġal",
        "though"
      ],
      [
        "arent",
        "ly"
      ],
      [
        "Ġus",
        "ing"
      ],
      [
        "hy",
        "s"
      ],
      [
        "Ġw",
        "in"
      ],
      [
        "m",
        "ore"
      ],
      [
        "er",
        "n"
      ],
      [
        "Ġloc",
        "al"
      ],
      [
        "Ġmed",
        "i"
      ],
      [
        "O",
        "W"
      ],
      [
        "Ġt",
        "on"
      ],
      [
        "et",
        "h"
      ],
      [
        "Ġimag",
        "ine"
      ],
      [
        "Ġhow",
        "ever"
      ],
      [
        "Ġentire",
        "ly"
      ],
      [
        "Ġd",
        "umb"
      ],
      [
        "g",
        "ing"
      ],
      [
        "ct",
        "or"
      ],
      [
        "Ġk",
        "n"
      ],
      [
        "ĠD",
        "is"
      ],
      [
        "us",
        "ion"
      ],
      [
        "ress",
        "ed"
      ],
      [
        "Ġener",
        "gy"
      ],
      [
        "o",
        "id"
      ],
      [
        "Ġfr",
        "ont"
      ],
      [
        "ĠG",
        "ood"
      ],
      [
        "Ġl",
        "ength"
      ],
      [
        "Ġr",
        "u"
      ],
      [
        "Ġfilm",
        "ed"
      ],
      [
        "Ġtr",
        "ad"
      ],
      [
        "Ġr",
        "ad"
      ],
      [
        "ĠE",
        "x"
      ],
      [
        "c",
        "le"
      ],
      [
        "th",
        "at"
      ],
      [
        "Ġappreci",
        "ate"
      ],
      [
        "Ġeffect",
        "ive"
      ],
      [
        "ĠJ",
        "e"
      ],
      [
        "Ġmaj",
        "or"
      ],
      [
        "V",
        "D"
      ],
      [
        "ĠH",
        "all"
      ],
      [
        "k",
        "an"
      ],
      [
        "Ġpl",
        "an"
      ],
      [
        "Ġp",
        "orn"
      ],
      [
        "Ġb",
        "ox"
      ],
      [
        "Ġbe",
        "yond"
      ],
      [
        "ĠP",
        "er"
      ],
      [
        "ĠW",
        "hen"
      ],
      [
        "ĠEng",
        "lish"
      ],
      [
        "Ġsle",
        "ep"
      ],
      [
        "al",
        "a"
      ],
      [
        "I",
        "L"
      ],
      [
        "Ġup",
        "on"
      ],
      [
        "Ġdel",
        "ight"
      ],
      [
        "Ġl",
        "ol"
      ],
      [
        "ic",
        "ult"
      ],
      [
        "S",
        "T"
      ],
      [
        "r",
        "ow"
      ],
      [
        "Ġke",
        "pt"
      ],
      [
        "Ġind",
        "e"
      ],
      [
        "pect",
        "ive"
      ],
      [
        "aut",
        "y"
      ],
      [
        "Ġpot",
        "ential"
      ],
      [
        "ak",
        "ed"
      ],
      [
        "u",
        "ing"
      ],
      [
        "Ġvisual",
        "s"
      ],
      [
        "atch",
        "ing"
      ],
      [
        "Ġser",
        "ious"
      ],
      [
        "Ġind",
        "ust"
      ],
      [
        "Ġsh",
        "ock"
      ],
      [
        "Ġme",
        "et"
      ],
      [
        "ven",
        "ge"
      ],
      [
        "P",
        "retty"
      ],
      [
        "Ġt",
        "re"
      ],
      [
        "Ġ19",
        "7"
      ],
      [
        "ro",
        "s"
      ],
      [
        "Ġlar",
        "ge"
      ],
      [
        "b",
        "o"
      ],
      [
        "p",
        "ar"
      ],
      [
        "Ġpoint",
        "s"
      ],
      [
        "ĠLet",
        "terboxd"
      ],
      [
        "Ġg",
        "orgeous"
      ],
      [
        "Ġor",
        "der"
      ],
      [
        "Ġs",
        "oul"
      ],
      [
        "an",
        "c"
      ],
      [
        "Ġam",
        "ong"
      ],
      [
        "Ġinsp",
        "ir"
      ],
      [
        "Ġde",
        "al"
      ],
      [
        "m",
        "ist"
      ],
      [
        "Ġfind",
        "s"
      ],
      [
        "C",
        "H"
      ],
      [
        "Ġre",
        "lease"
      ],
      [
        "ul",
        "a"
      ],
      [
        "Re",
        "ally"
      ],
      [
        "Ġbra",
        "in"
      ],
      [
        "ers",
        "on"
      ],
      [
        "Ġgr",
        "ound"
      ],
      [
        "ĠC",
        "on"
      ],
      [
        "al",
        "th"
      ],
      [
        "Ġ",
        "ic"
      ],
      [
        "Ġj",
        "ump"
      ],
      [
        "Ġa",
        "f"
      ],
      [
        "ĠAN",
        "D"
      ],
      [
        "ou",
        "n"
      ],
      [
        "Ġa",
        "est"
[...]
