{
  "version": "1.0",
  "truncation": null,
  "padding": null,
  "added_tokens": [
    {
      "id": 0,
      "content": "<PAD>",
      "single_word": false,
      "lstrip": false,
      "rstrip": false,
      "normalized": false,
      "special": true
    },
    {
      "id": 1,
      "content": "<BOS>",
      "single_word": false,
      "lstrip": false,
      "rstrip": false,
      "normalized": false,
      "special": true
    },
    {
      "id": 2,
      "content": "<EOS>",
      "single_word": false,
      "lstrip": false,
      "rstrip": false,
      "normalized": false,
      "special": true
    }
  ],
  "normalizer": null,
  "pre_tokenizer": {
    "type": "ByteLevel",
    "add_prefix_space": false,
    "trim_offsets": true,
    "use_regex": true
  },
  "post_processor": null,
  "decoder": {
    "type": "ByteLevel",
    "add_prefix_space": true,
    "trim_offsets": true,
    "use_regex": true
  },
  "model": {
    "type": "BPE",
    "dropout": null,
    "unk_token": null,
    "continuing_subword_prefix": null,
    "end_of_word_suffix": null,
    "fuse_unk": false,
    "byte_fallback": false,
    "ignore_merges": false,
    "vocab": {
      "<PAD>": 0,
      "<BOS>": 1,
      "<EOS>": 2,
      "!": 3,
      "\"": 4,
      "#": 5,
      "$": 6,
      "%": 7,
      "&": 8,
      "'": 9,
      "(": 10,
      ")": 11,
      "*": 12,
      "+": 13,
      ",": 14,
      "-": 15,
      ".": 16,
      "/": 17,
      "0": 18,
      "1": 19,
      "2": 20,
      "3": 21,
      "4": 22,
      "5": 23,
      "6": 24,
      "7": 25,
      "8": 26,
      "9": 27,
      ":": 28,
      ";": 29,
      "<": 30,
      "=": 31,
      ">": 32,
      "?": 33,
      "@": 34,
      "A": 35,
      "B": 36,
      "C": 37,
      "D": 38,
      "E": 39,
      "F": 40,
      "G": 41,
      "H": 42,
      "I": 43,
      "J": 44,
      "K": 45,
      "L": 46,
      "M": 47,
      "N": 48,
      "O": 49,
      "P": 50,
      "Q": 51,
      "R": 52,
      "S": 53,
      "T": 54,
      "U": 55,
      "V": 56,
      "W": 57,
      "X": 58,
      "Y": 59,
      "Z": 60,
      "[": 61,
      "\\": 62,
      "]": 63,
      "^": 64,
      "_": 65,
      "a": 66,
      "b": 67,
      "c": 68,
      "d": 69,
      "e": 70,
      "f": 71,
      "g": 72,
      "h": 73,
      "i": 74,
      "j": 75,
      "k": 76,
      "l": 77,
      "m": 78,
      "n": 79,
      "o": 80,
      "p": 81,
      "q": 82,
      "r": 83,
      "s": 84,
      "t": 85,
      "u": 86,
      "v": 87,
      "w": 88,
      "x": 89,
      "y": 90,
      "z": 91,
      "{": 92,
      "|": 93,
      "}": 94,
      "~": 95,
      "¡": 96,
      "¢": 97,
      "£": 98,
      "¤": 99,
      "¥": 100,
      "¦": 101,
      "§": 102,
      "¨": 103,
      "©": 104,
      "ª": 105,
      "«": 106,
      "¬": 107,
      "®": 108,
      "¯": 109,
      "°": 110,
      "±": 111,
      "²": 112,
      "³": 113,
      "´": 114,
      "µ": 115,
      "¶": 116,
      "·": 117,
      "¸": 118,
      "¹": 119,
      "º": 120,
      "»": 121,
      "¼": 122,
      "½": 123,
      "¾": 124,
      "¿": 125,
      "Â": 126,
      "Ã": 127,
      "Ä": 128,
      "Å": 129,
      "Ê": 130,
      "Ë": 131,
      "Ì": 132,
      "Ð": 133,
      "á": 134,
      "â": 135,
      "ã": 136,
      "ï": 137,
      "ð": 138,
      "Ġ": 139,
      "Ģ": 140,
      "ģ": 141,
      "Ĥ": 142,
      "ĥ": 143,
      "Ħ": 144,
      "ħ": 145,
      "Ĩ": 146,
      "ĩ": 147,
      "Ī": 148,
      "ī": 149,
      "Ĭ": 150,
      "ĭ": 151,
      "Į": 152,
      "į": 153,
      "İ": 154,
      "ı": 155,
      "Ĳ": 156,
      "ĳ": 157,
      "Ĵ": 158,
      "ĵ": 159,
      "Ķ": 160,
      "ķ": 161,
      "ĸ": 162,
      "Ĺ": 163,
      "ĺ": 164,
      "Ļ": 165,
      "ļ": 166,
      "Ľ": 167,
      "ľ": 168,
      "Ŀ": 169,
      "ŀ": 170,
      "Ł": 171,
      "ł": 172,
      "Ń": 173,
      "Ġt": 174,
      "Ġa": 175,
      "he": 176,
      "in": 177,
      "Ġthe": 178,
      "Ġo": 179,
      "er": 180,
      "Ġs": 181,
      "re": 182,
      "is": 183,
      "nd": 184,
      "Ġw": 185,
      "Ġf": 186,
      "at": 187,
      "es": 188,
      "ing": 189,
      "on": 190,
      "Ġb": 191,
      "it": 192,
      "Ġc": 193,
      "Ġm": 194,
      "en": 195,
      "or": 196,
      "Ġof": 197,
      "an": 198,
      "ou": 199,
      "Ġand": 200,
      "ar": 201,
      "Ġh": 202,
      "al": 203,
      "Ġp": 204,
      "Ġd": 205,
      "Ġto": 206,
      "Ġin": 207,
      "ed": 208,
      "Ġl": 209,
      "Ġth": 210,
      "il": 211,
      "om": 212,
      "ic": 213,
      "st": 214,
      "Ġe": 215,
      "ly": 216,
      "le": 217,
      "as": 218,
      "ve": 219,
      "Ġg": 220,
      "ent": 221,
      "ion": 222,
      "ut": 223,
      "ĠI": 224,
      "Ġn": 225,
      "Ġbe": 226,
      "im": 227,
      "Ġre": 228,
      "Ġis": 229,
      "ow": 230,
      "ot": 231,
      "Ġon": 232,
      "Ġhe": 233,
      "âĢ": 234,
      "ac": 235,
      "ver": 236,
      "et": 237,
      "ĠT": 238,
      "el": 239,
      "ir": 240,
      "Ġst": 241,
      "Ġit": 242,
      "ol": 243,
      "ur": 244,
      "am": 245,
      "ĠA": 246,
      "Ġthat": 247,
      "Ġu": 248,
      "id": 249,
      "ith": 250,
      "ay": 251,
      "Ġhis": 252,
      "gh": 253,
      "Ġy": 254,
      "ad": 255,
      "Ġwh": 256,
      "Ġli": 257,
      "Ġfor": 258,
      "ct": 259,
      "Ġwith": 260,
      "ter": 261,
      "Ġan": 262,
      "se": 263,
      "ĠS": 264,
      "ro": 265,
      "ch": 266,
      "'s": 267,
      "ri": 268,
      "ce": 269,
      "Ġas": 270,
      "ak": 271,
      "Ġal": 272,
      "ul": 273,
      "Ġmo": 274,
      "ra": 275,
      "Ġthis": 276,
      "âĢĻ": 277,
      "Ġyou": 278,
      "ld": 279,
      "ĠB": 280,
      "ĠM": 281,
      "est": 282,
      "her": 283,
      "Ġse": 284,
      "um": 285,
      "rom": 286,
      "ĠW": 287,
      "ag": 288,
      "em": 289,
      "ilm": 290,
      "ation": 291,
      "ill": 292,
      "us": 293,
      "ie": 294,
      "ĠThe": 295,
      "Ġde": 296,
      "ĠC": 297,
      "ist": 298,
      "Ġfilm": 299,
      "Ġsh": 300,
      "Ġlo": 301,
      "op": 302,
      "and": 303,
      "ap": 304,
      "ĠH": 305,
      "fe": 306,
      "Ġex": 307,
      "Ġcon": 308,
      "ess": 309,
      "ers": 310,
      "Ġat": 311,
      "Ġch": 312,
      "Ġfrom": 313,
      "Ġby": 314,
      "Ġcom": 315,
      "th": 316,
      "od": 317,
      "Ġj": 318,
      "Ġv": 319,
      "ght": 320,
      "un": 321,
      "ies": 322,
      "Ġwor": 323,
      "rou": 324,
      "Ġbut": 325,
      "ke": 326,
      "Ġher": 327,
      "Ġtheir": 328,
      "ear": 329,
      "ust": 330,
      "if": 331,
      "Ġab": 332,
      "ally": 333,
      "ant": 334,
      "oc": 335,
      "ast": 336,
      "art": 337,
      "Ġun": 338,
      "ive": 339,
      "Ġwas": 340,
      "ure": 341,
      "ĠF": 342,
      "ĠD": 343,
      "ain": 344,
      "out": 345,
      "ate": 346,
      "Ġme": 347,
      "ĠP": 348,
      "os": 349,
      "Ġne": 350,
      "Ġwho": 351,
      "Ġare": 352,
      "ab": 353,
      "ind": 354,
      "ity": 355,
      "ĠL": 356,
      "our": 357,
      "pe": 358,
      "ous": 359,
      "Ġk": 360,
      "Ġmy": 361,
      "Ġint": 362,
      "Ġwhe": 363,
      "Ġone": 364,
      "ĠJ": 365,
      "ĠG": 366,
      "ime": 367,
      "Ġr": 368,
      "ĠR": 369,
      "ave": 370,
      "Ġso": 371,
      "ome": 372,
      "ong": 373,
      "Ġ1": 374,
      "very": 375,
      "ig": 376,
      "ves": 377,
      "ack": 378,
      "Ġall": 379,
      "Ġthey": 380,
      "ire": 381,
      "ĠE": 382,
      "Ġnot": 383,
      "ĠN": 384,
      "qu": 385,
      "all": 386,
      "ory": 387,
      "ge": 388,
      "ell": 389,
      "Ġsu": 390,
      "ore": 391,
      "Ġlife": 392,
      "Ġtr": 393,
      "Ġpro": 394,
      "ard": 395,
      "Ġabout": 396,
      "Ġpl": 397,
      "ud": 398,
      "ight": 399,
      "ĠO": 400,
      "res": 401,
      "ort": 402,
      "Ġman": 403,
      "Ġ\"": 404,
      "Ġle": 405,
      "ide": 406,
      "ok": 407,
      "Ġim": 408,
      "Ġfe": 409,
      "Ġi": 410,
      "ary": 411,
      "reat": 412,
      "age": 413,
      "Ġhave": 414,
      "ven": 415,
      "Ġgo": 416,
      "Ġdo": 417,
      "Ġor": 418,
      "end": 419,
      "ial": 420,
      "Ġlike": 421,
      "ne": 422,
      "one": 423,
      "ĠK": 424,
      "Ġout": 425,
      "ould": 426,
      "per": 427,
      "Ġinto": 428,
      "..": 429,
      "Ġcan": 430,
      "Ġup": 431,
      "Ġwe": 432,
      "are": 433,
      "ĠIt": 434,
      "Ġper": 435,
      "Ġar": 436,
      "Ġhas": 437,
      "Ġtime": 438,
      "pl": 439,
      "vie": 440,
      "ĠâĢ": 441,
      "Ġbec": 442,
      "ian": 443,
      "orm": 444,
      "ence": 445,
      "pt": 446,
      "Ġsc": 447,
      "ical": 448,
      "Ġworld": 449,
      "Ġjust": 450,
      "fter": 451,
      "ip": 452,
      "nt": 453,
      "Ġcl": 454,
      "ich": 455,
      "Ġits": 456,
      "'t": 457,
      "iv": 458,
      "au": 459,
      "ĠTh": 460,
      "Ġwhen": 461,
      "ass": 462,
      "ake": 463,
      "av": 464,
      "ile": 465,
      "Ġwat": 466,
      "ace": 467,
      "Ġevery": 468,
      "ance": 469,
      "ang": 470,
      "og": 471,
      "Ġhim": 472,
      "Ġpe": 473,
      "Ġhow": 474,
      "Ġthem": 475,
      "rough": 476,
      "ond": 477,
      "Ġlove": 478,
      "ng": 479,
      "iz": 480,
      "ru": 481,
      "Ġ19": 482,
      "wo": 483,
      "ious": 484,
      "ans": 485,
      "ine": 486,
      "mer": 487,
      "Ġyear": 488,
      "Ġwhat": 489,
      "ite": 490,
      "Ġmore": 491,
      "hing": 492,
      "ry": 493,
      "ck": 494,
      "Ġ(": 495,
      "Ġsp": 496,
      "Ġdis": 497,
      "Ġen": 498,
      "Ġmost": 499,
      "ame": 500,
      "Ġshe": 501,
      "wn": 502,
      "ents": 503,
      "own": 504,
      "elf": 505,
      "pp": 506,
      "Ġcomp": 507,
      "ings": 508,
      "Ġthrough": 509,
      "The": 510,
      "ther": 511,
      "form": 512,
      "ild": 513,
      "ily": 514,
      "Ġ2": 515,
      "Ġover": 516,
      "ath": 517,
      "ib": 518,
      "other": 519,
      "Ġact": 520,
      "ople": 521,
      "ose": 522,
      "Ġshow": 523,
      "Ġag": 524,
      "ost": 525,
      "riend": 526,
      "ces": 527,
      "ep": 528,
      "Ġwork": 529,
      "ated": 530,
      "Ġstory": 531,
      "ays": 532,
      "ful": 533,
      "cc": 534,
      "een": 535,
      "able": 536,
      "oy": 537,
      "Ġpeople": 538,
      "ĠY": 539,
      "irst": 540,
      "Ġfam": 541,
      "Ġget": 542,
      "Ġsome": 543,
      "Ġonly": 544,
      "sh": 545,
      "ert": 546,
      "Ġbr": 547,
      "act": 548,
      "Ġad": 549,
      "Ġser": 550,
      "ions": 551,
      "old": 552,
      "ob": 553,
      "ment": 554,
      "Ġdoc": 555,
      "Ġbet": 556,
      "ark": 557,
      "Ġinter": 558,
      "ice": 559,
      "ink": 560,
      "ress": 561,
      "ue": 562,
      "Ġwill": 563,
      "Ġfeel": 564,
      "Ġafter": 565,
      "urn": 566,
      "ult": 567,
      "Ġfirst": 568,
      "ual": 569,
      "ict": 570,
      "hed": 571,
      "Ġfind": 572,
      "Ġwatch": 573,
      "Ġmovie": 574,
      "ument": 575,
      "Ġother": 576,
      "Ġkn": 577,
      "akes": 578,
      "ia": 579,
      "Ġam": 580,
      "Ġpr": 581,
      "ish": 582,
      "Ġspe": 583,
      "Ġem": 584,
      "Ġqu": 585,
      "ade": 586,
      "round": 587,
      "ff": 588,
      "Ġmus": 589,
      "ach": 590,
      "ree": 591,
      "Ġtwo": 592,
      "Ġthan": 593,
      "aking": 594,
      "nder": 595,
      "Ġcont": 596,
      "low": 597,
      "Ġpre": 598,
      "Ġreal": 599,
      "Ġwhich": 600,
      "Ġinc": 601,
      "Ġno": 602,
      "uring": 603,
      "Ġfriend": 604,
      "uch": 605,
      "Ġyoung": 606,
      "Ġro": 607,
      "Ġend": 608,
      "Ġoff": 609,
      "Ġus": 610,
      "Ġpart": 611,
      "Ġtra": 612,
      "rit": 613,
      "vers": 614,
      "app": 615,
      "ĠU": 616,
      "Ġway": 617,
      "ĠV": 618,
      "Ġyears": 619,
      "Ġever": 620,
      "Ġrec": 621,
      "ning": 622,
      "aw": 623,
      "Ġdocument": 624,
      "Ġsee": 625,
      "Ġany": 626,
      "ord": 627,
      "Ġchar": 628,
      "Ġnew": 629,
      "ound": 630,
      "Ġdes": 631,
      "ick": 632,
      "âĢĿ": 633,
      "Ġthere": 634,
      "Ġwhere": 635,
      "ĠThis": 636,
      "Ġperform": 637,
      "Ġte": 638,
      "Ġback": 639,
      "ount": 640,
      "Ġeven": 641,
      "ll": 642,
      "Ġbl": 643,
      "Ġrel": 644,
      "Ġif": 645,
      "ĠCh": 646,
      "gin": 647,
      "Ġfamily": 648,
      "ating": 649,
      "Ġ-": 650,
      "az": 651,
      "Ġhum": 652,
      "ĠSt": 653,
      "irect": 654,
      "aut": 655,
      "ens": 656,
      "ood": 657,
      "ting": 658,
      "âĢ¦": 659,
      "so": 660,
      "ving": 661,
      "Ġres": 662,
      "Ġimp": 663,
      "Ġwhile": 664,
      "Ġnever": 665,
      "Ġev": 666,
      "Ġknow": 667,
      "vel": 668,
      "self": 669,
      "Ġgreat": 670,
      "Ġown": 671,
      "ph": 672,
      "Ġwar": 673,
      "Ġart": 674,
      "ors": 675,
      "ere": 676,
      "Ġmuch": 677,
      "ĠâĢľ": 678,
      "der": 679,
      "man": 680,
      "Ġbeen": 681,
      "hen": 682,
      "les": 683,
      "ren": 684,
      "Ġrem": 685,
      "ters": 686,
      "Ġ20": 687,
      "Ġsur": 688,
      "omet": 689,
      "Ġwom": 690,
      "Ġunder": 691,
      "Ġra": 692,
      "Ġwould": 693,
      "Ġlives": 694,
      "Ġatt": 695,
      "Ġent": 696,
      "Ġpo": 697,
      "Ġmusic": 698,
      "ause": 699,
      "igh": 700,
      "In": 701,
      "Ġyour": 702,
      "Ġseries": 703,
      "ather": 704,
      "Ġchild": 705,
      "ough": 706,
      "tle": 707,
      "ber": 708,
      "Ġaw": 709,
      "fore": 710,
      "pect": 711,
      "Ġcr": 712,
      "Ġdocumentary": 713,
      "Ġpers": 714,
      "ship": 715,
      "ness": 716,
      "irl": 717,
      "ism": 718,
      "ĠIn": 719,
      "Ġcol": 720,
      "inem": 721,
      "ved": 722,
      "Ġlook": 723,
      "Ġbeing": 724,
      "Ġagain": 725,
      "Ġfin": 726,
      "Ġbest": 727,
      "uck": 728,
      "Ġbeaut": 729,
      "ream": 730,
      "Ġhist": 731,
      "ween": 732,
      "Ġthink": 733,
      "Ġconc": 734,
      "Ġlive": 735,
      "fect": 736,
      "ty": 737,
      "Ġlong": 738,
      "ect": 739,
      "ise": 740,
      "Ġbetween": 741,
      "Ġdirect": 742,
      "Ġmake": 743,
      "gg": 744,
      "Ġset": 745,
      "Ġalso": 746,
      "Ġtri": 747,
      "Ġhad": 748,
      "thing": 749,
      "Ġacc": 750,
      "red": 751,
      "ience": 752,
      "co": 753,
      "ail": 754,
      "Ġsm": 755,
      "meric": 756,
      "Ġwant": 757,
      "Ġdon": 758,
      "Ġgr": 759,
      "Ġcharac": 760,
      "ign": 761,
      "Ġpol": 762,
      "Ġdec": 763,
      "ually": 764,
      "get": 765,
      "Ġreally": 766,
      "Ġcinem": 767,
      "Ġexper": 768,
      "Ġgirl": 769,
      "Ġep": 770,
      "Ġmade": 771,
      "Ġsomet": 772,
      "Ġtal": 773,
      "ster": 774,
      "ĠBut": 775,
      "te": 776,
      "Ġri": 777,
      "Ġgu": 778,
      "...": 779,
      "ram": 780,
      "ures": 781,
      "ran": 782,
      "ations": 783,
      "ĠHe": 784,
      "Ġbecause": 785,
      "Ġold": 786,
      "ying": 787,
      "iful": 788,
      "iff": 789,
      "ates": 790,
      "ft": 791,
      "ool": 792,
      "Ġseen": 793,
      "Ġnow": 794,
      "ower": 795,
      "ced": 796,
      "Ġhuman": 797,
      "ons": 798,
      "Ġinv": 799,
      "oot": 800,
      "less": 801,
      "Ġins": 802,
      "Ġmem": 803,
      "Ġlit": 804,
      "Ġbefore": 805,
      "apt": 806,
      "ute": 807,
      "Ġour": 808,
      "Ġcould": 809,
      "Ġperson": 810,
      "Ġhapp": 811,
      "ss": 812,
      "ron": 813,
      "iet": 814,
      "Ġdid": 815,
      "ling": 816,
      "arr": 817,
      "ks": 818,
      "Ġmin": 819,
      "lect": 820,
      "Ġvery": 821,
      "ible": 822,
      "ew": 823,
      "ater": 824,
      "ĠAmeric": 825,
      "Ġdoes": 826,
      "Ġmom": 827,
      "ĠWh": 828,
      "Ġfilms": 829,
      "Ġduring": 830,
      "Ġbeautiful": 831,
      "du": 832,
      "Ġdeath": 833,
      "view": 834,
      "ife": 835,
      "Ġmany": 836,
      "ney": 837,
      "Ġthen": 838,
      "oth": 839,
      "Ġdiff": 840,
      "ĠAl": 841,
      "Ġplay": 842,
      "Ġcomm": 843,
      "Ġstill": 844,
      "ase": 845,
      "its": 846,
      "Ġexpl": 847,
      "Ġday": 848,
      "ull": 849,
      "ories": 850,
      "ĠAnd": 851,
      "int": 852,
      "aster": 853,
      "Ġaround": 854,
      "hes": 855,
      "Ġwell": 856,
      "Ġhistory": 857,
      "Ġthese": 858,
      "Ġsomething": 859,
      "Ġcam": 860,
      "Ġlast": 861,
      "Ġwere": 862,
      "00": 863,
      "Ġfl": 864,
      "Ġconf": 865,
      "ub": 866,
      "ense": 867,
      "Ġgen": 868,
      "Ġvis": 869,
      "Ġheart": 870,
      "Ġgood": 871,
      "'ve": 872,
      "Ġsec": 873,
      "Ġstart": 874,
      "ional": 875,
      "ollow": 876,
      "sc": 877,
      "ope": 878,
      "'m": 879,
      "Ġtell": 880,
      "Ġmother": 881,
      "Ġpower": 882,
      "Ġret": 883,
      "atic": 884,
      "iss": 885,
      "Ġmust": 886,
      "ied": 887,
      "Ġjour": 888,
      "Ġsay": 889,
      "ative": 890,
      "ret": 891,
      "Ġstru": 892,
      "ten": 893,
      "ature": 894,
      "ched": 895,
      "Ġtrans": 896,
      "Ġspec": 897,
      "Ġcare": 898,
      "oss": 899,
      "Ġwoman": 900,
      "Ġturn": 901,
      "Ġmar": 902,
      "ene": 903,
      "Ġeach": 904,
      "Ġsub": 905,
      "Ġbecom": 906,
      "Ġcomple": 907,
      "Ġsing": 908,
      "Ġsoc": 909,
      "king": 910,
      "up": 911,
      "imes": 912,
      "Ġbegin": 913,
      "!!": 914,
      "ner": 915,
      "ys": 916,
      "Ġboth": 917,
      "Ġph": 918,
      "Ġdown": 919,
      "Ġac": 920,
      "ists": 921,
      "Ġdream": 922,
      "ble": 923,
      "Ġtake": 924,
      "Ġlead": 925,
      "Ġboy": 926,
      "ix": 927,
      "Ġke": 928,
      "ĠAn": 929,
      "Ġthose": 930,
      "Ġconcert": 931,
      "Ġ'": 932,
      "ison": 933,
      "Ġhome": 934,
      "Ġco": 935,
      "lud": 936,
      "isod": 937,
      "Ġcreat": 938,
      "ward": 939,
      "ĠSh": 940,
      "cept": 941,
      "ition": 942,
      "chool": 943,
      ".\"": 944,
      "ex": 945,
      "ives": 946,
      "ction": 947,
      "Ġfriends": 948,
      "Ġthree": 949,
      "be": 950,
      "Ġhel": 951,
      "âĢĶ": 952,
      "ject": 953,
      "Ġmen": 954,
      "ĠWar": 955,
      "ple": 956,
      "Ġbeh": 957,
      "led": 958,
      "Ġsim": 959,
      "Ġsame": 960,
      "oh": 961,
      "Ġdet": 962,
      "Ġhere": 963,
      "Ġext": 964,
      "Ġfather": 965,
      "ways": 966,
      "Ġear": 967,
      "Ġimag": 968,
      "air": 969,
      "Ġob": 970,
      "Ġseem": 971,
      "day": 972,
      "ited": 973,
      "ĠBe": 974,
      "ined": 975,
      "Ġmeet": 976,
      "Ġclass": 977,
      "the": 978,
      "vis": 979,
      "Ġtakes": 980,
      "Ġapp": 981,
      "ĠAs": 982,
      "Ġthings": 983,
      "ik": 984,
      "Ġplace": 985,
      "ident": 986,
      "augh": 987,
      "ale": 988,
      "Ġcinema": 989,
      "Ġgoing": 990,
      "als": 991,
      "Ġind": 992,
      "ities": 993,
      "Ġwatching": 994,
      "Ġfollow": 995,
      "ane": 996,
      "Ġnight": 997,
      "ien": 998,
      "Ġuni": 999,
      "io": 1000,
      "Ġtoo": 1001,
      "ĠMar": 1002,
      "br": 1003,
      "Ġsuch": 1004,
      "ese": 1005,
      "Ġhelp": 1006,
      "Ġanim": 1007,
      "Ġemot": 1008,
      "Ġsmall": 1009,
      "Ġdiffer": 1010,
      "Ġentire": 1011,
      "Ġfoot": 1012,
      "Ġpres": 1013,
      "Ġgl": 1014,
      "aving": 1015,
      "Ġes": 1016,
      "Ġband": 1017,
      "ouse": 1018,
      "Ġmay": 1019,
      "ash": 1020,
      "ier": 1021,
      "Ġstud": 1022,
      "apan": 1023,
      "roup": 1024,
      "Ġbecome": 1025,
      "era": 1026,
      "vent": 1027,
      "Ġmakes": 1028,
      "Ġpain": 1029,
      "Ġtoget": 1030,
      "ased": 1031,
      "Ġgroup": 1032,
      "Ġbel": 1033,
      "Ġepisod": 1034,
      "Ġtogether": 1035,
      "Ġcount": 1036,
      "ĠSe": 1037,
      "Ġalways": 1038,
      "Ġref": 1039,
      "Ġter": 1040,
      "Ġass": 1041,
      "Ġrelation": 1042,
      "orn": 1043,
      "iness": 1044,
      "empt": 1045,
      "ross": 1046,
      "Ġcons": 1047,
      "Ġsong": 1048,
      "ances": 1049,
      "ought": 1050,
      "Ġhigh": 1051,
      "Ġneed": 1052,
      "orld": 1053,
      "Ġfar": 1054,
      "Ġrun": 1055,
      "Ġinclud": 1056,
      "Ġbecomes": 1057,
      "Ġmon": 1058,
      "Ġpast": 1059,
      "Ġschool": 1060,
      "ics": 1061,
      "ular": 1062,
      "Ġhimself": 1063,
      "ically": 1064,
      "Ġbo": 1065,
      "Ġform": 1066,
      "Ġstrugg": 1067,
      "Ġrelationship": 1068,
      "Ġcre": 1069,
      "Ġcapt": 1070,
      "ock": 1071,
      "Ġlittle": 1072,
      "ural": 1073,
      "ĠJapan": 1074,
      "rong": 1075,
      "Ġ3": 1076,
      "reen": 1077,
      "ĠNew": 1078,
      "Ġdisco": 1079,
      "Ġop": 1080,
      "Ġpolit": 1081,
      "Ġmaster": 1082,
      "ĠDe": 1083,
      "Ġright": 1084,
      "Ġjourney": 1085,
      "Ġcent": 1086,
      "aker": 1087,
      "ands": 1088,
      "Ġdep": 1089,
      "Ġaway": 1090,
      "Ġbig": 1091,
      "Ġthing": 1092,
      "Ġfuck": 1093,
      "aid": 1094,
      "ering": 1095,
      "Ġfinds": 1096,
      "Ġeverything": 1097,
      "Ġhour": 1098,
      "ince": 1099,
      "edy": 1100,
      "Ġfilmm": 1101,
      "ury": 1102,
      "'re": 1103,
      "ike": 1104,
      "ork": 1105,
      "bum": 1106,
      "imate": 1107,
      "cess": 1108,
      "iece": 1109,
      "Ġkill": 1110,
      "Ġcharacters": 1111,
      "ĠWhen": 1112,
      "Ġbehind": 1113,
      "Ġtown": 1114,
      "Ġmyster": 1115,
      "ĠâĢĶ": 1116,
      "Ġcome": 1117,
      "Ġfootage": 1118,
      "Ġgra": 1119,
      "atch": 1120,
      "Ġspecial": 1121,
      "ins": 1122,
      "Ġunt": 1123,
      "Ġagainst": 1124,
      "Ġey": 1125,
      "ably": 1126,
      "ĠAmerican": 1127,
      "ever": 1128,
      "Ġfall": 1129,
      "Ġhard": 1130,
      "Ġpass": 1131,
      "ci": 1132,
      "Ġliving": 1133,
      "ele": 1134,
      "Ġwrit": 1135,
      "Ġvie": 1136,
      "Ġcall": 1137,
      "idd": 1138,
      "ogra": 1139,
      "most": 1140,
      "Ġprodu": 1141,
      "ted": 1142,
      "Ġaud": 1143,
      "Ġsw": 1144,
      "Ġalbum": 1145,
      "Ġdeep": 1146,
      "ug": 1147,
      "Ġput": 1148,
      "Ġdest": 1149,
      "Ġonce": 1150,
      "uth": 1151,
      "olog": 1152,
      "ody": 1153,
      "Ġabs": 1154,
      "ny": 1155,
      "istic": 1156,
      "ov": 1157,
      "land": 1158,
      "Ġmur": 1159,
      "ĠAr": 1160,
      "Ġexp": 1161,
      "Ġview": 1162,
      "Ġfun": 1163,
      "ues": 1164,
      "Ġbu": 1165,
      "Ġanother": 1166,
      "na": 1167,
      "Ġson": 1168,
      "Ġwithout": 1169,
      "Ġkind": 1170,
      "ized": 1171,
      "Ġattempt": 1172,
      "Ġap": 1173,
      "Ġfull": 1174,
      "Ġdist": 1175,
      "ady": 1176,
      "hood": 1177,
      "Ġthought": 1178,
      "Ġshot": 1179,
      "Ġyet": 1180,
      "que": 1181,
      "Ġel": 1182,
      "my": 1183,
      "Ġlear": 1184,
      "Ġstories": 1185,
      "ds": 1186,
      "Ġfav": 1187,
      "Ġlet": 1188,
      "Ġmov": 1189,
      "Ġvill": 1190,
      "ĠThere": 1191,
      "Ġperfect": 1192,
      "Ġdirector": 1193,
      "Ġdram": 1194,
      "Ġexist": 1195,
      "arch": 1196,
      "Ġrep": 1197,
      "ps": 1198,
      "Ġwife": 1199,
      "Ġimm": 1200,
      "Ġinterview": 1201,
      "Ġmovies": 1202,
      "ah": 1203,
      "ric": 1204,
      "ason": 1205,
      "Ġinst": 1206,
      "Ġsurv": 1207,
      "Ġdifferent": 1208,
      "An": 1209,
      "Ġport": 1210,
      "Ġperformance": 1211,
      "Th": 1212,
      "eng": 1213,
      "utes": 1214,
      "Ġshould": 1215,
      "ffect": 1216,
      "sel": 1217,
      "Ġide": 1218,
      "Ġcour": 1219,
      "ides": 1220,
      "Ġreturn": 1221,
      "Ġsy": 1222,
      "Ġdel": 1223,
      "Ġpersonal": 1224,
      "xt": 1225,
      "ape": 1226,
      "Ġtrue": 1227,
      "Ġexperience": 1228,
      "Ġsl": 1229,
      "oun": 1230,
      "Ġstar": 1231,
      "Ġmaking": 1232,
      "Ġnarr": 1233,
      "Ġgreatest": 1234,
      "ai": 1235,
      "Ġ&": 1236,
      "Ġfour": 1237,
      "sy": 1238,
      "Ġleft": 1239,
      "rif": 1240,
      "Ġshort": 1241,
      "Ġhead": 1242,
      "ĠWorld": 1243,
      "ĠUn": 1244,
      "ows": 1245,
      "Ġalmost": 1246,
      "ĠYou": 1247,
      "Ġloc": 1248,
      "stand": 1249,
      "cl": 1250,
      "year": 1251,
      "Ġbetter": 1252,
      "rench": 1253,
      "here": 1254,
      "Ġwomen": 1255,
      "Ġuntil": 1256,
      "Ã©": 1257,
      "Ġtw": 1258,
      "ational": 1259,
      "Ġcharacter": 1260,
      "Ġsound": 1261,
      "Ġcontin": 1262,
      "aughter": 1263,
      "Ġtour": 1264,
      "Ġhor": 1265,
      "Ġgot": 1266,
      "ution": 1267,
      "ĠBl": 1268,
      "Ġmean": 1269,
      "Ġprison": 1270,
      "bo": 1271,
      "ening": 1272,
      "ĠAt": 1273,
      "ĠLe": 1274,
      "Ġbre": 1275,
      "ohn": 1276,
      "Ġcity": 1277,
      "Ġmed": 1278,
      "enes": 1279,
      "Ġmurder": 1280,
      "ĠHow": 1281,
      "ĠRe": 1282,
      "Ġkeep": 1283,
      "Ġcast": 1284,
      "Ġreg": 1285,
      "Ġdef": 1286,
      "acks": 1287,
      "anc": 1288,
      "Ġchildren": 1289,
      "ired": 1290,
      "),": 1291,
      "Ġquest": 1292,
      "me": 1293,
      "erman": 1294,
      "Ġcor": 1295,
      "ĠTH": 1296,
      "rigin": 1297,
      "Ġspir": 1298,
      "Ġenc": 1299,
      "Ġfact": 1300,
      "ingly": 1301,
      "Ġdark": 1302,
      "Ġfight": 1303,
      "Ġstop": 1304,
      "ĠOne": 1305,
      "Ġevents": 1306,
      "Ġfinal": 1307,
      "Ġdidn": 1308,
      "Ġlot": 1309,
      "Ġscene": 1310,
      "urs": 1311,
      "ĠThey": 1312,
      "ĠâĢĵ": 1313,
      "Ġ201": 1314,
      "ital": 1315,
      "Ġmet": 1316,
      "Ġplan": 1317,
      "Ġhouse": 1318,
      "Ġcomplete": 1319,
      "Ġprot": 1320,
      "amed": 1321,
      "Ġsex": 1322,
      "Ġscreen": 1323,
      "ertain": 1324,
      "Ġmoments": 1325,
      "ĠIs": 1326,
      "Ġkid": 1327,
      "elebr": 1328,
      "ines": 1329,
      "atter": 1330,
      "Ġchang": 1331,
      "ific": 1332,
      "Ġfew": 1333,
      "ront": 1334,
      "Ġmind": 1335,
      "Ġmiss": 1336,
      "elt": 1337,
      "Ġcountry": 1338,
      "selves": 1339,
      "Ġsocial": 1340,
      "ĠZ": 1341,
      "ize": 1342,
      "Ġesc": 1343,
      "Ġcar": 1344,
      "oul": 1345,
      "Ġbit": 1346,
      "Ġfore": 1347,
      "Ġsuper": 1348,
      "iol": 1349,
      "Ġwit": 1350,
      "Ġcelebr": 1351,
      "Ġdays": 1352,
      "ility": 1353,
      "Ġwatched": 1354,
      "Ġfeels": 1355,
      "IN": 1356,
      "ðŁ": 1357,
      "Ġunf": 1358,
      "ains": 1359,
      "Ġminutes": 1360,
      "Ġmarri": 1361,
      "Ġcomes": 1362,
      "con": 1363,
      "Ġsk": 1364,
      "ange": 1365,
      "Ġnear": 1366,
      "Ġbelie": 1367,
      "bers": 1368,
      "uk": 1369,
      "ished": 1370,
      "Ġland": 1371,
      "Ġgets": 1372,
      "Ġlearn": 1373,
      "Ġvillage": 1374,
      "Ġsol": 1375,
      "Ġrest": 1376,
      "Ġsecond": 1377,
      "iant": 1378,
      "ror": 1379,
      "any": 1380,
      "Ġwhy": 1381,
      "Ġtrag": 1382,
      "Ġlost": 1383,
      "Ġmysterious": 1384,
      "Ġdoesn": 1385,
      "olute": 1386,
      "uss": 1387,
      "Ġpoint": 1388,
      "Ġ5": 1389,
      "Ġrecord": 1390,
      "to": 1391,
      "Ġprof": 1392,
      "Ġorigin": 1393,
      "Ġcult": 1394,
      "Ġnothing": 1395,
      "Ġeveryone": 1396,
      "Ġshows": 1397,
      "Ġcommun": 1398,
      "Ġface": 1399,
      "Ġmor": 1400,
      "Ġinf": 1401,
      "ĠSo": 1402,
      "Ġmoment": 1403,
      "Ġpar": 1404,
      "Ġrele": 1405,
      "aces": 1406,
      "Ġwithin": 1407,
      "ĠOn": 1408,
      "ms": 1409,
      "Ġgive": 1410,
      "Ġtimes": 1411,
      "ony": 1412,
      "Ġcou": 1413,
      "Ġnature": 1414,
      "Ġwhole": 1415,
      "Ġdaughter": 1416,
      "ently": 1417,
      "side": 1418,
      "ote": 1419,
      "RE": 1420,
      "Ġdem": 1421,
      "Ġviol": 1422,
      "Ġ4": 1423,
      "ered": 1424,
      "ĠFrench": 1425,
      "Ġincred": 1426,
      "Ġfavor": 1427,
      "Ġhon": 1428,
      "ential": 1429,
      "Ġsongs": 1430,
      "uc": 1431,
      "Ġself": 1432,
      "Ġmag": 1433,
      "ember": 1434,
      "pr": 1435,
      "Ġmove": 1436,
      "ĠWe": 1437,
      "Ġ198": 1438,
      "let": 1439,
      "Ġtele": 1440,
      "vision": 1441,
      "ĠHis": 1442,
      "ĠJohn": 1443,
      "After": 1444,
      "Ġdead": 1445,
      "Ġanything": 1446,
      "Ġevent": 1447,
      "ograph": 1448,
      "ead": 1449,
      "Ġfut": 1450,
      "ented": 1451,
      "Ġ199": 1452,
      "Ġsingle": 1453,
      "Ġteen": 1454,
      "Ġsold": 1455,
      "ival": 1456,
      "Ġunderstand": 1457,
      "Âł": 1458,
      "Ġhand": 1459,
      "alf": 1460,
      "Ġalong": 1461,
      "Ġsense": 1462,
      "Ġfound": 1463,
      "Ġpolitical": 1464,
      "ĠShe": 1465,
      "Ġ196": 1466,
      "Ġeyes": 1467,
      "ming": 1468,
      "rist": 1469,
      "uly": 1470,
      "cer": 1471,
      "ird": 1472,
      "Ġed": 1473,
      "Ġsaid": 1474,
      "Ġbro": 1475,
      "Ġtop": 1476,
      "ocus": 1477,
      "gend": 1478,
      "arent": 1479,
      "com": 1480,
      "Ġformer": 1481,
      "ove": 1482,
      "wh": 1483,
      "ality": 1484,
      "asc": 1485,
      "Ġsupp": 1486,
      "Ġimport": 1487,
      "Ġpsy": 1488,
      "tern": 1489,
      "ured": 1490,
      "ray": 1491,
      "ĠGerman": 1492,
      "Ġfeat": 1493,
      "Ġsomeone": 1494,
      "Ġbegins": 1495,
      "Ġfre": 1496,
      "Ġcho": 1497,
      "ĠWhat": 1498,
      "Ġche": 1499,
      "Ġthough": 1500,
      "acy": 1501,
      "Ġstand": 1502,
      "Ġlight": 1503,
      "Ġvide": 1504,
      "ung": 1505,
      "Ġactually": 1506,
      "Ġwond": 1507,
      "Ġclose": 1508,
      "Ġblack": 1509,
      "Ġcamera": 1510,
      "iting": 1511,
      "lear": 1512,
      "ared": 1513,
      "iety": 1514,
      "Ġincluding": 1515,
      "aj": 1516,
      "Ġsince": 1517,
      "ĠAfter": 1518,
      "Ġorder": 1519,
      "Ġsecret": 1520,
      "Ġperformances": 1521,
      "ĠJapanese": 1522,
      "ler": 1523,
      "not": 1524,
      "Ġfr": 1525,
      "Ġfocus": 1526,
      "Ġwhose": 1527,
      "Ġthemselves": 1528,
      "yn": 1529,
      "ened": 1530,
      "Ġprom": 1531,
      "Ġposs": 1532,
      "Ġdra": 1533,
      "Ġacross": 1534,
      "Ġcentury": 1535,
      "Ġbus": 1536,
      "Ġhope": 1537,
      "Ġhaving": 1538,
      "Ġstage": 1539,
      "osed": 1540,
      "Ġbrut": 1541,
      "Ġgener": 1542,
      "Ġpret": 1543,
      "Ġartist": 1544,
      "aim": 1545,
      "Ġcareer": 1546,
      "Ġcourse": 1547,
      "friend": 1548,
      "vious": 1549,
      "Ġpop": 1550,
      "aps": 1551,
      "ants": 1552,
      "Ġbrother": 1553,
      "ining": 1554,
      "ised": 1555,
      "owing": 1556,
      "ears": 1557,
      "Ġtrying": 1558,
      "ts": 1559,
      "ĠPar": 1560,
      "Ġfive": 1561,
      "Ġpost": 1562,
      "Ġinterest": 1563,
      "ians": 1564,
      "Ġfilmmaker": 1565,
      "und": 1566,
      "vol": 1567,
      "Ġ197": 1568,
      "Ġaudience": 1569,
      "band": 1570,
      "Ġgang": 1571,
      "Ġabsolute": 1572,
      "AT": 1573,
      "aun": 1574,
      "iel": 1575,
      "rol": 1576,
      "use": 1577,
      "Ġread": 1578,
      "Ġprov": 1579,
      "Ġcra": 1580,
      "of": 1581,
      "Ġrom": 1582,
      "Ġhus": 1583,
      "Ġgoes": 1584,
      "Ġ200": 1585,
      "Ġinterviews": 1586,
      "ax": 1587,
      "min": 1588,
      "inc": 1589,
      "Ġlar": 1590,
      "fully": 1591,
      "Ġ--": 1592,
      "Ġfavorite": 1593,
      "eor": 1594,
      "gan": 1595,
      "het": 1596,
      "Ġadd": 1597,
      "Ġinvol": 1598,
      "Ġhours": 1599,
      "Ġtelevision": 1600,
      "ek": 1601,
      "ĠMy": 1602,
      "bre": 1603,
      "ivid": 1604,
      "ches": 1605,
      "yle": 1606,
      "Ġdeb": 1607,
      "Ġfuture": 1608,
      ").": 1609,
      ",\"": 1610,
      "reet": 1611,
      "Ġhalf": 1612,
      "Ġoffic": 1613,
      "Ġchildhood": 1614,
      "Ġdri": 1615,
      "pir": 1616,
      "Ġsil": 1617,
      "Ġseems": 1618,
      "Ġemotional": 1619,
      "Ġepisode": 1620,
      "Ġfelt": 1621,
      "attle": 1622,
      "Ġbar": 1623,
      "Ġmain": 1624,
      "Ġreve": 1625,
      "Ġsit": 1626,
      "ĠNot": 1627,
      "Ġlegend": 1628,
      "ĠYork": 1629,
      "Ġliter": 1630,
      "ley": 1631,
      "Ġvisual": 1632,
      "Ġunique": 1633,
      "bor": 1634,
      "Ġjo": 1635,
      "Ġopp": 1636,
      "ences": 1637,
      "ames": 1638,
      "Ġdesp": 1639,
      "Ġexperien": 1640,
      "elling": 1641,
      "Ġarri": 1642,
      "iving": 1643,
      "Ġmusical": 1644,
      "Ġpowerful": 1645,
      "dd": 1646,
      "ked": 1647,
      "Ġvers": 1648,
      "rop": 1649,
      "Ġsearch": 1650,
      "Ġtravel": 1651,
      "velop": 1652,
      "pected": 1653,
      "Ġmeets": 1654,
      "Ġdrama": 1655,
      "aves": 1656,
      "by": 1657,
      "inary": 1658,
      "ental": 1659,
      "ots": 1660,
      "ression": 1661,
      "Ġthr": 1662,
      "ĠII": 1663,
      "Ġjob": 1664,
      "Ġsoon": 1665,
      "Ġfriendship": 1666,
      "Ġsent": 1667,
      ".âĢĿ": 1668,
      "Ġlater": 1669,
      "amp": 1670,
      "ately": 1671,
      "ĠGod": 1672,
      "Ġenough": 1673,
      "When": 1674,
      "Ġslow": 1675,
      "irc": 1676,
      "plic": 1677,
      "Ġgrand": 1678,
      "Ġdestro": 1679,
      "Ġhusband": 1680,
      "ĠIf": 1681,
      "Ġemb": 1682,
      "Ġfucking": 1683,
      "Ġlocal": 1684,
      "ator": 1685,
      "Ġoften": 1686,
      "ades": 1687,
      "Ġvo": 1688,
      "Ġsuff": 1689,
      "ĠThat": 1690,
      "Ġstruggle": 1691,
      "Ġimportant": 1692,
      "Ġpsych": 1693,
      "Ġant": 1694,
      "Ġcrime": 1695,
      "af": 1696,
      "ky": 1697,
      "ments": 1698,
      "par": 1699,
      "outh": 1700,
      "ĠMan": 1701,
      "Ġtruly": 1702,
      "Ġpoet": 1703,
      "Ġpat": 1704,
      "ĠHar": 1705,
      "way": 1706,
      "ondon": 1707,
      "Ġothers": 1708,
      "Ġspirit": 1709,
      "ister": 1710,
      "Ġdev": 1711,
      "Ġ9": 1712,
      "ĠAmerica": 1713,
      "lict": 1714,
      "time": 1715,
      "ĠSp": 1716,
      "pped": 1717,
      "Ġreality": 1718,
      "'ll": 1719,
      "ination": 1720,
      "Ġsad": 1721,
      "Ġcur": 1722,
      "ilt": 1723,
      "Ġpresent": 1724,
      "che": 1725,
      "Ġbad": 1726,
      "Ġeffect": 1727,
      "Ġcomedy": 1728,
      "range": 1729,
      "Ġtells": 1730,
      "arl": 1731,
      "ctor": 1732,
      "umb": 1733,
      "ĠLondon": 1734,
      "Ġsucc": 1735,
      "Ġspace": 1736,
      "Ġexplore": 1737,
      "cy": 1738,
      "Ġsoul": 1739,
      "Ġfollows": 1740,
      "Ġencoun": 1741,
      "Ġoriginal": 1742,
      "Ġhonest": 1743,
      "ium": 1744,
      "Ġfree": 1745,
      "Ġmil": 1746,
      "ĠCl": 1747,
      "Ġepic": 1748,
      "??": 1749,
      "rang": 1750,
      "Ġdevelop": 1751,
      "val": 1752,
      "Ġill": 1753,
      "ina": 1754,
      "Ġwrong": 1755,
      "arious": 1756,
      "Ġmight": 1757,
      "Ġname": 1758,
      "Ġreview": 1759,
      "abor": 1760,
      "Ġroom": 1761,
      "azing": 1762,
      "Ġphot": 1763,
      "Ġdreams": 1764,
      "OU": 1765,
      "Ġnamed": 1766,
      "Ġrock": 1767,
      "This": 1768,
      "\",": 1769,
      "Ġwin": 1770,
      "Ġuse": 1771,
      "Ġamong": 1772,
      "Ġcoll": 1773,
      "Ġsubject": 1774,
      "Ġbuild": 1775,
      "piece": 1776,
      "Ġbra": 1777,
      "Ġconst": 1778,
      "osp": 1779,
      "Ġpartic": 1780,
      "ient": 1781,
      "Ġocc": 1782,
      "Ġless": 1783,
      "ention": 1784,
      "Ġmoder": 1785,
      "ĠWith": 1786,
      "Ġmyself": 1787,
      "Ġapart": 1788,
      "alth": 1789,
      "Ġpiece": 1790,
      "ices": 1791,
      "Ġtry": 1792,
      "Ġic": 1793,
      "asy": 1794,
      "Ġfinally": 1795,
      "Ġcomplex": 1796,
      "ef": 1797,
      "uge": 1798,
      "ĠAd": 1799,
      "Ġeng": 1800,
      "ĠChrist": 1801,
      "ER": 1802,
      "ery": 1803,
      "Ġcry": 1804,
      "Ġhop": 1805,
      "ĠAm": 1806,
      "Ġteam": 1807,
      "ĠHol": 1808,
      "Ġhistor": 1809,
      "Ġdiscover": 1810,
      "EN": 1811,
      "ean": 1812,
      "arth": 1813,
      "Ġpri": 1814,
      "ement": 1815,
      "ĠHer": 1816,
      "new": 1817,
      "iction": 1818,
      "Ġpolice": 1819,
      "ma": 1820,
      "Ġstun": 1821,
      "ages": 1822,
      "Ġmembers": 1823,
      "eless": 1824,
      "Ġitself": 1825,
      "Ġincredible": 1826,
      "ec": 1827,
      "over": 1828,
      "yo": 1829,
      "Ġtold": 1830,
      "Ġspend": 1831,
      "Ġcollect": 1832,
      "Ġobs": 1833,
      "iddle": 1834,
      "like": 1835,
      "yp": 1836,
      "aling": 1837,
      "Ġtoday": 1838,
      "verse": 1839,
      "Ġneigh": 1840,
      "Ġclos": 1841,
      "Ġproduction": 1842,
      "acher": 1843,
      "Ġsever": 1844,
      "avid": 1845,
      "Ġsuccess": 1846,
      "Ġmodern": 1847,
      "hel": 1848,
      "Ġfans": 1849,
      "Ġcirc": 1850,
      "Ġmot": 1851,
      "Ġstri": 1852,
      "aged": 1853,
      "Ġconne": 1854,
      "Ġepisodes": 1855,
      "bs": 1856,
      "Ġways": 1857,
      "ank": 1858,
      "omp": 1859,
      "imin": 1860,
      "ĠAll": 1861,
      "ĠBrit": 1862,
      "ĠEl": 1863,
      "Ġtruth": 1864,
      "oney": 1865,
      "Ġwonder": 1866,
      "Ġisn": 1867,
      "ĠCon": 1868,
      "Ġintimate": 1869,
      "rupt": 1870,
      "Ġtale": 1871,
      "ĠHowever": 1872,
      "Ġtrou": 1873,
      "Ġcat": 1874,
      "Ġtook": 1875,
      "chn": 1876,
      "Ġchange": 1877,
      "ously": 1878,
      "Ġdoing": 1879,
      "ged": 1880,
      "Ġloved": 1881,
      "Ġadvent": 1882,
      "Ġ6": 1883,
      "Ġbir": 1884,
      "Ġcame": 1885,
      "Ġstreet": 1886,
      "Ġstrange": 1887,
      "Ġdetail": 1888,
      "Ġimages": 1889,
      "Ġele": 1890,
      "ĠTV": 1891,
      "Ġplanet": 1892,
      "Ġcompletely": 1893,
      "ract": 1894,
      "Ġcrit": 1895,
      "Ġdr": 1896,
      "aken": 1897,
      "oph": 1898,
      "Ġscenes": 1899,
      "izing": 1900,
      "Ġfeeling": 1901,
      "Ġremember": 1902,
      "Ġbreak": 1903,
      "ography": 1904,
      "Ġpretty": 1905,
      "'d": 1906,
      "bably": 1907,
      "Ġsix": 1908,
      "onic": 1909,
      "els": 1910,
      "Ġnext": 1911,
      "fort": 1912,
      "oon": 1913,
      "Ġlate": 1914,
      "ider": 1915,
      "Ġtries": 1916,
      "Ġconflict": 1917,
      "Ġwal": 1918,
      "Ġlaw": 1919,
      "Ġexam": 1920,
      "ĠGeor": 1921,
      "ivil": 1922,
      "Ġworking": 1923,
      "Ġbring": 1924,
      "ĠParis": 1925,
      "gu": 1926,
      "Ġage": 1927,
      "Ġsure": 1928,
      "Ġparent": 1929,
      "Ġdi": 1930,
      "ĠSw": 1931,
      "Ġwords": 1932,
      "ĠFor": 1933,
      "Ġearly": 1934,
      "ĠTHE": 1935,
      "uz": 1936,
      "Ġtoward": 1937,
      "ush": 1938,
      "used": 1939,
      "ges": 1940,
      "lt": 1941,
      "ply": 1942,
      "ton": 1943,
      "ready": 1944,
      "Ġhit": 1945,
      "Ġlist": 1946,
      "Ġshit": 1947,
      "Ġupon": 1948,
      "Ġanimation": 1949,
      "Ġelse": 1950,
      "iven": 1951,
      "Ġwent": 1952,
      "Ġwild": 1953,
      "Ġground": 1954,
      "Ġinvest": 1955,
      "cially": 1956,
      "Ġabsolutely": 1957,
      "ares": 1958,
      "lin": 1959,
      "ĠAng": 1960,
      "Ġcommit": 1961,
      "Ġbusiness": 1962,
      "erm": 1963,
      "Ġwa": 1964,
      "Ġexc": 1965,
      "Ġamazing": 1966,
      "Ġdesire": 1967,
      "Ġescape": 1968,
      "oe": 1969,
      "Ġcond": 1970,
      "lex": 1971,
      "Ġalready": 1972,
      "ĠEm": 1973,
      "Ġmasterpiece": 1974,
      "nown": 1975,
      "Ġmis": 1976,
      "Ġable": 1977,
      "ĠFran": 1978,
      "Ġleave": 1979,
      "wood": 1980,
      "Ġdisc": 1981,
      "ibly": 1982,
      "Ġinside": 1983,
      "ones": 1984,
      "Ġbody": 1985,
      "Ġhero": 1986,
      "Ġrare": 1987,
      "Ġbeauty": 1988,
      "Ġmeaning": 1989,
      "Ġwitness": 1990,
      "Ġcap": 1991,
      "Ġhear": 1992,
      "Ġleg": 1993,
      "Ġclassic": 1994,
      "Ġdiscovers": 1995,
      "Ġcalled": 1996,
      "ĠBlack": 1997,
      "19": 1998,
      "son": 1999,
      "att": 2000,
      "Ġcertain": 2001,
      "Ġseason": 2002,
      "ĠRob": 2003,
      "Ġ10": 2004,
      "Ġhappy": 2005,
      "ronic": 2006,
      "ger": 2007,
      "real": 2008,
      "Ġmiddle": 2009,
      "omb": 2010,
      "ott": 2011,
      "Ġstyle": 2012,
      "Ġgetting": 2013,
      "Ġreflect": 2014,
      "ING": 2015,
      "lo": 2016,
      "Ġsum": 2017,
      "Ġmult": 2018,
      "stem": 2019,
      "ĠWest": 2020,
      "Ġbrutal": 2021,
      "breaking": 2022,
      "Ġsn": 2023,
      "ising": 2024,
      "Two": 2025,
      "nal": 2026,
      "Ġtest": 2027,
      "Ġfasc": 2028,
      "Ġhold": 2029,
      "rodu": 2030,
      "Ġfeature": 2031,
      "Ġknown": 2032,
      "awa": 2033,
      "Ġtalk": 2034,
      "Ġturns": 2035,
      "Ġfail": 2036,
      "omm": 2037,
      "Ġsequ": 2038,
      "Ġproble": 2039,
      "ĠItal": 2040,
      "Ġamb": 2041,
      "Ġrob": 2042,
      "Ġtechn": 2043,
      "Ġresp": 2044,
      "Ġlooking": 2045,
      "Ġcommunity": 2046,
      "uff": 2047,
      "Ġstrong": 2048,
      "ĠSc": 2049,
      "ĠWill": 2050,
      "ĠFr": 2051,
      "ĠâĢĺ": 2052,
      "Ġfamil": 2053,
      "volution": 2054,
      "Ġ7": 2055,
      "Ġest": 2056,
      "Ġsign": 2057,
      "Ġval": 2058,
      "pecially": 2059,
      "ĠNaz": 2060,
      "Ġworks": 2061,
      "Ġwants": 2062,
      "Ġstudent": 2063,
      "reme": 2064,
      "Ġwr": 2065,
      "itive": 2066,
      "acing": 2067,
      "ĠEvery": 2068,
      "Ġbrill": 2069,
      "line": 2070,
      "yond": 2071,
      "Ġcut": 2072,
      "ĠBr": 2073,
      "ager": 2074,
      "pend": 2075,
      "Ġcrew": 2076,
      "Ġvideo": 2077,
      "gn": 2078,
      "Ġtreat": 2079,
      "Ġpur": 2080,
      "Ġult": 2081,
      "Ġunex": 2082,
      "ĠPer": 2083,
      "Ġsociety": 2084,
      "Ġdestroy": 2085,
      "LL": 2086,
      "Wh": 2087,
      "ael": 2088,
      "cri": 2089,
      "Ġess": 2090,
      "Ġfant": 2091,
      "itary": 2092,
      "Ġprog": 2093,
      "Ġquite": 2094,
      "Ġcamp": 2095,
      "Ġportra": 2096,
      "Ġsystem": 2097,
      "Ġversion": 2098,
      "Ġwhite": 2099,
      "ored": 2100,
      "Ġsets": 2101,
      "AN": 2102,
      "Ġ8": 2103,
      "reas": 2104,
      "aced": 2105,
      "Ġforces": 2106,
      "ĠPr": 2107,
      "ĠEarth": 2108,
      "Ġparticular": 2109,
      "go": 2110,
      "ground": 2111,
      "Ġident": 2112,
      "ĠInd": 2113,
      "ĠDo": 2114,
      "Ġknew": 2115,
      "ĠEng": 2116,
      "Ġplaying": 2117,
      "Ġsimply": 2118,
      "ĠðŁ": 2119,
      "Ġsaw": 2120,
      "Ġwid": 2121,
      "ats": 2122,
      "ths": 2123,
      "ustr": 2124,
      "Ġgover": 2125,
      "Ġcontrol": 2126,
      "Ġaff": 2127,
      "Ġclear": 2128,
      "chie": 2129,
      "Ġalone": 2130,
      "Ġprocess": 2131,
      "Ġprobably": 2132,
      "Ġago": 2133,
      "idden": 2134,
      "ID": 2135,
      "It": 2136,
      "Ġble": 2137,
      "Ġbur": 2138,
      "Ġcase": 2139,
      "ift": 2140,
      "Ġgirls": 2141,
      "Ġbook": 2142,
      "Ġinstead": 2143,
      "Ġnarrative": 2144,
      "Ġparents": 2145,
      "ON": 2146,
      "ior": 2147,
      "Ġtaking": 2148,
      "Ġmatter": 2149,
      "urb": 2150,
      "Ġmeans": 2151,
      "ĠPet": 2152,
      "Ġproject": 2153,
      "Ġlooks": 2154,
      "Ġcouple": 2155,
      "Ġinvestig": 2156,
      "Ġten": 2157,
      "erg": 2158,
      "Ġmoney": 2159,
      "Ġbeyond": 2160,
      "ressive": 2161,
      "erv": 2162,
      "aries": 2163,
      "icult": 2164,
      "Ġnum": 2165,
      "ĠPl": 2166,
      "ichael": 2167,
      "000": 2168,
      "Ġlegendary": 2169,
      "gest": 2170,
      "hil": 2171,
      "Ġsens": 2172,
      "itions": 2173,
      "Ġmemory": 2174,
      "Ġmemories": 2175,
      "Ġaccept": 2176,
      "Ġextra": 2177,
      "Ġswe": 2178,
      "Ġbirth": 2179,
      "ino": 2180,
      "Ġhar": 2181,
      "Ġgod": 2182,
      "Ġgives": 2183,
      "ĠPal": 2184,
      "Ġbrings": 2185,
      "Ġguy": 2186,
      "Ġhumanity": 2187,
      "Ġdifficult": 2188,
      "Ġexplor": 2189,
      "Ġdeeply": 2190,
      "onna": 2191,
      "Ġline": 2192,
      "Ġreb": 2193,
      "ĠMon": 2194,
      "ding": 2195,
      "Ġbas": 2196,
      "cend": 2197,
      "usion": 2198,
      "ĠCity": 2199,
      "Ġplot": 2200,
      "Ġlevel": 2201,
      "ĠKing": 2202,
      "pective": 2203,
      "Ġwanted": 2204,
      "mb": 2205,
      "Ġfront": 2206,
      "Ġleast": 2207,
      "Ġbelieve": 2208,
      "Ġlarge": 2209,
      "IS": 2210,
      "light": 2211,
      "por": 2212,
      "iny": 2213,
      "Ġmill": 2214,
      "Ġgay": 2215,
      "Ġfilmed": 2216,
      "Ġcinematic": 2217,
      "Ġsexual": 2218,
      "iers": 2219,
      "Ġfig": 2220,
      "Ġfell": 2221,
      "Ġchall": 2222,
      "okyo": 2223,
      "Ġfunny": 2224,
      "Ġdespite": 2225,
      "aven": 2226,
      "Ġinn": 2227,
      "ĠTo": 2228,
      "Ġstra": 2229,
      "Ġanime": 2230,
      "Ġcannot": 2231,
      "iam": 2232,
      "head": 2233,
      "Ġtheat": 2234,
      "ern": 2235,
      "Ġcru": 2236,
      "urt": 2237,
      "Ġconv": 2238,
      "ĠRuss": 2239,
      "Ġarch": 2240,
      "Ġseeing": 2241,
      "ĠAngel": 2242,
      "Ġultimate": 2243,
      "20": 2244,
      "haps": 2245,
      "lu": 2246,
      "atural": 2247,
      "Ġeff": 2248,
      "illed": 2249,
      "orts": 2250,
      "Ġdisapp": 2251,
      "Ġespecially": 2252,
      "Ġinvolved": 2253,
      "Ġdebut": 2254,
      "Ġful": 2255,
      "Ġworth": 2256,
      "osh": 2257,
      "ĠRed": 2258,
      "anger": 2259,
      "Ġthroughout": 2260,
      "Ġstarts": 2261,
      "Ġsimple": 2262,
      "Ġdefin": 2263,
      "Ġfreed": 2264,
      "ividual": 2265,
      "Ġliterally": 2266,
      "Ġstunning": 2267,
      "iar": 2268,
      "Ġtheater": 2269,
      "Ġbattle": 2270,
      "Ġlim": 2271,
      "Ġmoving": 2272,
      "ude": 2273,
      "ubl": 2274,
      "Ġbeginning": 2275,
      "Ġfalls": 2276,
      "ology": 2277,
      "Ġexistence": 2278,
      "Ġexperiences": 2279,
      "\".": 2280,
      "Ġmel": 2281,
      "lywood": 2282,
      "Ġdeal": 2283,
      "Ġorgan": 2284,
      "Ġsurpr": 2285,
      "Ġearth": 2286,
      "Ġseveral": 2287,
      "Ġbrilliant": 2288,
      "ius": 2289,
      "Ġfa": 2290,
      "Ġpath": 2291,
      "ĠKore": 2292,
      "Ġanyone": 2293,
      "ĠWhile": 2294,
      "Ġgovern": 2295,
      "Ġtou": 2296,
      "eries": 2297,
      "Ġsat": 2298,
      "Ġbond": 2299,
      "Ġhun": 2300,
      "irt": 2301,
      "ief": 2302,
      "Ġleaves": 2303,
      "Ġadapt": 2304,
      "Ġspeak": 2305,
      "azz": 2306,
      "Ġkids": 2307,
      "Ġportrait": 2308,
      "bed": 2309,
      "ann": 2310,
      "Ġpure": 2311,
      "Ġste": 2312,
      "Ġexact": 2313,
      "Ġchronic": 2314,
      "Ġextreme": 2315,
      "Ġattempts": 2316,
      "Ġtragedy": 2317,
      "iod": 2318,
      "Ġhom": 2319,
      "Ġple": 2320,
      "asons": 2321,
      "ĠAlex": 2322,
      "Ġexpect": 2323,
      "Ġvict": 2324,
      "Ġherself": 2325,
      "Ġactors": 2326,
      "Ġglob": 2327,
      "Ġviolence": 2328,
      "As": 2329,
      "Ġfem": 2330,
      "Ġcross": 2331,
      "Ġgame": 2332,
      "ĠAf": 2333,
      "usive": 2334,
      "ĠEur": 2335,
      "ĠOr": 2336,
      "Ġturned": 2337,
      "Ġmilitary": 2338,
      "Ġoper": 2339,
      "ishing": 2340,
      "Ġdone": 2341,
      "iding": 2342,
      "ries": 2343,
      "rag": 2344,
      "Ġdefe": 2345,
      "antic": 2346,
      "Ġcompany": 2347,
      "Ġused": 2348,
      "Ġidea": 2349,
      "med": 2350,
      "leep": 2351,
      "right": 2352,
      "Ġcoming": 2353,
      "Ġenj": 2354,
      "ressed": 2355,
      "Ġrelig": 2356,
      "Ġstruggles": 2357,
      "hab": 2358,
      "ĠQ": 2359,
      "rew": 2360,
      "ĠTom": 2361,
      "amur": 2362,
      "emy": 2363,
      "Ġfeelings": 2364,
      "Ġtransform": 2365,
      "Ġdevast": 2366,
      "ially": 2367,
      "Ġmid": 2368,
      "Ġmess": 2369,
      "Ġgiven": 2370,
      "Ġrad": 2371,
      "....": 2372,
      "Ġolder": 2373,
      "Ġemotion": 2374,
      "Ġtit": 2375,
      "Ġav": 2376,
      "orth": 2377,
      "Ġforced": 2378,
      "Ġang": 2379,
      "ĠBo": 2380,
      "ĠMay": 2381,
      "though": 2382,
      "ĠJust": 2383,
      "Ġ18": 2384,
      "Ġactor": 2385,
      "Ġteacher": 2386,
      "Ġpoor": 2387,
      "Ġphys": 2388,
      "Ġpassion": 2389,
      "Ġdeli": 2390,
      "Ġforever": 2391,
      "ĠFrance": 2392,
      "ped": 2393,
      "sw": 2394,
      "Ġaffect": 2395,
      "Ġpurs": 2396,
      "ĠTour": 2397,
      "Ġrather": 2398,
      "Ġspect": 2399,
      "Ġends": 2400,
      "amurai": 2401,
      "ises": 2402,
      "Ġwall": 2403,
      "itar": 2404,
      "Ġmater": 2405,
      "ana": 2406,
      "Ġhost": 2407,
      "Ġhands": 2408,
      "Ġdiv": 2409,
      "Ġhell": 2410,
      "unk": 2411,
      "Ġaband": 2412,
      "ĠDon": 2413,
      "Ġcompos": 2414,
      "Ġcaptures": 2415,
      "rifying": 2416,
      "ĠEurope": 2417,
      "do": 2418,
      "Ġtaken": 2419,
      "ither": 2420,
      "Ġda": 2421,
      "Ġthreat": 2422,
      "ĠSouth": 2423,
      "Ġexcept": 2424,
      "ession": 2425,
      "Ġking": 2426,
      "Ġcrimin": 2427,
      "Ġsinger": 2428,
      "Ġwriting": 2429,
      "ĠUnited": 2430,
      "ĠHollywood": 2431,
      "Ġunexpected": 2432,
      "Ġfreedom": 2433,
      "On": 2434,
      "You": 2435,
      "war": 2436,
      "Ġmass": 2437,
      "enn": 2438,
      "Ġpos": 2439,
      "ĠTokyo": 2440,
      "ĠNow": 2441,
      "ogue": 2442,
      "Ġadult": 2443,
      "aimed": 2444,
      "mas": 2445,
      "Ġaut": 2446,
      "Ġbased": 2447,
      "Ġcool": 2448,
      "Ġtot": 2449,
      "ried": 2450,
      "ĠNo": 2451,
      "Ġindividual": 2452,
      "Ġrelationships": 2453,
      "Ġinflu": 2454,
      "pire": 2455,
      "Ġpubl": 2456,
      "Ġgonna": 2457,
      "ĠPe": 2458,
      "venge": 2459,
      "Ġremind": 2460,
      "Ġaccident": 2461,
      "Ġmaybe": 2462,
      "Ġeye": 2463,
      "Ġquestion": 2464,
      "dom": 2465,
      "Ġz": 2466,
      "Ġachie": 2467,
      "Ġborn": 2468,
      "Ġcomb": 2469,
      "Ġending": 2470,
      "Ġopening": 2471,
      "Ġprotect": 2472,
      "Ġfeatures": 2473,
      "ham": 2474,
      "lor": 2475,
      "Ġsus": 2476,
      "Ġcop": 2477,
      "Ġdam": 2478,
      "ĠMc": 2479,
      "Ġjoy": 2480,
      "Ġru": 2481,
      "Ġaction": 2482,
      "Ġparts": 2483,
      "Ġblood": 2484,
      "Ġdie": 2485,
      "ided": 2486,
      "Ġforce": 2487,
      "rought": 2488,
      "rug": 2489,
      "Ġquick": 2490,
      "ĠStates": 2491,
      "Ġgrad": 2492,
      "Ġdeterm": 2493,
      "Ġsupport": 2494,
      "Ġabandon": 2495,
      "aus": 2496,
      "Ġve": 2497,
      "Ġair": 2498,
      "Ġcivil": 2499,
      "Ġlif": 2500,
      "ĠTheir": 2501,
      "ordinary": 2502,
      "scenes": 2503,
      "Ġmarried": 2504,
      "ĠPalest": 2505,
      "Ġhaun": 2506,
      "Ġdrug": 2507,
      "Ġnorm": 2508,
      "Ġseven": 2509,
      "ĠDavid": 2510,
      "ĠEx": 2511,
      "Ġperiod": 2512,
      "Ġsoldiers": 2513,
      "ĠBritish": 2514,
      "aff": 2515,
      "ta": 2516,
      "Ġintense": 2517,
      "Ġ194": 2518,
      "Ġdesper": 2519,
      "ological": 2520,
      "Ġeventually": 2521,
      "hetic": 2522,
      "aust": 2523,
      "iy": 2524,
      "we": 2525,
      "Ġid": 2526,
      "Ġfan": 2527,
      "Ġfire": 2528,
      "Ġbreat": 2529,
      "Ġmount": 2530,
      "Ġreason": 2531,
      "Ġ15": 2532,
      "Ġwidow": 2533,
      "Ġenjoy": 2534,
      "cast": 2535,
      "Ġera": 2536,
      "Ġstay": 2537,
      "cted": 2538,
      "Ġuns": 2539,
      "Ġdescri": 2540,
      "Ġsometimes": 2541,
      "Ġhappened": 2542,
      "Ġconfront": 2543,
      "Ġ30": 2544,
      "Ġhistorical": 2545,
      "Ġmaterial": 2546,
      "Ġmist": 2547,
      "Ġund": 2548,
      "une": 2549,
      "Ġrac": 2550,
      "ender": 2551,
      "Ġadm": 2552,
      "Ġquiet": 2553,
      "Ġstarted": 2554,
      "Ġjournal": 2555,
      "Ġboys": 2556,
      "Ġopen": 2557,
      "Ġstars": 2558,
      "Ġvoice": 2559,
      "AR": 2560,
      "for": 2561,
      "row": 2562,
      "Ġwon": 2563,
      "Ġfate": 2564,
      "Ġdance": 2565,
      "Ġrece": 2566,
      "Ġansw": 2567,
      "Ġpeace": 2568,
      "itely": 2569,
      "Ġdepict": 2570,
      "Ġreveal": 2571,
      "Ġslowly": 2572,
      "Ġadventure": 2573,
      "Ġgovernment": 2574,
      "ji": 2575,
      "win": 2576,
      "Ġhot": 2577,
      "rief": 2578,
      "aki": 2579,
      "ieces": 2580,
      "Ġcha": 2581,
      "Ġleaving": 2582,
      "aught": 2583,
      "Ġwater": 2584,
      "ension": 2585,
      "Ġimposs": 2586,
      "Ġplayed": 2587,
      "Ġuniverse": 2588,
      "Ġcorrupt": 2589,
      "Ġchanges": 2590,
      "Ġbroad": 2591,
      "work": 2592,
      "where": 2593,
      "zy": 2594,
      "read": 2595,
      "Ġfle": 2596,
      "edic": 2597,
      "oman": 2598,
      "ashing": 2599,
      "Ġiss": 2600,
      "Ġann": 2601,
      "Ġju": 2602,
      "Ġword": 2603,
      "Ġleads": 2604,
      "Ġanimated": 2605,
      "Ġcreate": 2606,
      "ograp": 2607,
      "Ġencounter": 2608,
      "Ġneighbor": 2609,
      "Ġtowards": 2610,
      "Ġextraordinary": 2611,
      "ars": 2612,
      "Ġdou": 2613,
      "oto": 2614,
      "estival": 2615,
      "agon": 2616,
      "unch": 2617,
      "ization": 2618,
      "Ġactiv": 2619,
      "Ġresult": 2620,
      "Ġportray": 2621,
      "AS": 2622,
      "mp": 2623,
      "Ġfur": 2624,
      "Ġmad": 2625,
      "Ġheard": 2626,
      "Ġprevious": 2627,
      "Ġuses": 2628,
      "Ġtrip": 2629,
      "Ġunivers": 2630,
      "Ġofficer": 2631,
      "cle": 2632,
      "gr": 2633,
      "got": 2634,
      "uation": 2635,
      "Ġer": 2636,
      "Ġsave": 2637,
      "Ġnob": 2638,
      "Ġsepar": 2639,
      "ĠFilm": 2640,
      "!!!!": 2641,
      "Ġwriter": 2642,
      "Ġembark": 2643,
      "de": 2644,
      "yl": 2645,
      "Ġsun": 2646,
      "Ġworkers": 2647,
      "Ġremain": 2648,
      "box": 2649,
      "Ġtragic": 2650,
      "oly": 2651,
      "part": 2652,
      "Ġsac": 2653,
      "âĢľ": 2654,
      "Ġshare": 2655,
      "Ġvarious": 2656,
      "Ġintrodu": 2657,
      "ospital": 2658,
      "TS": 2659,
      "cent": 2660,
      "how": 2661,
      "oes": 2662,
      "ze": 2663,
      "Ġmaj": 2664,
      "ases": 2665,
      "Ġstat": 2666,
      "road": 2667,
      "rael": 2668,
      "antly": 2669,
      "Ġclim": 2670,
      "Ġactual": 2671,
      "Ġgirlfriend": 2672,
      "Ġhappiness": 2673,
      "Ġconsid": 2674,
      "Ġculture": 2675,
      "ield": 2676,
      "Ġexplores": 2677,
      "Ġspectac": 2678,
      "ole": 2679,
      "sing": 2680,
      "Ġir": 2681,
      "Ġsamurai": 2682,
      "anch": 2683,
      "Ġstate": 2684,
      "Ġwhom": 2685,
      "Ġcomfort": 2686,
      "Ġwasn": 2687,
      "ĠFe": 2688,
      "acked": 2689,
      "udd": 2690,
      "Ġscore": 2691,
      "Ġsurreal": 2692,
      "Ġhorror": 2693,
      "Ġreleased": 2694,
      "Ġdetermined": 2695,
      "Sh": 2696,
      "aul": 2697,
      "Ġeight": 2698,
      "Ġnon": 2699,
      "Ġstep": 2700,
      "ĠMichael": 2701,
      "istance": 2702,
      "Ġconcept": 2703,
      "ended": 2704,
      "Ġbecame": 2705,
      "icks": 2706,
      "Ġcover": 2707,
      "Ġcontinues": 2708,
      "Ġviolent": 2709,
      "Ġfeaturing": 2710,
      "Ġcraft": 2711,
      "just": 2712,
      "sec": 2713,
      "ĠGra": 2714,
      "Ġrunning": 2715,
      "Ġbiggest": 2716,
      "Ġsurviv": 2717,
      "Ġmarriage": 2718,
      "ĠRobert": 2719,
      "ĠQu": 2720,
      "ball": 2721,
      "ook": 2722,
      "inating": 2723,
      "estern": 2724,
      "Ġbene": 2725,
      "ites": 2726,
      "omen": 2727,
      "angu": 2728,
      "Ġserious": 2729,
      "Ġremark": 2730,
      "Ġaccomp": 2731,
      "Ġterror": 2732,
      "Ġanti": 2733,
      "Ġsummer": 2734,
      "Ġpublic": 2735,
      "CK": 2736,
      "ision": 2737,
      "Ġfear": 2738,
      "Ġhang": 2739,
      "ica": 2740,
      "ets": 2741,
      "ĠAnt": 2742,
      "illing": 2743,
      "Ġloss": 2744,
      "ability": 2745,
      "Ġimage": 2746,
      "Ġnovel": 2747,
      "Ġaccount": 2748,
      "Ġflo": 2749,
      "iko": 2750,
      "Ġmoral": 2751,
      "Ġiconic": 2752,
      "Ġchalleng": 2753,
      "ES": 2754,
      "cing": 2755,
      "Ġmir": 2756,
      "ask": 2757,
      "Ġrevenge": 2758,
      "seen": 2759,
      "ĠPro": 2760,
      "Ġrich": 2761,
      "ĠRo": 2762,
      "play": 2763,
      "ploy": 2764,
      "Ġremote": 2765,
      "Ġthinking": 2766,
      "Ġexperim": 2767,
      "Ġleader": 2768,
      "Ġcreated": 2769,
      "atching": 2770,
      "Ġpossible": 2771,
      "Ġgangster": 2772,
      "known": 2773,
      "Ġdial": 2774,
      "Ġequ": 2775,
      "otic": 2776,
      "akers": 2777,
      "ĠFrom": 2778,
      "Ġwhether": 2779,
      "Ġdecides": 2780,
      "ext": 2781,
      "Ġromance": 2782,
      "ĠGeorge": 2783,
      "Ġimpossible": 2784,
      "iest": 2785,
      "life": 2786,
      "uine": 2787,
      "Ġdanger": 2788,
      "Ġchance": 2789,
      "Ġsuic": 2790,
      "Ġord": 2791,
      "Ġfamous": 2792,
      "Ġrole": 2793,
      "Ġsurround": 2794,
      "Ġwritten": 2795,
      "Ġreturns": 2796,
      "Ġeffects": 2797,
      "Ġvictim": 2798,
      "oid": 2799,
      "ping": 2800,
      "ral": 2801,
      "Ġside": 2802,
      "Ġisol": 2803,
      "olic": 2804,
      "ĠST": 2805,
      "Ġalive": 2806,
      "Ġmoves": 2807,
      "ĠBill": 2808,
      "ocr": 2809,
      "Ġartists": 2810,
      "Ġyourself": 2811,
      "Ġgrow": 2812,
      "Ġtelling": 2813,
      "Ġappre": 2814,
      "ength": 2815,
      "Ġdiscuss": 2816,
      "ĠItalian": 2817,
      "oint": 2818,
      "Ġut": 2819,
      "rees": 2820,
      "iled": 2821,
      "Ġheav": 2822,
      "ĠAb": 2823,
      "ills": 2824,
      "Ġshad": 2825,
      "Ġloves": 2826,
      "ards": 2827,
      "Ġdoctor": 2828,
      "resses": 2829,
      "Ġevil": 2830,
      "Ġcreative": 2831,
      "Ġfollowing": 2832,
      "Ġstudio": 2833,
      "Ġquestions": 2834,
      "Ġprofound": 2835,
      "Ġtroub": 2836,
      "During": 2837,
      "come": 2838,
      "lish": 2839,
      "sp": 2840,
      "Ġhuge": 2841,
      "Ġdu": 2842,
      "ille": 2843,
      "Ġred": 2844,
      "Ġones": 2845,
      "ĠWW": 2846,
      "ander": 2847,
      "Ġweek": 2848,
      "Ġrealize": 2849,
      "Ġgrowing": 2850,
      "Ġbecoming": 2851,
      "Ġindust": 2852,
      "Ġletter": 2853,
      "ĠChristmas": 2854,
      "ev": 2855,
      "ring": 2856,
      "tes": 2857,
      "Ġwind": 2858,
      "Ġwide": 2859,
      "Ġmark": 2860,
      "Ġpot": 2861,
      "sequ": 2862,
      "ĠDis": 2863,
      "Ġmeant": 2864,
      "Ġacting": 2865,
      "Ġincreas": 2866,
      "Ġdesign": 2867,
      "Ġentertain": 2868,
      "Ġvision": 2869,
      "Ġproblems": 2870,
      "Ġwrite": 2871,
      "Ġcriminal": 2872,
      "OO": 2873,
      "oved": 2874,
      "yr": 2875,
      "Ġbomb": 2876,
      "Ġpay": 2877,
      "Ġdied": 2878,
      "uros": 2879,
      "ĠCal": 2880,
      "ĠEven": 2881,
      "ights": 2882,
      "Ġeveryday": 2883,
      "iber": 2884,
      "Ġtraum": 2885,
      "ĠUS": 2886,
      "Ġraw": 2887,
      "Ġattention": 2888,
      "Ġcolor": 2889,
      "Ġtalking": 2890,
      "Ġmagic": 2891,
      "Ġpurp": 2892,
      "Ġfully": 2893,
      "Ġbrought": 2894,
      "Ġdanc": 2895,
      "Ġlow": 2896,
      "olf": 2897,
      "Ġforget": 2898,
      "key": 2899,
      "ortun": 2900,
      "Ġwee": 2901,
      "Ġarmy": 2902,
      "Ġoffers": 2903,
      "Ġtrain": 2904,
      "Ġimpact": 2905,
      "Ġdecades": 2906,
      "Ġassass": 2907,
      "Ġmedia": 2908,
      "dden": 2909,
      "Ġrespons": 2910,
      "Ġexactly": 2911,
      "ken": 2912,
      "Ġmix": 2913,
      "ency": 2914,
      "Ġlone": 2915,
      "ĠMe": 2916,
      "ĠMr": 2917,
      "ĠDan": 2918,
      "Ġspent": 2919,
      "Ġroad": 2920,
      "Ġaccl": 2921,
      "Ġlandsc": 2922,
      "Ġpopular": 2923,
      "Ġinteresting": 2924,
      "Ġdestroyed": 2925,
      "Ġglobal": 2926,
      "boxd": 2927,
      "enty": 2928,
      "oles": 2929,
      "ĠSim": 2930,
      "ocal": 2931,
      "iple": 2932,
      "ackson": 2933,
      "Ġmajor": 2934,
      "OR": 2935,
      "rant": 2936,
      "tr": 2937,
      "Ġwish": 2938,
      "Ġbal": 2939,
      "Ġhate": 2940,
      "Ġpull": 2941,
      "omin": 2942,
      "ĠCan": 2943,
      "Ġcomplic": 2944,
      "ĠDirect": 2945,
      "geous": 2946,
      "Ġsudden": 2947,
      "Ġcompet": 2948,
      "Ġusing": 2949,
      "Ġseeks": 2950,
      "Ġdetect": 2951,
      "Ġappro": 2952,
      "Ġsurvive": 2953,
      "ĠGermany": 2954,
      "Ġbrothers": 2955,
      "Ġfamilies": 2956,
      "Ġsister": 2957,
      "Ġpict": 2958,
      "Ġrevolution": 2959,
      "erson": 2960,
      "ĠJo": 2961,
      "Ġrural": 2962,
      "Ġ11": 2963,
      "Ġprop": 2964,
      "Ġjustice": 2965,
      "Ġprep": 2966,
      "cover": 2967,
      "Ġentirely": 2968,
      "Ġviewers": 2969,
      "Ġchanged": 2970,
      "Ġromantic": 2971,
      "OW": 2972,
      "aur": 2973,
      "writ": 2974,
      "rest": 2975,
      "Ġcost": 2976,
      "Ġpil": 2977,
      "edi": 2978,
      "Ġgone": 2979,
      "ching": 2980,
      "Ġsend": 2981,
      "ĠCor": 2982,
      "Ġconvers": 2983,
      "ĠPhil": 2984,
      "Ġhumans": 2985,
      "Ġlonger": 2986,
      "Ġdirected": 2987,
      "Ġinspir": 2988,
      "Ġmember": 2989,
      "Ġmystery": 2990,
      "Ġsuffering": 2991,
      "ĠEngland": 2992,
      "Ġaffair": 2993,
      "Ġachieve": 2994,
      "Ġaccompan": 2995,
      "Ġhidden": 2996,
      "icul": 2997,
      "ston": 2998,
      "Ġeld": 2999,
      "Ġnatural": 3000,
      "rab": 3001,
      "ĠMad": 3002,
      "ocking": 3003,
      "Ġ100": 3004,
      "Ġoutside": 3005,
      "Ġparty": 3006,
      "Ġcolle": 3007,
      "Ġphil": 3008,
      "rific": 3009,
      "Ġframe": 3010,
      "Ġcruel": 3011,
      "ographer": 3012,
      "Ġpurpose": 3013,
      "Ġlonely": 3014,
      "well": 3015,
      "Ġinform": 3016,
      "Ġeas": 3017,
      "Ġgiving": 3018,
      "aging": 3019,
      "ĠCol": 3020,
      "ĠJackson": 3021,
      "Ġrise": 3022,
      "ruction": 3023,
      "Ġcontext": 3024,
      "Ġyounger": 3025,
      "Ġtrapped": 3026,
      "Ġperforms": 3027,
      "Ġstruct": 3028,
      "ĠWilliam": 3029,
      "Ġremarkable": 3030,
      "face": 3031,
      "Ġsleep": 3032,
      "Ġlangu": 3033,
      "idence": 3034,
      "ctions": 3035,
      "Ġaspect": 3036,
      "hern": 3037,
      "Ġshown": 3038,
      "ĠYOU": 3039,
      "ensive": 3040,
      "Ġcinemat": 3041,
      "Ġkilled": 3042,
      "Ġfellow": 3043,
      "urosawa": 3044,
      "Set": 3045,
      "Ġcold": 3046,
      "aylor": 3047,
      "rog": 3048,
      "ĠMus": 3049,
      "Ġshoot": 3050,
      "ĠLos": 3051,
      "Ġtrad": 3052,
      "Ġplays": 3053,
      "Ġdeser": 3054,
      "Ġcouldn": 3055,
      "Ġdramatic": 3056,
      "Ġrepres": 3057,
      "Ġmovement": 3058,
      "Ġappreci": 3059,
      "Ġ:": 3060,
      "Ġsort": 3061,
      "rent": 3062,
      "aring": 3063,
      "omic": 3064,
      "Ġyouth": 3065,
      "Ġtracks": 3066,
      "Ġperhaps": 3067,
      "ples": 3068,
      "Ġprim": 3069,
      "Ġinsane": 3070,
      "Ġsaying": 3071,
      "Ġfilmmaking": 3072,
      "Ġnearly": 3073,
      "Ġcollabor": 3074,
      "Ġmillion": 3075,
      "Ġinnoc": 3076,
      "Ġdaily": 3077,
      "Ġissues": 3078,
      "Ch": 3079,
      "ND": 3080,
      "uke": 3081,
      "Ġtears": 3082,
      "Ġpick": 3083,
      "Ġpieces": 3084,
      "Ġinhab": 3085,
      "ilar": 3086,
      "Ġrepe": 3087,
      "vert": 3088,
      "Ġstrang": 3089,
      "Ġstuff": 3090,
      "adium": 3091,
      "ests": 3092,
      "Ġwealth": 3093,
      "Ġdecide": 3094,
      "Ġgenuine": 3095,
      "uthor": 3096,
      "Ġideas": 3097,
      "Ġrelease": 3098,
      "Ġteenage": 3099,
      "Ġoccup": 3100,
      "Ġlegacy": 3101,
      "Ġfurther": 3102,
      "PE": 3103,
      "ned": 3104,
      "Ġ/": 3105,
      "inian": 3106,
      "Ġsor": 3107,
      "lean": 3108,
      "Ġgiant": 3109,
      "ros": 3110,
      "ĠBar": 3111,
      "aped": 3112,
      "ified": 3113,
      "ogn": 3114,
      "Ġadv": 3115,
      "Ġpract": 3116,
      "Ġhumor": 3117,
      "Ġremains": 3118,
      "Ġcris": 3119,
      "lessly": 3120,
      "Ġarrives": 3121,
      "Ġwait": 3122,
      "ĠNazi": 3123,
      "ĠAngeles": 3124,
      "law": 3125,
      "now": 3126,
      "wide": 3127,
      "Ġelect": 3128,
      "Ġgave": 3129,
      "rap": 3130,
      "raw": 3131,
      "Ġexec": 3132,
      "Ġweird": 3133,
      "Ġ195": 3134,
      "Ġgenius": 3135,
      "Ġobvious": 3136,
      "Ġmonths": 3137,
      "Ġimmedi": 3138,
      "ĠIsrael": 3139,
      "Ġdraw": 3140,
      "Ġidentity": 3141,
      "Ġdefinitely": 3142,
      "ĠAfric": 3143,
      "Ġdevastating": 3144,
      "Ġabandoned": 3145,
      "Ġbreath": 3146,
      "?\"": 3147,
      "VE": 3148,
      "mber": 3149,
      "Ġflow": 3150,
      "Ġmere": 3151,
      "ari": 3152,
      "alg": 3153,
      "Ġdying": 3154,
      "Ġlay": 3155,
      "earing": 3156,
      "arden": 3157,
      "Ġemotions": 3158,
      "Ġthoughts": 3159,
      "Ġfighting": 3160,
      "Ġtitle": 3161,
      "Ġphysical": 3162,
      "cons": 3163,
      "zu": 3164,
      "Ġmat": 3165,
      "Ġemer": 3166,
      "Ġeasy": 3167,
      "Ġgun": 3168,
      "owed": 3169,
      "eth": 3170,
      "ĠCo": 3171,
      "Ġshop": 3172,
      "apes": 3173,
      "astic": 3174,
      "Ġunlike": 3175,
      "Ġnecess": 3176,
      "Ġevol": 3177,
      "Ġstudents": 3178,
      "Ġprotagon": 3179,
      "Ġcultural": 3180,
      "Ġvideos": 3181,
      "uel": 3182,
      "isters": 3183,
      "Ġfaces": 3184,
      "onc": 3185,
      "enced": 3186,
      "Ġhospital": 3187,
      "Ġalien": 3188,
      "ump": 3189,
      "ĠKar": 3190,
      "Ġhowever": 3191,
      "Ġ202": 3192,
      "Ġterms": 3193,
      "Ġneeds": 3194,
      "Ġcapture": 3195,
      "Ġ1960": 3196,
      "Ġphilos": 3197,
      "?âĢĿ": 3198,
      "IT": 3199,
      "afe": 3200,
      "oo": 3201,
      "Ġrou": 3202,
      "Ġauthor": 3203,
      "arre": 3204,
      "Ġpress": 3205,
      "Ġecon": 3206,
      "ĠIran": 3207,
      "imp": 3208,
      "olk": 3209,
      "ĠSome": 3210,
      "Ġlover": 3211,
      "unt": 3212,
      "ĠJames": 3213,
      "Ġ16": 3214,
      "arda": 3215,
      "Ġknows": 3216,
      "Ġhappen": 3217,
      "Ġcreation": 3218,
      "Ġimmers": 3219,
      "Ġencounters": 3220,
      "Ġcrying": 3221,
      "Ġsuicide": 3222,
      "Ġlanguage": 3223,
      "Ġcrisis": 3224,
      "',": 3225,
      "Film": 3226,
      "pre": 3227,
      "Ġeither": 3228,
      "Ġgh": 3229,
      "Ġreac": 3230,
      "oll": 3231,
      "ĠSm": 3232,
      "aph": 3233,
      "Ġvol": 3234,
      "Ġamid": 3235,
      "Ġguitar": 3236,
      "Ġrefuge": 3237,
      "oke": 3238,
      "uous": 3239,
      "incess": 3240,
      "Ġcal": 3241,
      "Ġmental": 3242,
      "Ġhaven": 3243,
      "Ġisland": 3244,
      "ĠTony": 3245,
      "ĠAID": 3246,
      "Ġsea": 3247,
      "ĠGu": 3248,
      "oking": 3249,
      "izes": 3250,
      "Ġsomehow": 3251,
      "Ġpartner": 3252,
      "Ġwarm": 3253,
      "Ġperspective": 3254,
      "Ġleading": 3255,
      "Ġkey": 3256,
      "ĠAnne": 3257,
      "Ġmission": 3258,
      "Ġsupposed": 3259,
      "chest": 3260,
      "Ġstreets": 3261,
      "ĠRussian": 3262,
      "Ġbroadcast": 3263,
      "ĠDisney": 3264,
      "--": 3265,
      "cis": 3266,
      "kes": 3267,
      "men": 3268,
      "world": 3269,
      "eral": 3270,
      "Ġsav": 3271,
      "onel": 3272,
      "Ġhits": 3273,
      "Ġlaugh": 3274,
      "Ġthird": 3275,
      "iling": 3276,
      "vey": 3277,
      "ĠMart": 3278,
      "ĠWood": 3279,
      "Ġjud": 3280,
      "ĠFl": 3281,
      "Ġresc": 3282,
      "Ġchanging": 3283,
      "Ġ1970": 3284,
      "borough": 3285,
      "Ġhonestly": 3286,
      "Ġsuccessful": 3287,
      "Ġextremely": 3288,
      "Ġfemale": 3289,
      "Ġacclaimed": 3290,
      "ĠAIDS": 3291,
      "II": 3292,
      "body": 3293,
      "eal": 3294,
      "whel": 3295,
      "Ġsal": 3296,
      "eds": 3297,
      "ilities": 3298,
      "Ġrew": 3299,
      "ĠTime": 3300,
      "ĠAward": 3301,
      "Ġexcl": 3302,
      "ĠJean": 3303,
      "ĠGr": 3304,
      "ĠKurosawa": 3305,
      "ĠArmy": 3306,
      "Ġunfor": 3307,
      "Ġcircum": 3308,
      "Ġstraight": 3309,
      "Ġultimately": 3310,
      "Ġreligious": 3311,
      "Ġconsidered": 3312,
      "BC": 3313,
      "eah": 3314,
      "father": 3315,
      "ging": 3316,
      "mm": 3317,
      "tw": 3318,
      "ators": 3319,
      "Ġdue": 3320,
      "ume": 3321,
      "uments": 3322,
      "ĠDes": 3323,
      "Ġrace": 3324,
      "Ġworldwide": 3325,
      "Ġshowc": 3326,
      "Ġtrial": 3327,
      "Ġpolic": 3328,
      "Ġcovers": 3329,
      "Ġpresents": 3330,
      "Ġbox": 3331,
      "ĠDeath": 3332,
      "Ġspiritual": 3333,
      "Ġcloser": 3334,
      "Ġcapital": 3335,
      "Ġpursu": 3336,
      "bing": 3337,
      "but": 3338,
      "maker": 3339,
      "Ã¨": 3340,
      "Ġtro": 3341,
      "atives": 3342,
      "asion": 3343,
      "sey": 3344,
      "ĠSol": 3345,
      "ĠBer": 3346,
      "ĠMor": 3347,
      "ĠIts": 3348,
      "ĠThrough": 3349,
      "Ġ193": 3350,
      "Ġstoryt": 3351,
      "mentary": 3352,
      "ĠVal": 3353,
      "Ġattract": 3354,
      "Ġfarm": 3355,
      "Ġbuilt": 3356,
      "Ġsolo": 3357,
      "Ġdialogue": 3358,
      "aud": 3359,
      "bl": 3360,
      "pret": 3361,
      "Ġod": 3362,
      "Ġsays": 3363,
      "Ġhyp": 3364,
      "Ġdro": 3365,
      "Ġlat": 3366,
      "Ġled": 3367,
      "Ġonto": 3368,
      "ami": 3369,
      "ĠAc": 3370,
      "ading": 3371,
      "Ġseasons": 3372,
      "ĠEn": 3373,
      "ogy": 3374,
      "Ġmissing": 3375,
      "Ġincredibly": 3376,
      "Ġpriv": 3377,
      "Ġconnection": 3378,
      "ĠPeter": 3379,
      "ED": 3380,
      "bel": 3381,
      "nam": 3382,
      "ris": 3383,
      "ini": 3384,
      "inct": 3385,
      "itz": 3386,
      "Ġpen": 3387,
      "owd": 3388,
      "ĠBurn": 3389,
      "Ġthemes": 3390,
      "Ġrealities": 3391,
      "ounty": 3392,
      "Ġhappens": 3393,
      "Ġheartbreaking": 3394,
      "ashion": 3395,
      "Ġprofess": 3396,
      "Ġhopes": 3397,
      "Ġwonderful": 3398,
      "Ġmultiple": 3399,
      "Ġfascinating": 3400,
      "Ġchronicles": 3401,
      "Ġjournalist": 3402,
      "Ġghost": 3403,
      "AM": 3404,
      "CH": 3405,
      "ae": 3406,
      "ki": 3407,
      "zog": 3408,
      "Ġopt": 3409,
      "Ġfiction": 3410,
      "Ġhy": 3411,
      "ained": 3412,
      "okes": 3413,
      "Ġrecogn": 3414,
      "Ġmusician": 3415,
      "Ġcamer": 3416,
      "tenborough": 3417,
      "Ġinde": 3418,
      "Ġincludes": 3419,
      "ĠAttenborough": 3420,
      "uclear": 3421,
      "Ġnormal": 3422,
      "Ġtem": 3423,
      "Ġfair": 3424,
      "Ġdig": 3425,
      "Ġthous": 3426,
      "Ġnation": 3427,
      "Ġrese": 3428,
      "urg": 3429,
      "ĠSov": 3430,
      "eman": 3431,
      "Ġlog": 3432,
      "aining": 3433,
      "ĠLife": 3434,
      "Ġride": 3435,
      "Ġtrack": 3436,
      "ĠOf": 3437,
      "ichi": 3438,
      "ressing": 3439,
      "Ġprec": 3440,
      "Ġaward": 3441,
      "Ġtrib": 3442,
      "merican": 3443,
      "Ġgrows": 3444,
      "Ġdecided": 3445,
      "Ġguys": 3446,
      "Ġvisit": 3447,
      "Ġmeeting": 3448,
      "Ġviewing": 3449,
      "Ġprisoners": 3450,
      "Ġalongside": 3451,
      "Ġbringing": 3452,
      "ĠPalestinian": 3453,
      "Ġlatest": 3454,
      "ĠSoviet": 3455,
      "ee": 3456,
      "eper": 3457,
      "eff": 3458,
      "fer": 3459,
      "uct": 3460,
      "Ġign": 3461,
      "Ġfran": 3462,
      "Ġbound": 3463,
      "Ġmach": 3464,
      "alk": 3465,
      "ĠAk": 3466,
      "iller": 3467,
      "Ġworst": 3468,
      "ĠDr": 3469,
      "ĠNorth": 3470,
      "ips": 3471,
      "Ġmostly": 3472,
      "Ġfinding": 3473,
      "Ġcontem": 3474,
      "rama": 3475,
      "Ġgenre": 3476,
      "Ġimagine": 3477,
      "Ġfilmmakers": 3478,
      "Ġkilling": 3479,
      "Ġperfectly": 3480,
      "Ġ50": 3481,
      "Ġrecording": 3482,
      "Ġsecrets": 3483,
      "ĠFrancis": 3484,
      "ĠDoctor": 3485,
      "Ġordinary": 3486,
      "Ġcollege": 3487,
      "Ġcinematography": 3488,
      "BO": 3489,
      "ata": 3490,
      "Ġmer": 3491,
      "Ġpet": 3492,
      "omed": 3493,
      "ĠIm": 3494,
      "ĠBTS": 3495,
      "ĠMin": 3496,
      "umph": 3497,
      "Ġrul": 3498,
      "ĠNational": 3499,
      "Ġactress": 3500,
      "Ġbackground": 3501,
      "Ġrespect": 3502,
      "gged": 3503,
      "Ġrival": 3504,
      "Ġseemingly": 3505,
      "Ġexistential": 3506,
      "Ġideal": 3507,
      "Ġnumber": 3508,
      "Ġanswer": 3509,
      "ĠGrand": 3510,
      "FF": 3511,
      "From": 3512,
      "mate": 3513,
      "math": 3514,
      "Ġbab": 3515,
      "Ġbare": 3516,
      "itan": 3517,
      "Ġyes": 3518,
      "Ġlies": 3519,
      "ĠSan": 3520,
      "Ġsees": 3521,
      "uman": 3522,
      "ĠThese": 3523,
      "ĠCent": 3524,
      "ĠGreat": 3525,
      "ĠEd": 3526,
      "ĠEach": 3527,
      "pping": 3528,
      "Ġcompan": 3529,
      "Ġdocumentaries": 3530,
      "Ġpolitics": 3531,
      "ugs": 3532,
      "while": 3533,
      "Ġreading": 3534,
      "Ġoppos": 3535,
      "Ġtravels": 3536,
      "Ġphotographer": 3537,
      "Ġcritic": 3538,
      "ergy": 3539,
      "Ġchallenges": 3540,
      "Ġcircumst": 3541,
      "ios": 3542,
      "inter": 3543,
      "rel": 3544,
      "itious": 3545,
      "anced": 3546,
      "ara": 3547,
      "Ġlack": 3548,
      "ĠTr": 3549,
      "urd": 3550,
      "ĠAND": 3551,
      "Ġlived": 3552,
      "roc": 3553,
      "Ġshared": 3554,
      "Ġconsequ": 3555,
      "Ġvib": 3556,
      "ĠPark": 3557,
      "ĠLet": 3558,
      "Ġorph": 3559,
      "ived": 3560,
      "Ġserv": 3561,
      "Ġintern": 3562,
      "Ġaftermath": 3563,
      "Ġperforming": 3564,
      "Ġawa": 3565,
      "Ġfalling": 3566,
      "Ġsituation": 3567,
      "Ġarrival": 3568,
      "Ġwinning": 3569,
      "Ġestab": 3570,
      "Ġprogram": 3571,
      "Ġpleas": 3572,
      "Ġtrauma": 3573,
      "mark": 3574,
      "hem": 3575,
      "arily": 3576,
      "ico": 3577,
      "lying": 3578,
      "Ġmod": 3579,
      "ĠBen": 3580,
      "ĠLove": 3581,
      "Ġ12": 3582,
      "Ġplaces": 3583,
      "ledge": 3584,
      "Ġobject": 3585,
      "what": 3586,
      "Ġapartment": 3587,
      "ĠHerzog": 3588,
      "Ġlandscape": 3589,
      "Ġsuddenly": 3590,
      "more": 3591,
      "Ġbed": 3592,
      "Ġburn": 3593,
      "oring": 3594,
      "Ġpit": 3595,
      "Ġdedic": 3596,
      "Ġstr": 3597,
      "ĠAgn": 3598,
      "ida": 3599,
      "Ġmoon": 3600,
      "Ġdece": 3601,
      "aste": 3602,
      "ĠLou": 3603,
      "ĠJer": 3604,
      "Ġ17": 3605,
      "Ġshowing": 3606,
      "action": 3607,
      "Ġcreating": 3608,
      "Ġanimals": 3609,
      "Ġfavour": 3610,
      "Ġcourt": 3611,
      "class": 3612,
      "Ġfocusing": 3613,
      "Ġdesperate": 3614,
      "Ġincreasingly": 3615,
      "Ġexclusive": 3616,
      "ivers": 3617,
      "pet": 3618,
      "ishes": 3619,
      "atched": 3620,
      "onst": 3621,
      "Ġcred": 3622,
      "Ġdin": 3623,
      "Ġlength": 3624,
      "ilarious": 3625,
      "elve": 3626,
      "cean": 3627,
      "ĠMag": 3628,
      "ĠCar": 3629,
      "ĠHit": 3630,
      "essed": 3631,
      "ĠFU": 3632,
      "ĠPart": 3633,
      "ĠLike": 3634,
      "Ġfeud": 3635,
      "Ġscream": 3636,
      "Ġspot": 3637,
      "Ġthank": 3638,
      "ĠVarda": 3639,
      "Ġtext": 3640,
      "Ġdirectly": 3641,
      "Ġtriumph": 3642,
      "Ġrecorded": 3643,
      "Ġmagn": 3644,
      "Ġfaith": 3645,
      "ĠKorean": 3646,
      "Ġmountain": 3647,
      "winning": 3648,
      "Ġsurvivors": 3649,
      "Ġdetective": 3650,
      "Ġpilot": 3651,
      "Ġeasily": 3652,
      "Ġphilosoph": 3653,
      "And": 3654,
      "St": 3655,
      "mar": 3656,
      "ration": 3657,
      "Ġtension": 3658,
      "Ġcaus": 3659,
      "orgeous": 3660,
      "Ġgold": 3661,
      "ĠSer": 3662,
      "ĠPaul": 3663,
      "Ġdog": 3664,
      "ĠKen": 3665,
      "Ġscient": 3666,
      "Ġ25": 3667,
      "Ġquality": 3668,
      "Ġended": 3669,
      "Ġrecomm": 3670,
      "ĠChar": 3671,
      "Ġwouldn": 3672,
      "Ġminute": 3673,
      "Ġbeloved": 3674,
      "Ġlearns": 3675,
      "Ġmorning": 3676,
      "Ġbroken": 3677,
      "Ġfrustr": 3678,
      "Ġjoin": 3679,
      "ĠHarry": 3680,
      "Ġmotion": 3681,
      "Ġexploration": 3682,
      "Ġseparate": 3683,
      "ĠSTU": 3684,
      "10": 3685,
      "cr": 3686,
      "mon": 3687,
      "port": 3688,
      "Ġty": 3689,
      "Ġok": 3690,
      "itation": 3691,
      "Ġhig": 3692,
      "Ġlines": 3693,
      "iles": 3694,
      "icious": 3695,
      "rig": 3696,
      "ĠWell": 3697,
      "aper": 3698,
      "Ġabove": 3699,
      "atever": 3700,
      "Ġaren": 3701,
      "ostalg": 3702,
      "ĠChina": 3703,
      "Ġpaint": 3704,
      "Ġlearning": 3705,
      "Ġmagical": 3706,
      "Ġediting": 3707,
      "Ġneighb": 3708,
      "Ġwalk": 3709,
      "Ġeffort": 3710,
      "Ġemotionally": 3711,
      "Ġdeliver": 3712,
      "Ġspectacular": 3713,
      "Ġheavy": 3714,
      "Ġstorytelling": 3715,
      "oil": 3716,
      "ued": 3717,
      "ero": 3718,
      "Ġwed": 3719,
      "Ġfood": 3720,
      "Ġden": 3721,
      "Ġnuclear": 3722,
      "Ġready": 3723,
      "owers": 3724,
      "ament": 3725,
      "Ġask": 3726,
      "Ġvast": 3727,
      "ively": 3728,
      "ĠJew": 3729,
      "ending": 3730,
      "Ġoverwhel": 3731,
      "Ġemploy": 3732,
      "Ġblind": 3733,
      "Ġattack": 3734,
      "Ġmusicians": 3735,
      "Ġtalented": 3736,
      "Ġbeautifully": 3737,
      "scar": 3738,
      "Ġappear": 3739,
      "Ġcaptured": 3740,
      "Ġsilent": 3741,
      "Ġpoetic": 3742,
      "Ġparticularly": 3743,
      "Ġmelanch": 3744,
      "Ġadults": 3745,
      "Ġmirac": 3746,
      "Ġelder": 3747,
      "Ġtim": 3748,
      "Ġaest": 3749,
      "Ġoh": 3750,
      "Ġhilarious": 3751,
      "ald": 3752,
      "Ġpair": 3753,
      "Ġnice": 3754,
      "Ġhealth": 3755,
      "âĢĵ": 3756,
      "ĠTaylor": 3757,
      "ĠMic": 3758,
      "ĠMark": 3759,
      "Ġven": 3760,
      "ords": 3761,
      "Ġowner": 3762,
      "phic": 3763,
      "Ġsurface": 3764,
      "Ġraised": 3765,
      "Ġsimilar": 3766,
      "Ġhighly": 3767,
      "ificant": 3768,
      "Ġ40": 3769,
      "Ġteenager": 3770,
      "Ġchoose": 3771,
      "Ġdrive": 3772,
      "Ġvisuals": 3773,
      "Ġpoetry": 3774,
      "Ġcircumstances": 3775,
      "EL": 3776,
      "Ex": 3777,
      "hour": 3778,
      "Ġaim": 3779,
      "Ġsafe": 3780,
      "Ġfit": 3781,
      "Ġdyn": 3782,
      "icate": 3783,
      "stit": 3784,
      "Ġnav": 3785,
      "eland": 3786,
      "ĠArab": 3787,
      "rook": 3788,
      "rial": 3789,
      "Ġasked": 3790,
      "ĠBob": 3791,
      "Ġvar": 3792,
      "ĠOF": 3793,
      "ibl": 3794,
      "Ġtalent": 3795,
      "ĠAlthough": 3796,
      "Ġstarting": 3797,
      "Ġshots": 3798,
      "Ġcontinue": 3799,
      "board": 3800,
      "Ġ1980": 3801,
      "Ġ90": 3802,
      "ĠAdam": 3803,
      "Ġsweet": 3804,
      "Ġconvin": 3805,
      "Ġopera": 3806,
      "Ġquickly": 3807,
      "Ġtroubled": 3808,
      "PEAT": 3809,
      "ĠSTUFF": 3810,
      "vable": 3811,
      "Ġsin": 3812,
      "Ġfashion": 3813,
      "Ġbord": 3814,
      "Ġcaught": 3815,
      "oud": 3816,
      "Ġpan": 3817,
      "Ġpian": 3818,
      "ĠIT": 3819,
      "room": 3820,
      "agers": 3821,
      "Ġexpected": 3822,
      "Ġtheme": 3823,
      "Ġaging": 3824,
      "Ġpregn": 3825,
      "Ġcrowd": 3826,
      "Ġcolon": 3827,
      "ĠWhy": 3828,
      "Ġmarry": 3829,
      "Ġhelps": 3830,
      "uthless": 3831,
      "REPEAT": 3832,
      "Ġcheck": 3833,
      "Ġofficial": 3834,
      "Ġbuilding": 3835,
      "Ġ60": 3836,
      "Ġdrink": 3837,
      "ĠSwed": 3838,
      "Ġsequence": 3839,
      "Ġambitious": 3840,
      "Ġharsh": 3841,
      "Ġefforts": 3842,
      "Ġtotally": 3843,
      "Ġgradually": 3844,
      "Ġconsequences": 3845,
      "ĠSTUFFREPEAT": 3846,
      "bit": 3847,
      "hand": 3848,
      "Ġ[": 3849,
      "Ġsisters": 3850,
      "Ġball": 3851,
      "Ġmale": 3852,
      "Ġlabor": 3853,
      "Ġgre": 3854,
      "Ġna": 3855,
      "ĠBad": 3856,
      "Ġlose": 3857,
      "ĠHir": 3858,
      "ĠOh": 3859,
      "Ġrecently": 3860,
      "Ġimpressive": 3861,
      "Ġfinale": 3862,
      "Ġdirectors": 3863,
      "ails": 3864,
      "Ġcamps": 3865,
      "Ġconsider": 3866,
      "Ġdetails": 3867,
      "ĠGeorg": 3868,
      "Ġvictims": 3869,
      "Ġaccompanied": 3870,
      "matic": 3871,
      "Ġtur": 3872,
      "anks": 3873,
      "Ġhol": 3874,
      "alle": 3875,
      "Ġgent": 3876,
      "irty": 3877,
      "ademy": 3878,
      "aked": 3879,
      "ĠMore": 3880,
      "Ġjail": 3881,
      "arted": 3882,
      "ĠJon": 3883,
      "Ġris": 3884,
      "ĠRy": 3885,
      "ĠRoman": 3886,
      "ĠOzu": 3887,
      "ivity": 3888,
      "Ġpeas": 3889,
      "Ġovercome": 3890,
      "Ġinterpret": 3891,
      "henomen": 3892,
      "Ġfinished": 3893,
      "Ġtried": 3894,
      "Ġguilt": 3895,
      "ĠSept": 3896,
      "Ġputs": 3897,
      "Ġsoundtr": 3898,
      "Ġmetaph": 3899,
      "Ġsilence": 3900,
      "Ġcurrent": 3901,
      "Ġmessage": 3902,
      "ĠQueen": 3903,
      "Ġisolated": 3904,
      "ĠWWII": 3905,
      "ĠAfrican": 3906,
      "oneliness": 3907,
      "ĠFUCK": 3908,
      "We": 3909,
      "ao": 3910,
      "ey": 3911,
      "no": 3912,
      "ners": 3913,
      "pired": 3914,
      "Ġcause": 3915,
      "Ġdies": 3916,
      "ilogy": 3917,
      "ima": 3918,
      "ama": 3919,
      "ĠBra": 3920,
      "Ġexh": 3921,
      "Ġcomed": 3922,
      "ode": 3923,
      "odies": 3924,
      "Ġunknown": 3925,
      "ĠFar": 3926,
      "ĠDay": 3927,
      "ellig": 3928,
      "izarre": 3929,
      "cker": 3930,
      "Ġenergy": 3931,
      "Ġdesert": 3932,
      "Ġknowing": 3933,
      "Ġaware": 3934,
      "Ġconcern": 3935,
      "Ġguess": 3936,
      "!!!": 3937,
      "ĠSec": 3938,
      "Ġstruggling": 3939,
      "Ġforest": 3940,
      "Ġbrain": 3941,
      "Ġlisten": 3942,
      "Ġcertainly": 3943,
      "ĠðŁĺ": 3944,
      "Ġfigure": 3945,
      "Ġapproach": 3946,
      "iot": 3947,
      "mother": 3948,
      "ses": 3949,
      "taking": 3950,
      "iseries": 3951,
      "Ġwand": 3952,
      "itude": 3953,
      "Ġcy": 3954,
      "Ġpun": 3955,
      "Ġphenomen": 3956,
      "Ġlord": 3957,
      "Ġgorgeous": 3958,
      "ĠIN": 3959,
      "Ġnostalg": 3960,
      "ether": 3961,
      "iro": 3962,
      "ĠMo": 3963,
      "ĠMas": 3964,
      "ĠMiy": 3965,
      "ĠWall": 3966,
      "Ġloving": 3967,
      "ĠHBO": 3968,
      "Ġability": 3969,
      "ĠLight": 3970,
      "ĠRome": 3971,
      "Ġorchest": 3972,
      "ĠKo": 3973,
      "Ġamount": 3974,
      "Ġendless": 3975,
      "Ġdirection": 3976,
      "Ġcreates": 3977,
      "ĠBey": 3978,
      "Ġimmig": 3979,
      "Ġregret": 3980,
      "Ġsky": 3981,
      "uki": 3982,
      "Ġunderstanding": 3983,
      "friends": 3984,
      "Ġdamn": 3985,
      "Ġreceives": 3986,
      "Ġnoble": 3987,
      "Ġorphan": 3988,
      "even": 3989,
      "mi": 3990,
      "pro": 3991,
      "sky": 3992,
      "table": 3993,
      "ĠX": 3994,
      "itiz": 3995,
      "anet": 3996,
      "arian": 3997,
      "Ġpark": 3998,
      "ila": 3999
    },
    "merges": [
      [
        "Ġ",
        "t"
      ],
      [
        "Ġ",
        "a"
      ],
      [
        "h",
        "e"
      ],
      [
        "i",
        "n"
      ],
      [
        "Ġt",
        "he"
      ],
      [
        "Ġ",
        "o"
      ],
      [
        "e",
        "r"
      ],
      [
        "Ġ",
        "s"
      ],
      [
        "r",
        "e"
      ],
      [
        "i",
        "s"
      ],
      [
        "n",
        "d"
      ],
      [
        "Ġ",
        "w"
      ],
      [
        "Ġ",
        "f"
      ],
      [
        "a",
        "t"
      ],
      [
        "e",
        "s"
      ],
      [
        "in",
        "g"
      ],
      [
        "o",
        "n"
      ],
      [
        "Ġ",
        "b"
      ],
      [
        "i",
        "t"
      ],
      [
        "Ġ",
        "c"
      ],
      [
        "Ġ",
        "m"
      ],
      [
        "e",
        "n"
      ],
      [
        "o",
        "r"
      ],
      [
        "Ġo",
        "f"
      ],
      [
        "a",
        "n"
      ],
      [
        "o",
        "u"
      ],
      [
        "Ġa",
        "nd"
      ],
      [
        "a",
        "r"
      ],
      [
        "Ġ",
        "h"
      ],
      [
        "a",
        "l"
      ],
      [
        "Ġ",
        "p"
      ],
      [
        "Ġ",
        "d"
      ],
      [
        "Ġt",
        "o"
      ],
      [
        "Ġ",
        "in"
      ],
      [
        "e",
        "d"
      ],
      [
        "Ġ",
        "l"
      ],
      [
        "Ġt",
        "h"
      ],
      [
        "i",
        "l"
      ],
      [
        "o",
        "m"
      ],
      [
        "i",
        "c"
      ],
      [
        "s",
        "t"
      ],
      [
        "Ġ",
        "e"
      ],
      [
        "l",
        "y"
      ],
      [
        "l",
        "e"
      ],
      [
        "a",
        "s"
      ],
      [
        "v",
        "e"
      ],
      [
        "Ġ",
        "g"
      ],
      [
        "en",
        "t"
      ],
      [
        "i",
        "on"
      ],
      [
        "u",
        "t"
      ],
      [
        "Ġ",
        "I"
      ],
      [
        "Ġ",
        "n"
      ],
      [
        "Ġb",
        "e"
      ],
      [
        "i",
        "m"
      ],
      [
        "Ġ",
        "re"
      ],
      [
        "Ġ",
        "is"
      ],
      [
        "o",
        "w"
      ],
      [
        "o",
        "t"
      ],
      [
        "Ġo",
        "n"
      ],
      [
        "Ġ",
        "he"
      ],
      [
        "â",
        "Ģ"
      ],
      [
        "a",
        "c"
      ],
      [
        "v",
        "er"
      ],
      [
        "e",
        "t"
      ],
      [
        "Ġ",
        "T"
      ],
      [
        "e",
        "l"
      ],
      [
        "i",
        "r"
      ],
      [
        "Ġs",
        "t"
      ],
      [
        "Ġ",
        "it"
      ],
      [
        "o",
        "l"
      ],
      [
        "u",
        "r"
      ],
      [
        "a",
        "m"
      ],
      [
        "Ġ",
        "A"
      ],
      [
        "Ġth",
        "at"
      ],
      [
        "Ġ",
        "u"
      ],
      [
        "i",
        "d"
      ],
      [
        "it",
        "h"
      ],
      [
        "a",
        "y"
      ],
      [
        "Ġh",
        "is"
      ],
      [
        "g",
        "h"
      ],
      [
        "Ġ",
        "y"
      ],
      [
        "a",
        "d"
      ],
      [
        "Ġw",
        "h"
      ],
      [
        "Ġl",
        "i"
      ],
      [
        "Ġf",
        "or"
      ],
      [
        "c",
        "t"
      ],
      [
        "Ġw",
        "ith"
      ],
      [
        "t",
        "er"
      ],
      [
        "Ġa",
        "n"
      ],
      [
        "s",
        "e"
      ],
      [
        "Ġ",
        "S"
      ],
      [
        "r",
        "o"
      ],
      [
        "c",
        "h"
      ],
      [
        "'",
        "s"
      ],
      [
        "r",
        "i"
      ],
      [
        "c",
        "e"
      ],
      [
        "Ġa",
        "s"
      ],
      [
        "a",
        "k"
      ],
      [
        "Ġa",
        "l"
      ],
      [
        "u",
        "l"
      ],
      [
        "Ġm",
        "o"
      ],
      [
        "r",
        "a"
      ],
      [
        "Ġth",
        "is"
      ],
      [
        "âĢ",
        "Ļ"
      ],
      [
        "Ġy",
        "ou"
      ],
      [
        "l",
        "d"
      ],
      [
        "Ġ",
        "B"
      ],
      [
        "Ġ",
        "M"
      ],
      [
        "es",
        "t"
      ],
      [
        "he",
        "r"
      ],
      [
        "Ġs",
        "e"
      ],
      [
        "u",
        "m"
      ],
      [
        "r",
        "om"
      ],
      [
        "Ġ",
        "W"
      ],
      [
        "a",
        "g"
      ],
      [
        "e",
        "m"
      ],
      [
        "il",
        "m"
      ],
      [
        "at",
        "ion"
      ],
      [
        "il",
        "l"
      ],
      [
        "u",
        "s"
      ],
      [
        "i",
        "e"
      ],
      [
        "ĠT",
        "he"
      ],
      [
        "Ġd",
        "e"
      ],
      [
        "Ġ",
        "C"
      ],
      [
        "is",
        "t"
      ],
      [
        "Ġf",
        "ilm"
      ],
      [
        "Ġs",
        "h"
      ],
      [
        "Ġl",
        "o"
      ],
      [
        "o",
        "p"
      ],
      [
        "a",
        "nd"
      ],
      [
        "a",
        "p"
      ],
      [
        "Ġ",
        "H"
      ],
      [
        "f",
        "e"
      ],
      [
        "Ġe",
        "x"
      ],
      [
        "Ġc",
        "on"
      ],
      [
        "es",
        "s"
      ],
      [
        "er",
        "s"
      ],
      [
        "Ġa",
        "t"
      ],
      [
        "Ġc",
        "h"
      ],
      [
        "Ġf",
        "rom"
      ],
      [
        "Ġb",
        "y"
      ],
      [
        "Ġc",
        "om"
      ],
      [
        "t",
        "h"
      ],
      [
        "o",
        "d"
      ],
      [
        "Ġ",
        "j"
      ],
      [
        "Ġ",
        "v"
      ],
      [
        "gh",
        "t"
      ],
      [
        "u",
        "n"
      ],
      [
        "i",
        "es"
      ],
      [
        "Ġw",
        "or"
      ],
      [
        "r",
        "ou"
      ],
      [
        "Ġb",
        "ut"
      ],
      [
        "k",
        "e"
      ],
      [
        "Ġhe",
        "r"
      ],
      [
        "Ġthe",
        "ir"
      ],
      [
        "e",
        "ar"
      ],
      [
        "u",
        "st"
      ],
      [
        "i",
        "f"
      ],
      [
        "Ġa",
        "b"
      ],
      [
        "al",
        "ly"
      ],
      [
        "an",
        "t"
      ],
      [
        "o",
        "c"
      ],
      [
        "a",
        "st"
      ],
      [
        "ar",
        "t"
      ],
      [
        "Ġu",
        "n"
      ],
      [
        "i",
        "ve"
      ],
      [
        "Ġw",
        "as"
      ],
      [
        "u",
        "re"
      ],
      [
        "Ġ",
        "F"
      ],
      [
        "Ġ",
        "D"
      ],
      [
        "a",
        "in"
      ],
      [
        "ou",
        "t"
      ],
      [
        "at",
        "e"
      ],
      [
        "Ġm",
        "e"
      ],
      [
        "Ġ",
        "P"
      ],
      [
        "o",
        "s"
      ],
      [
        "Ġn",
        "e"
      ],
      [
        "Ġwh",
        "o"
      ],
      [
        "Ġa",
        "re"
      ],
      [
        "a",
        "b"
      ],
      [
        "in",
        "d"
      ],
      [
        "it",
        "y"
      ],
      [
        "Ġ",
        "L"
      ],
      [
        "ou",
        "r"
      ],
      [
        "p",
        "e"
      ],
      [
        "ou",
        "s"
      ],
      [
        "Ġ",
        "k"
      ],
      [
        "Ġm",
        "y"
      ],
      [
        "Ġin",
        "t"
      ],
      [
        "Ġw",
        "he"
      ],
      [
        "Ġon",
        "e"
      ],
      [
        "Ġ",
        "J"
      ],
      [
        "Ġ",
        "G"
      ],
      [
        "im",
        "e"
      ],
      [
        "Ġ",
        "r"
      ],
      [
        "Ġ",
        "R"
      ],
      [
        "a",
        "ve"
      ],
      [
        "Ġs",
        "o"
      ],
      [
        "om",
        "e"
      ],
      [
        "on",
        "g"
      ],
      [
        "Ġ",
        "1"
      ],
      [
        "ver",
        "y"
      ],
      [
        "i",
        "g"
      ],
      [
        "v",
        "es"
      ],
      [
        "ac",
        "k"
      ],
      [
        "Ġal",
        "l"
      ],
      [
        "Ġthe",
        "y"
      ],
      [
        "i",
        "re"
      ],
      [
        "Ġ",
        "E"
      ],
      [
        "Ġn",
        "ot"
      ],
      [
        "Ġ",
        "N"
      ],
      [
        "q",
        "u"
      ],
      [
        "al",
        "l"
      ],
      [
        "or",
        "y"
      ],
      [
        "g",
        "e"
      ],
      [
        "el",
        "l"
      ],
      [
        "Ġs",
        "u"
      ],
      [
        "o",
        "re"
      ],
      [
        "Ġli",
        "fe"
      ],
      [
        "Ġt",
        "r"
      ],
      [
        "Ġp",
        "ro"
      ],
      [
        "ar",
        "d"
      ],
      [
        "Ġab",
        "out"
      ],
      [
        "Ġp",
        "l"
      ],
      [
        "u",
        "d"
      ],
      [
        "i",
        "ght"
      ],
      [
        "Ġ",
        "O"
      ],
      [
        "re",
        "s"
      ],
      [
        "or",
        "t"
      ],
      [
        "Ġm",
        "an"
      ],
      [
        "Ġ",
        "\""
      ],
      [
        "Ġl",
        "e"
      ],
      [
        "id",
        "e"
      ],
      [
        "o",
        "k"
      ],
      [
        "Ġ",
        "im"
      ],
      [
        "Ġf",
        "e"
      ],
      [
        "Ġ",
        "i"
      ],
      [
        "ar",
        "y"
      ],
      [
        "re",
        "at"
      ],
      [
        "ag",
        "e"
      ],
      [
        "Ġh",
        "ave"
      ],
      [
        "v",
        "en"
      ],
      [
        "Ġg",
        "o"
      ],
      [
        "Ġd",
        "o"
      ],
      [
        "Ġo",
        "r"
      ],
      [
        "e",
        "nd"
      ],
      [
        "i",
        "al"
      ],
      [
        "Ġli",
        "ke"
      ],
      [
        "n",
        "e"
      ],
      [
        "on",
        "e"
      ],
      [
        "Ġ",
        "K"
      ],
      [
        "Ġo",
        "ut"
      ],
      [
        "ou",
        "ld"
      ],
      [
        "p",
        "er"
      ],
      [
        "Ġint",
        "o"
      ],
      [
        ".",
        "."
      ],
      [
        "Ġc",
        "an"
      ],
      [
        "Ġu",
        "p"
      ],
      [
        "Ġw",
        "e"
      ],
      [
        "a",
        "re"
      ],
      [
        "ĠI",
        "t"
      ],
      [
        "Ġp",
        "er"
      ],
      [
        "Ġa",
        "r"
      ],
      [
        "Ġh",
        "as"
      ],
      [
        "Ġt",
        "ime"
      ],
      [
        "p",
        "l"
      ],
      [
        "v",
        "ie"
      ],
      [
        "Ġ",
        "âĢ"
      ],
      [
        "Ġbe",
        "c"
      ],
      [
        "i",
        "an"
      ],
      [
        "or",
        "m"
      ],
      [
        "en",
        "ce"
      ],
      [
        "p",
        "t"
      ],
      [
        "Ġs",
        "c"
      ],
      [
        "ic",
        "al"
      ],
      [
        "Ġwor",
        "ld"
      ],
      [
        "Ġj",
        "ust"
      ],
      [
        "f",
        "ter"
      ],
      [
        "i",
        "p"
      ],
      [
        "n",
        "t"
      ],
      [
        "Ġc",
        "l"
      ],
      [
        "ic",
        "h"
      ],
      [
        "Ġit",
        "s"
      ],
      [
        "'",
        "t"
      ],
      [
        "i",
        "v"
      ],
      [
        "a",
        "u"
      ],
      [
        "ĠT",
        "h"
      ],
      [
        "Ġwhe",
        "n"
      ],
      [
        "as",
        "s"
      ],
      [
        "ak",
        "e"
      ],
      [
        "a",
        "v"
      ],
      [
        "il",
        "e"
      ],
      [
        "Ġw",
        "at"
      ],
      [
        "ac",
        "e"
      ],
      [
        "Ġe",
        "very"
      ],
      [
        "an",
        "ce"
      ],
      [
        "an",
        "g"
      ],
      [
        "o",
        "g"
      ],
      [
        "Ġh",
        "im"
      ],
      [
        "Ġp",
        "e"
      ],
      [
        "Ġh",
        "ow"
      ],
      [
        "Ġthe",
        "m"
      ],
      [
        "rou",
        "gh"
      ],
      [
        "o",
        "nd"
      ],
      [
        "Ġlo",
        "ve"
      ],
      [
        "n",
        "g"
      ],
      [
        "i",
        "z"
      ],
      [
        "r",
        "u"
      ],
      [
        "Ġ1",
        "9"
      ],
      [
        "w",
        "o"
      ],
      [
        "i",
        "ous"
      ],
      [
        "an",
        "s"
      ],
      [
        "in",
        "e"
      ],
      [
        "m",
        "er"
      ],
      [
        "Ġy",
        "ear"
      ],
      [
        "Ġwh",
        "at"
      ],
      [
        "it",
        "e"
      ],
      [
        "Ġmo",
        "re"
      ],
      [
        "h",
        "ing"
      ],
      [
        "r",
        "y"
      ],
      [
        "c",
        "k"
      ],
      [
        "Ġ",
        "("
      ],
      [
        "Ġs",
        "p"
      ],
      [
        "Ġd",
        "is"
      ],
      [
        "Ġ",
        "en"
      ],
      [
        "Ġmo",
        "st"
      ],
      [
        "am",
        "e"
      ],
      [
        "Ġs",
        "he"
      ],
      [
        "w",
        "n"
      ],
      [
        "ent",
        "s"
      ],
      [
        "ow",
        "n"
      ],
      [
        "el",
        "f"
      ],
      [
        "p",
        "p"
      ],
      [
        "Ġcom",
        "p"
      ],
      [
        "ing",
        "s"
      ],
      [
        "Ġth",
        "rough"
      ],
      [
        "T",
        "he"
      ],
      [
        "t",
        "her"
      ],
      [
        "f",
        "orm"
      ],
      [
        "il",
        "d"
      ],
      [
        "il",
        "y"
      ],
      [
        "Ġ",
        "2"
      ],
      [
        "Ġo",
        "ver"
      ],
      [
        "at",
        "h"
      ],
      [
        "i",
        "b"
      ],
      [
        "ot",
        "her"
      ],
      [
        "Ġa",
        "ct"
      ],
      [
        "op",
        "le"
      ],
      [
        "o",
        "se"
      ],
      [
        "Ġsh",
        "ow"
      ],
      [
        "Ġa",
        "g"
      ],
      [
        "o",
        "st"
      ],
      [
        "ri",
        "end"
      ],
      [
        "c",
        "es"
      ],
      [
        "e",
        "p"
      ],
      [
        "Ġwor",
        "k"
      ],
      [
        "at",
        "ed"
      ],
      [
        "Ġst",
        "ory"
      ],
      [
        "ay",
        "s"
      ],
      [
        "f",
        "ul"
      ],
      [
        "c",
        "c"
      ],
      [
        "e",
        "en"
      ],
      [
        "ab",
        "le"
      ],
      [
        "o",
        "y"
      ],
      [
        "Ġpe",
        "ople"
      ],
      [
        "Ġ",
        "Y"
      ],
      [
        "ir",
        "st"
      ],
      [
        "Ġf",
        "am"
      ],
      [
        "Ġg",
        "et"
      ],
      [
        "Ġs",
        "ome"
      ],
      [
        "Ġon",
        "ly"
      ],
      [
        "s",
        "h"
      ],
      [
        "er",
        "t"
      ],
      [
        "Ġb",
        "r"
      ],
      [
        "ac",
        "t"
      ],
      [
        "Ġa",
        "d"
      ],
      [
        "Ġs",
        "er"
      ],
      [
        "ion",
        "s"
      ],
      [
        "ol",
        "d"
      ],
      [
        "o",
        "b"
      ],
      [
        "m",
        "ent"
      ],
      [
        "Ġd",
        "oc"
      ],
      [
        "Ġbe",
        "t"
      ],
      [
        "ar",
        "k"
      ],
      [
        "Ġin",
        "ter"
      ],
      [
        "ic",
        "e"
      ],
      [
        "in",
        "k"
      ],
      [
        "res",
        "s"
      ],
      [
        "u",
        "e"
      ],
      [
        "Ġw",
        "ill"
      ],
      [
        "Ġfe",
        "el"
      ],
      [
        "Ġa",
        "fter"
      ],
      [
        "ur",
        "n"
      ],
      [
        "ul",
        "t"
      ],
      [
        "Ġf",
        "irst"
      ],
      [
        "u",
        "al"
      ],
      [
        "ic",
        "t"
      ],
      [
        "he",
        "d"
      ],
      [
        "Ġf",
        "ind"
      ],
      [
        "Ġwat",
        "ch"
      ],
      [
        "Ġmo",
        "vie"
      ],
      [
        "um",
        "ent"
      ],
      [
        "Ġo",
        "ther"
      ],
      [
        "Ġk",
        "n"
      ],
      [
        "ak",
        "es"
      ],
      [
        "i",
        "a"
      ],
      [
        "Ġa",
        "m"
      ],
      [
        "Ġp",
        "r"
      ],
      [
        "is",
        "h"
      ],
      [
        "Ġs",
        "pe"
      ],
      [
        "Ġe",
        "m"
      ],
      [
        "Ġ",
        "qu"
      ],
      [
        "ad",
        "e"
      ],
      [
        "rou",
        "nd"
      ],
      [
        "f",
        "f"
      ],
      [
        "Ġm",
        "us"
      ],
      [
        "ac",
        "h"
      ],
      [
        "re",
        "e"
      ],
      [
        "Ġt",
        "wo"
      ],
      [
        "Ġth",
        "an"
      ],
      [
        "ak",
        "ing"
      ],
      [
        "nd",
        "er"
      ],
      [
        "Ġcon",
        "t"
      ],
      [
        "l",
        "ow"
      ],
      [
        "Ġp",
        "re"
      ],
      [
        "Ġre",
        "al"
      ],
      [
        "Ġwh",
        "ich"
      ],
      [
        "Ġin",
        "c"
      ],
      [
        "Ġn",
        "o"
      ],
      [
        "ur",
        "ing"
      ],
      [
        "Ġf",
        "riend"
      ],
      [
        "u",
        "ch"
      ],
      [
        "Ġyou",
        "ng"
      ],
      [
        "Ġ",
        "ro"
      ],
      [
        "Ġe",
        "nd"
      ],
      [
        "Ġof",
        "f"
      ],
      [
        "Ġu",
        "s"
      ],
      [
        "Ġp",
        "art"
      ],
      [
        "Ġt",
        "ra"
      ],
      [
        "r",
        "it"
      ],
      [
        "ver",
        "s"
      ],
      [
        "ap",
        "p"
      ],
      [
        "Ġ",
        "U"
      ],
      [
        "Ġw",
        "ay"
      ],
      [
        "Ġ",
        "V"
      ],
      [
        "Ġyear",
        "s"
      ],
      [
        "Ġe",
        "ver"
      ],
      [
        "Ġre",
        "c"
      ],
      [
        "n",
        "ing"
      ],
      [
        "a",
        "w"
      ],
      [
        "Ġdoc",
        "ument"
      ],
      [
        "Ġse",
        "e"
      ],
      [
        "Ġan",
        "y"
      ],
      [
        "or",
        "d"
      ],
      [
        "Ġch",
        "ar"
      ],
      [
        "Ġne",
        "w"
      ],
      [
        "ou",
        "nd"
      ],
      [
        "Ġd",
        "es"
      ],
      [
        "ic",
        "k"
      ],
      [
        "âĢ",
        "Ŀ"
      ],
      [
        "Ġthe",
        "re"
      ],
      [
        "Ġwhe",
        "re"
      ],
      [
        "ĠTh",
        "is"
      ],
      [
        "Ġper",
        "form"
      ],
      [
        "Ġt",
        "e"
      ],
      [
        "Ġb",
        "ack"
      ],
      [
        "ou",
        "nt"
      ],
      [
        "Ġe",
        "ven"
      ],
      [
        "l",
        "l"
      ],
      [
        "Ġb",
        "l"
      ],
      [
        "Ġre",
        "l"
      ],
      [
        "Ġ",
        "if"
      ],
      [
        "ĠC",
        "h"
      ],
      [
        "g",
        "in"
      ],
      [
        "Ġfam",
        "ily"
      ],
      [
        "at",
        "ing"
      ],
      [
        "Ġ",
        "-"
      ],
      [
        "a",
        "z"
      ],
      [
        "Ġh",
        "um"
      ],
      [
        "ĠS",
        "t"
      ],
      [
        "ire",
        "ct"
      ],
      [
        "a",
        "ut"
      ],
      [
        "en",
        "s"
      ],
      [
        "o",
        "od"
      ],
      [
        "t",
        "ing"
      ],
      [
        "âĢ",
        "¦"
      ],
      [
        "s",
        "o"
      ],
      [
        "v",
        "ing"
      ],
      [
        "Ġre",
        "s"
      ],
      [
        "Ġim",
        "p"
      ],
      [
        "Ġwh",
        "ile"
      ],
      [
        "Ġne",
        "ver"
      ],
      [
        "Ġe",
        "v"
      ],
      [
        "Ġkn",
        "ow"
      ],
      [
        "ve",
        "l"
      ],
      [
        "s",
        "elf"
      ],
      [
        "Ġg",
        "reat"
      ],
      [
        "Ġo",
        "wn"
      ],
      [
        "p",
        "h"
      ],
      [
        "Ġw",
        "ar"
      ],
      [
        "Ġar",
        "t"
      ],
      [
        "or",
        "s"
      ],
      [
        "er",
        "e"
      ],
      [
        "Ġm",
        "uch"
      ],
      [
        "ĠâĢ",
        "ľ"
      ],
      [
        "d",
        "er"
      ],
      [
        "m",
        "an"
      ],
      [
        "Ġbe",
        "en"
      ],
      [
        "he",
        "n"
      ],
      [
        "l",
        "es"
      ],
      [
        "re",
        "n"
      ],
      [
        "Ġre",
        "m"
      ],
      [
        "ter",
        "s"
      ],
      [
        "Ġ2",
        "0"
      ],
      [
        "Ġs",
        "ur"
      ],
      [
        "om",
        "et"
      ],
      [
        "Ġw",
        "om"
      ],
      [
        "Ġu",
        "nder"
      ],
      [
        "Ġ",
        "ra"
      ],
      [
        "Ġw",
        "ould"
      ],
      [
        "Ġli",
        "ves"
      ],
      [
        "Ġat",
        "t"
      ],
      [
        "Ġ",
        "ent"
      ],
      [
        "Ġp",
        "o"
      ],
      [
        "Ġmus",
        "ic"
      ],
      [
        "au",
        "se"
      ],
      [
        "i",
        "gh"
      ],
      [
        "I",
        "n"
      ],
      [
        "Ġyou",
        "r"
      ],
      [
        "Ġser",
        "ies"
      ],
      [
        "at",
        "her"
      ],
      [
        "Ġch",
        "ild"
      ],
      [
        "ou",
        "gh"
      ],
      [
        "t",
        "le"
      ],
      [
        "b",
        "er"
      ],
      [
        "Ġa",
        "w"
      ],
      [
        "f",
        "ore"
      ],
      [
        "pe",
        "ct"
      ],
      [
        "Ġc",
        "r"
      ],
      [
        "Ġdocument",
        "ary"
      ],
      [
        "Ġp",
        "ers"
      ],
      [
        "sh",
        "ip"
      ],
      [
        "n",
        "ess"
      ],
      [
        "ir",
        "l"
      ],
      [
        "is",
        "m"
      ],
      [
        "ĠI",
        "n"
      ],
      [
        "Ġc",
        "ol"
      ],
      [
        "in",
        "em"
      ],
      [
        "v",
        "ed"
      ],
      [
        "Ġlo",
        "ok"
      ],
      [
        "Ġbe",
        "ing"
      ],
      [
        "Ġag",
        "ain"
      ],
      [
        "Ġf",
        "in"
      ],
      [
        "Ġb",
        "est"
      ],
      [
        "u",
        "ck"
      ],
      [
        "Ġbe",
        "aut"
      ],
      [
        "re",
        "am"
      ],
      [
        "Ġhis",
        "t"
      ],
      [
        "w",
        "een"
      ],
      [
        "Ġth",
        "ink"
      ],
      [
        "Ġcon",
        "c"
      ],
      [
        "Ġli",
        "ve"
      ],
      [
        "fe",
        "ct"
      ],
      [
        "t",
        "y"
      ],
      [
        "Ġl",
        "ong"
      ],
      [
        "e",
        "ct"
      ],
      [
        "is",
        "e"
      ],
      [
        "Ġbet",
        "ween"
      ],
      [
        "Ġd",
        "irect"
      ],
      [
        "Ġm",
        "ake"
      ],
      [
        "g",
        "g"
      ],
      [
        "Ġs",
        "et"
      ],
      [
        "Ġal",
        "so"
      ],
      [
        "Ġt",
        "ri"
      ],
      [
        "Ġh",
        "ad"
      ],
      [
        "th",
        "ing"
      ],
      [
        "Ġa",
        "cc"
      ],
      [
        "re",
        "d"
      ],
      [
        "i",
        "ence"
      ],
      [
        "c",
        "o"
      ],
      [
        "a",
        "il"
      ],
      [
        "Ġs",
        "m"
      ],
      [
        "mer",
        "ic"
      ],
      [
        "Ġw",
        "ant"
      ],
      [
        "Ġd",
        "on"
      ],
      [
        "Ġg",
        "r"
      ],
      [
        "Ġchar",
        "ac"
      ],
      [
        "ig",
        "n"
      ],
      [
        "Ġp",
        "ol"
      ],
      [
        "Ġde",
        "c"
      ],
      [
        "u",
        "ally"
      ],
      [
        "g",
        "et"
      ],
      [
        "Ġre",
        "ally"
      ],
      [
        "Ġc",
        "inem"
      ],
      [
        "Ġex",
        "per"
      ],
      [
        "Ġg",
        "irl"
      ],
      [
        "Ġe",
        "p"
      ],
      [
        "Ġm",
        "ade"
      ],
      [
        "Ġs",
        "omet"
      ],
      [
        "Ġt",
        "al"
      ],
      [
        "st",
        "er"
      ],
      [
        "ĠB",
        "ut"
      ],
      [
        "t",
        "e"
      ],
      [
        "Ġ",
        "ri"
      ],
      [
        "Ġg",
        "u"
      ],
      [
        "..",
        "."
      ],
      [
        "r",
        "am"
      ],
      [
        "ure",
        "s"
      ],
      [
        "r",
        "an"
      ],
      [
        "ation",
        "s"
      ],
      [
        "ĠH",
        "e"
      ],
      [
        "Ġbec",
        "ause"
      ],
      [
        "Ġo",
        "ld"
      ],
      [
        "y",
        "ing"
      ],
      [
        "if",
        "ul"
      ],
      [
        "if",
        "f"
      ],
      [
        "at",
        "es"
      ],
      [
        "f",
        "t"
      ],
      [
        "o",
        "ol"
      ],
      [
        "Ġse",
        "en"
      ],
      [
        "Ġn",
        "ow"
      ],
      [
        "ow",
        "er"
      ],
      [
        "c",
        "ed"
      ],
      [
        "Ġhum",
        "an"
      ],
      [
        "on",
        "s"
      ],
      [
        "Ġin",
        "v"
      ],
      [
        "o",
        "ot"
      ],
      [
        "l",
        "ess"
      ],
      [
        "Ġin",
        "s"
      ],
      [
        "Ġm",
        "em"
      ],
      [
        "Ġl",
        "it"
      ],
      [
        "Ġbe",
        "fore"
      ],
      [
        "ap",
        "t"
      ],
      [
        "ut",
        "e"
      ],
      [
        "Ġo",
        "ur"
      ],
      [
        "Ġc",
        "ould"
      ],
      [
        "Ġpers",
        "on"
      ],
      [
        "Ġh",
        "app"
      ],
      [
        "s",
        "s"
      ],
      [
        "r",
        "on"
      ],
      [
        "i",
        "et"
      ],
      [
        "Ġd",
        "id"
      ],
      [
        "l",
        "ing"
      ],
      [
        "ar",
        "r"
      ],
      [
        "k",
        "s"
      ],
      [
        "Ġm",
        "in"
      ],
      [
        "le",
        "ct"
      ],
      [
        "Ġ",
        "very"
      ],
      [
        "ib",
        "le"
      ],
      [
        "e",
        "w"
      ],
      [
        "at",
        "er"
      ],
      [
        "ĠA",
        "meric"
      ],
      [
        "Ġdo",
        "es"
      ],
      [
        "Ġm",
        "om"
      ],
      [
        "ĠW",
        "h"
      ],
      [
        "Ġfilm",
        "s"
      ],
      [
        "Ġd",
        "uring"
      ],
      [
        "Ġbeaut",
        "iful"
      ],
      [
        "d",
        "u"
      ],
      [
        "Ġde",
        "ath"
      ],
      [
        "vie",
        "w"
      ],
      [
        "i",
        "fe"
      ],
      [
        "Ġman",
        "y"
      ],
      [
        "ne",
        "y"
      ],
      [
        "Ġthe",
        "n"
      ],
      [
        "ot",
        "h"
      ],
      [
        "Ġd",
        "iff"
      ],
      [
        "ĠA",
        "l"
      ],
      [
        "Ġpl",
        "ay"
      ],
      [
        "Ġcom",
        "m"
      ],
      [
        "Ġst",
        "ill"
      ],
      [
        "as",
        "e"
      ],
      [
        "it",
        "s"
      ],
      [
        "Ġex",
        "pl"
      ],
      [
        "Ġd",
        "ay"
      ],
      [
        "ul",
        "l"
      ],
      [
        "or",
        "ies"
      ],
      [
        "ĠA",
        "nd"
      ],
      [
        "in",
        "t"
      ],
      [
        "ast",
        "er"
      ],
      [
        "Ġa",
        "round"
      ],
      [
        "he",
        "s"
      ],
      [
        "Ġw",
        "ell"
      ],
      [
        "Ġhist",
        "ory"
      ],
      [
        "Ġthe",
        "se"
      ],
      [
        "Ġsomet",
        "hing"
      ],
      [
        "Ġc",
        "am"
      ],
      [
        "Ġl",
        "ast"
      ],
      [
        "Ġw",
        "ere"
      ],
      [
        "0",
        "0"
      ],
      [
        "Ġf",
        "l"
      ],
      [
        "Ġcon",
        "f"
      ],
      [
        "u",
        "b"
      ],
      [
        "en",
        "se"
      ],
      [
        "Ġg",
        "en"
      ],
      [
        "Ġv",
        "is"
      ],
      [
        "Ġhe",
        "art"
      ],
      [
        "Ġgo",
        "od"
      ],
      [
        "'",
        "ve"
      ],
      [
        "Ġse",
        "c"
      ],
      [
        "Ġst",
        "art"
      ],
      [
        "ion",
        "al"
      ],
      [
        "ol",
        "low"
      ],
      [
        "s",
        "c"
      ],
      [
        "op",
        "e"
      ],
      [
        "'",
        "m"
      ],
      [
        "Ġt",
        "ell"
      ],
      [
        "Ġm",
        "other"
      ],
      [
        "Ġp",
        "ower"
      ],
      [
        "Ġre",
        "t"
      ],
      [
        "at",
        "ic"
      ],
      [
        "is",
        "s"
      ],
      [
        "Ġm",
        "ust"
      ],
      [
        "i",
        "ed"
      ],
      [
        "Ġj",
        "our"
      ],
      [
        "Ġs",
        "ay"
      ],
      [
        "at",
        "ive"
      ],
      [
        "re",
        "t"
      ],
      [
        "Ġst",
        "ru"
      ],
      [
        "t",
        "en"
      ],
      [
        "at",
        "ure"
      ],
      [
        "c",
        "hed"
      ],
      [
        "Ġtr",
        "ans"
      ],
      [
        "Ġspe",
        "c"
      ],
      [
        "Ġc",
        "are"
      ],
      [
        "os",
        "s"
      ],
      [
        "Ġwom",
        "an"
      ],
      [
        "Ġt",
        "urn"
      ],
      [
        "Ġm",
        "ar"
      ],
      [
        "en",
        "e"
      ],
      [
        "Ġe",
        "ach"
      ],
      [
        "Ġsu",
        "b"
      ],
      [
        "Ġbec",
        "om"
      ],
      [
        "Ġcomp",
        "le"
      ],
      [
        "Ġs",
        "ing"
      ],
      [
        "Ġs",
        "oc"
      ],
      [
        "k",
        "ing"
      ],
      [
        "u",
        "p"
      ],
      [
        "im",
        "es"
      ],
      [
        "Ġbe",
        "gin"
      ],
      [
        "!",
        "!"
      ],
      [
        "n",
        "er"
      ],
      [
        "y",
        "s"
      ],
      [
        "Ġb",
        "oth"
      ],
      [
        "Ġp",
        "h"
      ],
      [
        "Ġd",
        "own"
      ],
      [
        "Ġa",
        "c"
      ],
      [
        "ist",
        "s"
      ],
      [
        "Ġd",
        "ream"
      ],
      [
        "b",
        "le"
      ],
      [
        "Ġt",
        "ake"
      ],
      [
        "Ġle",
        "ad"
      ],
      [
        "Ġb",
        "oy"
      ],
      [
        "i",
        "x"
      ],
      [
        "Ġ",
        "ke"
      ],
      [
        "ĠA",
        "n"
      ],
      [
        "Ġth",
        "ose"
      ],
      [
        "Ġconc",
        "ert"
      ],
      [
        "Ġ",
        "'"
      ],
      [
        "is",
        "on"
      ],
      [
        "Ġh",
        "ome"
      ],
      [
        "Ġc",
        "o"
      ],
      [
        "l",
        "ud"
      ],
      [
        "is",
        "od"
      ],
      [
        "Ġc",
        "reat"
      ],
      [
        "w",
        "ard"
      ],
      [
        "ĠS",
        "h"
      ],
      [
        "ce",
        "pt"
      ],
      [
        "it",
        "ion"
      ],
      [
        "ch",
        "ool"
      ],
      [
        ".",
        "\""
      ],
      [
        "e",
        "x"
      ],
      [
        "i",
        "ves"
      ],
      [
        "ct",
        "ion"
      ],
      [
        "Ġfriend",
        "s"
      ],
      [
        "Ġth",
        "ree"
      ],
      [
        "b",
        "e"
      ],
      [
        "Ġhe",
        "l"
      ],
      [
        "âĢ",
        "Ķ"
      ],
      [
        "j",
        "ect"
      ],
      [
        "Ġm",
        "en"
      ],
      [
        "ĠW",
        "ar"
      ],
      [
        "p",
        "le"
      ],
      [
        "Ġbe",
        "h"
      ],
      [
        "l",
        "ed"
      ],
      [
        "Ġs",
        "im"
      ],
      [
        "Ġs",
        "ame"
      ],
      [
        "o",
        "h"
      ],
      [
        "Ġd",
        "et"
      ],
      [
        "Ġhe",
        "re"
      ],
      [
        "Ġex",
        "t"
      ],
      [
        "Ġf",
        "ather"
      ],
      [
        "w",
        "ays"
      ],
      [
        "Ġe",
        "ar"
      ],
      [
        "Ġim",
        "ag"
      ],
      [
        "a",
        "ir"
      ],
      [
        "Ġo",
        "b"
      ],
      [
        "Ġse",
        "em"
      ],
      [
        "d",
        "ay"
      ],
      [
        "it",
        "ed"
      ],
      [
        "ĠB",
        "e"
      ],
      [
        "in",
        "ed"
      ],
      [
        "Ġme",
        "et"
      ],
      [
        "Ġcl",
        "ass"
      ],
      [
        "t",
        "he"
      ],
      [
        "v",
        "is"
      ],
      [
        "Ġt",
        "akes"
      ],
      [
        "Ġa",
        "pp"
      ],
      [
        "ĠA",
        "s"
      ],
      [
        "Ġth",
        "ings"
      ],
      [
        "i",
        "k"
      ],
      [
        "Ġpl",
        "ace"
      ],
      [
        "id",
        "ent"
      ],
      [
        "au",
        "gh"
      ],
      [
        "al",
        "e"
      ],
      [
        "Ġcinem",
        "a"
      ],
      [
        "Ġgo",
        "ing"
      ],
      [
        "al",
        "s"
      ],
      [
        "Ġin",
        "d"
      ],
      [
        "it",
        "ies"
      ],
      [
        "Ġwatch",
        "ing"
      ],
      [
        "Ġf",
        "ollow"
      ],
      [
        "an",
        "e"
      ],
      [
        "Ġn",
        "ight"
      ],
      [
        "i",
        "en"
      ],
      [
        "Ġun",
        "i"
      ],
      [
        "i",
        "o"
      ],
      [
        "Ġto",
        "o"
      ],
      [
        "ĠM",
        "ar"
      ],
      [
        "b",
        "r"
      ],
      [
        "Ġsu",
        "ch"
      ],
      [
        "es",
        "e"
      ],
      [
        "Ġhel",
        "p"
      ],
      [
        "Ġan",
        "im"
      ],
      [
        "Ġem",
        "ot"
      ],
      [
        "Ġsm",
        "all"
      ],
      [
        "Ġdiff",
        "er"
      ],
      [
        "Ġent",
        "ire"
      ],
      [
        "Ġf",
        "oot"
      ],
      [
        "Ġp",
        "res"
      ],
      [
        "Ġg",
        "l"
      ],
      [
        "av",
        "ing"
      ],
      [
        "Ġ",
        "es"
      ],
      [
        "Ġb",
        "and"
      ],
      [
        "ou",
        "se"
      ],
      [
        "Ġm",
        "ay"
      ],
      [
        "as",
        "h"
      ],
      [
        "i",
        "er"
      ],
      [
        "Ġst",
        "ud"
      ],
      [
        "ap",
        "an"
      ],
      [
        "rou",
        "p"
      ],
      [
        "Ġbec",
        "ome"
      ],
      [
        "er",
        "a"
      ],
      [
        "v",
        "ent"
      ],
      [
        "Ġm",
        "akes"
      ],
      [
        "Ġp",
        "ain"
      ],
      [
        "Ġto",
        "get"
      ],
      [
        "as",
        "ed"
      ],
      [
        "Ġg",
        "roup"
      ],
      [
        "Ġbe",
        "l"
      ],
      [
        "Ġep",
        "isod"
      ],
      [
        "Ġtoget",
        "her"
      ],
      [
        "Ġc",
        "ount"
      ],
      [
        "ĠS",
        "e"
      ],
      [
        "Ġal",
        "ways"
      ],
      [
        "Ġre",
        "f"
      ],
      [
        "Ġt",
        "er"
      ],
      [
        "Ġas",
        "s"
      ],
      [
        "Ġrel",
        "ation"
      ],
      [
        "or",
        "n"
      ],
      [
        "in",
        "ess"
      ],
      [
        "em",
        "pt"
      ],
      [
        "ro",
        "ss"
      ],
      [
        "Ġcon",
        "s"
      ],
      [
        "Ġs",
        "ong"
      ],
      [
        "an",
        "ces"
      ],
      [
        "ou",
        "ght"
      ],
      [
        "Ġh",
        "igh"
      ],
      [
        "Ġne",
        "ed"
      ],
      [
        "or",
        "ld"
      ],
      [
        "Ġf",
        "ar"
      ],
      [
        "Ġr",
        "un"
      ],
      [
        "Ġinc",
        "lud"
      ],
      [
        "Ġbecom",
        "es"
      ],
      [
        "Ġm",
        "on"
      ],
      [
        "Ġp",
        "ast"
      ],
      [
        "Ġs",
        "chool"
      ],
      [
        "ic",
        "s"
      ],
      [
        "ul",
        "ar"
      ],
      [
        "Ġhim",
        "self"
      ],
      [
        "ic",
        "ally"
      ],
      [
        "Ġb",
        "o"
      ],
      [
        "Ġfor",
        "m"
      ],
      [
        "Ġstru",
        "gg"
      ],
      [
        "Ġrelation",
        "ship"
      ],
      [
        "Ġc",
        "re"
      ],
      [
        "Ġc",
        "apt"
      ],
      [
        "oc",
        "k"
      ],
      [
        "Ġlit",
        "tle"
      ],
      [
        "ur",
        "al"
      ],
      [
        "ĠJ",
        "apan"
      ],
      [
        "r",
        "ong"
      ],
      [
        "Ġ",
        "3"
      ],
      [
        "re",
        "en"
      ],
      [
        "ĠN",
        "ew"
      ],
      [
        "Ġdis",
        "co"
      ],
      [
        "Ġo",
        "p"
      ],
      [
        "Ġpol",
        "it"
      ],
      [
        "Ġm",
        "aster"
      ],
      [
        "ĠD",
        "e"
      ],
      [
        "Ġri",
        "ght"
      ],
      [
        "Ġjour",
        "ney"
      ],
      [
        "Ġc",
        "ent"
      ],
      [
        "ak",
        "er"
      ],
      [
        "and",
        "s"
      ],
      [
        "Ġde",
        "p"
      ],
      [
        "Ġaw",
        "ay"
      ],
      [
        "Ġb",
        "ig"
      ],
      [
        "Ġth",
        "ing"
      ],
      [
        "Ġf",
        "uck"
      ],
      [
        "a",
        "id"
      ],
      [
        "er",
        "ing"
      ],
      [
        "Ġfind",
        "s"
      ],
      [
        "Ġevery",
        "thing"
      ],
      [
        "Ġh",
        "our"
      ],
      [
        "in",
        "ce"
      ],
      [
        "ed",
        "y"
      ],
      [
        "Ġfilm",
        "m"
      ],
      [
        "ur",
        "y"
      ],
      [
        "'",
        "re"
      ],
      [
        "i",
        "ke"
      ],
      [
        "or",
        "k"
      ],
      [
        "b",
        "um"
      ],
      [
        "im",
        "ate"
      ],
      [
        "c",
        "ess"
      ],
      [
        "ie",
        "ce"
      ],
      [
        "Ġk",
        "ill"
      ],
      [
        "Ġcharac",
        "ters"
      ],
      [
        "ĠW",
        "hen"
      ],
      [
        "Ġbeh",
        "ind"
      ],
      [
        "Ġto",
        "wn"
      ],
      [
        "Ġmy",
        "ster"
      ],
      [
        "ĠâĢ",
        "Ķ"
      ],
      [
        "Ġcom",
        "e"
      ],
      [
        "Ġfoot",
        "age"
      ],
      [
        "Ġg",
        "ra"
      ],
      [
        "at",
        "ch"
      ],
      [
        "Ġspec",
        "ial"
      ],
      [
        "in",
        "s"
      ],
      [
        "Ġun",
        "t"
      ],
      [
        "Ġagain",
        "st"
      ],
      [
        "Ġe",
        "y"
      ],
      [
        "ab",
        "ly"
      ],
      [
        "ĠAmeric",
        "an"
      ],
      [
        "e",
        "ver"
      ],
      [
        "Ġf",
        "all"
      ],
      [
        "Ġh",
        "ard"
      ],
      [
        "Ġp",
        "ass"
      ],
      [
        "c",
        "i"
      ],
      [
        "Ġli",
        "ving"
      ],
      [
        "e",
        "le"
      ],
      [
        "Ġw",
        "rit"
      ],
      [
        "Ġv",
        "ie"
      ],
      [
        "Ġc",
        "all"
      ],
      [
        "id",
        "d"
      ],
      [
        "og",
        "ra"
      ],
      [
        "m",
        "ost"
      ],
      [
        "Ġpro",
        "du"
      ],
      [
        "t",
        "ed"
      ],
      [
        "Ġa",
        "ud"
      ],
      [
        "Ġs",
        "w"
      ],
      [
        "Ġal",
        "bum"
      ],
      [
        "Ġde",
        "ep"
      ],
      [
        "u",
        "g"
      ],
      [
        "Ġp",
        "ut"
      ],
      [
        "Ġd",
        "est"
      ],
      [
        "Ġon",
        "ce"
      ],
      [
        "ut",
        "h"
      ],
      [
        "ol",
        "og"
      ],
      [
        "od",
        "y"
      ],
      [
        "Ġab",
        "s"
      ],
      [
        "n",
        "y"
      ],
      [
        "ist",
        "ic"
      ],
      [
        "o",
        "v"
      ],
      [
        "l",
        "and"
      ],
      [
        "Ġm",
        "ur"
      ],
      [
        "ĠA",
        "r"
      ],
      [
        "Ġex",
        "p"
      ],
      [
        "Ġvie",
        "w"
      ],
      [
        "Ġf",
        "un"
      ],
      [
        "u",
        "es"
      ],
      [
        "Ġb",
        "u"
      ],
      [
        "Ġan",
        "other"
      ],
      [
        "n",
        "a"
      ],
      [
        "Ġs",
        "on"
      ],
      [
        "Ġwith",
        "out"
      ],
      [
        "Ġk",
        "ind"
      ],
      [
        "iz",
        "ed"
      ],
      [
        "Ġatt",
        "empt"
      ],
      [
        "Ġa",
        "p"
      ],
      [
        "Ġf",
        "ull"
      ],
      [
        "Ġd",
        "ist"
      ],
      [
        "ad",
        "y"
      ],
      [
        "h",
        "ood"
      ],
      [
        "Ġth",
        "ought"
      ],
      [
        "Ġsh",
        "ot"
      ],
      [
        "Ġy",
        "et"
      ],
      [
        "qu",
        "e"
      ],
      [
        "Ġe",
        "l"
      ],
      [
        "m",
        "y"
      ],
      [
        "Ġl",
        "ear"
      ],
      [
        "Ġst",
        "ories"
      ],
      [
        "d",
        "s"
      ],
      [
        "Ġf",
        "av"
      ],
      [
        "Ġl",
        "et"
      ],
      [
        "Ġmo",
        "v"
      ],
      [
        "Ġv",
        "ill"
      ],
      [
        "ĠThe",
        "re"
      ],
      [
        "Ġper",
        "fect"
      ],
      [
        "Ġdirect",
        "or"
      ],
      [
        "Ġd",
        "ram"
      ],
      [
        "Ġex",
        "ist"
      ],
      [
        "ar",
        "ch"
      ],
      [
        "Ġre",
        "p"
      ],
      [
        "p",
        "s"
      ],
      [
        "Ġw",
        "ife"
      ],
      [
        "Ġim",
        "m"
      ],
      [
        "Ġinter",
        "view"
      ],
      [
        "Ġmov",
        "ies"
      ],
      [
        "a",
        "h"
      ],
      [
        "r",
        "ic"
      ],
      [
        "as",
        "on"
      ],
      [
        "Ġin",
        "st"
      ],
      [
        "Ġsur",
        "v"
      ],
      [
        "Ġdiffer",
        "ent"
      ],
      [
        "A",
        "n"
      ],
      [
        "Ġp",
        "ort"
      ],
      [
        "Ġperform",
        "ance"
      ],
      [
        "T",
        "h"
      ],
      [
        "en",
        "g"
      ],
      [
        "ut",
        "es"
      ],
      [
        "Ġsh",
        "ould"
      ],
      [
        "f",
        "fect"
      ],
      [
        "s",
        "el"
      ],
      [
        "Ġ",
        "ide"
      ],
      [
        "Ġc",
        "our"
      ],
      [
        "id",
        "es"
      ],
      [
        "Ġret",
        "urn"
      ],
      [
        "Ġs",
        "y"
      ],
      [
        "Ġd",
        "el"
      ],
      [
        "Ġperson",
        "al"
      ],
      [
        "x",
        "t"
      ],
      [
        "ap",
        "e"
      ],
      [
        "Ġtr",
        "ue"
      ],
      [
        "Ġexper",
        "ience"
      ],
      [
        "Ġs",
        "l"
      ],
      [
        "ou",
        "n"
      ],
      [
        "Ġst",
        "ar"
      ],
      [
        "Ġm",
        "aking"
      ],
      [
        "Ġn",
        "arr"
      ],
      [
        "Ġgreat",
        "est"
      ],
      [
        "a",
        "i"
      ],
      [
        "Ġ",
        "&"
      ],
      [
        "Ġf",
        "our"
      ],
      [
        "s",
        "y"
      ],
      [
        "Ġle",
        "ft"
      ],
      [
        "ri",
        "f"
      ],
      [
        "Ġsh",
        "ort"
      ],
      [
        "Ġhe",
        "ad"
      ],
      [
        "ĠW",
        "orld"
      ],
      [
        "ĠU",
        "n"
      ],
      [
        "ow",
        "s"
      ],
      [
        "Ġal",
        "most"
      ],
      [
        "ĠY",
        "ou"
      ],
      [
        "Ġlo",
        "c"
      ],
      [
        "st",
        "and"
      ],
      [
        "c",
        "l"
      ],
      [
        "y",
        "ear"
      ],
      [
        "Ġbet",
        "ter"
      ],
      [
        "ren",
        "ch"
      ],
      [
        "he",
        "re"
      ],
      [
        "Ġwom",
        "en"
      ],
      [
        "Ġunt",
        "il"
      ],
      [
        "Ã",
        "©"
      ],
      [
        "Ġt",
        "w"
      ],
      [
        "ation",
        "al"
      ],
      [
        "Ġcharac",
        "ter"
      ],
      [
        "Ġs",
        "ound"
      ],
      [
        "Ġcont",
        "in"
      ],
      [
        "augh",
        "ter"
      ],
      [
        "Ġt",
        "our"
      ],
      [
        "Ġh",
        "or"
      ],
      [
        "Ġg",
        "ot"
      ],
      [
        "ut",
        "ion"
      ],
      [
        "ĠB",
        "l"
      ],
      [
        "Ġme",
        "an"
      ],
      [
        "Ġpr",
        "ison"
      ],
      [
        "b",
        "o"
      ],
      [
        "en",
        "ing"
      ],
      [
        "ĠA",
        "t"
      ],
      [
        "ĠL",
        "e"
      ],
      [
        "Ġb",
        "re"
      ],
      [
        "oh",
        "n"
      ],
      [
        "Ġc",
        "ity"
      ],
      [
        "Ġm",
        "ed"
      ],
      [
        "en",
        "es"
      ],
      [
        "Ġmur",
        "der"
      ],
      [
        "ĠH",
        "ow"
      ],
      [
        "ĠR",
        "e"
      ],
      [
        "Ġke",
        "ep"
      ],
      [
        "Ġc",
        "ast"
      ],
      [
        "Ġre",
        "g"
      ],
      [
        "Ġde",
        "f"
      ],
      [
        "ack",
        "s"
      ],
      [
        "an",
        "c"
      ],
      [
        "Ġchild",
        "ren"
      ],
      [
        "ire",
        "d"
      ],
      [
        ")",
        ","
      ],
      [
        "Ġqu",
        "est"
      ],
      [
        "m",
        "e"
      ],
      [
        "er",
        "man"
      ],
      [
        "Ġc",
        "or"
      ],
      [
        "ĠT",
        "H"
      ],
      [
        "ri",
        "gin"
      ],
      [
        "Ġsp",
        "ir"
      ],
      [
        "Ġen",
        "c"
      ],
      [
        "Ġf",
        "act"
      ],
      [
        "ing",
        "ly"
      ],
      [
        "Ġd",
        "ark"
      ],
      [
        "Ġf",
        "ight"
      ],
      [
        "Ġst",
        "op"
      ],
      [
        "ĠO",
        "ne"
      ],
      [
        "Ġev",
        "ents"
      ],
      [
        "Ġfin",
        "al"
      ],
      [
        "Ġdid",
        "n"
      ],
      [
        "Ġl",
        "ot"
      ],
      [
        "Ġsc",
        "ene"
      ],
      [
        "ur",
        "s"
      ],
      [
        "ĠThe",
        "y"
      ],
      [
        "ĠâĢ",
        "ĵ"
      ],
      [
        "Ġ20",
        "1"
      ],
      [
        "it",
        "al"
      ],
      [
        "Ġm",
        "et"
      ],
      [
        "Ġpl",
        "an"
      ],
      [
        "Ġh",
        "ouse"
      ],
      [
        "Ġcomple",
        "te"
      ],
      [
        "Ġpr",
        "ot"
      ],
      [
        "am",
        "ed"
      ],
      [
        "Ġse",
        "x"
      ],
      [
        "Ġsc",
        "reen"
      ],
      [
        "ert",
        "ain"
      ],
      [
        "Ġmom",
        "ents"
      ],
      [
        "ĠI",
        "s"
      ],
      [
        "Ġk",
        "id"
      ],
      [
        "ele",
        "br"
      ],
      [
        "in",
        "es"
      ],
      [
        "at",
        "ter"
      ],
      [
        "Ġch",
        "ang"
      ],
      [
        "if",
        "ic"
      ],
      [
        "Ġfe",
        "w"
      ],
      [
        "ron",
        "t"
      ],
      [
        "Ġm",
        "ind"
      ],
      [
        "Ġm",
        "iss"
      ],
      [
        "el",
        "t"
      ],
      [
        "Ġcount",
        "ry"
      ],
      [
        "sel",
        "ves"
      ],
      [
        "Ġsoc",
        "ial"
      ],
      [
        "Ġ",
        "Z"
      ],
      [
        "iz",
        "e"
      ],
      [
        "Ġes",
        "c"
      ],
      [
        "Ġc",
        "ar"
      ],
      [
        "ou",
        "l"
      ],
      [
        "Ġb",
        "it"
      ],
      [
        "Ġf",
        "ore"
      ],
      [
        "Ġsu",
        "per"
      ],
      [
        "i",
        "ol"
      ],
      [
        "Ġw",
        "it"
      ],
      [
        "Ġc",
        "elebr"
      ],
      [
        "Ġd",
        "ays"
      ],
      [
        "il",
        "ity"
      ],
      [
        "Ġwat",
        "ched"
      ],
      [
        "Ġfeel",
        "s"
      ],
      [
        "I",
        "N"
      ],
      [
        "ð",
        "Ł"
      ],
      [
        "Ġun",
        "f"
      ],
      [
        "ain",
        "s"
      ],
      [
        "Ġmin",
        "utes"
      ],
      [
        "Ġmar",
        "ri"
      ],
      [
        "Ġcom",
        "es"
      ],
      [
        "c",
        "on"
      ],
      [
        "Ġs",
        "k"
      ],
      [
        "an",
        "ge"
      ],
      [
        "Ġn",
        "ear"
      ],
      [
        "Ġbel",
        "ie"
      ],
      [
        "b",
        "ers"
      ],
      [
        "u",
        "k"
      ],
      [
        "is",
        "hed"
      ],
      [
        "Ġl",
        "and"
      ],
      [
        "Ġget",
        "s"
      ],
      [
        "Ġlear",
        "n"
      ],
      [
        "Ġvill",
        "age"
      ],
      [
        "Ġs",
        "ol"
      ],
      [
        "Ġre",
        "st"
      ],
      [
        "Ġsec",
        "ond"
      ],
      [
        "i",
        "ant"
      ],
      [
        "r",
        "or"
      ],
      [
        "an",
        "y"
      ],
      [
        "Ġwh",
        "y"
      ],
      [
        "Ġtra",
        "g"
      ],
      [
        "Ġlo",
        "st"
      ],
      [
        "Ġmyster",
        "ious"
      ],
      [
        "Ġdoes",
        "n"
      ],
      [
        "ol",
        "ute"
      ],
      [
        "us",
        "s"
      ],
      [
        "Ġpo",
        "int"
      ],
      [
        "Ġ",
        "5"
      ],
      [
        "Ġrec",
        "ord"
      ],
      [
        "t",
        "o"
      ],
      [
        "Ġpro",
        "f"
      ],
      [
        "Ġo",
        "rigin"
      ],
      [
        "Ġc",
        "ult"
      ],
      [
        "Ġnot",
        "hing"
      ],
      [
        "Ġevery",
        "one"
      ],
      [
        "Ġshow",
        "s"
      ],
      [
        "Ġcomm",
        "un"
      ],
      [
        "Ġf",
        "ace"
      ],
      [
        "Ġm",
        "or"
      ],
      [
        "Ġin",
        "f"
      ],
      [
        "ĠS",
        "o"
      ],
      [
        "Ġmom",
        "ent"
      ],
      [
        "Ġp",
        "ar"
      ],
      [
        "Ġre",
        "le"
      ],
      [
        "ac",
        "es"
      ],
      [
        "Ġwith",
        "in"
      ],
      [
        "ĠO",
        "n"
      ],
      [
        "m",
        "s"
      ],
      [
        "Ġg",
        "ive"
      ],
      [
        "Ġt",
        "imes"
      ],
      [
        "on",
        "y"
      ],
      [
        "Ġc",
        "ou"
      ],
      [
        "Ġn",
        "ature"
      ],
      [
        "Ġwho",
        "le"
      ],
      [
        "Ġd",
        "aughter"
      ],
      [
        "ent",
        "ly"
      ],
      [
        "s",
        "ide"
      ],
      [
        "ot",
        "e"
      ],
      [
        "R",
        "E"
      ],
      [
        "Ġd",
        "em"
      ],
      [
        "Ġv",
        "iol"
      ],
      [
        "Ġ",
        "4"
      ],
      [
        "er",
        "ed"
      ],
      [
        "ĠF",
        "rench"
      ],
      [
        "Ġinc",
        "red"
      ],
      [
        "Ġfav",
        "or"
      ],
      [
        "Ġh",
        "on"
      ],
      [
        "ent",
        "ial"
      ],
      [
        "Ġsong",
        "s"
      ],
      [
        "u",
        "c"
      ],
      [
        "Ġs",
        "elf"
      ],
      [
        "Ġm",
        "ag"
      ],
      [
        "em",
        "ber"
      ],
      [
        "p",
        "r"
      ],
      [
        "Ġmo",
        "ve"
      ],
      [
        "ĠW",
        "e"
      ],
      [
        "Ġ19",
        "8"
      ],
      [
        "le",
        "t"
      ],
      [
        "Ġte",
        "le"
      ],
      [
        "vis",
        "ion"
      ],
      [
        "ĠH",
        "is"
      ],
      [
        "ĠJ",
        "ohn"
      ],
      [
        "A",
        "fter"
      ],
      [
        "Ġde",
        "ad"
      ],
      [
        "Ġany",
        "thing"
      ],
      [
        "Ġev",
        "ent"
      ],
      [
        "ogra",
        "ph"
      ],
      [
        "e",
        "ad"
      ],
      [
        "Ġf",
        "ut"
      ],
      [
        "ent",
        "ed"
      ],
      [
        "Ġ19",
        "9"
      ],
      [
        "Ġsing",
        "le"
      ],
      [
        "Ġt",
        "een"
      ],
      [
        "Ġs",
        "old"
      ],
      [
        "iv",
        "al"
      ],
      [
        "Ġunder",
        "stand"
      ],
      [
        "Â",
        "ł"
      ],
      [
        "Ġh",
        "and"
      ],
      [
        "al",
        "f"
      ],
      [
        "Ġal",
        "ong"
      ],
      [
        "Ġs",
        "ense"
      ],
      [
        "Ġf",
        "ound"
      ],
      [
        "Ġpolit",
        "ical"
      ],
      [
        "ĠS",
        "he"
      ],
      [
        "Ġ19",
        "6"
      ],
      [
        "Ġey",
        "es"
      ],
      [
        "m",
        "ing"
      ],
      [
        "r",
        "ist"
      ],
      [
        "u",
        "ly"
      ],
      [
        "c",
        "er"
      ],
      [
        "ir",
        "d"
      ],
      [
        "Ġ",
        "ed"
      ],
      [
        "Ġs",
        "aid"
      ],
      [
        "Ġb",
        "ro"
      ],
      [
        "Ġto",
        "p"
      ],
      [
        "oc",
        "us"
      ],
      [
        "ge",
        "nd"
      ],
      [
        "are",
        "nt"
      ],
      [
        "c",
        "om"
      ],
      [
        "Ġfor",
        "mer"
      ],
      [
        "o",
        "ve"
      ],
      [
        "w",
        "h"
      ],
      [
        "al",
        "ity"
      ],
      [
        "as",
        "c"
      ],
      [
        "Ġsu",
        "pp"
      ],
      [
        "Ġimp",
        "ort"
      ],
      [
        "Ġp",
        "sy"
      ],
      [
        "ter",
        "n"
      ],
      [
        "ure",
        "d"
      ],
      [
        "r",
        "ay"
      ],
      [
        "ĠG",
        "erman"
      ],
      [
        "Ġfe",
        "at"
      ],
      [
        "Ġsome",
        "one"
      ],
      [
        "Ġbegin",
        "s"
      ],
      [
        "Ġf",
        "re"
      ],
      [
        "Ġch",
        "o"
      ],
      [
        "ĠWh",
        "at"
      ],
      [
        "Ġc",
        "he"
      ],
      [
        "Ġth",
        "ough"
      ],
      [
        "ac",
        "y"
      ],
      [
        "Ġst",
        "and"
      ],
      [
        "Ġli",
        "ght"
      ],
      [
        "Ġv",
        "ide"
      ],
      [
        "un",
        "g"
      ],
      [
        "Ġact",
        "ually"
      ],
      [
        "Ġw",
        "ond"
      ],
      [
        "Ġcl",
        "ose"
      ],
      [
        "Ġbl",
        "ack"
      ],
      [
        "Ġcam",
        "era"
      ],
      [
        "it",
        "ing"
      ],
      [
        "le",
        "ar"
      ],
      [
        "are",
        "d"
      ],
      [
        "iet",
        "y"
      ],
      [
        "Ġinclud",
        "ing"
      ],
      [
        "a",
        "j"
      ],
      [
        "Ġs",
        "ince"
      ],
      [
        "ĠA",
        "fter"
      ],
      [
        "Ġor",
        "der"
      ],
      [
        "Ġsec",
        "ret"
      ],
      [
        "Ġperform",
        "ances"
      ],
      [
        "ĠJapan",
        "ese"
      ],
      [
        "l",
        "er"
      ],
      [
        "n",
        "ot"
      ],
      [
        "Ġf",
        "r"
      ],
      [
        "Ġf",
        "ocus"
      ],
      [
        "Ġwho",
        "se"
      ],
      [
        "Ġthem",
        "selves"
      ],
      [
        "y",
        "n"
      ],
      [
        "en",
        "ed"
      ],
      [
        "Ġp",
        "rom"
      ],
      [
        "Ġp",
        "oss"
      ],
      [
        "Ġd",
        "ra"
      ],
      [
        "Ġac",
        "ross"
      ],
      [
        "Ġcent",
        "ury"
      ],
      [
        "Ġb",
        "us"
      ],
      [
        "Ġh",
        "ope"
      ],
      [
        "Ġh",
        "aving"
      ],
      [
        "Ġst",
        "age"
      ],
      [
        "os",
        "ed"
      ],
      [
        "Ġbr",
        "ut"
      ],
      [
        "Ġgen",
        "er"
      ],
      [
        "Ġpre",
        "t"
      ],
      [
        "Ġart",
        "ist"
      ],
      [
        "a",
        "im"
      ],
      [
        "Ġcare",
        "er"
      ],
      [
        "Ġcour",
        "se"
      ],
      [
        "f",
        "riend"
      ],
      [
        "v",
        "ious"
      ],
      [
        "Ġp",
        "op"
      ],
      [
        "ap",
        "s"
      ],
      [
        "ant",
        "s"
      ],
      [
        "Ġbr",
        "other"
      ],
      [
        "in",
        "ing"
      ],
      [
        "is",
        "ed"
      ],
      [
        "ow",
        "ing"
      ],
      [
        "ear",
        "s"
      ],
      [
        "Ġtr",
        "ying"
      ],
      [
        "t",
        "s"
      ],
      [
        "ĠP",
        "ar"
      ],
      [
        "Ġf",
        "ive"
      ],
      [
        "Ġp",
        "ost"
      ],
      [
        "Ġinter",
        "est"
      ],
      [
        "ian",
        "s"
      ],
      [
        "Ġfilmm",
        "aker"
      ],
      [
        "u",
        "nd"
      ],
      [
        "v",
        "ol"
      ],
      [
        "Ġ19",
        "7"
      ],
      [
        "Ġaud",
        "ience"
      ],
      [
        "b",
        "and"
      ],
      [
        "Ġg",
        "ang"
      ],
      [
        "Ġabs",
        "olute"
      ],
      [
        "A",
        "T"
      ],
      [
        "a",
        "un"
      ],
      [
        "i",
        "el"
      ],
      [
        "r",
        "ol"
      ],
      [
        "u",
        "se"
      ],
      [
        "Ġre",
        "ad"
      ],
      [
        "Ġpro",
        "v"
      ],
      [
        "Ġc",
        "ra"
      ],
      [
        "o",
        "f"
      ],
      [
        "Ġ",
        "rom"
      ],
      [
        "Ġh",
        "us"
      ],
      [
        "Ġgo",
        "es"
      ],
      [
        "Ġ20",
        "0"
      ],
      [
        "Ġinterview",
        "s"
      ],
      [
        "a",
        "x"
      ],
      [
        "m",
        "in"
      ],
      [
        "in",
        "c"
      ],
      [
        "Ġl",
        "ar"
      ],
      [
        "ful",
        "ly"
      ],
      [
        "Ġ-",
        "-"
      ],
      [
        "Ġfavor",
        "ite"
      ],
      [
        "e",
        "or"
      ],
      [
        "g",
        "an"
      ],
      [
        "he",
        "t"
      ],
      [
        "Ġad",
        "d"
      ],
      [
        "Ġinv",
        "ol"
      ],
      [
        "Ġhour",
        "s"
      ],
      [
        "Ġtele",
        "vision"
      ],
      [
        "e",
        "k"
      ],
      [
        "ĠM",
        "y"
      ],
      [
        "b",
        "re"
      ],
      [
        "iv",
        "id"
      ],
      [
        "c",
        "hes"
      ],
      [
        "y",
        "le"
      ],
      [
        "Ġde",
        "b"
      ],
      [
        "Ġfut",
        "ure"
      ],
      [
        ")",
        "."
      ],
      [
        ",",
        "\""
      ],
      [
        "re",
        "et"
      ],
      [
        "Ġh",
        "alf"
      ],
      [
        "Ġoff",
        "ic"
      ],
      [
        "Ġchild",
        "hood"
      ],
      [
        "Ġd",
        "ri"
      ],
      [
        "p",
        "ir"
      ],
      [
        "Ġs",
        "il"
      ],
      [
        "Ġseem",
        "s"
      ],
      [
        "Ġemot",
        "ional"
      ],
      [
        "Ġepisod",
        "e"
      ],
      [
        "Ġf",
        "elt"
      ],
      [
        "at",
        "tle"
      ],
      [
        "Ġb",
        "ar"
      ],
      [
        "Ġm",
        "ain"
      ],
      [
        "Ġre",
        "ve"
      ],
      [
        "Ġs",
        "it"
      ],
      [
        "ĠN",
        "ot"
      ],
      [
        "Ġle",
        "gend"
      ],
      [
        "ĠY",
        "ork"
      ],
      [
        "Ġlit",
        "er"
      ],
      [
        "le",
        "y"
      ],
      [
        "Ġvis",
        "ual"
      ],
      [
        "Ġuni",
        "que"
      ],
      [
        "b",
        "or"
      ],
      [
        "Ġj",
        "o"
      ],
      [
        "Ġo",
        "pp"
      ],
      [
        "en",
        "ces"
      ],
      [
        "am",
        "es"
      ],
      [
        "Ġdes",
        "p"
      ],
      [
        "Ġexper",
        "ien"
      ],
      [
        "ell",
        "ing"
      ],
      [
        "Ġar",
        "ri"
      ],
      [
        "iv",
        "ing"
      ],
      [
        "Ġmus",
        "ical"
      ],
      [
        "Ġpower",
        "ful"
      ],
      [
        "d",
        "d"
      ],
      [
        "k",
        "ed"
      ],
      [
        "Ġ",
        "vers"
      ],
      [
        "ro",
        "p"
      ],
      [
        "Ġse",
        "arch"
      ],
      [
        "Ġtra",
        "vel"
      ],
      [
        "vel",
        "op"
      ],
      [
        "pect",
        "ed"
      ],
      [
        "Ġmeet",
        "s"
      ],
      [
        "Ġdram",
        "a"
      ],
      [
        "a",
        "ves"
      ],
      [
        "b",
        "y"
      ],
      [
        "in",
        "ary"
      ],
      [
        "ent",
        "al"
      ],
      [
        "ot",
        "s"
      ],
      [
        "ress",
        "ion"
      ],
      [
        "Ġth",
        "r"
      ],
      [
        "ĠI",
        "I"
      ],
      [
        "Ġj",
        "ob"
      ],
      [
        "Ġso",
        "on"
      ],
      [
        "Ġfriend",
        "ship"
      ],
      [
        "Ġs",
        "ent"
      ],
      [
        ".",
        "âĢĿ"
      ],
      [
        "Ġl",
        "ater"
      ],
      [
        "am",
        "p"
      ],
      [
        "ate",
        "ly"
      ],
      [
        "ĠG",
        "od"
      ],
      [
        "Ġen",
        "ough"
      ],
      [
        "W",
        "hen"
      ],
      [
        "Ġs",
        "low"
      ],
      [
        "ir",
        "c"
      ],
      [
        "pl",
        "ic"
      ],
      [
        "Ġgra",
        "nd"
      ],
      [
        "Ġdest",
        "ro"
      ],
      [
        "Ġhus",
        "band"
      ],
      [
        "ĠI",
        "f"
      ],
      [
        "Ġem",
        "b"
      ],
      [
        "Ġfuck",
        "ing"
      ],
      [
        "Ġloc",
        "al"
      ],
      [
        "at",
        "or"
      ],
      [
        "Ġof",
        "ten"
      ],
      [
        "ad",
        "es"
      ],
      [
        "Ġv",
        "o"
      ],
      [
        "Ġsu",
        "ff"
      ],
      [
        "ĠTh",
        "at"
      ],
      [
        "Ġstrugg",
        "le"
      ],
      [
        "Ġimport",
        "ant"
      ],
      [
        "Ġpsy",
        "ch"
      ],
      [
        "Ġan",
        "t"
      ],
      [
        "Ġcr",
        "ime"
      ],
      [
        "a",
        "f"
      ],
      [
        "k",
        "y"
      ],
      [
        "m",
        "ents"
      ],
      [
        "p",
        "ar"
      ],
      [
        "ou",
        "th"
      ],
      [
        "ĠM",
        "an"
      ],
      [
        "Ġtr",
        "uly"
      ],
      [
        "Ġpo",
        "et"
      ],
      [
        "Ġp",
        "at"
      ],
      [
        "ĠH",
        "ar"
      ],
      [
        "w",
        "ay"
      ],
      [
        "ond",
        "on"
      ],
      [
        "Ġother",
        "s"
      ],
      [
        "Ġspir",
        "it"
      ],
      [
        "is",
        "ter"
      ],
      [
        "Ġde",
        "v"
      ],
      [
        "Ġ",
        "9"
      ],
      [
        "ĠAmeric",
        "a"
      ],
      [
        "l",
        "ict"
      ],
      [
        "t",
        "ime"
      ],
      [
        "ĠS",
        "p"
      ],
      [
        "pp",
        "ed"
      ],
      [
        "Ġreal",
        "ity"
      ],
      [
        "'",
        "ll"
      ],
      [
        "in",
        "ation"
      ],
      [
        "Ġs",
        "ad"
      ],
      [
        "Ġc",
        "ur"
      ],
      [
        "il",
        "t"
      ],
      [
        "Ġpres",
        "ent"
      ],
      [
        "c",
        "he"
      ],
      [
        "Ġb",
        "ad"
      ],
      [
        "Ġe",
        "ffect"
      ],
      [
        "Ġcom",
        "edy"
      ],
      [
        "ran",
        "ge"
      ],
      [
        "Ġtell",
        "s"
      ],
      [
        "ar",
        "l"
      ],
      [
        "ct",
        "or"
      ],
      [
        "um",
        "b"
      ],
      [
        "ĠL",
        "ondon"
      ],
      [
        "Ġsu",
        "cc"
      ],
      [
        "Ġsp",
        "ace"
      ],
      [
        "Ġexpl",
        "ore"
      ],
      [
        "c",
        "y"
      ],
      [
        "Ġs",
        "oul"
      ],
      [
        "Ġfollow",
        "s"
      ],
      [
        "Ġenc",
        "oun"
      ],
      [
        "Ġorigin",
        "al"
      ],
      [
        "Ġhon",
        "est"
      ],
      [
        "i",
        "um"
      ],
      [
        "Ġf",
        "ree"
      ],
      [
        "Ġm",
        "il"
      ],
      [
        "ĠC",
        "l"
      ],
      [
        "Ġep",
        "ic"
      ],
      [
        "?",
        "?"
      ],
      [
        "r",
        "ang"
      ],
      [
        "Ġde",
        "velop"
      ],
      [
        "v",
        "al"
      ],
      [
        "Ġ",
        "ill"
      ],
      [
        "in",
        "a"
      ],
      [
        "Ġw",
        "rong"
      ],
      [
        "ar",
        "ious"
      ],
      [
        "Ġm",
        "ight"
      ],
      [
        "Ġn",
        "ame"
      ],
      [
        "Ġre",
        "view"
      ],
      [
        "ab",
        "or"
      ],
      [
        "Ġro",
        "om"
      ],
      [
        "az",
        "ing"
      ],
      [
        "Ġph",
        "ot"
      ],
      [
        "Ġdream",
        "s"
      ],
      [
        "O",
        "U"
      ],
      [
        "Ġn",
        "amed"
      ],
      [
        "Ġro",
        "ck"
      ],
      [
        "Th",
        "is"
      ],
      [
        "\"",
        ","
      ],
      [
        "Ġw",
        "in"
      ],
      [
        "Ġu",
        "se"
      ],
      [
        "Ġam",
        "ong"
      ],
      [
        "Ġcol",
        "l"
      ],
      [
        "Ġsub",
        "ject"
      ],
      [
        "Ġbu",
        "ild"
      ],
      [
        "p",
        "iece"
      ],
      [
        "Ġb",
        "ra"
      ],
      [
        "Ġcon",
        "st"
      ],
      [
        "os",
        "p"
      ],
      [
        "Ġpart",
        "ic"
      ],
      [
        "i",
        "ent"
      ],
      [
        "Ġo",
        "cc"
      ],
      [
        "Ġl",
        "ess"
      ],
      [
        "ent",
        "ion"
      ],
      [
        "Ġmo",
        "der"
      ],
      [
        "ĠW",
        "ith"
      ],
      [
        "Ġmy",
        "self"
      ],
      [
        "Ġap",
        "art"
      ],
      [
        "al",
        "th"
      ],
      [
        "Ġp",
        "iece"
      ],
      [
        "ic",
        "es"
      ],
      [
        "Ġtr",
        "y"
      ],
      [
        "Ġ",
        "ic"
      ],
      [
        "as",
        "y"
      ],
      [
        "Ġfin",
        "ally"
      ],
      [
        "Ġcomple",
        "x"
      ],
      [
        "e",
        "f"
      ],
      [
        "u",
        "ge"
      ],
      [
        "ĠA",
        "d"
      ],
      [
        "Ġen",
        "g"
      ],
      [
        "ĠCh",
        "rist"
      ],
      [
        "E",
        "R"
      ],
      [
        "er",
        "y"
      ],
      [
        "Ġc",
        "ry"
      ],
      [
        "Ġh",
        "op"
      ],
      [
        "ĠA",
        "m"
      ],
      [
        "Ġte",
        "am"
      ],
      [
        "ĠH",
        "ol"
      ],
      [
        "Ġhist",
        "or"
      ],
      [
        "Ġdisco",
        "ver"
      ],
      [
        "E",
        "N"
      ],
      [
        "e",
        "an"
      ],
      [
        "ar",
        "th"
      ],
      [
        "Ġp",
        "ri"
      ],
      [
        "em",
        "ent"
      ],
      [
        "ĠH",
        "er"
      ],
      [
        "ne",
        "w"
      ],
      [
        "ict",
        "ion"
      ],
      [
        "Ġpol",
        "ice"
      ],
      [
        "m",
        "a"
      ],
      [
        "Ġst",
        "un"
      ],
      [
        "ag",
        "es"
      ],
      [
        "Ġmem",
        "bers"
      ],
      [
        "el",
        "ess"
      ],
      [
        "Ġits",
        "elf"
      ],
      [
        "Ġincred",
        "ible"
      ],
      [
        "e",
        "c"
      ],
      [
        "o",
        "ver"
      ],
      [
        "y",
        "o"
      ],
      [
        "Ġto",
        "ld"
      ],
      [
        "Ġspe",
        "nd"
      ],
      [
        "Ġcol",
        "lect"
      ],
      [
        "Ġob",
        "s"
      ],
      [
        "idd",
        "le"
      ],
      [
        "l",
        "ike"
      ],
      [
        "y",
        "p"
      ],
      [
        "al",
        "ing"
      ],
      [
        "Ġto",
        "day"
      ],
      [
        "ver",
        "se"
      ],
      [
        "Ġne",
        "igh"
      ],
      [
        "Ġcl",
        "os"
      ],
      [
        "Ġprodu",
        "ction"
      ],
      [
        "ac",
        "her"
      ],
      [
        "Ġse",
        "ver"
      ],
      [
        "av",
        "id"
      ],
      [
        "Ġsucc",
        "ess"
      ],
      [
        "Ġmoder",
        "n"
      ],
      [
        "he",
        "l"
      ],
      [
        "Ġf",
        "ans"
      ],
      [
        "Ġc",
        "irc"
      ],
      [
        "Ġm",
        "ot"
      ],
      [
        "Ġst",
        "ri"
      ],
      [
        "ag",
        "ed"
      ],
      [
        "Ġcon",
        "ne"
      ],
      [
        "Ġepisod",
        "es"
      ],
      [
        "b",
        "s"
      ],
      [
        "Ġw",
        "ays"
      ],
      [
        "an",
        "k"
      ],
      [
        "om",
        "p"
      ],
      [
        "im",
        "in"
      ],
      [
        "ĠA",
        "ll"
      ],
      [
        "ĠB",
        "rit"
      ],
      [
        "ĠE",
        "l"
      ],
      [
        "Ġtr",
        "uth"
      ],
      [
        "one",
        "y"
      ],
      [
        "Ġwond",
        "er"
      ],
      [
        "Ġis",
        "n"
      ],
      [
        "ĠC",
        "on"
      ],
      [
        "Ġint",
        "imate"
      ],
      [
        "ru",
        "pt"
      ],
      [
        "Ġtal",
        "e"
      ],
      [
        "ĠHow",
        "ever"
      ],
      [
        "Ġt",
        "rou"
      ],
      [
        "Ġc",
        "at"
      ],
      [
        "Ġto",
        "ok"
      ],
      [
        "ch",
        "n"
      ],
      [
        "Ġch",
        "ange"
      ],
      [
        "ous",
        "ly"
      ],
      [
        "Ġdo",
        "ing"
      ],
      [
        "g",
        "ed"
      ],
      [
        "Ġlo",
        "ved"
      ],
      [
        "Ġad",
        "vent"
      ],
      [
        "Ġ",
        "6"
      ],
      [
        "Ġb",
        "ir"
      ],
      [
        "Ġc",
        "ame"
      ],
      [
        "Ġst",
        "reet"
      ],
      [
        "Ġst",
        "range"
      ],
      [
        "Ġdet",
        "ail"
      ],
      [
        "Ġimag",
        "es"
      ],
      [
        "Ġe",
        "le"
      ],
      [
        "ĠT",
        "V"
      ],
      [
        "Ġplan",
        "et"
      ],
      [
        "Ġcomplete",
        "ly"
      ],
      [
        "r",
        "act"
      ],
      [
        "Ġc",
        "rit"
      ],
      [
        "Ġd",
        "r"
      ],
      [
        "ak",
        "en"
      ],
      [
        "op",
        "h"
      ],
      [
        "Ġsc",
        "enes"
      ],
      [
        "iz",
        "ing"
      ],
      [
        "Ġfeel",
        "ing"
      ],
      [
        "Ġrem",
        "ember"
      ],
      [
        "Ġbre",
        "ak"
      ],
      [
        "ograph",
        "y"
      ],
      [
        "Ġpret",
        "ty"
      ],
      [
        "'",
        "d"
      ],
      [
        "b",
        "ably"
      ],
      [
        "Ġs",
        "ix"
      ],
      [
        "on",
        "ic"
      ],
      [
        "el",
        "s"
      ],
      [
        "Ġne",
        "xt"
      ],
      [
        "f",
        "ort"
      ],
      [
        "o",
        "on"
      ],
      [
        "Ġl",
        "ate"
      ],
      [
        "id",
        "er"
      ],
      [
        "Ġtri",
        "es"
      ],
      [
        "Ġconf",
        "lict"
      ],
      [
        "Ġw",
        "al"
      ],
      [
        "Ġl",
        "aw"
      ],
      [
        "Ġex",
        "am"
      ],
      [
        "ĠG",
        "eor"
      ],
      [
        "iv",
        "il"
      ],
      [
        "Ġwork",
        "ing"
      ],
      [
        "Ġbr",
        "ing"
      ],
      [
        "ĠPar",
        "is"
      ],
      [
        "g",
        "u"
      ],
      [
        "Ġa",
        "ge"
      ],
      [
        "Ġs",
        "ure"
      ],
      [
        "Ġp",
        "arent"
      ],
      [
        "Ġd",
        "i"
      ],
      [
        "ĠS",
        "w"
      ],
      [
        "Ġwor",
        "ds"
      ],
      [
        "ĠF",
        "or"
      ],
      [
        "Ġear",
        "ly"
      ],
      [
        "ĠTH",
        "E"
      ],
      [
        "u",
        "z"
      ],
      [
        "Ġto",
        "ward"
      ],
      [
        "us",
        "h"
      ],
      [
        "us",
        "ed"
      ],
      [
        "g",
        "es"
      ],
      [
        "l",
        "t"
      ],
      [
        "p",
        "ly"
      ],
      [
        "t",
        "on"
      ],
      [
        "re",
        "ady"
      ],
      [
        "Ġh",
        "it"
      ],
      [
        "Ġl",
        "ist"
      ],
      [
        "Ġsh",
        "it"
      ],
      [
        "Ġup",
        "on"
      ],
      [
        "Ġanim",
        "ation"
      ],
      [
        "Ġel",
        "se"
      ],
      [
        "i",
        "ven"
      ],
      [
        "Ġw",
        "ent"
      ],
      [
        "Ġw",
        "ild"
      ],
      [
        "Ġg",
        "round"
      ],
      [
        "Ġinv",
        "est"
      ],
      [
        "ci",
        "ally"
      ],
      [
        "Ġabsolute",
        "ly"
      ],
      [
        "a",
        "res"
      ],
      [
        "l",
        "in"
      ],
      [
        "ĠA",
        "ng"
      ],
      [
        "Ġcomm",
        "it"
      ],
      [
        "Ġbus",
        "iness"
      ],
      [
        "er",
        "m"
      ],
      [
        "Ġw",
        "a"
      ],
      [
        "Ġex",
        "c"
      ],
      [
        "Ġam",
        "azing"
      ],
      [
        "Ġdes",
        "ire"
      ],
      [
        "Ġesc",
        "ape"
      ],
      [
        "o",
        "e"
      ],
      [
        "Ġc",
        "ond"
      ],
      [
        "le",
        "x"
      ],
      [
        "Ġal",
        "ready"
      ],
      [
        "ĠE",
        "m"
      ],
      [
        "Ġmaster",
        "piece"
      ],
      [
        "n",
        "own"
      ],
      [
        "Ġm",
        "is"
      ],
      [
        "Ġab",
        "le"
      ],
      [
        "ĠF",
        "ran"
      ],
      [
        "Ġle",
        "ave"
      ],
      [
        "wo",
        "od"
      ],
      [
        "Ġdis",
        "c"
      ],
      [
        "ib",
        "ly"
      ],
      [
        "Ġins",
        "ide"
      ],
      [
        "on",
        "es"
      ],
      [
        "Ġb",
        "ody"
      ],
      [
        "Ġhe",
        "ro"
      ],
      [
        "Ġra",
        "re"
      ],
      [
        "Ġbeaut",
        "y"
      ],
      [
        "Ġmean",
        "ing"
      ],
      [
        "Ġwit",
        "ness"
      ],
      [
        "Ġc",
        "ap"
      ],
      [
        "Ġhe",
        "ar"
      ],
      [
        "Ġle",
        "g"
      ],
      [
        "Ġclass",
        "ic"
      ],
      [
        "Ġdisco",
        "vers"
      ],
      [
        "Ġcall",
        "ed"
      ],
      [
        "ĠBl",
        "ack"
      ],
      [
        "1",
        "9"
      ],
      [
        "s",
        "on"
      ],
      [
        "at",
        "t"
      ],
      [
        "Ġc",
        "ertain"
      ],
      [
        "Ġse",
        "ason"
      ],
      [
        "ĠR",
        "ob"
      ],
      [
        "Ġ1",
        "0"
      ],
      [
        "Ġhapp",
        "y"
      ],
      [
        "ron",
        "ic"
      ],
      [
        "g",
        "er"
      ],
      [
        "re",
        "al"
      ],
      [
        "Ġm",
        "iddle"
      ],
      [
        "om",
        "b"
      ],
      [
        "ot",
        "t"
      ],
      [
        "Ġst",
        "yle"
      ],
      [
        "Ġget",
        "ting"
      ],
      [
        "Ġref",
        "lect"
      ],
      [
        "IN",
        "G"
      ],
      [
        "l",
        "o"
      ],
      [
        "Ġs",
        "um"
      ],
      [
        "Ġm",
        "ult"
      ],
      [
        "st",
        "em"
      ],
      [
        "ĠW",
        "est"
      ],
      [
        "Ġbrut",
        "al"
      ],
      [
        "bre",
        "aking"
      ],
      [
        "Ġs",
        "n"
      ],
      [
        "is",
        "ing"
      ],
      [
        "T",
        "wo"
      ],
      [
        "n",
        "al"
      ],
      [
        "Ġt",
        "est"
      ],
      [
        "Ġf",
        "asc"
      ],
      [
        "Ġh",
        "old"
      ],
      [
        "ro",
        "du"
      ],
      [
        "Ġfe",
        "ature"
      ],
      [
        "Ġkn",
        "own"
      ],
      [
        "aw",
        "a"
      ],
      [
        "Ġtal",
        "k"
      ],
      [
        "Ġturn",
        "s"
      ],
      [
        "Ġf",
        "ail"
      ],
      [
        "om",
        "m"
      ],
      [
        "Ġse",
        "qu"
      ],
      [
        "Ġpro",
        "ble"
      ],
      [
        "ĠIt",
        "al"
      ],
      [
        "Ġam",
        "b"
      ],
      [
        "Ġro",
        "b"
      ],
      [
        "Ġte",
        "chn"
      ],
      [
        "Ġres",
        "p"
      ],
      [
        "Ġlook",
        "ing"
      ],
      [
        "Ġcommun",
        "ity"
      ],
      [
        "u",
        "ff"
      ],
      [
        "Ġst",
        "rong"
      ],
      [
        "ĠS",
        "c"
      ],
      [
        "ĠW",
        "ill"
      ],
      [
        "ĠF",
        "r"
      ],
      [
        "ĠâĢ",
        "ĺ"
      ],
      [
        "Ġfam",
        "il"
      ],
      [
        "vol",
        "ution"
      ],
      [
        "Ġ",
        "7"
      ],
      [
        "Ġ",
        "est"
      ],
      [
        "Ġs",
        "ign"
      ],
      [
        "Ġv",
        "al"
      ],
      [
        "pe",
        "cially"
      ],
      [
        "ĠN",
        "az"
      ],
      [
        "Ġwork",
        "s"
      ],
      [
        "Ġwant",
        "s"
      ],
      [
        "Ġstud",
        "ent"
      ],
      [
        "re",
        "me"
      ],
      [
        "Ġw",
        "r"
      ],
      [
        "it",
        "ive"
      ],
      [
        "ac",
        "ing"
      ],
      [
        "ĠE",
        "very"
      ],
      [
        "Ġbr",
        "ill"
      ],
      [
        "l",
        "ine"
      ],
      [
        "y",
        "ond"
      ],
      [
        "Ġc",
        "ut"
      ],
      [
        "ĠB",
        "r"
      ],
      [
        "ag",
        "er"
      ],
      [
        "pe",
        "nd"
      ],
      [
        "Ġcre",
        "w"
      ],
      [
        "Ġvide",
        "o"
      ],
      [
        "g",
        "n"
      ],
      [
        "Ġt",
        "reat"
      ],
      [
        "Ġp",
        "ur"
      ],
      [
        "Ġu",
        "lt"
      ],
      [
        "Ġun",
        "ex"
      ],
      [
        "ĠP",
        "er"
      ],
      [
        "Ġsoc",
        "iety"
      ],
      [
        "Ġdestro",
        "y"
      ],
      [
        "L",
        "L"
      ],
      [
        "W",
        "h"
      ],
      [
        "a",
        "el"
      ],
      [
        "c",
        "ri"
      ],
      [
        "Ġ",
        "ess"
      ],
      [
        "Ġf",
        "ant"
      ],
      [
        "it",
        "ary"
      ],
      [
        "Ġpro",
        "g"
      ],
      [
        "Ġqu",
        "ite"
      ],
      [
        "Ġcam",
        "p"
      ],
      [
        "Ġport",
        "ra"
      ],
      [
        "Ġsy",
        "stem"
      ],
      [
        "Ġvers",
        "ion"
      ],
      [
        "Ġwh",
        "ite"
      ],
      [
        "ore",
        "d"
      ],
      [
        "Ġset",
        "s"
      ],
      [
        "A",
        "N"
      ],
      [
        "Ġ",
        "8"
      ],
      [
        "re",
        "as"
      ],
      [
        "ac",
        "ed"
      ],
      [
        "Ġfor",
        "ces"
      ],
      [
        "ĠP",
        "r"
      ],
      [
        "ĠE",
        "arth"
      ],
      [
        "Ġpartic",
        "ular"
      ],
      [
        "g",
        "o"
      ],
      [
        "g",
        "round"
      ],
      [
        "Ġ",
        "ident"
      ],
      [
        "ĠI",
        "nd"
      ],
      [
        "ĠD",
        "o"
      ],
      [
        "Ġk",
        "new"
      ],
      [
        "ĠE",
        "ng"
      ],
      [
        "Ġplay",
        "ing"
      ],
      [
        "Ġsim",
        "ply"
      ],
      [
        "Ġ",
        "ðŁ"
      ],
      [
        "Ġs",
        "aw"
      ],
      [
        "Ġw",
        "id"
      ],
      [
        "at",
        "s"
      ],
      [
        "th",
        "s"
      ],
      [
        "ust",
        "r"
      ],
      [
        "Ġgo",
        "ver"
      ],
      [
        "Ġcont",
        "rol"
      ],
      [
        "Ġa",
        "ff"
      ],
      [
        "Ġc",
        "lear"
      ],
      [
        "ch",
        "ie"
      ],
      [
        "Ġal",
        "one"
      ],
      [
        "Ġpro",
        "cess"
      ],
      [
        "Ġpro",
        "bably"
      ],
      [
        "Ġag",
        "o"
      ],
      [
        "idd",
        "en"
      ],
      [
        "I",
        "D"
      ],
      [
        "I",
        "t"
      ],
      [
        "Ġb",
        "le"
      ],
      [
        "Ġb",
        "ur"
      ],
      [
        "Ġc",
        "ase"
      ],
      [
        "if",
        "t"
      ],
      [
        "Ġgirl",
        "s"
      ],
      [
        "Ġbo",
        "ok"
      ],
      [
        "Ġinst",
        "ead"
      ],
      [
        "Ġnarr",
        "ative"
      ],
      [
        "Ġparent",
        "s"
      ],
      [
        "O",
        "N"
      ],
      [
        "i",
        "or"
      ],
      [
        "Ġt",
        "aking"
      ],
      [
        "Ġm",
        "atter"
      ],
      [
        "ur",
        "b"
      ],
      [
        "Ġme",
        "ans"
      ],
      [
        "ĠP",
        "et"
      ],
      [
        "Ġpro",
        "ject"
      ],
      [
        "Ġlook",
        "s"
      ],
      [
        "Ġcou",
        "ple"
      ],
      [
        "Ġinvest",
        "ig"
      ],
      [
        "Ġt",
        "en"
      ],
      [
        "er",
        "g"
      ],
      [
        "Ġm",
        "oney"
      ],
      [
        "Ġbe",
        "yond"
      ],
      [
        "ress",
        "ive"
      ],
      [
        "er",
        "v"
      ],
      [
        "ar",
        "ies"
      ],
      [
        "ic",
        "ult"
      ],
      [
        "Ġn",
        "um"
      ],
      [
        "ĠP",
        "l"
      ],
      [
        "ich",
        "ael"
      ],
      [
        "00",
        "0"
      ],
      [
        "Ġlegend",
        "ary"
      ],
      [
        "g",
        "est"
      ],
      [
        "h",
        "il"
      ],
      [
        "Ġs",
        "ens"
      ],
      [
        "it",
        "ions"
      ],
      [
        "Ġmem",
        "ory"
      ],
      [
        "Ġmem",
        "ories"
      ],
      [
        "Ġac",
        "cept"
      ],
      [
        "Ġext",
        "ra"
      ],
      [
        "Ġsw",
        "e"
      ],
      [
        "Ġbir",
        "th"
      ],
      [
        "in",
        "o"
      ],
      [
        "Ġh",
        "ar"
      ],
      [
        "Ġg",
        "od"
      ],
      [
        "Ġg",
        "ives"
      ],
      [
        "ĠP",
        "al"
      ],
      [
        "Ġbr",
        "ings"
      ],
      [
        "Ġgu",
        "y"
      ],
      [
        "Ġhuman",
        "ity"
      ],
      [
        "Ġdiff",
        "icult"
      ],
      [
        "Ġexpl",
        "or"
      ],
      [
        "Ġdeep",
        "ly"
      ],
      [
        "on",
        "na"
      ],
      [
        "Ġl",
        "ine"
      ],
      [
        "Ġre",
        "b"
      ],
      [
        "ĠM",
        "on"
      ],
      [
        "d",
        "ing"
      ],
      [
        "Ġb",
        "as"
      ],
      [
        "ce",
        "nd"
      ],
      [
        "us",
        "ion"
      ],
      [
        "ĠC",
        "ity"
      ],
      [
        "Ġpl",
        "ot"
      ],
      [
        "Ġle",
        "vel"
      ],
      [
        "ĠK",
        "ing"
      ],
      [
        "pect",
        "ive"
      ],
      [
        "Ġwant",
        "ed"
      ],
      [
        "m",
        "b"
      ],
      [
        "Ġf",
        "ront"
      ],
      [
        "Ġle",
        "ast"
      ],
      [
        "Ġbelie",
        "ve"
      ],
      [
        "Ġlar",
        "ge"
      ],
      [
        "I",
        "S"
      ],
      [
        "l",
        "ight"
      ],
      [
        "p",
        "or"
      ],
      [
        "in",
        "y"
      ],
      [
        "Ġm",
        "ill"
      ],
      [
        "Ġg",
        "ay"
      ],
      [
        "Ġfilm",
        "ed"
      ],
      [
        "Ġcinem",
        "atic"
      ],
      [
        "Ġsex",
        "ual"
      ],
      [
        "i",
        "ers"
      ],
      [
        "Ġf",
        "ig"
      ],
      [
        "Ġf",
        "ell"
      ],
      [
        "Ġch",
        "all"
      ],
      [
        "ok",
        "yo"
      ],
      [
        "Ġfun",
        "ny"
      ],
      [
        "Ġdesp",
        "ite"
      ],
      [
        "a",
        "ven"
      ],
      [
        "Ġin",
        "n"
      ],
      [
        "ĠT",
        "o"
      ],
      [
        "Ġst",
        "ra"
      ],
      [
        "Ġan",
        "ime"
      ],
      [
        "Ġcan",
        "not"
      ],
      [
        "i",
        "am"
      ],
      [
        "he",
        "ad"
      ],
      [
        "Ġthe",
        "at"
      ],
      [
        "er",
        "n"
      ],
      [
        "Ġc",
        "ru"
      ],
      [
        "ur",
        "t"
      ],
      [
        "Ġcon",
        "v"
      ],
      [
        "ĠR",
        "uss"
      ],
      [
        "Ġar",
        "ch"
      ],
      [
        "Ġsee",
        "ing"
      ],
      [
        "ĠAng",
        "el"
      ],
      [
        "Ġult",
        "imate"
      ],
      [
        "2",
        "0"
      ],
      [
        "h",
        "aps"
      ],
      [
        "l",
        "u"
      ],
      [
        "at",
        "ural"
      ],
      [
        "Ġe",
        "ff"
      ],
      [
        "ill",
        "ed"
      ],
      [
        "ort",
        "s"
      ],
      [
        "Ġdis",
        "app"
      ],
      [
        "Ġes",
        "pecially"
      ],
      [
        "Ġinvol",
        "ved"
      ],
      [
        "Ġdeb",
        "ut"
      ],
      [
        "Ġf",
        "ul"
      ],
      [
        "Ġwor",
        "th"
      ],
      [
        "os",
        "h"
      ],
      [
        "ĠR",
        "ed"
      ],
      [
        "ang",
        "er"
      ],
      [
        "Ġthrough",
        "out"
      ],
      [
        "Ġstart",
        "s"
      ],
      [
        "Ġsim",
        "ple"
      ],
      [
        "Ġdef",
        "in"
      ],
      [
        "Ġfre",
        "ed"
      ],
      [
        "ivid",
        "ual"
      ],
      [
        "Ġliter",
        "ally"
      ],
      [
        "Ġstun",
        "ning"
      ],
      [
        "i",
        "ar"
      ],
      [
        "Ġthe",
        "ater"
      ],
      [
        "Ġb",
        "attle"
      ],
      [
        "Ġl",
        "im"
      ],
      [
        "Ġmo",
        "ving"
      ],
      [
        "ud",
        "e"
      ],
      [
        "ub",
        "l"
      ],
      [
        "Ġbegin",
        "ning"
      ],
      [
        "Ġfall",
        "s"
      ],
      [
        "olog",
        "y"
      ],
      [
        "Ġexist",
        "ence"
      ],
      [
        "Ġexperien",
        "ces"
      ],
      [
        "\"",
        "."
      ],
      [
        "Ġm",
        "el"
      ],
      [
        "ly",
        "wood"
      ],
      [
        "Ġde",
        "al"
      ],
      [
        "Ġor",
        "gan"
      ],
      [
        "Ġsur",
        "pr"
      ],
      [
        "Ġear",
        "th"
      ],
      [
        "Ġsever",
        "al"
      ],
      [
        "Ġbrill",
        "iant"
      ],
      [
        "i",
        "us"
      ],
      [
        "Ġf",
        "a"
      ],
      [
        "Ġp",
        "ath"
      ],
      [
        "ĠK",
        "ore"
      ],
      [
        "Ġany",
        "one"
      ],
      [
        "ĠWh",
        "ile"
      ],
      [
        "Ġgover",
        "n"
      ],
      [
        "Ġt",
        "ou"
      ],
      [
        "er",
        "ies"
      ],
      [
        "Ġs",
        "at"
      ],
      [
        "Ġb",
        "ond"
      ],
      [
        "Ġh",
        "un"
      ],
      [
        "ir",
        "t"
      ],
      [
        "ie",
        "f"
      ],
      [
        "Ġle",
        "aves"
      ],
      [
        "Ġad",
        "apt"
      ],
      [
        "Ġspe",
        "ak"
      ],
      [
        "az",
        "z"
      ],
      [
        "Ġkid",
        "s"
      ],
      [
        "Ġportra",
        "it"
      ],
      [
        "b",
        "ed"
      ],
      [
        "an",
        "n"
      ],
      [
        "Ġp",
        "ure"
      ],
      [
        "Ġst",
        "e"
      ],
      [
        "Ġex",
        "act"
      ],
      [
        "Ġch",
        "ronic"
      ],
      [
        "Ġext",
        "reme"
      ],
      [
        "Ġattempt",
        "s"
      ],
      [
        "Ġtrag",
        "edy"
      ],
      [
        "i",
        "od"
      ],
      [
        "Ġh",
        "om"
      ],
      [
        "Ġp",
        "le"
      ],
      [
        "as",
        "ons"
      ],
      [
        "ĠA",
        "lex"
      ],
      [
        "Ġex",
        "pect"
      ],
      [
        "Ġv",
        "ict"
      ],
      [
        "Ġher",
        "self"
      ],
      [
        "Ġact",
        "ors"
      ],
      [
        "Ġgl",
        "ob"
      ],
      [
        "Ġviol",
        "ence"
      ],
      [
        "A",
        "s"
      ],
      [
        "Ġf",
        "em"
      ],
      [
        "Ġc",
        "ross"
      ],
      [
        "Ġg",
        "ame"
      ],
      [
        "ĠA",
        "f"
      ],
      [
        "us",
        "ive"
      ],
      [
        "ĠE",
        "ur"
      ],
      [
        "ĠO",
        "r"
      ],
      [
        "Ġturn",
        "ed"
      ],
      [
        "Ġmil",
        "itary"
      ],
      [
        "Ġo",
        "per"
      ],
      [
        "is",
        "hing"
      ],
      [
        "Ġd",
        "one"
      ],
      [
        "id",
        "ing"
      ],
      [
        "ri",
        "es"
      ],
      [
        "ra",
        "g"
      ],
      [
        "Ġde",
        "fe"
      ],
      [
        "ant",
        "ic"
      ],
      [
        "Ġcomp",
        "any"
      ],
      [
        "Ġus",
        "ed"
      ],
      [
        "Ġide",
        "a"
      ],
      [
        "m",
        "ed"
      ],
      [
        "le",
        "ep"
      ],
      [
        "ri",
        "ght"
      ],
      [
        "Ġcom",
        "ing"
      ],
      [
        "Ġen",
        "j"
      ],
      [
        "ress",
        "ed"
      ],
      [
        "Ġrel",
        "ig"
      ],
      [
        "Ġstrugg",
        "les"
      ],
      [
        "h",
        "ab"
      ],
      [
        "Ġ",
        "Q"
      ],
      [
        "re",
        "w"
      ],
      [
        "ĠT",
        "om"
      ],
      [
        "am",
        "ur"
      ],
      [
        "em",
        "y"
      ],
      [
        "Ġfeel",
        "ings"
      ],
      [
        "Ġtrans",
        "form"
      ],
      [
        "Ġdev",
        "ast"
      ],
      [
        "i",
        "ally"
      ],
      [
        "Ġm",
        "id"
      ],
      [
        "Ġm",
        "ess"
      ],
      [
        "Ġg",
        "iven"
      ],
      [
        "Ġr",
        "ad"
      ],
      [
        "..",
        ".."
      ],
      [
        "Ġold",
        "er"
      ],
      [
        "Ġemot",
        "ion"
      ],
      [
        "Ġt",
        "it"
      ],
      [
        "Ġa",
        "v"
      ],
      [
        "or",
        "th"
      ],
      [
        "Ġfor",
        "ced"
      ],
      [
        "Ġan",
        "g"
      ],
      [
        "ĠB",
        "o"
      ],
      [
        "ĠM",
        "ay"
      ],
      [
        "th",
        "ough"
      ],
      [
        "ĠJ",
        "ust"
      ],
      [
        "Ġ1",
        "8"
      ],
      [
        "Ġact",
        "or"
      ],
      [
        "Ġte",
        "acher"
      ],
      [
        "Ġpo",
        "or"
      ],
      [
        "Ġph",
        "ys"
      ],
      [
        "Ġpass",
        "ion"
      ],
      [
        "Ġdel",
        "i"
      ],
      [
        "Ġfore",
        "ver"
      ],
      [
        "ĠFr",
        "ance"
      ],
      [
        "p",
        "ed"
      ],
      [
        "s",
        "w"
      ],
      [
        "Ġa",
        "ffect"
      ],
      [
        "Ġp",
        "urs"
      ],
      [
        "ĠT",
        "our"
      ],
      [
        "Ġr",
        "ather"
      ],
      [
        "Ġspe",
        "ct"
      ],
      [
        "Ġend",
        "s"
      ],
      [
        "amur",
        "ai"
      ],
      [
        "is",
        "es"
      ],
      [
        "Ġw",
        "all"
      ],
      [
        "it",
        "ar"
      ],
      [
        "Ġm",
        "ater"
      ],
      [
        "an",
        "a"
      ],
      [
        "Ġh",
        "ost"
      ],
      [
        "Ġh",
        "ands"
      ],
      [
        "Ġd",
        "iv"
      ],
      [
        "Ġhe",
        "ll"
      ],
      [
        "un",
        "k"
      ],
      [
        "Ġab",
        "and"
      ],
      [
        "ĠD",
        "on"
      ],
      [
        "Ġcomp",
        "os"
      ],
      [
        "Ġcapt",
        "ures"
      ],
      [
        "rif",
        "ying"
      ],
      [
        "ĠEur",
        "ope"
      ],
      [
        "d",
        "o"
      ],
      [
        "Ġt",
        "aken"
      ],
      [
        "it",
        "her"
      ],
      [
        "Ġd",
        "a"
      ],
      [
        "Ġth",
        "reat"
      ],
      [
        "ĠS",
        "outh"
      ],
      [
        "Ġex",
        "cept"
      ],
      [
        "ess",
        "ion"
      ],
      [
        "Ġk",
        "ing"
      ],
      [
        "Ġcr",
        "imin"
      ],
      [
        "Ġsing",
        "er"
      ],
      [
        "Ġwrit",
        "ing"
      ],
      [
        "ĠUn",
        "ited"
      ],
      [
        "ĠHol",
        "lywood"
      ],
      [
        "Ġunex",
        "pected"
      ],
      [
        "Ġfreed",
        "om"
      ],
      [
        "O",
        "n"
      ],
      [
        "Y",
        "ou"
      ],
      [
        "w",
        "ar"
      ],
      [
        "Ġm",
        "ass"
      ],
      [
        "en",
        "n"
      ],
      [
        "Ġp",
        "os"
      ],
      [
        "ĠT",
        "okyo"
      ],
      [
        "ĠN",
        "ow"
      ],
      [
        "og",
        "ue"
      ],
      [
        "Ġad",
        "ult"
      ],
      [
        "aim",
        "ed"
      ],
      [
        "m",
        "as"
      ],
      [
        "Ġa",
        "ut"
      ],
      [
        "Ġb",
        "ased"
      ],
      [
        "Ġc",
        "ool"
      ],
      [
        "Ġto",
        "t"
      ],
      [
        "ri",
        "ed"
      ],
      [
        "ĠN",
        "o"
      ],
      [
        "Ġind",
        "ividual"
      ],
      [
        "Ġrelationship",
        "s"
      ],
      [
        "Ġinf",
        "lu"
      ],
      [
        "p",
        "ire"
      ],
      [
        "Ġp",
        "ubl"
      ],
      [
        "Ġg",
        "onna"
      ],
      [
        "ĠP",
        "e"
      ],
      [
        "ven",
        "ge"
      ],
      [
        "Ġrem",
        "ind"
      ],
      [
        "Ġacc",
        "ident"
      ],
      [
        "Ġmay",
        "be"
      ],
      [
        "Ġey",
        "e"
      ],
      [
        "Ġquest",
        "ion"
      ],
      [
        "d",
        "om"
      ],
      [
        "Ġ",
        "z"
      ],
      [
        "Ġa",
        "chie"
      ],
      [
        "Ġb",
        "orn"
      ],
      [
        "Ġcom",
        "b"
      ],
      [
        "Ġend",
        "ing"
      ],
      [
        "Ġop",
        "ening"
      ],
      [
        "Ġprot",
        "ect"
      ],
      [
        "Ġfeat",
        "ures"
      ],
      [
        "h",
        "am"
      ],
      [
        "l",
        "or"
      ],
      [
        "Ġs",
        "us"
      ],
      [
        "Ġc",
        "op"
      ],
      [
        "Ġd",
        "am"
      ],
      [
        "ĠM",
        "c"
      ],
      [
        "Ġj",
        "oy"
      ],
      [
        "Ġr",
        "u"
      ],
      [
        "Ġact",
        "ion"
      ],
      [
        "Ġpart",
        "s"
      ],
      [
        "Ġbl",
        "ood"
      ],
      [
        "Ġd",
        "ie"
      ],
      [
        "id",
        "ed"
      ],
      [
        "Ġfor",
        "ce"
      ],
      [
        "rou",
        "ght"
      ],
      [
        "ru",
        "g"
      ],
      [
        "Ġqu",
        "ick"
      ],
      [
        "ĠSt",
        "ates"
      ],
      [
        "Ġgr",
        "ad"
      ],
      [
        "Ġdet",
        "erm"
      ],
      [
        "Ġsupp",
        "ort"
      ],
      [
        "Ġaband",
        "on"
      ],
      [
        "a",
        "us"
      ],
      [
        "Ġ",
        "ve"
      ],
      [
        "Ġa",
        "ir"
      ],
      [
        "Ġc",
        "ivil"
      ],
      [
        "Ġli",
        "f"
      ],
      [
        "ĠThe",
        "ir"
      ],
      [
        "ord",
        "inary"
      ],
      [
        "sc",
        "enes"
      ],
      [
        "Ġmarri",
        "ed"
      ],
      [
        "ĠPal",
        "est"
      ],
      [
        "Ġh",
        "aun"
      ],
      [
        "Ġd",
        "rug"
      ],
      [
        "Ġn",
        "orm"
      ],
      [
        "Ġse",
        "ven"
      ],
      [
        "ĠD",
        "avid"
      ],
      [
        "ĠE",
        "x"
      ],
      [
        "Ġper",
        "iod"
      ],
      [
        "Ġsold",
        "iers"
      ],
      [
        "ĠBrit",
        "ish"
      ],
      [
        "a",
        "ff"
      ],
      [
        "t",
        "a"
      ],
      [
        "Ġint",
        "ense"
      ],
      [
        "Ġ19",
        "4"
      ],
      [
        "Ġdes",
        "per"
      ],
      [
        "olog",
        "ical"
      ],
      [
        "Ġevent",
        "ually"
      ],
      [
        "het",
        "ic"
      ],
      [
        "a",
        "ust"
      ],
      [
        "i",
        "y"
      ],
      [
        "w",
        "e"
      ],
      [
        "Ġ",
        "id"
      ],
      [
        "Ġf",
        "an"
      ],
      [
        "Ġf",
        "ire"
      ],
      [
        "Ġb",
        "reat"
      ],
      [
        "Ġm",
        "ount"
      ],
      [
        "Ġre",
        "ason"
      ],
      [
        "Ġ1",
        "5"
      ],
      [
        "Ġwid",
        "ow"
      ],
      [
        "Ġenj",
        "oy"
      ],
      [
        "c",
        "ast"
      ],
      [
        "Ġ",
        "era"
      ],
      [
        "Ġst",
        "ay"
      ],
      [
        "ct",
        "ed"
      ],
      [
        "Ġun",
        "s"
      ],
      [
        "Ġdes",
        "cri"
      ],
      [
        "Ġsomet",
        "imes"
      ],
      [
        "Ġhapp",
        "ened"
      ],
      [
        "Ġconf",
        "ront"
      ],
      [
        "Ġ3",
        "0"
      ],
      [
        "Ġhistor",
        "ical"
      ],
      [
        "Ġmater",
        "ial"
      ],
      [
        "Ġm",
        "ist"
      ],
      [
        "Ġu",
        "nd"
      ],
      [
        "un",
        "e"
      ],
      [
        "Ġr",
        "ac"
      ],
      [
        "end",
        "er"
      ],
      [
        "Ġad",
        "m"
      ],
      [
        "Ġqu",
        "iet"
      ],
      [
        "Ġstart",
        "ed"
      ],
      [
        "Ġjour",
        "nal"
      ],
      [
        "Ġboy",
        "s"
      ],
      [
        "Ġop",
        "en"
      ],
      [
        "Ġstar",
        "s"
      ],
      [
        "Ġvo",
        "ice"
      ],
      [
        "A",
        "R"
      ],
      [
        "f",
        "or"
      ],
      [
        "r",
        "ow"
      ],
      [
        "Ġw",
        "on"
      ],
      [
        "Ġf",
        "ate"
      ],
      [
        "Ġd",
        "ance"
      ],
      [
        "Ġre",
        "ce"
      ],
      [
        "Ġan",
        "sw"
      ],
      [
        "Ġpe",
        "ace"
      ],
      [
        "ite",
        "ly"
      ],
      [
        "Ġdep",
        "ict"
      ],
      [
        "Ġreve",
        "al"
      ],
      [
        "Ġslow",
        "ly"
      ],
      [
        "Ġadvent",
        "ure"
      ],
      [
        "Ġgovern",
        "ment"
      ],
      [
        "j",
        "i"
      ],
      [
        "w",
        "in"
      ],
      [
        "Ġh",
        "ot"
      ],
      [
        "ri",
        "ef"
      ],
      [
        "ak",
        "i"
      ],
      [
        "ie",
        "ces"
      ],
      [
        "Ġch",
        "a"
      ],
      [
        "Ġle",
        "aving"
      ],
      [
        "au",
        "ght"
      ],
      [
        "Ġwat",
        "er"
      ],
      [
        "ens",
        "ion"
      ],
      [
        "Ġimp",
        "oss"
      ],
      [
        "Ġplay",
        "ed"
      ],
      [
        "Ġuni",
        "verse"
      ],
      [
        "Ġcor",
        "rupt"
      ],
      [
        "Ġchang",
        "es"
      ],
      [
        "Ġbro",
        "ad"
      ],
      [
        "w",
        "ork"
      ],
      [
        "w",
        "here"
      ],
      [
        "z",
        "y"
      ],
      [
        "re",
        "ad"
      ],
      [
        "Ġf",
        "le"
      ],
      [
        "ed",
        "ic"
      ],
      [
        "om",
        "an"
      ],
      [
        "as",
        "hing"
      ],
      [
        "Ġis",
        "s"
      ],
      [
        "Ġan",
        "n"
      ],
      [
        "Ġj",
        "u"
      ],
      [
        "Ġwor",
        "d"
      ],
      [
        "Ġlead",
        "s"
      ],
      [
        "Ġanim",
        "ated"
      ],
      [
        "Ġcre",
        "ate"
      ],
      [
        "ogra",
        "p"
      ],
      [
        "Ġencoun",
        "ter"
      ],
      [
        "Ġneigh",
        "bor"
      ],
      [
        "Ġtoward",
        "s"
      ],
      [
        "Ġextra",
        "ordinary"
      ],
      [
        "ar",
        "s"
      ],
      [
        "Ġd",
        "ou"
      ],
      [
        "ot",
        "o"
      ],
      [
        "est",
        "ival"
      ],
      [
        "ag",
        "on"
      ],
      [
        "un",
        "ch"
      ],
      [
        "iz",
        "ation"
      ],
      [
        "Ġact",
        "iv"
      ],
      [
        "Ġres",
        "ult"
      ],
      [
        "Ġport",
        "ray"
      ],
      [
        "A",
        "S"
      ],
      [
        "m",
        "p"
      ],
      [
        "Ġf",
        "ur"
      ],
      [
        "Ġm",
        "ad"
      ],
      [
        "Ġhe",
        "ard"
      ],
      [
        "Ġpre",
        "vious"
      ],
      [
        "Ġus",
        "es"
      ],
      [
        "Ġtri",
        "p"
      ],
      [
        "Ġuni",
        "vers"
      ],
      [
        "Ġoffic",
        "er"
      ],
      [
        "c",
        "le"
      ],
      [
        "g",
        "r"
      ],
      [
        "g",
        "ot"
      ],
      [
        "u",
        "ation"
      ],
      [
        "Ġ",
        "er"
      ],
      [
        "Ġs",
        "ave"
      ],
      [
        "Ġn",
        "ob"
      ],
      [
        "Ġse",
        "par"
      ],
      [
        "ĠF",
        "ilm"
      ],
      [
        "!!",
        "!!"
      ],
      [
        "Ġwrit",
        "er"
      ],
      [
        "Ġemb",
        "ark"
      ],
      [
        "d",
        "e"
      ],
      [
        "y",
        "l"
      ],
      [
        "Ġs",
        "un"
      ],
      [
        "Ġwork",
        "ers"
      ],
      [
        "Ġrem",
        "ain"
      ],
      [
        "bo",
        "x"
      ],
      [
        "Ġtrag",
        "ic"
      ],
      [
        "o",
        "ly"
      ],
      [
        "p",
        "art"
      ],
      [
        "Ġs",
        "ac"
      ],
      [
        "âĢ",
        "ľ"
      ],
      [
        "Ġsh",
        "are"
      ],
      [
        "Ġv",
        "arious"
      ],
      [
        "Ġint",
        "rodu"
      ],
      [
        "osp",
        "ital"
      ],
      [
        "T",
        "S"
      ],
      [
        "c",
        "ent"
      ],
      [
        "h",
        "ow"
      ],
      [
        "o",
        "es"
      ],
      [
        "z",
        "e"
      ],
      [
        "Ġm",
        "aj"
      ],
      [
        "as",
        "es"
      ],
      [
        "Ġst",
        "at"
      ],
      [
        "ro",
        "ad"
      ],
      [
        "ra",
        "el"
      ],
      [
        "ant",
        "ly"
      ],
      [
        "Ġcl",
        "im"
      ],
      [
        "Ġact",
        "ual"
      ],
      [
        "Ġgirl",
        "friend"
      ],
      [
        "Ġhapp",
        "iness"
      ],
      [
        "Ġcons",
        "id"
      ],
      [
        "Ġcult",
        "ure"
      ],
      [
        "iel",
        "d"
      ],
      [
        "Ġexplore",
        "s"
      ],
      [
        "Ġspect",
        "ac"
      ],
      [
        "o",
        "le"
      ],
      [
        "s",
        "ing"
      ],
      [
        "Ġ",
        "ir"
      ],
      [
        "Ġs",
        "amurai"
      ],
      [
        "an",
        "ch"
      ],
      [
        "Ġst",
        "ate"
      ],
      [
        "Ġwh",
        "om"
      ],
      [
        "Ġcom",
        "fort"
      ],
      [
        "Ġwas",
        "n"
      ],
      [
        "ĠF",
        "e"
      ],
      [
        "ack",
        "ed"
      ],
      [
        "ud",
        "d"
      ],
      [
        "Ġsc",
        "ore"
      ],
      [
        "Ġsur",
        "real"
      ],
      [
        "Ġhor",
        "ror"
      ],
      [
        "Ġrele",
        "ased"
      ],
      [
        "Ġdeterm",
        "ined"
      ],
      [
        "S",
        "h"
      ],
      [
        "a",
        "ul"
      ],
      [
        "Ġe",
        "ight"
      ],
      [
        "Ġn",
        "on"
      ],
      [
        "Ġst",
        "ep"
      ],
      [
        "ĠM",
        "ichael"
      ],
      [
        "ist",
        "ance"
      ],
      [
        "Ġcon",
        "cept"
      ],
      [
        "end",
        "ed"
      ],
      [
        "Ġbec",
        "ame"
      ],
      [
        "ick",
        "s"
      ],
      [
        "Ġco",
        "ver"
      ],
      [
        "Ġcontin",
        "ues"
      ],
      [
        "Ġviol",
        "ent"
      ],
      [
        "Ġfeat",
        "uring"
      ],
      [
        "Ġcra",
        "ft"
      ],
      [
        "j",
        "ust"
      ],
      [
        "se",
        "c"
      ],
      [
        "ĠG",
        "ra"
      ],
      [
        "Ġrun",
        "ning"
      ],
      [
        "Ġbig",
        "gest"
      ],
      [
        "Ġsurv",
        "iv"
      ],
      [
        "Ġmarri",
        "age"
      ],
      [
        "ĠRob",
        "ert"
      ],
      [
        "ĠQ",
        "u"
      ],
      [
        "b",
        "all"
      ],
      [
        "o",
        "ok"
      ],
      [
        "in",
        "ating"
      ],
      [
        "es",
        "tern"
      ],
      [
        "Ġb",
        "ene"
      ],
      [
        "it",
        "es"
      ],
      [
        "om",
        "en"
      ],
      [
        "ang",
        "u"
      ],
      [
        "Ġser",
        "ious"
      ],
      [
        "Ġrem",
        "ark"
      ],
      [
        "Ġacc",
        "omp"
      ],
      [
        "Ġter",
        "ror"
      ],
      [
        "Ġant",
        "i"
      ],
      [
        "Ġsum",
        "mer"
      ],
      [
        "Ġpubl",
        "ic"
      ],
      [
        "C",
        "K"
      ],
      [
        "is",
        "ion"
      ],
      [
        "Ġf",
        "ear"
      ],
      [
        "Ġh",
        "ang"
      ],
      [
        "ic",
        "a"
      ],
      [
        "et",
        "s"
      ],
      [
        "ĠA",
        "nt"
      ],
      [
        "ill",
        "ing"
      ],
      [
        "Ġlo",
        "ss"
      ],
      [
        "ab",
        "ility"
      ],
      [
        "Ġim",
        "age"
      ],
      [
        "Ġno",
        "vel"
      ],
      [
        "Ġacc",
        "ount"
      ],
      [
        "Ġfl",
        "o"
      ],
      [
        "ik",
        "o"
      ],
      [
        "Ġmor",
        "al"
      ],
      [
        "Ġic",
        "onic"
      ],
      [
        "Ġchall",
        "eng"
      ],
      [
        "E",
        "S"
      ],
      [
        "c",
        "ing"
      ],
      [
        "Ġm",
        "ir"
      ],
      [
        "as",
        "k"
      ],
      [
        "Ġre",
        "venge"
      ],
      [
        "se",
        "en"
      ],
      [
        "ĠP",
        "ro"
      ],
      [
        "Ġr",
        "ich"
      ],
      [
        "ĠR",
        "o"
      ],
      [
        "pl",
        "ay"
      ],
      [
        "pl",
        "oy"
      ],
      [
        "Ġrem",
        "ote"
      ],
      [
        "Ġthink",
        "ing"
      ],
      [
        "Ġexper",
        "im"
      ],
      [
        "Ġlead",
        "er"
      ],
      [
        "Ġcreat",
        "ed"
      ],
      [
        "atch",
        "ing"
      ],
      [
        "Ġposs",
        "ible"
      ],
      [
        "Ġgang",
        "ster"
      ],
      [
        "k",
        "nown"
      ],
      [
        "Ġd",
        "ial"
      ],
      [
        "Ġe",
        "qu"
      ],
      [
        "ot",
        "ic"
      ],
      [
        "ak",
        "ers"
      ],
      [
        "ĠF",
        "rom"
      ],
      [
        "Ġwhe",
        "ther"
      ],
      [
        "Ġdec",
        "ides"
      ],
      [
        "ex",
        "t"
      ],
      [
        "Ġrom",
[...]
