{
  "version": "1.0",
  "truncation": null,
  "padding": null,
  "added_tokens": [
    {
      "id": 0,
      "content": "<PAD>",
      "single_word": false,
      "lstrip": false,
      "rstrip": false,
      "normalized": false,
      "special": true
    },
    {
      "id": 1,
      "content": "<BOS>",
      "single_word": false,
      "lstrip": false,
      "rstrip": false,
      "normalized": false,
      "special": true
    },
    {
      "id": 2,
      "content": "<EOS>",
      "single_word": false,
      "lstrip": false,
      "rstrip": false,
      "normalized": false,
      "special": true
    },
    {
      "id": 3,
      "content": "<SYN>",
      "single_word": false,
      "lstrip": false,
      "rstrip": false,
      "normalized": false,
      "special": true
    },
    {
      "id": 4,
      "content": "<REV>",
      "single_word": false,
      "lstrip": false,
      "rstrip": false,
      "normalized": false,
      "special": true
    }
  ],
  "normalizer": null,
  "pre_tokenizer": {
    "type": "ByteLevel",
    "add_prefix_space": false,
    "trim_offsets": true,
    "use_regex": true
  },
  "post_processor": null,
  "decoder": {
    "type": "ByteLevel",
    "add_prefix_space": true,
    "trim_offsets": true,
    "use_regex": true
  },
  "model": {
    "type": "BPE",
    "dropout": null,
    "unk_token": null,
    "continuing_subword_prefix": null,
    "end_of_word_suffix": null,
    "fuse_unk": false,
    "byte_fallback": false,
    "ignore_merges": false,
    "vocab": {
      "<PAD>": 0,
      "<BOS>": 1,
      "<EOS>": 2,
      "<SYN>": 3,
      "<REV>": 4,
      "!": 5,
      "\"": 6,
      "#": 7,
      "$": 8,
      "%": 9,
      "&": 10,
      "'": 11,
      "(": 12,
      ")": 13,
      "*": 14,
      "+": 15,
      ",": 16,
      "-": 17,
      ".": 18,
      "/": 19,
      "0": 20,
      "1": 21,
      "2": 22,
      "3": 23,
      "4": 24,
      "5": 25,
      "6": 26,
      "7": 27,
      "8": 28,
      "9": 29,
      ":": 30,
      ";": 31,
      "<": 32,
      "=": 33,
      ">": 34,
      "?": 35,
      "@": 36,
      "A": 37,
      "B": 38,
      "C": 39,
      "D": 40,
      "E": 41,
      "F": 42,
      "G": 43,
      "H": 44,
      "I": 45,
      "J": 46,
      "K": 47,
      "L": 48,
      "M": 49,
      "N": 50,
      "O": 51,
      "P": 52,
      "Q": 53,
      "R": 54,
      "S": 55,
      "T": 56,
      "U": 57,
      "V": 58,
      "W": 59,
      "X": 60,
      "Y": 61,
      "Z": 62,
      "[": 63,
      "\\": 64,
      "]": 65,
      "^": 66,
      "_": 67,
      "a": 68,
      "b": 69,
      "c": 70,
      "d": 71,
      "e": 72,
      "f": 73,
      "g": 74,
      "h": 75,
      "i": 76,
      "j": 77,
      "k": 78,
      "l": 79,
      "m": 80,
      "n": 81,
      "o": 82,
      "p": 83,
      "q": 84,
      "r": 85,
      "s": 86,
      "t": 87,
      "u": 88,
      "v": 89,
      "w": 90,
      "x": 91,
      "y": 92,
      "z": 93,
      "{": 94,
      "|": 95,
      "}": 96,
      "~": 97,
      "¡": 98,
      "¢": 99,
      "£": 100,
      "¤": 101,
      "¦": 102,
      "§": 103,
      "¨": 104,
      "©": 105,
      "ª": 106,
      "«": 107,
      "®": 108,
      "¯": 109,
      "°": 110,
      "±": 111,
      "²": 112,
      "³": 113,
      "´": 114,
      "µ": 115,
      "¶": 116,
      "·": 117,
      "¸": 118,
      "º": 119,
      "»": 120,
      "¼": 121,
      "½": 122,
      "¾": 123,
      "Â": 124,
      "Ã": 125,
      "Ä": 126,
      "Å": 127,
      "Ë": 128,
      "Ì": 129,
      "Ð": 130,
      "á": 131,
      "â": 132,
      "ã": 133,
      "ì": 134,
      "í": 135,
      "ï": 136,
      "ð": 137,
      "Ġ": 138,
      "Ģ": 139,
      "ģ": 140,
      "Ĥ": 141,
      "ĥ": 142,
      "ħ": 143,
      "Ĩ": 144,
      "ĩ": 145,
      "Ī": 146,
      "ī": 147,
      "Ĭ": 148,
      "ĭ": 149,
      "Į": 150,
      "į": 151,
      "ĵ": 152,
      "Ķ": 153,
      "ķ": 154,
      "ĸ": 155,
      "Ĺ": 156,
      "ĺ": 157,
      "Ļ": 158,
      "ļ": 159,
      "ľ": 160,
      "Ŀ": 161,
      "ŀ": 162,
      "Ł": 163,
      "ł": 164,
      "Ń": 165,
      "Ġt": 166,
      "Ġa": 167,
      "he": 168,
      "in": 169,
      "Ġthe": 170,
      "er": 171,
      "Ġo": 172,
      "Ġs": 173,
      "re": 174,
      "is": 175,
      "nd": 176,
      "Ġw": 177,
      "Ġf": 178,
      "es": 179,
      "at": 180,
      "on": 181,
      "ing": 182,
      "Ġb": 183,
      "Ġc": 184,
      "en": 185,
      "it": 186,
      "or": 187,
      "Ġh": 188,
      "Ġm": 189,
      "an": 190,
      "Ġand": 191,
      "Ġof": 192,
      "ar": 193,
      "Ġto": 194,
      "ou": 195,
      "al": 196,
      "Ġp": 197,
      "Ġd": 198,
      "Ġin": 199,
      "ed": 200,
      "Ġl": 201,
      "il": 202,
      "om": 203,
      "Ġth": 204,
      "ic": 205,
      "as": 206,
      "Ġe": 207,
      "Ġhe": 208,
      "el": 209,
      "Ġis": 210,
      "ion": 211,
      "ĠT": 212,
      "Ġg": 213,
      "ent": 214,
      "et": 215,
      "im": 216,
      "st": 217,
      "Ġn": 218,
      "Ġre": 219,
      "ly": 220,
      "le": 221,
      "ut": 222,
      "ow": 223,
      "ve": 224,
      "ot": 225,
      "ĠA": 226,
      "ĠI": 227,
      "ac": 228,
      "ir": 229,
      "Ġbe": 230,
      "ol": 231,
      "Ġon": 232,
      "ver": 233,
      "Ġhis": 234,
      "Ġst": 235,
      "Ġwh": 236,
      "ur": 237,
      "am": 238,
      "ith": 239,
      "ĠS": 240,
      "Ġu": 241,
      "id": 242,
      "gh": 243,
      "ay": 244,
      "Ġwith": 245,
      "ter": 246,
      "Ġfor": 247,
      "âĢ": 248,
      "RE": 249,
      "ri": 250,
      "Ġ<": 251,
      "SY": 252,
      "ad": 253,
      "REV": 254,
      "SYN": 255,
      "ec": 256,
      "Ġthat": 257,
      "Ġli": 258,
      "ro": 259,
      "Ġan": 260,
      "ĠM": 261,
      "Ġy": 262,
      "'s": 263,
      "se": 264,
      "ĠB": 265,
      "her": 266,
      "Ġas": 267,
      "ĠThe": 268,
      "Ġit": 269,
      "ak": 270,
      "ce": 271,
      "ĠH": 272,
      "Ġher": 273,
      "ch": 274,
      "ul": 275,
      "ĠW": 276,
      "ĠC": 277,
      "Ġal": 278,
      "ra": 279,
      "ill": 280,
      "Ġmo": 281,
      "âĢĻ": 282,
      "ld": 283,
      "ge": 284,
      "ation": 285,
      "rom": 286,
      "um": 287,
      "em": 288,
      "ts": 289,
      "us": 290,
      "and": 291,
      "est": 292,
      "Ġwho": 293,
      "Ġyou": 294,
      "Ġcon": 295,
      "ers": 296,
      "Ġlo": 297,
      "Ġby": 298,
      "ess": 299,
      "Ġat": 300,
      "ilm": 301,
      "Ġex": 302,
      "Ġtheir": 303,
      "Ġthis": 304,
      "un": 305,
      "ap": 306,
      "ie": 307,
      "ĠD": 308,
      "ear": 309,
      "Ġcom": 310,
      "if": 311,
      "Ġfilm": 312,
      "Ġfrom": 313,
      "op": 314,
      "ct": 315,
      "od": 316,
      "ĠF": 317,
      "Ġch": 318,
      "ĠP": 319,
      "Ġv": 320,
      "ĠJ": 321,
      "ist": 322,
      "Ġse": 323,
      "Ġwor": 324,
      "rou": 325,
      "Ġsh": 326,
      "th": 327,
      "ies": 328,
      "ĠL": 329,
      "Ġde": 330,
      "Ġare": 331,
      "res": 332,
      "Ġab": 333,
      "ind": 334,
      "ght": 335,
      "Ġk": 336,
      "ain": 337,
      "Ġj": 338,
      "Ġne": 339,
      "Ġun": 340,
      "ĠR": 341,
      "ĠG": 342,
      "Ġbut": 343,
      "ab": 344,
      "ant": 345,
      "ate": 346,
      "ive": 347,
      "Ġdo": 348,
      "ally": 349,
      "os": 350,
      "ust": 351,
      "out": 352,
      "ĠN": 353,
      "art": 354,
      "ity": 355,
      "end": 356,
      "Ġwhe": 357,
      "ig": 358,
      "ous": 359,
      "ĠE": 360,
      "Ġhas": 361,
      "ves": 362,
      "Ġhim": 363,
      "Ġthey": 364,
      "Ġwas": 365,
      "ome": 366,
      "Ġr": 367,
      "qu": 368,
      "ave": 369,
      "all": 370,
      "Ġsu": 371,
      "fe": 372,
      "ect": 373,
      "Ġint": 374,
      "Ġ1": 375,
      "ong": 376,
      "ell": 377,
      "ack": 378,
      "Ġme": 379,
      "Ġnot": 380,
      "ag": 381,
      "Ġso": 382,
      "Ġpro": 383,
      "Ġsp": 384,
      "ime": 385,
      "ĠO": 386,
      "Ġlife": 387,
      "Ġone": 388,
      "ud": 389,
      "Ġtr": 390,
      "ory": 391,
      "Ġpl": 392,
      "Ġshe": 393,
      "ĠTh": 394,
      "ke": 395,
      "Ġman": 396,
      "ure": 397,
      "ĠK": 398,
      "ast": 399,
      "ard": 400,
      "our": 401,
      "Ġ\"": 402,
      "Ġ(": 403,
      "pl": 404,
      "very": 405,
      "ort": 406,
      "Ġall": 407,
      "Ġout": 408,
      "ide": 409,
      "Ġgo": 410,
      "Ġabout": 411,
      "per": 412,
      "iv": 413,
      "ire": 414,
      "Ġup": 415,
      "Ġle": 416,
      "one": 417,
      "ore": 418,
      "Ġhave": 419,
      "ight": 420,
      "age": 421,
      "ok": 422,
      "ary": 423,
      "are": 424,
      "av": 425,
      "Ġar": 426,
      "ich": 427,
      "Ġor": 428,
      "ian": 429,
      "Ġev": 430,
      "ip": 431,
      "reat": 432,
      "ake": 433,
      "ng": 434,
      "Ġim": 435,
      "Ġinto": 436,
      "ial": 437,
      "ence": 438,
      "ely": 439,
      "ry": 440,
      "ĠIt": 441,
      "Ġbec": 442,
      "Ġmy": 443,
      "ne": 444,
      "ĠIn": 445,
      "riend": 446,
      "Ġfe": 447,
      "wn": 448,
      "Ġthem": 449,
      "ff": 450,
      "Ġcl": 451,
      "Ġcan": 452,
      "ment": 453,
      "ck": 454,
      "other": 455,
      "fter": 456,
      "Ġwhen": 457,
      "Ġyear": 458,
      "ther": 459,
      "pp": 460,
      "ace": 461,
      "Ġtime": 462,
      "ru": 463,
      "ance": 464,
      "Ġdis": 465,
      "wo": 466,
      "au": 467,
      "Ġper": 468,
      "ile": 469,
      "..": 470,
      "own": 471,
      "sel": 472,
      "ily": 473,
      "ang": 474,
      "ond": 475,
      "Ġfam": 476,
      "vie": 477,
      "Ġen": 478,
      "Ġfind": 479,
      "orm": 480,
      "Ġwhat": 481,
      "Ġwill": 482,
      "ould": 483,
      "ep": 484,
      "ild": 485,
      "oy": 486,
      "Ġworld": 487,
      "ĠThis": 488,
      "Ġwe": 489,
      "ass": 490,
      "ĠY": 491,
      "rough": 492,
      "iz": 493,
      "ical": 494,
      "Ġwork": 495,
      "ious": 496,
      "cc": 497,
      "mer": 498,
      "ine": 499,
      "Ġag": 500,
      "Ġsc": 501,
      "Ġlove": 502,
      "Ġ19": 503,
      "urn": 504,
      "ans": 505,
      "Ġget": 506,
      "og": 507,
      "nt": 508,
      "ice": 509,
      "Ġ-": 510,
      "ays": 511,
      "een": 512,
      "ings": 513,
      "Ġfriend": 514,
      "Ġlike": 515,
      "Ġmore": 516,
      "Ġpe": 517,
      "ite": 518,
      "Ġother": 519,
      "ame": 520,
      "ful": 521,
      "Ġstory": 522,
      "ach": 523,
      "Ġhow": 524,
      "oll": 525,
      "ose": 526,
      "ions": 527,
      "Ġevery": 528,
      "ĠCh": 529,
      "Ġoff": 530,
      "ob": 531,
      "Ġwhich": 532,
      "Ġjust": 533,
      "pt": 534,
      "Ġbr": 535,
      "Ġnew": 536,
      "able": 537,
      "ated": 538,
      "Ġthrough": 539,
      "Ġonly": 540,
      "Ġad": 541,
      "Ġyoung": 542,
      "sh": 543,
      "ish": 544,
      "ĠâĢ": 545,
      "ia": 546,
      "ĠHe": 547,
      "old": 548,
      "Ġ2": 549,
      "ather": 550,
      "Ġinc": 551,
      "Ġover": 552,
      "ath": 553,
      "Ġtwo": 554,
      "ĠV": 555,
      "ĠSt": 556,
      "nder": 557,
      "self": 558,
      "ib": 559,
      "Ġpr": 560,
      "ople": 561,
      "Ġsome": 562,
      "Ġkn": 563,
      "Ġact": 564,
      "ick": 565,
      "ows": 566,
      "igh": 567,
      "act": 568,
      "itt": 569,
      "Ġres": 570,
      "ces": 571,
      "form": 572,
      "Ġbet": 573,
      "Ġyears": 574,
      "Ġfamily": 575,
      "Ġro": 576,
      "Ġqu": 577,
      "Ġtra": 578,
      "ark": 579,
      "ue": 580,
      "Ġits": 581,
      "ress": 582,
      "Ġpeople": 583,
      "Ġmost": 584,
      "irst": 585,
      "Ġrec": 586,
      "app": 587,
      "Ġdec": 588,
      "Ġafter": 589,
      "ert": 590,
      "ict": 591,
      "hen": 592,
      "der": 593,
      "Ġser": 594,
      "ost": 595,
      "Ġcont": 596,
      "ĠU": 597,
      "akes": 598,
      "Ġwat": 599,
      "Ġinter": 600,
      "ents": 601,
      "ult": 602,
      "ink": 603,
      "so": 604,
      "Ġno": 605,
      "round": 606,
      "Ġown": 607,
      "Ġpre": 608,
      "Ġcr": 609,
      "Ġend": 610,
      "Ġbeing": 611,
      "ens": 612,
      "vers": 613,
      "ood": 614,
      "aking": 615,
      "Ġwom": 616,
      "irl": 617,
      "Ġwhere": 618,
      "ree": 619,
      "Ġfirst": 620,
      "gin": 621,
      "hing": 622,
      "Ġdes": 623,
      "Ġback": 624,
      "uring": 625,
      "Ġem": 626,
      "Ġcomp": 627,
      "Ġunder": 628,
      "cum": 629,
      "ving": 630,
      "ual": 631,
      "Ġrel": 632,
      "ool": 633,
      "vel": 634,
      "Ġreal": 635,
      "Ġbl": 636,
      "ord": 637,
      "Ġus": 638,
      "Ġmovie": 639,
      "ade": 640,
      "'t": 641,
      "Ġthan": 642,
      "ĠAl": 643,
      "man": 644,
      "ren": 645,
      "Ġatt": 646,
      "Ġold": 647,
      "Ġway": 648,
      "Ġpart": 649,
      "Ġthere": 650,
      "ning": 651,
      "oc": 652,
      "Ġany": 653,
      "Ġam": 654,
      "Ġchild": 655,
      "Ġfeel": 656,
      "ound": 657,
      "Ġgirl": 658,
      "ough": 659,
      "Ġsur": 660,
      "Ġhum": 661,
      "ount": 662,
      "che": 663,
      "co": 664,
      "Ġimp": 665,
      "uch": 666,
      "ph": 667,
      "Ġsee": 668,
      "aw": 669,
      "ran": 670,
      "ters": 671,
      "Ġdocum": 672,
      "Ġtri": 673,
      "ĠBut": 674,
      "ship": 675,
      "Ġshow": 676,
      "Ġlives": 677,
      "ors": 678,
      "Ġbeen": 679,
      "Ġagain": 680,
      "00": 681,
      "Ġmus": 682,
      "ere": 683,
      "âĢĿ": 684,
      "Ġfather": 685,
      "ew": 686,
      "Ġret": 687,
      "Ġlive": 688,
      "aut": 689,
      "Ġwar": 690,
      "Ġalso": 691,
      "red": 692,
      "Ġpol": 693,
      "les": 694,
      "Ġwhile": 695,
      "ĠWhen": 696,
      "Ġra": 697,
      "ĠAs": 698,
      "ife": 699,
      "Ġdocument": 700,
      "Ġpers": 701,
      "pect": 702,
      "Ġchar": 703,
      "iet": 704,
      "get": 705,
      "ating": 706,
      "rit": 707,
      "Ġeven": 708,
      "ber": 709,
      "Ġpo": 710,
      "Ġnever": 711,
      "chool": 712,
      "ign": 713,
      "ween": 714,
      "Ġcomm": 715,
      "ĠAn": 716,
      "irect": 717,
      "Ġmake": 718,
      "Ġrem": 719,
      "Ġmeet": 720,
      "ved": 721,
      "Ġlook": 722,
      "ĠWh": 723,
      "ĠâĢľ": 724,
      "Ġexper": 725,
      "oth": 726,
      "Ġbetween": 727,
      "Ġever": 728,
      "Ġaw": 729,
      "Ġperform": 730,
      "ting": 731,
      "Ġgr": 732,
      "Ġexpl": 733,
      "ise": 734,
      "Ġart": 735,
      "ever": 736,
      "Ġif": 737,
      "Ġset": 738,
      "Ġdoes": 739,
      "ail": 740,
      "lud": 741,
      "Ġacc": 742,
      "Ġday": 743,
      "alk": 744,
      "Ġgreat": 745,
      "ater": 746,
      "ream": 747,
      "ced": 748,
      "ower": 749,
      "omet": 750,
      "Ġmar": 751,
      "Ġconc": 752,
      "Ġwould": 753,
      "ness": 754,
      "ause": 755,
      "Ġschool": 756,
      "Ġseries": 757,
      "Ġsm": 758,
      "ations": 759,
      "az": 760,
      "Ġlong": 761,
      "Ġent": 762,
      "ates": 763,
      "apt": 764,
      "meric": 765,
      "Ġhapp": 766,
      "iff": 767,
      "Ġbeaut": 768,
      "ub": 769,
      "Ġknow": 770,
      "Ġhad": 771,
      "Ġhel": 772,
      "its": 773,
      "gg": 774,
      "Ġsec": 775,
      "Ġwatch": 776,
      "Ġboy": 777,
      "ron": 778,
      "ures": 779,
      "du": 780,
      "less": 781,
      "ven": 782,
      "ying": 783,
      "ually": 784,
      "Ġins": 785,
      "Ġfl": 786,
      "ling": 787,
      "Ġinv": 788,
      "ience": 789,
      "Ġhist": 790,
      "Ġdocumentary": 791,
      "Ġmuch": 792,
      "ĠJo": 793,
      "Ġmem": 794,
      "ty": 795,
      "Ġfin": 796,
      "Ġbel": 797,
      "hn": 798,
      "Ġwoman": 799,
      "fore": 800,
      "Ġte": 801,
      "Ġmother": 802,
      "ase": 803,
      "ons": 804,
      "Ġri": 805,
      "Ġconf": 806,
      "Ġbegin": 807,
      "Ġtake": 808,
      "Ġthink": 809,
      "Ġwere": 810,
      "Ġnow": 811,
      "ĠMar": 812,
      "...": 813,
      "Ġplay": 814,
      "Ġfinds": 815,
      "Ġtell": 816,
      "Ġdirect": 817,
      "),": 818,
      "Ġvis": 819,
      "Ġperson": 820,
      "ram": 821,
      "ble": 822,
      "Ġfoll": 823,
      "Ġgu": 824,
      "Ġinclud": 825,
      "ism": 826,
      "Ġwant": 827,
      "Ġwell": 828,
      "Ġfriends": 829,
      "Ġmusic": 830,
      "air": 831,
      "Ġdiff": 832,
      "Ġhuman": 833,
      "Ġcol": 834,
      "ouse": 835,
      "Ġhome": 836,
      "oot": 837,
      "ĠSh": 838,
      "ĠAnd": 839,
      "thing": 840,
      "Ġkill": 841,
      "ĠShe": 842,
      "ĠAmeric": 843,
      "ident": 844,
      "ss": 845,
      "Ġapp": 846,
      "Ġhimself": 847,
      "als": 848,
      "iful": 849,
      "amp": 850,
      "uck": 851,
      "ction": 852,
      "Ġbest": 853,
      "Ġturn": 854,
      "Ġyour": 855,
      "Ġlead": 856,
      "ale": 857,
      "ik": 858,
      "Ġboth": 859,
      "augh": 860,
      "ex": 861,
      "iss": 862,
      "Ġbecom": 863,
      "Ġac": 864,
      "Ġco": 865,
      "Ġreturn": 866,
      "Ġwife": 867,
      "ward": 868,
      "aving": 869,
      "ney": 870,
      "Ġvery": 871,
      "Ġgen": 872,
      "oss": 873,
      "Ġdown": 874,
      "Ġpower": 875,
      "Ġeach": 876,
      "ft": 877,
      "ĠThey": 878,
      "Ġson": 879,
      "Ġsomet": 880,
      "Ġdeath": 881,
      "ants": 882,
      "Ġduring": 883,
      "Ġhigh": 884,
      "Ġstar": 885,
      "Ġmust": 886,
      "Ġhelp": 887,
      "Ġi": 888,
      "ork": 889,
      "Ġmany": 890,
      "Ġbecause": 891,
      "Ġthen": 892,
      "ition": 893,
      "Ġph": 894,
      "roup": 895,
      "Ġaround": 896,
      "ides": 897,
      "ittle": 898,
      "inem": 899,
      "ories": 900,
      "atic": 901,
      "Ġneed": 902,
      "Ġbefore": 903,
      "Ġob": 904,
      "ster": 905,
      "ands": 906,
      "Ġgood": 907,
      "Ġmade": 908,
      "ĠAfter": 909,
      "Ġmen": 910,
      "Ġbeautiful": 911,
      "ative": 912,
      "Ġthese": 913,
      "Ġsl": 914,
      "Ġdream": 915,
      "ull": 916,
      "view": 917,
      "ix": 918,
      "ĠNew": 919,
      "Ġcare": 920,
      "ible": 921,
      "owing": 922,
      "Ġseem": 923,
      "up": 924,
      "Ġes": 925,
      "ĠHow": 926,
      "arr": 927,
      "Ġstud": 928,
      "Ġmay": 929,
      "imes": 930,
      "Ġjour": 931,
      "ks": 932,
      "ities": 933,
      "Ġcall": 934,
      "Ġear": 935,
      "Ġtown": 936,
      "Ġthree": 937,
      "aster": 938,
      "Ġreally": 939,
      "ope": 940,
      "ison": 941,
      "int": 942,
      "oun": 943,
      "Ġdon": 944,
      "Ġcharac": 945,
      "ele": 946,
      "ene": 947,
      "Ġrep": 948,
      "Ġcould": 949,
      "Ġ20": 950,
      "Ġsoc": 951,
      "Ġpres": 952,
      "Ġsub": 953,
      "Ġcreat": 954,
      "uth": 955,
      "Ġbo": 956,
      "Ġdep": 957,
      "att": 958,
      "Ġgroup": 959,
      "Ġnight": 960,
      "Ġagainst": 961,
      "Ġhistory": 962,
      "ased": 963,
      "Ġcinem": 964,
      "Ġthose": 965,
      "Ġmin": 966,
      "ier": 967,
      "ied": 968,
      "Ġcons": 969,
      "hed": 970,
      "Ġlast": 971,
      "Ġrelation": 972,
      "ince": 973,
      "Ġtoget": 974,
      "Ġind": 975,
      "Ġtogether": 976,
      "Ġspec": 977,
      "ited": 978,
      "Ġbeh": 979,
      "Ġstill": 980,
      "Ġbecome": 981,
      "Ġour": 982,
      "ense": 983,
      "Ġtakes": 984,
      "ways": 985,
      "Ġ'": 986,
      "Ġstru": 987,
      "ov": 988,
      "Ġext": 989,
      "ret": 990,
      "orn": 991,
      "aughter": 992,
      "olut": 993,
      "ple": 994,
      "Ġsame": 995,
      "hes": 996,
      "Ġrelationship": 997,
      "The": 998,
      "cap": 999,
      "Ġep": 1000,
      "Ġlittle": 1001,
      "Ġrun": 1002,
      "Ġbelie": 1003,
      "Ġbecomes": 1004,
      "ional": 1005,
      "Ġsmall": 1006,
      "ues": 1007,
      "vent": 1008,
      "Ġmom": 1009,
      "Ġmur": 1010,
      "Ġheart": 1011,
      "ys": 1012,
      "Ġref": 1013,
      "Ġdet": 1014,
      "Ġliving": 1015,
      "Ġpast": 1016,
      "Ġemot": 1017,
      "ane": 1018,
      "ien": 1019,
      "ists": 1020,
      "ĠAt": 1021,
      "Ġcompl": 1022,
      "Ġke": 1023,
      "ĠOne": 1024,
      "ĠOn": 1025,
      "Ġdisco": 1026,
      "Ġcapt": 1027,
      "ash": 1028,
      "ĠWar": 1029,
      "Ġcome": 1030,
      "erm": 1031,
      "Ġcar": 1032,
      "ĠBl": 1033,
      "Ġfilms": 1034,
      "na": 1035,
      "amed": 1036,
      "Ġseen": 1037,
      "Ġalways": 1038,
      "Ġlear": 1039,
      "Ġmarri": 1040,
      "ock": 1041,
      "Ġsomething": 1042,
      "ature": 1043,
      "Ġplace": 1044,
      "Ġfoot": 1045,
      "Ġtrans": 1046,
      "Ġchildren": 1047,
      "Ġhouse": 1048,
      "ins": 1049,
      "ives": 1050,
      "Ġsim": 1051,
      "Ġmakes": 1052,
      "io": 1053,
      "Ġsing": 1054,
      "Ġclass": 1055,
      "Ġaway": 1056,
      "ten": 1057,
      "ĠHis": 1058,
      "Ġdiffer": 1059,
      "Ġfall": 1060,
      "ately": 1061,
      "Ġbu": 1062,
      "Ġcount": 1063,
      "Ġthings": 1064,
      "Ġass": 1065,
      "Ġimag": 1066,
      "ister": 1067,
      "Ġanother": 1068,
      "led": 1069,
      "Ġwr": 1070,
      "ner": 1071,
      "Ġpass": 1072,
      "Ġcity": 1073,
      "Ġmon": 1074,
      ".\"": 1075,
      "Ġcre": 1076,
      "Ġdaughter": 1077,
      "ĠBe": 1078,
      "cept": 1079,
      "my": 1080,
      "iness": 1081,
      "Ġloc": 1082,
      "ody": 1083,
      "ĠLe": 1084,
      "Ġstart": 1085,
      "Ġstr": 1086,
      "Ġanim": 1087,
      "Ġmurder": 1088,
      "ny": 1089,
      "land": 1090,
      "ĠJohn": 1091,
      "Ġfar": 1092,
      "ese": 1093,
      "ined": 1094,
      "Ġsuch": 1095,
      "Ġprodu": 1096,
      "Ġsong": 1097,
      "the": 1098,
      "ĠAmerican": 1099,
      "inc": 1100,
      "Ġband": 1101,
      "oney": 1102,
      "ll": 1103,
      "Ġuni": 1104,
      "Ġgoing": 1105,
      "lex": 1106,
      "lect": 1107,
      "ĠAr": 1108,
      "Ġbrother": 1109,
      "Ġbig": 1110,
      "Ġlearn": 1111,
      "ony": 1112,
      "Ġquest": 1113,
      "ically": 1114,
      "que": 1115,
      "Ġconcert": 1116,
      "ug": 1117,
      "ross": 1118,
      "Ġjourney": 1119,
      "Ġaff": 1120,
      "Ġsw": 1121,
      "Ġgl": 1122,
      "iec": 1123,
      "ĠHowever": 1124,
      "ering": 1125,
      "ular": 1126,
      "Ġtalk": 1127,
      "Ġfour": 1128,
      "Ġunt": 1129,
      "day": 1130,
      "Ġtoo": 1131,
      "edy": 1132,
      "ially": 1133,
      "part": 1134,
      "Ġdeep": 1135,
      "ired": 1136,
      "Ġevent": 1137,
      "Ġstrugg": 1138,
      "ury": 1139,
      "apan": 1140,
      "Ġincluding": 1141,
      "Ġfootage": 1142,
      "iol": 1143,
      "Ġdel": 1144,
      "ĠWith": 1145,
      "ĠDe": 1146,
      "br": 1147,
      "Ġsel": 1148,
      "Ġmaking": 1149,
      "Ġwithout": 1150,
      "Ġport": 1151,
      "ĠSe": 1152,
      "Ġcomes": 1153,
      "ural": 1154,
      "Ġpolice": 1155,
      "fect": 1156,
      "be": 1157,
      "ĠJapan": 1158,
      "Ġop": 1159,
      "rand": 1160,
      "ike": 1161,
      "Ġpain": 1162,
      "Ġgets": 1163,
      "arl": 1164,
      "Ġdist": 1165,
      "ogra": 1166,
      "era": 1167,
      "Ġhead": 1168,
      "idd": 1169,
      "Ġexp": 1170,
      "ĠYou": 1171,
      "Ġbegins": 1172,
      "Ġplan": 1173,
      "Ġbehind": 1174,
      "Ã©": 1175,
      "Ġhard": 1176,
      "aker": 1177,
      "bum": 1178,
      "ances": 1179,
      "Ġdid": 1180,
      "Ġwomen": 1181,
      "Ġpolit": 1182,
      "Ġcou": 1183,
      "Ġvill": 1184,
      "aid": 1185,
      "ric": 1186,
      "Ġeff": 1187,
      "ĠUn": 1188,
      "Ġcommun": 1189,
      "Ġexperience": 1190,
      "Ġbre": 1191,
      "anc": 1192,
      "stand": 1193,
      "ute": 1194,
      "Ġrest": 1195,
      "Ġsupp": 1196,
      "uss": 1197,
      "Ġinterview": 1198,
      "Ġnamed": 1199,
      "ects": 1200,
      "ccess": 1201,
      "ject": 1202,
      "ady": 1203,
      "Ġjob": 1204,
      "Ġimm": 1205,
      "friend": 1206,
      "Ġalbum": 1207,
      "reen": 1208,
      ").": 1209,
      "Ġeverything": 1210,
      "Ġfun": 1211,
      "Ġpar": 1212,
      "Ġel": 1213,
      "Ġsurv": 1214,
      "Ġfac": 1215,
      "Ġdifferent": 1216,
      "ds": 1217,
      "vis": 1218,
      "pr": 1219,
      "Ġinst": 1220,
      "olog": 1221,
      "ably": 1222,
      "wh": 1223,
      "Ġwants": 1224,
      "Ġform": 1225,
      "ĠBr": 1226,
      "Ġspecial": 1227,
      "iety": 1228,
      "Ġfilmm": 1229,
      "Ġentire": 1230,
      "ital": 1231,
      "ĠFran": 1232,
      "Ġvie": 1233,
      "Ġpersonal": 1234,
      "Ġlet": 1235,
      "son": 1236,
      "ched": 1237,
      "hood": 1238,
      "Ġ3": 1239,
      "ason": 1240,
      "orld": 1241,
      "Ġmyster": 1242,
      "Ġcent": 1243,
      "Ġshort": 1244,
      "ains": 1245,
      "Ġview": 1246,
      "Ġey": 1247,
      "Ġgoes": 1248,
      "Ġdest": 1249,
      "Ġprof": 1250,
      "Ġuntil": 1251,
      "Ġgener": 1252,
      "Ġsk": 1253,
      "Ġstories": 1254,
      "ingly": 1255,
      "ĠWe": 1256,
      "rist": 1257,
      "Ġattem": 1258,
      "Ġput": 1259,
      "Ġdem": 1260,
      "selves": 1261,
      "Ġmeets": 1262,
      "Ġcour": 1263,
      "Ġescap": 1264,
      "und": 1265,
      "Ġhor": 1266,
      "Ġmoney": 1267,
      "ĠPar": 1268,
      "ĠRe": 1269,
      "atch": 1270,
      "ĠWill": 1271,
      "Ġsuccess": 1272,
      "Ġcountry": 1273,
      "Ġarri": 1274,
      "ront": 1275,
      "Ġfut": 1276,
      "Ġbus": 1277,
      "ley": 1278,
      "ĠThere": 1279,
      "Ġcomplet": 1280,
      "ange": 1281,
      "ĠDav": 1282,
      "Ġenc": 1283,
      "ĠYork": 1284,
      "Ġkeep": 1285,
      "isod": 1286,
      "eng": 1287,
      "Ġperfect": 1288,
      "istic": 1289,
      "pite": 1290,
      "ah": 1291,
      "ĠSo": 1292,
      "Ġprison": 1293,
      "Ġright": 1294,
      "Ġaud": 1295,
      "Ġsay": 1296,
      "Ġdram": 1297,
      "Ġsecond": 1298,
      "band": 1299,
      "year": 1300,
      "iting": 1301,
      "Ġmind": 1302,
      "Ġsoon": 1303,
      "Ġexist": 1304,
      "ray": 1305,
      "uk": 1306,
      "Ġfight": 1307,
      "ational": 1308,
      "Ġviol": 1309,
      "Ġworking": 1310,
      "Ġorder": 1311,
      "Ġhaving": 1312,
      "Ġdead": 1313,
      "Ġonce": 1314,
      "Ġtrying": 1315,
      "Ġbetter": 1316,
      "ĠMe": 1317,
      "Ġter": 1318,
      "Ġide": 1319,
      ".âĢĿ": 1320,
      "Ġface": 1321,
      "Ġdri": 1322,
      "Ġlater": 1323,
      "Ġkid": 1324,
      "ines": 1325,
      "Ġfound": 1326,
      "Ġmaster": 1327,
      "sc": 1328,
      "here": 1329,
      "Ġwrit": 1330,
      "Ġhus": 1331,
      "ought": 1332,
      "Ġnear": 1333,
      "unt": 1334,
      "Ġrecord": 1335,
      "Ġself": 1336,
      "Ġcinema": 1337,
      "dd": 1338,
      "side": 1339,
      "ening": 1340,
      "Ġreg": 1341,
      "Ġhour": 1342,
      "Ġdecides": 1343,
      "Ġcontr": 1344,
      "Ġcontin": 1345,
      "iece": 1346,
      "ĠZ": 1347,
      "ĠIs": 1348,
      "Ġtells": 1349,
      "aren": 1350,
      "rench": 1351,
      "Ġmet": 1352,
      "ured": 1353,
      "Ġvillage": 1354,
      "Ġleft": 1355,
      "Ġthing": 1356,
      "Ġalong": 1357,
      "Ġsex": 1358,
      "Ġtravel": 1359,
      "Ġlar": 1360,
      "ĠMan": 1361,
      "Ġthough": 1362,
      "Ġstre": 1363,
      "Ġunf": 1364,
      "Ġepisod": 1365,
      "Ġopp": 1366,
      "Ġsy": 1367,
      "ames": 1368,
      "ized": 1369,
      "ger": 1370,
      "to": 1371,
      "erman": 1372,
      "Ġcam": 1373,
      "Ġhusband": 1374,
      "Ġtw": 1375,
      "Ġtrue": 1376,
      "ently": 1377,
      "ograph": 1378,
      "iel": 1379,
      "ics": 1380,
      "Ġnarr": 1381,
      "Ġstop": 1382,
      "Ġabs": 1383,
      "uly": 1384,
      "xt": 1385,
      "tern": 1386,
      "Ġdark": 1387,
      "Ġevents": 1388,
      "Ġfuture": 1389,
      "Ġdirector": 1390,
      "rigin": 1391,
      "bor": 1392,
      "Ġmed": 1393,
      "Ġinf": 1394,
      "Ġyet": 1395,
      "Ġmov": 1396,
      "ĠEl": 1397,
      "Ġpresent": 1398,
      "Ġcur": 1399,
      "ears": 1400,
      "aj": 1401,
      "ax": 1402,
      "oul": 1403,
      "Ġthemselves": 1404,
      "ility": 1405,
      "blem": 1406,
      "sy": 1407,
      "Ġfive": 1408,
      "Ġhand": 1409,
      "Ġfew": 1410,
      "te": 1411,
      "Ġtimes": 1412,
      "Ġshot": 1413,
      "Ġshows": 1414,
      "bers": 1415,
      "ences": 1416,
      "ize": 1417,
      "Ġprov": 1418,
      "Ġwatching": 1419,
      "Ġfull": 1420,
      "Ġrele": 1421,
      "ĠHar": 1422,
      "Ġdef": 1423,
      "Ġunderstand": 1424,
      "Ġfollows": 1425,
      "ific": 1426,
      "ĠWhat": 1427,
      "'ve": 1428,
      "Ġhere": 1429,
      "Ġformer": 1430,
      "Ġdev": 1431,
      "Ġcult": 1432,
      "ĠGe": 1433,
      "Ġfeels": 1434,
      "Ġmovies": 1435,
      "Ġshould": 1436,
      "cl": 1437,
      "Ġdeal": 1438,
      "ened": 1439,
      "ank": 1440,
      "ĠWorld": 1441,
      "anger": 1442,
      "Ġpowerful": 1443,
      "tim": 1444,
      "Ġsol": 1445,
      "ung": 1446,
      "ĠFrench": 1447,
      "Ġeveryone": 1448,
      "Ġbit": 1449,
      "Ġfre": 1450,
      "Ġdr": 1451,
      "Ġteam": 1452,
      "ror": 1453,
      "Ġpri": 1454,
      "rop": 1455,
      "Ġproblem": 1456,
      "Ġspe": 1457,
      "ertain": 1458,
      "Ġdreams": 1459,
      "Ġmove": 1460,
      "Ġprot": 1461,
      "Ġseems": 1462,
      "Ġwhose": 1463,
      "ians": 1464,
      "Ġperformance": 1465,
      "Ġmean": 1466,
      "ental": 1467,
      "Ġcharacters": 1468,
      "ient": 1469,
      "Ġdays": 1470,
      "Ġwhy": 1471,
      "ades": 1472,
      "ĠHol": 1473,
      "Ġdoesn": 1474,
      "Ġsongs": 1475,
      "Ġpur": 1476,
      "Ġchang": 1477,
      "Ġ198": 1478,
      "pected": 1479,
      "cer": 1480,
      "most": 1481,
      "vern": 1482,
      "Ġgreatest": 1483,
      "ai": 1484,
      "gan": 1485,
      "Ġ4": 1486,
      "ider": 1487,
      "ĠDavid": 1488,
      "ler": 1489,
      "Ġkind": 1490,
      "Ġjo": 1491,
      "Ġprom": 1492,
      "Ġland": 1493,
      "ĠGerman": 1494,
      "Ġscene": 1495,
      "Ġfriendship": 1496,
      "--": 1497,
      "lic": 1498,
      "ird": 1499,
      "osp": 1500,
      "Ġwin": 1501,
      "Ġmiss": 1502,
      "Ġoffic": 1503,
      "Ġlocal": 1504,
      "Ġbar": 1505,
      "Ġcharacter": 1506,
      "uc": 1507,
      "Ġapart": 1508,
      "Ġorigin": 1509,
      "arious": 1510,
      "ential": 1511,
      "ĠCon": 1512,
      "Ġlost": 1513,
      "osed": 1514,
      "Ġsound": 1515,
      "Ġfore": 1516,
      "Ġthr": 1517,
      "ĠTom": 1518,
      "ĠBrit": 1519,
      "ĠJe": 1520,
      "Ġroom": 1521,
      "\",": 1522,
      "Ġposs": 1523,
      "Ġothers": 1524,
      "Ġ200": 1525,
      "Ġcalled": 1526,
      "Ġ5": 1527,
      "Ġsent": 1528,
      "Ġsince": 1529,
      "Ġsuper": 1530,
      "af": 1531,
      "arents": 1532,
      "Ġcast": 1533,
      "Ġhope": 1534,
      "ets": 1535,
      "ival": 1536,
      "Ġocc": 1537,
      "Ġstand": 1538,
      "Ġsever": 1539,
      "not": 1540,
      "any": 1541,
      "ments": 1542,
      "olution": 1543,
      "ina": 1544,
      "Ġuse": 1545,
      "range": 1546,
      "Ġtour": 1547,
      "ĠChrist": 1548,
      "Ġimport": 1549,
      "Ġ201": 1550,
      "Ġgive": 1551,
      "Ġsense": 1552,
      "Ġlot": 1553,
      "ĠCl": 1554,
      "Ġable": 1555,
      "Ġworks": 1556,
      "Ġparents": 1557,
      "elt": 1558,
      "ĠIf": 1559,
      "ĠSp": 1560,
      "Ġtruth": 1561,
      "ores": 1562,
      "Ġmain": 1563,
      "Ġencoun": 1564,
      "ove": 1565,
      "Ġfav": 1566,
      "Ġteen": 1567,
      "Ġsister": 1568,
      "ĠFor": 1569,
      "Ġnothing": 1570,
      "Ġfact": 1571,
      "iter": 1572,
      "Ġoften": 1573,
      "Ġtrag": 1574,
      "Ġcouple": 1575,
      "nect": 1576,
      "Ġed": 1577,
      "Ġfuck": 1578,
      "Ġul": 1579,
      "elling": 1580,
      "ocus": 1581,
      "Ġwa": 1582,
      "Ġcle": 1583,
      "imin": 1584,
      "ages": 1585,
      "ivid": 1586,
      "alf": 1587,
      "Ġrev": 1588,
      "Ġadd": 1589,
      "Ġwithin": 1590,
      "ĠThat": 1591,
      "val": 1592,
      "Ġsear": 1593,
      "alth": 1594,
      "Ġgang": 1595,
      "Ġche": 1596,
      "Ġcamp": 1597,
      "utes": 1598,
      "Ġcho": 1599,
      "Ġ199": 1600,
      "Ġpop": 1601,
      "Ġtruly": 1602,
      "Ġincred": 1603,
      "Ġblack": 1604,
      "by": 1605,
      "ared": 1606,
      "ask": 1607,
      "ĠPr": 1608,
      "ised": 1609,
      "Ġthought": 1610,
      "Ġtries": 1611,
      "Ġbuild": 1612,
      "par": 1613,
      "pts": 1614,
      "Ġcor": 1615,
      "road": 1616,
      "Ġobs": 1617,
      "!!": 1618,
      "ats": 1619,
      "Ġsomeone": 1620,
      "rag": 1621,
      "Ġphot": 1622,
      "attle": 1623,
      "of": 1624,
      "Ġfocus": 1625,
      "ĠAm": 1626,
      "Ġclose": 1627,
      "Ġtrain": 1628,
      "Ġmysterious": 1629,
      "ĠGeor": 1630,
      "Ġless": 1631,
      "omp": 1632,
      "acher": 1633,
      "fully": 1634,
      "Ġcolle": 1635,
      "Ġmarried": 1636,
      "aim": 1637,
      "urb": 1638,
      "Ġalmost": 1639,
      "Ġvide": 1640,
      "Ġenough": 1641,
      "Ġpoint": 1642,
      "Ġfinal": 1643,
      "yn": 1644,
      "Ġstage": 1645,
      "umb": 1646,
      "Ġgirls": 1647,
      "ming": 1648,
      "Ġherself": 1649,
      "Ġknown": 1650,
      "ior": 1651,
      "ention": 1652,
      "ĠLond": 1653,
      "ĠLondon": 1654,
      "Ġgiv": 1655,
      "rif": 1656,
      "aken": 1657,
      "oph": 1658,
      "ĠGod": 1659,
      "Ġsocial": 1660,
      ",\"": 1661,
      "ilt": 1662,
      "Ġreve": 1663,
      "gend": 1664,
      "Ġneigh": 1665,
      "Ġcrime": 1666,
      "ĠAll": 1667,
      "elebr": 1668,
      "Ġwit": 1669,
      "Ġnature": 1670,
      "Ġlight": 1671,
      "ĠRob": 1672,
      "ĠQ": 1673,
      "ator": 1674,
      "yle": 1675,
      "orts": 1676,
      "omb": 1677,
      "ĠNow": 1678,
      "Ġgovern": 1679,
      "Ġhowever": 1680,
      "Ġcomplex": 1681,
      "Ġartist": 1682,
      "hel": 1683,
      "Ġspir": 1684,
      "Ġtry": 1685,
      "ead": 1686,
      "king": 1687,
      "Ġspend": 1688,
      "velop": 1689,
      "Ġexperien": 1690,
      "Ġbusiness": 1691,
      "way": 1692,
      "Ġill": 1693,
      "Ġsold": 1694,
      "Ġmot": 1695,
      "asc": 1696,
      "Ġsociety": 1697,
      "sp": 1698,
      "Ġsecret": 1699,
      "ished": 1700,
      "enes": 1701,
      "Ġmag": 1702,
      "ivil": 1703,
      "Ġ197": 1704,
      "Ġreality": 1705,
      "Ġescape": 1706,
      "aces": 1707,
      "Ġeyes": 1708,
      "cess": 1709,
      "nown": 1710,
      "Ġsit": 1711,
      "Ġconst": 1712,
      "Ġcareer": 1713,
      "erv": 1714,
      "ices": 1715,
      "though": 1716,
      "Ġultim": 1717,
      "iam": 1718,
      "inary": 1719,
      "Ġhon": 1720,
      "ublic": 1721,
      "rest": 1722,
      "Ġways": 1723,
      "Ġmis": 1724,
      "Ġscreen": 1725,
      "Ġeventually": 1726,
      "ination": 1727,
      "atter": 1728,
      "ĠMr": 1729,
      "Ġfeat": 1730,
      "Ġused": 1731,
      "ĠParis": 1732,
      "Ġconv": 1733,
      "Ġfail": 1734,
      "Ġchange": 1735,
      "ĠWhile": 1736,
      "Ġreturns": 1737,
      "yp": 1738,
      "wood": 1739,
      "Ġ196": 1740,
      "ĠâĢĵ": 1741,
      "Ġhom": 1742,
      "els": 1743,
      "âĢĶ": 1744,
      "Ġknows": 1745,
      "Ġtold": 1746,
      "Ġtoward": 1747,
      "Ġwhole": 1748,
      "rug": 1749,
      "Ġbreak": 1750,
      "Ġinterviews": 1751,
      "Ġseveral": 1752,
      "Ġsil": 1753,
      "Ġdisc": 1754,
      "Ġearly": 1755,
      "Ġmoment": 1756,
      "Ġdiscovers": 1757,
      "Ġ&": 1758,
      "Ġname": 1759,
      "Ġslow": 1760,
      "Ġbook": 1761,
      "Ġpolitical": 1762,
      "Ġacross": 1763,
      "Ġunique": 1764,
      "Ġhold": 1765,
      "Ġfavor": 1766,
      "ma": 1767,
      "ĠSw": 1768,
      "Ġrock": 1769,
      "ĠHolly": 1770,
      "rew": 1771,
      "ots": 1772,
      "Ġgot": 1773,
      "Ġnext": 1774,
      "abor": 1775,
      "Ġpret": 1776,
      "19": 1777,
      "aves": 1778,
      "Ġtop": 1779,
      "Ġstay": 1780,
      "ember": 1781,
      "Ġanything": 1782,
      "Ġvisual": 1783,
      "bre": 1784,
      "Ġsum": 1785,
      "Ġemotional": 1786,
      "Ġdiscover": 1787,
      "ĠJapanese": 1788,
      "ager": 1789,
      "Ġsearch": 1790,
      "Ġpsy": 1791,
      "ĠCity": 1792,
      "ift": 1793,
      "Ġrom": 1794,
      "Ġcelebr": 1795,
      "arth": 1796,
      "Ġhero": 1797,
      "Ġalone": 1798,
      "rem": 1799,
      "Ġinn": 1800,
      "acy": 1801,
      "ĠPh": 1802,
      "Ġgetting": 1803,
      "vious": 1804,
      "outh": 1805,
      "ĠAd": 1806,
      "echn": 1807,
      "Ġinvest": 1808,
      "Ġcamera": 1809,
      "Ġgrand": 1810,
      "Ġturns": 1811,
      "Ġimportant": 1812,
      "Ġsix": 1813,
      "Ġcra": 1814,
      "Ġdevelop": 1815,
      "Ġbrings": 1816,
      "Ġamong": 1817,
      "Ġdecide": 1818,
      "ĠHer": 1819,
      "Ġeng": 1820,
      "ights": 1821,
      "Ġsingle": 1822,
      "iddle": 1823,
      "uge": 1824,
      "ars": 1825,
      "icult": 1826,
      "Ġstrange": 1827,
      "Ġmusical": 1828,
      "Ġmor": 1829,
      "ĠAb": 1830,
      "Ġmoving": 1831,
      "Ġinterest": 1832,
      "\".": 1833,
      "ral": 1834,
      "Ġside": 1835,
      "Ġcond": 1836,
      "ĠInd": 1837,
      "Ġexplor": 1838,
      "Ġfalls": 1839,
      "Ġcommunity": 1840,
      "'m": 1841,
      "ĠDr": 1842,
      "ĠNot": 1843,
      "Ġste": 1844,
      "Ġleave": 1845,
      "Ġdisapp": 1846,
      "ĠSc": 1847,
      "ĠEng": 1848,
      "Ġbring": 1849,
      "Ġdespite": 1850,
      "Ġquestion": 1851,
      "ĠEvery": 1852,
      "Ġintim": 1853,
      "acks": 1854,
      "aged": 1855,
      "Ġdifficult": 1856,
      "Ġfilmmaker": 1857,
      "Ġaudience": 1858,
      "ci": 1859,
      "ned": 1860,
      "Ġlos": 1861,
      "Ġspace": 1862,
      "Ġinvol": 1863,
      "iver": 1864,
      "yl": 1865,
      "Ġbad": 1866,
      "Ġhot": 1867,
      "Ġmembers": 1868,
      "ĠAmerica": 1869,
      "Ġsupport": 1870,
      "Ġfig": 1871,
      "Ġfelt": 1872,
      "iction": 1873,
      "lin": 1874,
      "use": 1875,
      "Ġsave": 1876,
      "Ġconnect": 1877,
      "Ġfamous": 1878,
      "ches": 1879,
      "ĠBritish": 1880,
      "oon": 1881,
      "Ġmoder": 1882,
      "ctor": 1883,
      "Ġmoments": 1884,
      "Ġdrama": 1885,
      "con": 1886,
      "ium": 1887,
      "Ġcase": 1888,
      "Ġhalf": 1889,
      "ĠAng": 1890,
      "sequ": 1891,
      "ĠCol": 1892,
      "ump": 1893,
      "ael": 1894,
      "ires": 1895,
      "Ġlegend": 1896,
      "Ġfollow": 1897,
      "Ġmarriage": 1898,
      "Ġproduction": 1899,
      "Ġattempt": 1900,
      "ospital": 1901,
      "nal": 1902,
      "ecially": 1903,
      "Ġchall": 1904,
      "Ġprocess": 1905,
      "Ġago": 1906,
      "Ġlooks": 1907,
      "ĠQu": 1908,
      "Ġmodern": 1909,
      "bo": 1910,
      "ract": 1911,
      "ones": 1912,
      "Ġhit": 1913,
      "Ġmil": 1914,
      "rie": 1915,
      "ĠBill": 1916,
      "Ġunex": 1917,
      "Ġminutes": 1918,
      "fort": 1919,
      "pir": 1920,
      "ality": 1921,
      "ĠMy": 1922,
      "ĠDon": 1923,
      "ploy": 1924,
      "ored": 1925,
      "Ġactually": 1926,
      "Ġchildhood": 1927,
      "Ġtrou": 1928,
      "Ġwalk": 1929,
      "Ġdrug": 1930,
      "ĠJack": 1931,
      "Ġmeans": 1932,
      "Ġesp": 1933,
      "Ġ6": 1934,
      "Ġvers": 1935,
      "Ġwond": 1936,
      "Ġdoing": 1937,
      "ĠEd": 1938,
      "Ġlearns": 1939,
      "Ġinvestig": 1940,
      "aul": 1941,
      "aff": 1942,
      "Ġident": 1943,
      "ression": 1944,
      "Ġsad": 1945,
      "Ġsign": 1946,
      "Ġmill": 1947,
      "Ġdanger": 1948,
      "ective": 1949,
      "pped": 1950,
      "Ġimages": 1951,
      "Ġele": 1952,
      "ĠMich": 1953,
      "aps": 1954,
      "ths": 1955,
      "ively": 1956,
      "Ġwatched": 1957,
      "Ġstudent": 1958,
      "Ġcourse": 1959,
      "Ġsitu": 1960,
      "win": 1961,
      "ery": 1962,
      "ered": 1963,
      "Ġdiv": 1964,
      "Ġsees": 1965,
      "Ġclos": 1966,
      "Ġoriginal": 1967,
      "cy": 1968,
      "ev": 1969,
      "Ġpost": 1970,
      "Ġpublic": 1971,
      "Ġlaw": 1972,
      "ĠTo": 1973,
      "ecut": 1974,
      "emy": 1975,
      "Ġcomedy": 1976,
      "Ġvo": 1977,
      "rupt": 1978,
      "Ġlooking": 1979,
      "ground": 1980,
      "iant": 1981,
      "Ġtele": 1982,
      "Ġcir": 1983,
      "Ġlon": 1984,
      "stem": 1985,
      "Ġaction": 1986,
      "Ġquite": 1987,
      "Ġfree": 1988,
      "Ġresp": 1989,
      "Ġstri": 1990,
      "Ġarch": 1991,
      "ĠâĢĶ": 1992,
      "ibly": 1993,
      "Ġdesper": 1994,
      "Ġpartic": 1995,
      "Ġdeeply": 1996,
      "ky": 1997,
      "Ġtaking": 1998,
      "ises": 1999,
      "enn": 2000,
      "right": 2001,
      "ĠCan": 2002,
      "Ġleaving": 2003,
      "Ġwee": 2004,
      "Ġaffect": 2005,
      "lict": 2006,
      "Ġoper": 2007,
      "atural": 2008,
      "Ġbrut": 2009,
      "Ġgirlfriend": 2010,
      "vision": 2011,
      "Ġgovernment": 2012,
      "aur": 2013,
      "Ġtechn": 2014,
      "Ġ10": 2015,
      "Ġcrew": 2016,
      "Ġprofess": 2017,
      "Ġneeds": 2018,
      "Ġstrong": 2019,
      "Ġhours": 2020,
      "Ġsystem": 2021,
      "ivers": 2022,
      "Ġsoul": 2023,
      "Ġhop": 2024,
      "Ġmist": 2025,
      "ott": 2026,
      "rap": 2027,
      "Ġkilled": 2028,
      "Ġbelieve": 2029,
      "itive": 2030,
      "Ġmiddle": 2031,
      "Ġitself": 2032,
      "raw": 2033,
      "Ġfeeling": 2034,
      "'re": 2035,
      "Ġtaken": 2036,
      "ising": 2037,
      "eth": 2038,
      "Ġforced": 2039,
      "Ġprog": 2040,
      "Ġelse": 2041,
      "Ġunexpected": 2042,
      "Ġbody": 2043,
      "asy": 2044,
      "ĠDo": 2045,
      "Ġchance": 2046,
      "Ġaccident": 2047,
      "Ġfavorite": 2048,
      "uff": 2049,
      "Ġage": 2050,
      "Ġcoll": 2051,
      "Ġmount": 2052,
      "Ġlate": 2053,
      "used": 2054,
      "aven": 2055,
      "Ġteacher": 2056,
      "yo": 2057,
      "Ġbir": 2058,
      "Ġliter": 2059,
      "iding": 2060,
      "ĠBer": 2061,
      "Ġadm": 2062,
      "Ġhappy": 2063,
      "Ġhistor": 2064,
      "Ġvideo": 2065,
      "Ġda": 2066,
      "ote": 2067,
      "Ġ194": 2068,
      "ĠBlack": 2069,
      "Ġreveal": 2070,
      "Ġespecially": 2071,
      "ges": 2072,
      "Ġtreat": 2073,
      "Ġadvent": 2074,
      "time": 2075,
      "Ġsus": 2076,
      "Ġthreat": 2077,
      "Ġcoming": 2078,
      "Ġcannot": 2079,
      "Ġexplores": 2080,
      "com": 2081,
      "gu": 2082,
      "Ġtal": 2083,
      "rent": 2084,
      "Ġfate": 2085,
      "Ġcivil": 2086,
      "Ġhospital": 2087,
      "edom": 2088,
      "Ġstyle": 2089,
      "ĠPro": 2090,
      "ĠNo": 2091,
      "ĠNor": 2092,
      "Ġsuff": 2093,
      "Ġmemories": 2094,
      "Ġcentury": 2095,
      "Ġwild": 2096,
      "ĠII": 2097,
      "Ġstate": 2098,
      "itten": 2099,
      "Ġnovel": 2100,
      "Ġfinally": 2101,
      "go": 2102,
      "Ġant": 2103,
      "ĠItal": 2104,
      "Ġperformances": 2105,
      "Ġstars": 2106,
      "Ġcompletely": 2107,
      "sues": 2108,
      "ready": 2109,
      "ĠFrom": 2110,
      "ĠKing": 2111,
      "Ġdestro": 2112,
      "ĠBar": 2113,
      "unning": 2114,
      "lo": 2115,
      "ĠTV": 2116,
      "ĠAlex": 2117,
      "Ġalready": 2118,
      "ĠRuss": 2119,
      "ĠNaz": 2120,
      "Ġresult": 2121,
      "Ġsurpr": 2122,
      "Ġfollowing": 2123,
      "Ġpat": 2124,
      "ĠTheir": 2125,
      "uses": 2126,
      "ĠFr": 2127,
      "Ġrob": 2128,
      "Ġabsolut": 2129,
      "uz": 2130,
      "Ġground": 2131,
      "ented": 2132,
      "Ġread": 2133,
      "ĠDuring": 2134,
      "ĠFilm": 2135,
      "Ġstarts": 2136,
      "Ġ9": 2137,
      "Ġfant": 2138,
      "yond": 2139,
      "Ġcat": 2140,
      "Ġmight": 2141,
      "urt": 2142,
      "ĠEarth": 2143,
      "ization": 2144,
      "Ġends": 2145,
      "Ġtrip": 2146,
      "Ġconfront": 2147,
      "Ġfreedom": 2148,
      "Ġproblems": 2149,
      "ĠJeff": 2150,
      "Ġ8": 2151,
      "Ġfr": 2152,
      "Ġha": 2153,
      "ĠPer": 2154,
      "000": 2155,
      "Ġinside": 2156,
      "ajor": 2157,
      "Ġclear": 2158,
      "Ġtelevision": 2159,
      "cle": 2160,
      "Ġfem": 2161,
      "Ġwords": 2162,
      "Ġ--": 2163,
      "Ġconflict": 2164,
      "Ġapartment": 2165,
      "Ġfasc": 2166,
      "ĠMad": 2167,
      "chie": 2168,
      "Ġ18": 2169,
      "Ġleg": 2170,
      "Ġcontrol": 2171,
      "Ġpoet": 2172,
      "Ġmemory": 2173,
      "Ġbattle": 2174,
      "ĠOr": 2175,
      "izes": 2176,
      "Ġblood": 2177,
      "Ġolder": 2178,
      "Ġconsider": 2179,
      "ont": 2180,
      "Ġwhom": 2181,
      "ĠDes": 2182,
      "Ġupon": 2183,
      "Ġevil": 2184,
      "Ġcrimin": 2185,
      "Ġconcer": 2186,
      "Ġhappens": 2187,
      "Ġbeauty": 2188,
      "Ġleads": 2189,
      "Ġdetail": 2190,
      "ĠMichael": 2191,
      "iod": 2192,
      "Ġfront": 2193,
      "Ġcut": 2194,
      "Ġisn": 2195,
      "ried": 2196,
      "Ġann": 2197,
      "ĠMc": 2198,
      "unk": 2199,
      "Ġanyone": 2200,
      "ronic": 2201,
      "Ġextra": 2202,
      "Ġbelieves": 2203,
      "Ġemotion": 2204,
      "while": 2205,
      "Ġneighbor": 2206,
      "ites": 2207,
      "itary": 2208,
      "Ġhands": 2209,
      "Ġpos": 2210,
      "Ġexc": 2211,
      "ĠPal": 2212,
      "Ġval": 2213,
      "Ġrac": 2214,
      "Ġwrong": 2215,
      "Ġpsych": 2216,
      "por": 2217,
      "Ġ7": 2218,
      "Ġsaid": 2219,
      "itions": 2220,
      "eless": 2221,
      "ĠEm": 2222,
      "Ġappro": 2223,
      "ged": 2224,
      "ests": 2225,
      "Ġbur": 2226,
      "ividual": 2227,
      "cing": 2228,
      "ee": 2229,
      "Ġbased": 2230,
      "Ġca": 2231,
      "Ġcry": 2232,
      "ither": 2233,
      "Ġtook": 2234,
      "Ġexpect": 2235,
      "Ġseven": 2236,
      "ĠGu": 2237,
      "antic": 2238,
      "Ġperiod": 2239,
      "Ġemb": 2240,
      "Ġamb": 2241,
      "Ġboys": 2242,
      "Ġinstead": 2243,
      "ology": 2244,
      "work": 2245,
      "arm": 2246,
      "Ġrece": 2247,
      "ĠAf": 2248,
      "ĠEur": 2249,
      "Ġsure": 2250,
      "ĠWilliam": 2251,
      "cis": 2252,
      "su": 2253,
      "Ġbra": 2254,
      "ended": 2255,
      "ously": 2256,
      "ĠThrough": 2257,
      "Ġmeaning": 2258,
      "ĠGeorge": 2259,
      "Ġintimate": 2260,
      "Ġtale": 2261,
      "aring": 2262,
      "Ġpot": 2263,
      "edd": 2264,
      "Ġwhite": 2265,
      "ĠKore": 2266,
      "Ġsets": 2267,
      "Ġfur": 2268,
      "Ġreview": 2269,
      "ĠSet": 2270,
      "ech": 2271,
      "Ġdeb": 2272,
      "Ġarrives": 2273,
      "Ġpretty": 2274,
      "lu": 2275,
      "Ġtoday": 2276,
      "Ġfamil": 2277,
      "Ġstruggle": 2278,
      "ĠHollywood": 2279,
      "Ġten": 2280,
      "Ġcame": 2281,
      "Ġdie": 2282,
      "Ġreason": 2283,
      "Ġproject": 2284,
      "Ġwriter": 2285,
      "Ġwitness": 2286,
      "ĠEurope": 2287,
      "known": 2288,
      "orr": 2289,
      "Ġpick": 2290,
      "ush": 2291,
      "ortun": 2292,
      "Ġhappened": 2293,
      "ography": 2294,
      "Ġpriv": 2295,
      "Ġspeak": 2296,
      "ĠRobert": 2297,
      "gn": 2298,
      "lor": 2299,
      "Ġfilmed": 2300,
      "ĠPet": 2301,
      "ĠJim": 2302,
      "ĠJew": 2303,
      "Ġplaying": 2304,
      "cent": 2305,
      "piece": 2306,
      "err": 2307,
      "onic": 2308,
      "Ġmid": 2309,
      "âĢ¦": 2310,
      "ĠWest": 2311,
      "ĠCharl": 2312,
      "Ġwater": 2313,
      "Ġusing": 2314,
      "idden": 2315,
      "Ġlarge": 2316,
      "Ġepisodes": 2317,
      "ino": 2318,
      "Ġfell": 2319,
      "Ġpiece": 2320,
      "enty": 2321,
      "Ġred": 2322,
      "Ġvict": 2323,
      "Ġvarious": 2324,
      "Ġdog": 2325,
      "Ġserv": 2326,
      "Ġviolence": 2327,
      "breaking": 2328,
      "head": 2329,
      "Ġlist": 2330,
      "ĠTH": 2331,
      "Ġgame": 2332,
      "Ġloved": 2333,
      "ĠJames": 2334,
      "ĠEx": 2335,
      "pective": 2336,
      "venge": 2337,
      "Ġincredible": 2338,
      "gr": 2339,
      "hip": 2340,
      "ille": 2341,
      "Ġgives": 2342,
      "aches": 2343,
      "Ġsequ": 2344,
      "Ġshare": 2345,
      "ĠGen": 2346,
      "aby": 2347,
      "Ġfeature": 2348,
      "Ġresc": 2349,
      "Ġwanted": 2350,
      "dden": 2351,
      "ĠAngel": 2352,
      "read": 2353,
      "Ġbro": 2354,
      "rait": 2355,
      "Ġindividual": 2356,
      "Ġattempts": 2357,
      "Ġspirit": 2358,
      "Ġchalleng": 2359,
      "ae": 2360,
      "line": 2361,
      "mas": 2362,
      "Ġfa": 2363,
      "ĠTwo": 2364,
      "ĠBel": 2365,
      "Ġsudden": 2366,
      "Ġoffers": 2367,
      "Ġadv": 2368,
      "Ġquick": 2369,
      "Ġrare": 2370,
      "Ġsimple": 2371,
      "Ġclassic": 2372,
      "Ġjoin": 2373,
      "Ġencounter": 2374,
      "Ġtheat": 2375,
      "eral": 2376,
      "Ġfans": 2377,
      "Ġasks": 2378,
      "Ġplot": 2379,
      "Ġnews": 2380,
      "Ġpoor": 2381,
      "Ġgrowing": 2382,
      "Ġhumanity": 2383,
      "ped": 2384,
      "Ġsens": 2385,
      "real": 2386,
      "Ġcertain": 2387,
      "Ġnum": 2388,
      "usion": 2389,
      "une": 2390,
      "Ġoutside": 2391,
      "ĠSte": 2392,
      "Ġactiv": 2393,
      "Ġroad": 2394,
      "Ġstruggles": 2395,
      "Ġexistence": 2396,
      "Ġultimately": 2397,
      "Ġsn": 2398,
      "Ġwind": 2399,
      "rib": 2400,
      "ĠMin": 2401,
      "new": 2402,
      "uthor": 2403,
      "Ġslowly": 2404,
      "over": 2405,
      "Ġlik": 2406,
      "Ġexam": 2407,
      "Ġclim": 2408,
      "Ġportray": 2409,
      "Ġviolent": 2410,
      "Ġepisode": 2411,
      "gest": 2412,
      "het": 2413,
      "onna": 2414,
      "ara": 2415,
      "irt": 2416,
      "illed": 2417,
      "ĠPe": 2418,
      "Ġkids": 2419,
      "Ġexperiences": 2420,
      "Ġpay": 2421,
      "Ġlim": 2422,
      "Ġgra": 2423,
      "ĠPl": 2424,
      "ĠPaul": 2425,
      "Ġcompany": 2426,
      "Ġamaz": 2427,
      "Ġmarry": 2428,
      "Ġphys": 2429,
      "Ġinnoc": 2430,
      "Ġsituation": 2431,
      "bably": 2432,
      "like": 2433,
      "where": 2434,
      "Ġtest": 2435,
      "ann": 2436,
      "Ġgay": 2437,
      "ĠSome": 2438,
      "rought": 2439,
      "Ġdecis": 2440,
      "ĠHarry": 2441,
      "Ġic": 2442,
      "Ġloss": 2443,
      "Ġnarrative": 2444,
      "Ġrevolution": 2445,
      "pe": 2446,
      "ton": 2447,
      "Ġachie": 2448,
      "Ġcap": 2449,
      "omm": 2450,
      "icide": 2451,
      "icated": 2452,
      "olic": 2453,
      "Ġintro": 2454,
      "Ġsurvive": 2455,
      "Ġlegendary": 2456,
      "Ġair": 2457,
      "Ġsend": 2458,
      "Ġquiet": 2459,
      "ressed": 2460,
      "Ġsurviv": 2461,
      "Ġsat": 2462,
      "Ġdone": 2463,
      "ims": 2464,
      "Ġstunning": 2465,
      "ĠLou": 2466,
      "Ġcrit": 2467,
      "Ġepic": 2468,
      "Ġsummer": 2469,
      "Ġest": 2470,
      "Ġwon": 2471,
      "Ġfear": 2472,
      "ĠMo": 2473,
      "Ġconsequ": 2474,
      "Ġloves": 2475,
      "Ġworth": 2476,
      "Ġrich": 2477,
      "Ġleaves": 2478,
      "Ġcreate": 2479,
      "Ġopen": 2480,
      "ĠFrank": 2481,
      "Ġstreet": 2482,
      "Ġinflu": 2483,
      "Ġwent": 2484,
      "Ġfood": 2485,
      "Ġbomb": 2486,
      "Ġmajor": 2487,
      "Ġrevenge": 2488,
      "oles": 2489,
      "Ġask": 2490,
      "ĠWood": 2491,
      "ĠGr": 2492,
      "oses": 2493,
      "Ġorgan": 2494,
      "Ġscenes": 2495,
      "Ġglob": 2496,
      "Ġidea": 2497,
      "Ġbirth": 2498,
      "IN": 2499,
      "gy": 2500,
      "Ġnon": 2501,
      "Ġlif": 2502,
      "ĠMay": 2503,
      "unch": 2504,
      "Ġbecame": 2505,
      "iko": 2506,
      "Ġdeterm": 2507,
      "Ġpassion": 2508,
      "ĠMean": 2509,
      "Ġobsess": 2510,
      "Ġcross": 2511,
      "Ġmater": 2512,
      "aries": 2513,
      "ĠTony": 2514,
      "aging": 2515,
      "Ġbeginning": 2516,
      "ĠMeanwhile": 2517,
      "ole": 2518,
      "reas": 2519,
      "Ġble": 2520,
      "ĠSouth": 2521,
      "aki": 2522,
      "ĠDan": 2523,
      "ĠFoll": 2524,
      "ender": 2525,
      "Ġchanges": 2526,
      "Ġparticular": 2527,
      "ring": 2528,
      "Ġbeyond": 2529,
      "idence": 2530,
      "Ġyouth": 2531,
      "izing": 2532,
      "itted": 2533,
      "Ġcontem": 2534,
      "Ġcurrent": 2535,
      "Ġreleased": 2536,
      "Ġprotect": 2537,
      "Ġfucking": 2538,
      "Ġcru": 2539,
      "Ġmark": 2540,
      "ude": 2541,
      "ept": 2542,
      "Ġmeeting": 2543,
      "Ġvisit": 2544,
      "Ġaffair": 2545,
      "Ġtowards": 2546,
      "iny": 2547,
      "rey": 2548,
      "Ġline": 2549,
      "ided": 2550,
      "iller": 2551,
      "Ġlover": 2552,
      "antly": 2553,
      "Ġbecoming": 2554,
      "Ġsometimes": 2555,
      "Ġculture": 2556,
      "Ġgiven": 2557,
      "Ġdangerous": 2558,
      "Ġdestroy": 2559,
      "Ġaut": 2560,
      "Ġmess": 2561,
      "Ġequ": 2562,
      "Ġforces": 2563,
      "Ġmoves": 2564,
      "Ġfeelings": 2565,
      "Ġexperim": 2566,
      "Ġofficer": 2567,
      "rief": 2568,
      "Ġextraord": 2569,
      "eet": 2570,
      "ining": 2571,
      "ana": 2572,
      "Ġled": 2573,
      "Ġnatural": 2574,
      "Ġforce": 2575,
      "Ġang": 2576,
      "andon": 2577,
      "Ġru": 2578,
      "Ġrather": 2579,
      "Ġfinding": 2580,
      "ĠJoe": 2581,
      "Ġleader": 2582,
      "Ġjournal": 2583,
      "aust": 2584,
      "oint": 2585,
      "Ġess": 2586,
      "Ġauthor": 2587,
      "Ġissues": 2588,
      "ett": 2589,
      "usive": 2590,
      "unting": 2591,
      "Ġsepar": 2592,
      "Ġactress": 2593,
      "Ġdesign": 2594,
      "Ġcover": 2595,
      "Ġterror": 2596,
      "Ġversion": 2597,
      "jects": 2598,
      "mb": 2599,
      "Ġcop": 2600,
      "Ġmass": 2601,
      "Ġexcept": 2602,
      "Ġuses": 2603,
      "Ġattract": 2604,
      "Ġtalking": 2605,
      "Ġsuccessful": 2606,
      "ield": 2607,
      "Ġwonder": 2608,
      "de": 2609,
      "lish": 2610,
      "ply": 2611,
      "Ġbor": 2612,
      "Ġchronic": 2613,
      "ĠJul": 2614,
      "Ġseason": 2615,
      "Ġwealth": 2616,
      "Ġrole": 2617,
      "Ġanimation": 2618,
      "Ġcost": 2619,
      "Ġmult": 2620,
      "omin": 2621,
      "Ġisland": 2622,
      "ĠThen": 2623,
      "itting": 2624,
      "Ġattention": 2625,
      "Ġdrink": 2626,
      "Ġinvolved": 2627,
      "come": 2628,
      "sw": 2629,
      "ald": 2630,
      "ief": 2631,
      "aining": 2632,
      "Ġincludes": 2633,
      "Ġmasterpiece": 2634,
      "Ġtragedy": 2635,
      "Ġera": 2636,
      "Ġful": 2637,
      "iron": 2638,
      "Ġadapt": 2639,
      "Ġportrait": 2640,
      "Ġdidn": 2641,
      "aimed": 2642,
      "Ġdaily": 2643,
      "ĠFrance": 2644,
      "ĠCharlie": 2645,
      "Ġdanc": 2646,
      "Ġinform": 2647,
      "Ġeld": 2648,
      "otic": 2649,
      "Ġstra": 2650,
      "ĠMus": 2651,
      "ĠMart": 2652,
      "Ġexact": 2653,
      "ĠRo": 2654,
      "Ġtrad": 2655,
      "ruction": 2656,
      "Ġearth": 2657,
      "Ġhonest": 2658,
      "Ġextraordinary": 2659,
      "ares": 2660,
      "Ġreb": 2661,
      "ĠAnt": 2662,
      "aced": 2663,
      "Ġabandon": 2664,
      "ĠAlthough": 2665,
      "Ġcinematic": 2666,
      "Ġextrem": 2667,
      "Ġbrothers": 2668,
      "Ġfunny": 2669,
      "Ġgeneral": 2670,
      "Ġdiscuss": 2671,
      "Ġabsolutely": 2672,
      "20": 2673,
      "isters": 2674,
      "Ġple": 2675,
      "Ġinh": 2676,
      "ement": 2677,
      "ĠJust": 2678,
      "Ġsea": 2679,
      "alls": 2680,
      "Ġsuicide": 2681,
      "Ġarm": 2682,
      "Ġruns": 2683,
      "Ġrefuge": 2684,
      "Ġtransform": 2685,
      "light": 2686,
      "ps": 2687,
      "ration": 2688,
      "Ġav": 2689,
      "Ġheav": 2690,
      "Ġrad": 2691,
      "Ġstudents": 2692,
      "Ġrelationships": 2693,
      "Ġfeatures": 2694,
      "Ġidentity": 2695,
      "ĠPalest": 2696,
      "Ġmaterial": 2697,
      "Ġsle": 2698,
      "Ġsaw": 2699,
      "Ġbond": 2700,
      "owers": 2701,
      "Ġprevious": 2702,
      "Ġending": 2703,
      "Ġemploy": 2704,
      "ĠAnne": 2705,
      "Ġremark": 2706,
      "Ġremember": 2707,
      "Ġplanet": 2708,
      "ĠFrancis": 2709,
      "Ġfemale": 2710,
      "Ġfascin": 2711,
      "zy": 2712,
      "Ġpath": 2713,
      "Ġpict": 2714,
      "akers": 2715,
      "ults": 2716,
      "ander": 2717,
      "Ġleast": 2718,
      "got": 2719,
      "joy": 2720,
      "Ġdied": 2721,
      "owed": 2722,
      "Ġstep": 2723,
      "ĠChristmas": 2724,
      "Ġexploration": 2725,
      "Ġfurther": 2726,
      "Ġconsequences": 2727,
      "ji": 2728,
      "Ġmer": 2729,
      "oking": 2730,
      "Ġarrest": 2731,
      "Ġparty": 2732,
      "Ġkey": 2733,
      "Ġcollege": 2734,
      "Ġtroub": 2735,
      "iers": 2736,
      "ari": 2737,
      "Ġgun": 2738,
      "Ġgod": 2739,
      "ĠMark": 2740,
      "Ġplays": 2741,
      "Ġturned": 2742,
      "Ġrepres": 2743,
      "Ġsimply": 2744,
      "Ġwritten": 2745,
      "Ġamazing": 2746,
      "ze": 2747,
      "Ġcoun": 2748,
      "Ġmad": 2749,
      "Ġdou": 2750,
      "Ġinit": 2751,
      "plic": 2752,
      "Ġmyself": 2753,
      "ruct": 2754,
      "Ġattack": 2755,
      "Ġsurround": 2756,
      "ius": 2757,
      "Ġterm": 2758,
      "Ġwid": 2759,
      "ĠDirect": 2760,
      "istance": 2761,
      "ending": 2762,
      "Ġprobably": 2763,
      "Ġbrill": 2764,
      "Ġrelig": 2765,
      "Ġplayed": 2766,
      "Ġleading": 2767,
      "Ġcomplete": 2768,
      "Ġliterally": 2769,
      "oved": 2770,
      "itar": 2771,
      "Ġdam": 2772,
      "oman": 2773,
      "Ġeight": 2774,
      "Ġhear": 2775,
      "ete": 2776,
      "verse": 2777,
      "ĠSim": 2778,
      "erson": 2779,
      "osh": 2780,
      "Ġprop": 2781,
      "ards": 2782,
      "ressive": 2783,
      "Ġcatch": 2784,
      "ases": 2785,
      "ĠBy": 2786,
      "Ġexecut": 2787,
      "Ġenjoy": 2788,
      "Ġmonths": 2789,
      "Ġsexual": 2790,
      "Ġmilitary": 2791,
      "Ġvoice": 2792,
      "ER": 2793,
      "rang": 2794,
      "Ġnorm": 2795,
      "Ġreach": 2796,
      "aught": 2797,
      "Ġcris": 2798,
      "Ġaccept": 2799,
      "Ġfaces": 2800,
      "Ġeye": 2801,
      "Ġbrutal": 2802,
      "tr": 2803,
      "ya": 2804,
      "owd": 2805,
      "Ġalive": 2806,
      "arden": 2807,
      "okyo": 2808,
      "Ġopportun": 2809,
      "Ġdevast": 2810,
      "Ġfigure": 2811,
      "haps": 2812,
      "oo": 2813,
      "rees": 2814,
      "ĠSer": 2815,
      "ĠCal": 2816,
      "ĠFl": 2817,
      "ĠRed": 2818,
      "Ġrespect": 2819,
      "ĠUS": 2820,
      "Ġgrad": 2821,
      "azz": 2822,
      "ĠUnited": 2823,
      "ĠDespite": 2824,
      "hem": 2825,
      "erry": 2826,
      "Ġwish": 2827,
      "Ġbene": 2828,
      "Ġmat": 2829,
      "Ġmix": 2830,
      "edi": 2831,
      "asons": 2832,
      "Ġrequ": 2833,
      "ries": 2834,
      "Ġshad": 2835,
      "udd": 2836,
      "Ġrecently": 2837,
      "Ġsupposed": 2838,
      "Ġbuilding": 2839,
      "Ġromantic": 2840,
      "Ġsusp": 2841,
      "Ġcrisis": 2842,
      "min": 2843,
      "Ġfle": 2844,
      "Ġbaby": 2845,
      "Ġhost": 2846,
      "Ġmel": 2847,
      "anche": 2848,
      "ĠTr": 2849,
      "ills": 2850,
      "Ġsett": 2851,
      "Ġthinks": 2852,
      "Ġseemingly": 2853,
      "Ġcaptures": 2854,
      "Ġmission": 2855,
      "rant": 2856,
      "Ġtheater": 2857,
      "ena": 2858,
      "Ġmatter": 2859,
      "Ġlat": 2860,
      "ashing": 2861,
      "acing": 2862,
      "ĠSl": 2863,
      "cend": 2864,
      "rage": 2865,
      "ĠFe": 2866,
      "Ġlevel": 2867,
      "Ġimpact": 2868,
      "incess": 2869,
      "Ġborn": 2870,
      "Ġeither": 2871,
      "Ġreun": 2872,
      "eck": 2873,
      "atever": 2874,
      "Ġ195": 2875,
      "ĠâĢĺ": 2876,
      "Ġcollect": 2877,
      "Ġsinger": 2878,
      "edding": 2879,
      "Ġfamilies": 2880,
      "Ġsuddenly": 2881,
      "arch": 2882,
      "Ġlands": 2883,
      "ĠTokyo": 2884,
      "sters": 2885,
      "Ġnob": 2886,
      "utter": 2887,
      "aylor": 2888,
      "Ġansw": 2889,
      "ĠPark": 2890,
      "Ġarmy": 2891,
      "Ġprim": 2892,
      "Ġpossible": 2893,
      "Ġencounters": 2894,
      "ĠPhil": 2895,
      "ĠEngland": 2896,
      "Ġquickly": 2897,
      "nie": 2898,
      "Ġign": 2899,
      "Ġsays": 2900,
      "Ġdu": 2901,
      "ama": 2902,
      "ĠMic": 2903,
      "Ġprep": 2904,
      "Ġkilling": 2905,
      "Ġfarm": 2906,
      "Ġ30": 2907,
      "Ġemotionally": 2908,
      "ted": 2909,
      "Ġfire": 2910,
      "ĠCent": 2911,
      "ĠCarl": 2912,
      "Ġmod": 2913,
      "ĠLos": 2914,
      "Ġuns": 2915,
      "ĠStates": 2916,
      "Ġknowing": 2917,
      "Ġflo": 2918,
      "Ġthoughts": 2919,
      "Ġpurp": 2920,
      "Ġcriminal": 2921,
      "mate": 2922,
      "idge": 2923,
      "ĠNe": 2924,
      "Ġrace": 2925,
      "Ġ15": 2926,
      "Ġthroughout": 2927,
      "Ġguy": 2928,
      "Ġnearly": 2929,
      "ĠRussian": 2930,
      "Ġlatest": 2931,
      "law": 2932,
      "Ġbrought": 2933,
      "Ġthird": 2934,
      "Ġworst": 2935,
      "Ġrise": 2936,
      "Ġtrack": 2937,
      "Ġyounger": 2938,
      "ĠVal": 2939,
      "Ġimposs": 2940,
      "Ġfinanc": 2941,
      "Ġquestions": 2942,
      "ken": 2943,
      "uct": 2944,
      "Ġsisters": 2945,
      "ste": 2946,
      "olf": 2947,
      "key": 2948,
      "Ġdesire": 2949,
      "Ġlonger": 2950,
      "Ġstudio": 2951,
      "Ġprofound": 2952,
      "Ġmillion": 2953,
      "Ġadventure": 2954,
      "Ġmental": 2955,
      "Ġpress": 2956,
      "str": 2957,
      "ĠAp": 2958,
      "olk": 2959,
      "Ġwhatever": 2960,
      "ĠSm": 2961,
      "aper": 2962,
      "Ġmanages": 2963,
      "Ġord": 2964,
      "Ġsurf": 2965,
      "Ġeffect": 2966,
      "Ġprovide": 2967,
      "Ġmovement": 2968,
      "Ġtragic": 2969,
      "ĠNazi": 2970,
      "ball": 2971,
      "Ġhealth": 2972,
      "ament": 2973,
      "Ġforget": 2974,
      "Ġunknown": 2975,
      "ĠEven": 2976,
      "Ġrul": 2977,
      "play": 2978,
      "ĠChar": 2979,
      "Ġemotions": 2980,
      "Ġanimated": 2981,
      "Ġforever": 2982,
      "Ġgiving": 2983,
      "Ġremarkable": 2984,
      "pro": 2985,
      "aling": 2986,
      "Ġdue": 2987,
      "Ġcomb": 2988,
      "Ġshop": 2989,
      "Ġknew": 2990,
      "Ġ16": 2991,
      "Ġpeace": 2992,
      "Ġappear": 2993,
      "Ġsubject": 2994,
      "Ġparts": 2995,
      "Ġrelease": 2996,
      "ĠTHE": 2997,
      "ĠAngeles": 2998,
      "Ġtens": 2999,
      "estern": 3000,
      "Ġhil": 3001,
      "Ġjoy": 3002,
      "Ġ13": 3003,
      "Ġplans": 3004,
      "arent": 3005,
      "ocr": 3006,
      "Ġgrow": 3007,
      "Ġaccomp": 3008,
      "lessly": 3009,
      "Ġmember": 3010,
      "Ġtelling": 3011,
      "Ġcarry": 3012,
      "Ġstarted": 3013,
      "Ġanimals": 3014,
      "Ġlonely": 3015,
      "Ġbrilliant": 3016,
      "ox": 3017,
      "oil": 3018,
      "Ġsal": 3019,
      "Ġsun": 3020,
      "Ġpil": 3021,
      "Ġinj": 3022,
      "Ġheard": 3023,
      "ami": 3024,
      "ĠSan": 3025,
      "ghts": 3026,
      "Ġvol": 3027,
      "Ġ11": 3028,
      "Ġscient": 3029,
      "Ġoffice": 3030,
      "Ġtraum": 3031,
      "Ġseeing": 3032,
      "ĠAfric": 3033,
      "boy": 3034,
      "for": 3035,
      "hol": 3036,
      "war": 3037,
      "Ġboss": 3038,
      "Ġhidden": 3039,
      "Ġdi": 3040,
      "ico": 3041,
      "ĠIm": 3042,
      "ĠBen": 3043,
      "ĠBob": 3044,
      "Ġword": 3045,
      "Ġdoctor": 3046,
      "Ġcalls": 3047,
      "ĠLee": 3048,
      "Ġcourt": 3049,
      "Ġrespons": 3050,
      "eper": 3051,
      "uke": 3052,
      "yal": 3053,
      "Ġid": 3054,
      "Ġtyp": 3055,
      "Ġdraw": 3056,
      "ĠWW": 3057,
      "Ġspect": 3058,
      "Ġenv": 3059,
      "Ġserious": 3060,
      "Ġpregn": 3061,
      "Ġphysical": 3062,
      "Ġintrodu": 3063,
      "Ġbas": 3064,
      "enge": 3065,
      "anna": 3066,
      "Ġdance": 3067,
      "Ġgone": 3068,
      "rael": 3069,
      "ips": 3070,
      "angu": 3071,
      "Ġactors": 3072,
      "Ġdesc": 3073,
      "Ġcompan": 3074,
      "Ġtried": 3075,
      "Ġremind": 3076,
      "Ġthinking": 3077,
      "Ġearl": 3078,
      "Ġindust": 3079,
      "Ġpresented": 3080,
      "Ġachieve": 3081,
      "cious": 3082,
      "ios": 3083,
      "Ġap": 3084,
      "ĠTaylor": 3085,
      "ĠSov": 3086,
      "Ġlived": 3087,
      "Ġmoon": 3088,
      "Ġlose": 3089,
      "ĠJane": 3090,
      "ĠLa": 3091,
      "Ġentertain": 3092,
      "ĠBlanche": 3093,
      "Ġhorror": 3094,
      "Ġloses": 3095,
      "Ġhistorical": 3096,
      "ĠLouis": 3097,
      "Ġdetermined": 3098,
      "Ġstraight": 3099,
      "ĠSoviet": 3100,
      "cus": 3101,
      "cast": 3102,
      "ishes": 3103,
      "ano": 3104,
      "Ġdate": 3105,
      "ĠTour": 3106,
      "ĠSu": 3107,
      "Ġshoot": 3108,
      "Ġking": 3109,
      "Ġ12": 3110,
      "Ġactor": 3111,
      "Ġhumor": 3112,
      "Ġcommit": 3113,
      "Ġrival": 3114,
      "Ġphil": 3115,
      "Ġtwenty": 3116,
      "Ġfaith": 3117,
      "Ġglobal": 3118,
      "bert": 3119,
      "Ġfair": 3120,
      "Ġpure": 3121,
      "ĠMon": 3122,
      "Ġwhether": 3123,
      "ĠKe": 3124,
      "ruce": 3125,
      "Ġinclude": 3126,
      "Ġwriting": 3127,
      "Ġoccur": 3128,
      "Ġoccup": 3129,
      "Ġdivor": 3130,
      "Ġimpossible": 3131,
      "cher": 3132,
      "host": 3133,
      "ka": 3134,
      "off": 3135,
      "Ġpair": 3136,
      "asion": 3137,
      "ĠOsc": 3138,
      "Ġplaces": 3139,
      "Ġdecades": 3140,
      "riter": 3141,
      "Ġsoldiers": 3142,
      "Ġcircum": 3143,
      "Ġdesperate": 3144,
      "Ġweek": 3145,
      "ID": 3146,
      "ook": 3147,
      "ta": 3148,
      "Ġtit": 3149,
      "Ġfly": 3150,
      "stit": 3151,
      "ĠWal": 3152,
      "Ġshit": 3153,
      "abit": 3154,
      "ague": 3155,
      "Ġartists": 3156,
      "Ġcolor": 3157,
      "ĠArmy": 3158,
      "Ġbiggest": 3159,
      "Ġincredibly": 3160,
      "Ġhopes": 3161,
      "Ġwealthy": 3162,
      "ĠPalestin": 3163,
      "life": 3164,
      "we": 3165,
      "Ġhar": 3166,
      "Ġhate": 3167,
      "ette": 3168,
      "seen": 3169,
      "Ġcha": 3170,
      "ĠGre": 3171,
      "oko": 3172,
      "Ġbehav": 3173,
      "Ġrunning": 3174,
      "Ġfantast": 3175,
      "Ġexactly": 3176,
      "Ġtask": 3177,
      "Ġbank": 3178,
      "Ġcow": 3179,
      "Ġtot": 3180,
      "ĠThese": 3181,
      "Ġconvers": 3182,
      "ishing": 3183,
      "icted": 3184,
      "Ġbackground": 3185,
      "Ġhumans": 3186,
      "Ġhighly": 3187,
      "Ġspends": 3188,
      "ĠNorth": 3189,
      "Ġprivate": 3190,
      "aud": 3191,
      "father": 3192,
      "oly": 3193,
      "omen": 3194,
      "icts": 3195,
      "ros": 3196,
      "ĠMary": 3197,
      "ĠHen": 3198,
      "estival": 3199,
      "Ġshock": 3200,
      "ĠRy": 3201,
      "ĠNick": 3202,
      "Ġrural": 3203,
      "Ġintense": 3204,
      "Ġspent": 3205,
      "ĠOh": 3206,
      "ĠUp": 3207,
      "Ġdesp": 3208,
      "Ġblind": 3209,
      "Ġperspective": 3210,
      "Ġappre": 3211,
      "Ġcreated": 3212,
      "Ġdramatic": 3213,
      "Ġcontinues": 3214,
      "ĠGermany": 3215,
      "ging": 3216,
      "now": 3217,
      "Ġcold": 3218,
      "Ġtou": 3219,
      "Ġpull": 3220,
      "ĠDis": 3221,
      "ĠLife": 3222,
      "ends": 3223,
      "Ġincreas": 3224,
      "Ġdirected": 3225,
      "Ġunivers": 3226,
      "Ġimmedi": 3227,
      "Ġconnection": 3228,
      "more": 3229,
      "Ġwedding": 3230,
      "Ġhang": 3231,
      "room": 3232,
      "ĠMil": 3233,
      "ceed": 3234,
      "ĠPart": 3235,
      "Ġride": 3236,
      "Ġjustice": 3237,
      "Ġcaptured": 3238,
      "Ġassass": 3239,
      "Ġstruggling": 3240,
      "Ġtravels": 3241,
      "Ġwait": 3242,
      "Ġphotograph": 3243,
      "Ġanti": 3244,
      "Ġfellow": 3245,
      "'ll": 3246,
      "ency": 3247,
      "ĠAust": 3248,
      "Ġonto": 3249,
      "ĠBroad": 3250,
      "illing": 3251,
      "ĠPol": 3252,
      "agon": 3253,
      "Ġrealize": 3254,
      "Ġsurreal": 3255,
      "ugs": 3256,
      "Ġinvestigation": 3257,
      "Ġsleep": 3258,
      "bs": 3259,
      "dom": 3260,
      "ham": 3261,
      "ping": 3262,
      "tain": 3263,
      "ints": 3264,
      "rets": 3265,
      "Ġfan": 3266,
      "Ġmir": 3267,
      "Ġeasy": 3268,
      "urd": 3269,
      "urch": 3270,
      "ĠCr": 3271,
      "Ġalthough": 3272,
      "aint": 3273,
      "ustr": 3274,
      "ogn": 3275,
      "ogue": 3276,
      "Ġintern": 3277,
      "cover": 3278,
      "ext": 3279,
      "Ġcreating": 3280,
      "ĠOnce": 3281,
      "Ġwrite": 3282,
      "Ġfilmmakers": 3283,
      "Ġfeaturing": 3284,
      "Ġinteresting": 3285,
      "Ġmountain": 3286,
      "Ġiconic": 3287,
      "Ġenviron": 3288,
      "Ġer": 3289,
      "Ġbreat": 3290,
      "Ġgonna": 3291,
      "Ġund": 3292,
      "ĠMax": 3293,
      "Ġcomfort": 3294,
      "Ġ17": 3295,
      "ived": 3296,
      "Ġorph": 3297,
      "itty": 3298,
      "resses": 3299,
      "Ġremains": 3300,
      "Ġvision": 3301,
      "Ġkiller": 3302,
      "Ġbox": 3303,
      "Ġopening": 3304,
      "Ġdisturb": 3305,
      "Ġarrival": 3306,
      "Ġkidn": 3307,
      "Ġdefin": 3308,
      "Ġcollabor": 3309,
      "Ġbroken": 3310,
      "Ġhilarious": 3311,
      "ators": 3312,
      "Ġpal": 3313,
      "Ġpian": 3314,
      "ĠMex": 3315,
      "ĠCapt": 3316,
      "Ġthemes": 3317,
      "Ġ193": 3318,
      "Ġoffer": 3319,
      "ĠWhite": 3320,
      "ĠPrince": 3321,
      "ĠItalian": 3322,
      "Ġrescue": 3323,
      "Ġcruel": 3324,
      "ĠOscar": 3325,
      "Ġcircumst": 3326,
      "VE": 3327,
      "mark": 3328,
      "ugg": 3329,
      "Ġlangu": 3330,
      "asing": 3331,
      "ether": 3332,
      "Ġones": 3333,
      "sey": 3334,
      "ĠBo": 3335,
      "Ġability": 3336,
      "Ġunc": 3337,
      "abb": 3338,
      "Ġincident": 3339,
      "Ġrecon": 3340,
      "soci": 3341,
      "Ġreflect": 3342,
      "Ġcapture": 3343,
      "Ġimmig": 3344,
      "ological": 3345,
      "Ġoppos": 3346,
      "Ġpopular": 3347,
      "ĠGeneral": 3348,
      "afe": 3349,
      "ners": 3350,
      "Ġburn": 3351,
      "itch": 3352,
      "amur": 3353,
      "Ġjail": 3354,
      "ĠThree": 3355,
      "ĠUnder": 3356,
      "Ġtrial": 3357,
      "Ġaccess": 3358,
      "Ġrepor": 3359,
      "Ġrefle": 3360,
      "Ġmedia": 3361,
      "Ġtroubled": 3362,
      "how": 3363,
      "ĠX": 3364,
      "Ġcool": 3365,
      "Ġthous": 3366,
      "Ġstation": 3367,
      "ĠLike": 3368,
      "ellig": 3369,
      "Ġperforms": 3370,
      "Ġbreaking": 3371,
      "Ġstreets": 3372,
      "borough": 3373,
      "Ġdecision": 3374,
      "Ġlandscap": 3375,
      "Ġfinancial": 3376,
      "Ġenvironment": 3377,
      "back": 3378,
      "Ġ/": 3379,
      "Ġtem": 3380,
      "Ġtears": 3381,
      "Ġast": 3382,
      "itiz": 3383,
      "ica": 3384,
      "ĠAc": 3385,
      "iro": 3386,
      "Ġfort": 3387,
      "usan": 3388,
      "Ġarea": 3389,
      "Ġcomplicated": 3390,
      "ieces": 3391,
      "ĠIsrael": 3392,
      "ĠQueen": 3393,
      "piring": 3394,
      "Ġapproach": 3395,
      "Ġnormal": 3396,
      "body": 3397,
      "iar": 3398,
      "nam": 3399,
      "Ġz": 3400,
      "Ġball": 3401,
      "Ġbroad": 3402,
      "Ġhol": 3403,
      "Ġmach": 3404,
      "Ġdying": 3405,
      "Ġstat": 3406,
      "ĠMi": 3407,
      "ĠHir": 3408,
      "ĠWall": 3409,
      "ape": 3410,
      "Ġperhaps": 3411,
      "Ġcompos": 3412,
      "Ġshowc": 3413,
      "Ġhell": 3414,
      "Ġcreative": 3415,
      "scenes": 3416,
      "winning": 3417,
      "Ġweeks": 3418,
      "ĠKorean": 3419,
      "ĠPeter": 3420,
      "Ġchallenges": 3421,
      "ING": 3422,
      "Ġrepresent": 3423,
      "Ġearlier": 3424,
      "It": 3425,
      "iest": 3426,
      "vely": 3427,
      "Ġsac": 3428,
      "Ġhun": 3429,
      "arily": 3430,
      "ĠBased": 3431,
      "Ġassoci": 3432,
      "ĠCar": 3433,
      "Ġship": 3434,
      "Ġguard": 3435,
      "Ġconsum": 3436,
      "Ġletter": 3437,
      "uko": 3438,
      "Ġrecording": 3439,
      "Ġunfold": 3440,
      "Ġchoice": 3441,
      "ĠJackson": 3442,
      "Ġsuffering": 3443,
      "Ġdebut": 3444,
      "Ġfascinating": 3445,
      "port": 3446,
      "Ġmatch": 3447,
      "ication": 3448,
      "ĠSun": 3449,
      "ified": 3450,
      "ĠJose": 3451,
      "ĠGreat": 3452,
      "Ġworkers": 3453,
      "ogether": 3454,
      "Ġtrapped": 3455,
      "Ġpresents": 3456,
      "ĠAtten": 3457,
      "Ġuniverse": 3458,
      "unted": 3459,
      "Ġcorrupt": 3460,
      "ĠEnglish": 3461,
      "ĠJewish": 3462,
      "Ġabandoned": 3463,
      "Ġappreci": 3464,
      "ĠAttenborough": 3465,
      "mon": 3466,
      "itious": 3467,
      "icious": 3468,
      "Ġghost": 3469,
      "olves": 3470,
      "ĠSch": 3471,
      "ĠBruce": 3472,
      "ĠCor": 3473,
      "Ġalien": 3474,
      "Ġunp": 3475,
      "ago": 3476,
      "....": 3477,
      "epend": 3478,
      "ĠViet": 3479,
      "Ġaccl": 3480,
      "Ġhappen": 3481,
      "Ġteach": 3482,
      "Ġstudy": 3483,
      "Ġdetective": 3484,
      "Ġassist": 3485,
      "Ġideas": 3486,
      "Ġteenage": 3487,
      "rifying": 3488,
      "Ġphilos": 3489,
      "house": 3490,
      "ns": 3491,
      "oes": 3492,
      "Ġhits": 3493,
      "Ġlack": 3494,
      "irm": 3495,
      "ecess": 3496,
      "ĠWat": 3497,
      "ĠFred": 3498,
      "ĠJes": 3499,
      "Ġris": 3500,
      "Ġ100": 3501,
      "ĠUs": 3502,
      "Ġdirectly": 3503,
      "Ġcamer": 3504,
      "Ġwaiting": 3505,
      "Ġultimate": 3506,
      "Americ": 3507,
      "ON": 3508,
      "low": 3509,
      "nes": 3510,
      "oke": 3511,
      "uin": 3512,
      "Ġrou": 3513,
      "eries": 3514,
      "atives": 3515,
      "anch": 3516,
      "icul": 3517,
      "earing": 3518,
      "ĠJan": 3519,
      "Ġunl": 3520,
      "Ġruth": 3521,
      "angers": 3522,
      "Ġener": 3523,
      "ĠStan": 3524,
      "Ġrestaur": 3525,
      "Ġregard": 3526,
      "Ġprogram": 3527,
      "AR": 3528,
      "bing": 3529,
      "cr": 3530,
      "cts": 3531,
      "Ġsell": 3532,
      "Ġbed": 3533,
      "Ġcitiz": 3534,
      "Ġdig": 3535,
      "icate": 3536,
      "Ġpract": 3537,
      "Ġactual": 3538,
      "Ġcompet": 3539,
      "Ġboyfriend": 3540,
      "Ġbelong": 3541,
      "Ġsubjects": 3542,
      "ograp": 3543,
      "ĠSoon": 3544,
      "Ġcultural": 3545,
      "Ġhonor": 3546,
      "Ġmorning": 3547,
      "Ġborder": 3548,
      "Ġfully": 3549,
      "Ġarrested": 3550,
      "Ġpurpose": 3551,
      "stein": 3552,
      "Ġpregnant": 3553,
      "ih": 3554,
      "orious": 3555,
      "anity": 3556,
      "Ġtouch": 3557,
      "Ġdin": 3558,
      "Ġisol": 3559,
      "ĠTim": 3560,
      "oto": 3561,
      "oted": 3562,
      "urs": 3563,
      "ĠSol": 3564,
      "rible": 3565,
      "Ġlies": 3566,
      "rog": 3567,
      "ulation": 3568,
      "Ġalco": 3569,
      "ĠRoy": 3570,
      "Ġacting": 3571,
      "awa": 3572,
      "Ġcommitted": 3573,
      "ĠAndrew": 3574,
      "Ġstruct": 3575,
      "Ġpursu": 3576,
      "Ġteenager": 3577,
      "Ġsilent": 3578,
      "Ġpotential": 3579,
      "Ġservice": 3580,
      "Ġnumber": 3581,
      "Ġelder": 3582,
      "ĠMartin": 3583,
      "ĠAnton": 3584,
      "Ġspectac": 3585,
      "eal": 3586,
      "kind": 3587,
      "Ġ$": 3588,
      "Ġded": 3589,
      "Ġdial": 3590,
      "ilities": 3591,
      "Ġstorm": 3592,
      "ĠBra": 3593,
      "ĠHam": 3594,
      "anda": 3595,
      "Ġcomed": 3596,
      "Ġjump": 3597,
      "Ġunb": 3598,
      "ability": 3599,
      "iber": 3600,
      "Ġpred": 3601,
      "Ġcommon": 3602,
      "Ġcaptiv": 3603,
      "Ġsweet": 3604,
      "Ġeffort": 3605,
      "Ġunfor": 3606,
      "ĠJean": 3607,
      "Ġreligious": 3608,
      "Ġlanguage": 3609,
      "rical": 3610,
      "Ã¨": 3611,
      "Ġir": 3612,
      "Ġtim": 3613,
      "ini": 3614,
      "Ġtherap": 3615,
      "Ġsqu": 3616,
      "Ġhig": 3617,
      "Ġdies": 3618,
      "ĠTur": 3619,
      "ached": 3620,
      "irty": 3621,
      "vert": 3622,
      "odies": 3623,
      "Ġvar": 3624,
      "Ġshown": 3625,
      "ĠLive": 3626,
      "ĠOver": 3627,
      "Ġeveryday": 3628,
      "Ġowner": 3629,
      "Ġpartner": 3630,
      "Ġgrows": 3631,
      "Ġyourself": 3632,
      "Ġobvious": 3633,
      "Ġ202": 3634,
      "Ġassign": 3635,
      "Ġmystery": 3636,
      "Ġputs": 3637,
      "Ġperfectly": 3638,
      "Ġlosing": 3639,
      "Ġposition": 3640,
      "Ġembark": 3641,
      "Ġportrayal": 3642,
      "ĠBroadway": 3643,
      "Th": 3644,
      "ca": 3645,
      "yer": 3646,
      "Ġcal": 3647,
      "Ġpen": 3648,
      "Ġnational": 3649,
      "ĠAward": 3650,
      "Ġstuff": 3651,
      "Ġanime": 3652,
      "hern": 3653,
      "cepts": 3654,
      "abe": 3655,
      "anted": 3656,
      "Ġactions": 3657,
      "Ġdeser": 3658,
      "Ġcolon": 3659,
      "Ġmaybe": 3660,
      "Ġminute": 3661,
      "Ġbuy": 3662,
      "Ġbuilt": 3663,
      "Ġmurdered": 3664,
      "undred": 3665,
      "Ġprovides": 3666,
      "Ġmissing": 3667,
      "Ġ50": 3668,
      "Ġfocuses": 3669,
      "Ġcondition": 3670,
      "Ġhotel": 3671,
      "ĠPalestinian": 3672,
      "AN": 3673,
      "LL": 3674,
      "ease": 3675,
      "ique": 3676,
      "itude": 3677,
      "Ġpus": 3678,
      "verty": 3679,
      "ading": 3680,
      "ĠMag": 3681,
      "ĠMatt": 3682,
      "Ġlovers": 3683,
      "ained": 3684,
      "Ġmeant": 3685,
      "Ġclub": 3686,
      "ĠVinc": 3687,
      "Ġimagine": 3688,
      "Ġviewers": 3689,
      "Ġfighting": 3690,
      "Ġrecorded": 3691,
      "Ġpossess": 3692,
      "Ġmagical": 3693,
      "Ġconsidered": 3694,
      "Ġinformation": 3695,
      "ĠFrancisco": 3696,
      "Ġorphan": 3697,
      "amurai": 3698,
      "Ġacclaimed": 3699,
      "Ġod": 3700,
      "ilar": 3701,
      "omed": 3702,
      "ima": 3703,
      "Ġrese": 3704,
      "amb": 3705,
      "ĠSy": 3706,
      "ĠBoy": 3707,
      "ĠDet": 3708,
      "ĠLove": 3709,
      "Ġunw": 3710,
      "ĠEach": 3711,
      "Ġentirely": 3712,
      "uki": 3713,
      "Ġchanged": 3714,
      "Ġ1980": 3715,
      "Ġsilence": 3716,
      "Ġvictims": 3717,
      "Ġtradition": 3718,
      "Ġaccompan": 3719,
      "??": 3720,
      "OU": 3721,
      "pired": 3722,
      "isf": 3723,
      "Ġfram": 3724,
      "illy": 3725,
      "Ġjud": 3726,
      "ĠGo": 3727,
      "Ġtracks": 3728,
      "Ġmanager": 3729,
      "Ġenemy": 3730,
      "action": 3731,
      "Ġbetray": 3732,
      "ĠAlong": 3733,
      "Ġwarm": 3734,
      "Ġraised": 3735,
      "who": 3736,
      "Ġneighb": 3737,
      "Ġ1970": 3738,
      "Ġheavy": 3739,
      "Ġopportunity": 3740,
      "Ġbehavior": 3741,
      "ĠVietnam": 3742,
      "?âĢĿ": 3743,
      "uel": 3744,
      "hew": 3745,
      "Ġban": 3746,
      "arre": 3747,
      "Ġluck": 3748,
      "asts": 3749,
      "Ġeas": 3750,
      "vey": 3751,
      "ademy": 3752,
      "ĠMor": 3753,
      "rab": 3754,
      "Ġtrust": 3755,
      "Ġcrowd": 3756,
      "Ġpolic": 3757,
      "Ġraw": 3758,
      "Ġpoverty": 3759,
      "Ġsetting": 3760,
      "Ġhappiness": 3761,
      "Ġsecrets": 3762,
      "Ġcreatures": 3763,
      "Ġcinemat": 3764,
      "Ġefforts": 3765,
      "Ġgeneration": 3766,
      "Ġmagic": 3767,
      "ĠJimmy": 3768,
      "EN": 3769,
      "II": 3770,
      "cÃ©": 3771,
      "hold": 3772,
      "men": 3773,
      "tw": 3774,
      "whel": 3775,
      "oud": 3776,
      "Ġinex": 3777,
      "Ġgave": 3778,
      "imp": 3779,
      "Ġnav": 3780,
      "Ġready": 3781,
      "Ġstore": 3782,
      "ĠSister": 3783,
      "ravel": 3784,
      "Ġprostit": 3785,
      "Ġplane": 3786,
      "Ġagent": 3787,
      "Ġshowing": 3788,
      "ĠWhy": 3789,
      "Ġdepicts": 3790,
      "ĠJohnny": 3791,
      "Ġproducer": 3792,
      "Ġdeliver": 3793,
      "Ġheads": 3794,
      "ĠMrs": 3795,
      "Ġengine": 3796,
      "awn": 3797,
      "Ġbase": 3798,
      "enced": 3799,
      "itz": 3800,
      "Ġhuge": 3801,
      "Ġlow": 3802,
      "Ġemer": 3803,
      "umph": 3804,
      "Ġcomment": 3805,
      "Ġdefe": 3806,
      "Ġabove": 3807,
      "ĠRick": 3808,
      "ella": 3809,
      "agers": 3810,
      "Ġprove": 3811,
      "ĠKar": 3812,
      "Ġrecogn": 3813,
      "Ġperforming": 3814,
      "Ġbeloved": 3815,
      "ledge": 3816,
      "Ġpolitics": 3817,
      "Ġdealing": 3818,
      "Ġdrugs": 3819,
      "Ġsignific": 3820,
      "Ġprofessional": 3821,
      "Ġtalent": 3822,
      "ĠWilliams": 3823,
      "ĠMusic": 3824,
      "Ġdevastating": 3825,
      "ĠWalter": 3826,
      "Ġfantastic": 3827,
      "',": 3828,
      "eing": 3829,
      "fer": 3830,
      "ford": 3831,
      "gely": 3832,
      "ux": 3833,
      "Ġtort": 3834,
      "Ġaf": 3835,
      "inent": 3836,
      "atr": 3837,
      "Ġcab": 3838,
      "Ġhaven": 3839,
      "Ġpowers": 3840,
      "Ġlaugh": 3841,
      "entially": 3842,
      "iday": 3843,
      "eman": 3844,
      "arted": 3845,
      "ĠEn": 3846,
      "ples": 3847,
      "Ġgoal": 3848,
      "Ġworker": 3849,
      "Ġ21": 3850,
      "ensive": 3851,
      "Ġblock": 3852,
      "Ġaccount": 3853,
      "ermaid": 3854,
      "Ġproduced": 3855,
      "ugust": 3856,
      "Ġcontinue": 3857,
      "Ġlargely": 3858,
      "rific": 3859,
      "Ġcounter": 3860,
      "Ġphilosoph": 3861,
      "AM": 3862,
      "fit": 3863,
      "ij": 3864,
      "let": 3865,
      "oid": 3866,
      "Ġve": 3867,
      "Ġutter": 3868,
      "Ġtro": 3869,
      "Ġsafe": 3870,
      "Ġcause": 3871,
      "Ġcaught": 3872,
      "Ġdad": 3873,
      "eland": 3874,
      "ĠTogether": 3875,
      "Ġnative": 3876,
      "lear": 3877,
      "Ġintellig": 3878,
      "Ġ14": 3879,
      "iple": 3880,
      "icks": 3881,
      "Ġseek": 3882,
      "ismatic": 3883,
      "Ġhelps": 3884,
      "Ġrepe": 3885,
      "Ġcreates": 3886,
      "Ġcourage": 3887,
      "Ġdriver": 3888,
      "ddie": 3889,
      "Ġromance": 3890,
      "Ġtechnology": 3891,
      "Ġinnocent": 3892,
      "Ġterms": 3893,
      "Ġruthless": 3894,
      "Ġrestaurant": 3895,
      "AT": 3896,
      "ST": 3897,
      "kin": 3898,
      "Ã¡": 3899,
      "Ġsib": 3900,
      "Ġsamurai": 3901,
      "Ġcy": 3902,
      "Ġpack": 3903,
      "Ġpieces": 3904,
      "ĠTen": 3905,
      "Ġgold": 3906,
      "ution": 3907,
      "ĠAugust": 3908,
      "Ġbefriend": 3909,
      "ida": 3910,
      "âĢľ": 3911,
      "ecause": 3912,
      "Ġfilming": 3913,
      "Ġneg": 3914,
      "osen": 3915,
      "pping": 3916,
      "Ġcontact": 3917,
      "Ġseeks": 3918,
      "Ġrights": 3919,
      "Ġleaders": 3920,
      "ission": 3921,
      "Ġcovers": 3922,
      "Ġsurvival": 3923,
      "Ġcontinu": 3924,
      "Ġstreng": 3925,
      "Ġcircumstances": 3926,
      "hour": 3927,
      "ern": 3928,
      "Ġsed": 3929,
      "Ġcul": 3930,
      "Ġhired": 3931,
      "Ġhyp": 3932,
      "Ġreaches": 3933,
      "ams": 3934,
      "ript": 3935,
      "Ġmoved": 3936,
      "Ġweird": 3937,
      "ĠChina": 3938,
      "Ġrealizes": 3939,
      "ocal": 3940,
      "Ġamid": 3941,
      "ĠWho": 3942,
      "Ġacts": 3943,
      "Ġindepend": 3944,
      "Ġbelief": 3945,
      "Ġdrive": 3946,
      "uclear": 3947,
      "Ġforest": 3948,
      "ĠIndian": 3949,
      "Ġreceives": 3950,
      "Ġtitle": 3951,
      "ĠCaptain": 3952,
      "OR": 3953,
      "maker": 3954,
      "pet": 3955,
      "Ġfiction": 3956,
      "Ġfilled": 3957,
      "Ġbiz": 3958,
      "itely": 3959,
      "eliness": 3960,
      "etime": 3961,
      "etwork": 3962,
      "aded": 3963,
      "using": 3964,
      "okes": 3965,
      "Ġstoryt": 3966,
      "Ġoverwhel": 3967,
      "Ġendless": 3968,
      "Ġexplore": 3969,
      "Ġpassing": 3970,
      "Ġdemon": 3971,
      "Ġconstantly": 3972,
      "ĠFollowing": 3973,
      "Ġchronicles": 3974,
      "Ġdoub": 3975,
      "Ġordinary": 3976,
      "Ġdivorce": 3977,
      "Ġimmediately": 3978,
      "ĠJoseph": 3979,
      "Ġnavig": 3980,
      "med": 3981,
      "mber": 3982,
      "rays": 3983,
      "writer": 3984,
      "Ġfian": 3985,
      "Ġbatt": 3986,
      "itor": 3987,
      "iling": 3988,
      "iled": 3989,
      "Ġnecess": 3990,
      "Ġrepl": 3991,
      "ĠIts": 3992,
      "Ġexcl": 3993,
      "ĠFour": 3994,
      "Ġvac": 3995,
      "iving": 3996,
      "aret": 3997,
      "Ġagrees": 3998,
      "Ġdecided": 3999
    },
    "merges": [
      [
        "Ġ",
        "t"
      ],
      [
        "Ġ",
        "a"
      ],
      [
        "h",
        "e"
      ],
      [
        "i",
        "n"
      ],
      [
        "Ġt",
        "he"
      ],
      [
        "e",
        "r"
      ],
      [
        "Ġ",
        "o"
      ],
      [
        "Ġ",
        "s"
      ],
      [
        "r",
        "e"
      ],
      [
        "i",
        "s"
      ],
      [
        "n",
        "d"
      ],
      [
        "Ġ",
        "w"
      ],
      [
        "Ġ",
        "f"
      ],
      [
        "e",
        "s"
      ],
      [
        "a",
        "t"
      ],
      [
        "o",
        "n"
      ],
      [
        "in",
        "g"
      ],
      [
        "Ġ",
        "b"
      ],
      [
        "Ġ",
        "c"
      ],
      [
        "e",
        "n"
      ],
      [
        "i",
        "t"
      ],
      [
        "o",
        "r"
      ],
      [
        "Ġ",
        "h"
      ],
      [
        "Ġ",
        "m"
      ],
      [
        "a",
        "n"
      ],
      [
        "Ġa",
        "nd"
      ],
      [
        "Ġo",
        "f"
      ],
      [
        "a",
        "r"
      ],
      [
        "Ġt",
        "o"
      ],
      [
        "o",
        "u"
      ],
      [
        "a",
        "l"
      ],
      [
        "Ġ",
        "p"
      ],
      [
        "Ġ",
        "d"
      ],
      [
        "Ġ",
        "in"
      ],
      [
        "e",
        "d"
      ],
      [
        "Ġ",
        "l"
      ],
      [
        "i",
        "l"
      ],
      [
        "o",
        "m"
      ],
      [
        "Ġt",
        "h"
      ],
      [
        "i",
        "c"
      ],
      [
        "a",
        "s"
      ],
      [
        "Ġ",
        "e"
      ],
      [
        "Ġ",
        "he"
      ],
      [
        "e",
        "l"
      ],
      [
        "Ġ",
        "is"
      ],
      [
        "i",
        "on"
      ],
      [
        "Ġ",
        "T"
      ],
      [
        "Ġ",
        "g"
      ],
      [
        "en",
        "t"
      ],
      [
        "e",
        "t"
      ],
      [
        "i",
        "m"
      ],
      [
        "s",
        "t"
      ],
      [
        "Ġ",
        "n"
      ],
      [
        "Ġ",
        "re"
      ],
      [
        "l",
        "y"
      ],
      [
        "l",
        "e"
      ],
      [
        "u",
        "t"
      ],
      [
        "o",
        "w"
      ],
      [
        "v",
        "e"
      ],
      [
        "o",
        "t"
      ],
      [
        "Ġ",
        "A"
      ],
      [
        "Ġ",
        "I"
      ],
      [
        "a",
        "c"
      ],
      [
        "i",
        "r"
      ],
      [
        "Ġb",
        "e"
      ],
      [
        "o",
        "l"
      ],
      [
        "Ġo",
        "n"
      ],
      [
        "v",
        "er"
      ],
      [
        "Ġh",
        "is"
      ],
      [
        "Ġs",
        "t"
      ],
      [
        "Ġw",
        "h"
      ],
      [
        "u",
        "r"
      ],
      [
        "a",
        "m"
      ],
      [
        "it",
        "h"
      ],
      [
        "Ġ",
        "S"
      ],
      [
        "Ġ",
        "u"
      ],
      [
        "i",
        "d"
      ],
      [
        "g",
        "h"
      ],
      [
        "a",
        "y"
      ],
      [
        "Ġw",
        "ith"
      ],
      [
        "t",
        "er"
      ],
      [
        "Ġf",
        "or"
      ],
      [
        "â",
        "Ģ"
      ],
      [
        "R",
        "E"
      ],
      [
        "r",
        "i"
      ],
      [
        "Ġ",
        "<"
      ],
      [
        "S",
        "Y"
      ],
      [
        "a",
        "d"
      ],
      [
        "RE",
        "V"
      ],
      [
        "SY",
        "N"
      ],
      [
        "e",
        "c"
      ],
      [
        "Ġth",
        "at"
      ],
      [
        "Ġl",
        "i"
      ],
      [
        "r",
        "o"
      ],
      [
        "Ġa",
        "n"
      ],
      [
        "Ġ",
        "M"
      ],
      [
        "Ġ",
        "y"
      ],
      [
        "'",
        "s"
      ],
      [
        "s",
        "e"
      ],
      [
        "Ġ",
        "B"
      ],
      [
        "he",
        "r"
      ],
      [
        "Ġa",
        "s"
      ],
      [
        "ĠT",
        "he"
      ],
      [
        "Ġ",
        "it"
      ],
      [
        "a",
        "k"
      ],
      [
        "c",
        "e"
      ],
      [
        "Ġ",
        "H"
      ],
      [
        "Ġhe",
        "r"
      ],
      [
        "c",
        "h"
      ],
      [
        "u",
        "l"
      ],
      [
        "Ġ",
        "W"
      ],
      [
        "Ġ",
        "C"
      ],
      [
        "Ġa",
        "l"
      ],
      [
        "r",
        "a"
      ],
      [
        "il",
        "l"
      ],
      [
        "Ġm",
        "o"
      ],
      [
        "âĢ",
        "Ļ"
      ],
      [
        "l",
        "d"
      ],
      [
        "g",
        "e"
      ],
      [
        "at",
        "ion"
      ],
      [
        "r",
        "om"
      ],
      [
        "u",
        "m"
      ],
      [
        "e",
        "m"
      ],
      [
        "t",
        "s"
      ],
      [
        "u",
        "s"
      ],
      [
        "a",
        "nd"
      ],
      [
        "es",
        "t"
      ],
      [
        "Ġwh",
        "o"
      ],
      [
        "Ġy",
        "ou"
      ],
      [
        "Ġc",
        "on"
      ],
      [
        "er",
        "s"
      ],
      [
        "Ġl",
        "o"
      ],
      [
        "Ġb",
        "y"
      ],
      [
        "es",
        "s"
      ],
      [
        "Ġa",
        "t"
      ],
      [
        "il",
        "m"
      ],
      [
        "Ġe",
        "x"
      ],
      [
        "Ġthe",
        "ir"
      ],
      [
        "Ġth",
        "is"
      ],
      [
        "u",
        "n"
      ],
      [
        "a",
        "p"
      ],
      [
        "i",
        "e"
      ],
      [
        "Ġ",
        "D"
      ],
      [
        "e",
        "ar"
      ],
      [
        "Ġc",
        "om"
      ],
      [
        "i",
        "f"
      ],
      [
        "Ġf",
        "ilm"
      ],
      [
        "Ġf",
        "rom"
      ],
      [
        "o",
        "p"
      ],
      [
        "c",
        "t"
      ],
      [
        "o",
        "d"
      ],
      [
        "Ġ",
        "F"
      ],
      [
        "Ġc",
        "h"
      ],
      [
        "Ġ",
        "P"
      ],
      [
        "Ġ",
        "v"
      ],
      [
        "Ġ",
        "J"
      ],
      [
        "is",
        "t"
      ],
      [
        "Ġs",
        "e"
      ],
      [
        "Ġw",
        "or"
      ],
      [
        "r",
        "ou"
      ],
      [
        "Ġs",
        "h"
      ],
      [
        "t",
        "h"
      ],
      [
        "i",
        "es"
      ],
      [
        "Ġ",
        "L"
      ],
      [
        "Ġd",
        "e"
      ],
      [
        "Ġa",
        "re"
      ],
      [
        "re",
        "s"
      ],
      [
        "Ġa",
        "b"
      ],
      [
        "in",
        "d"
      ],
      [
        "gh",
        "t"
      ],
      [
        "Ġ",
        "k"
      ],
      [
        "a",
        "in"
      ],
      [
        "Ġ",
        "j"
      ],
      [
        "Ġn",
        "e"
      ],
      [
        "Ġu",
        "n"
      ],
      [
        "Ġ",
        "R"
      ],
      [
        "Ġ",
        "G"
      ],
      [
        "Ġb",
        "ut"
      ],
      [
        "a",
        "b"
      ],
      [
        "an",
        "t"
      ],
      [
        "at",
        "e"
      ],
      [
        "i",
        "ve"
      ],
      [
        "Ġd",
        "o"
      ],
      [
        "al",
        "ly"
      ],
      [
        "o",
        "s"
      ],
      [
        "u",
        "st"
      ],
      [
        "ou",
        "t"
      ],
      [
        "Ġ",
        "N"
      ],
      [
        "ar",
        "t"
      ],
      [
        "it",
        "y"
      ],
      [
        "e",
        "nd"
      ],
      [
        "Ġw",
        "he"
      ],
      [
        "i",
        "g"
      ],
      [
        "ou",
        "s"
      ],
      [
        "Ġ",
        "E"
      ],
      [
        "Ġh",
        "as"
      ],
      [
        "v",
        "es"
      ],
      [
        "Ġh",
        "im"
      ],
      [
        "Ġthe",
        "y"
      ],
      [
        "Ġw",
        "as"
      ],
      [
        "om",
        "e"
      ],
      [
        "Ġ",
        "r"
      ],
      [
        "q",
        "u"
      ],
      [
        "a",
        "ve"
      ],
      [
        "al",
        "l"
      ],
      [
        "Ġs",
        "u"
      ],
      [
        "f",
        "e"
      ],
      [
        "ec",
        "t"
      ],
      [
        "Ġin",
        "t"
      ],
      [
        "Ġ",
        "1"
      ],
      [
        "on",
        "g"
      ],
      [
        "el",
        "l"
      ],
      [
        "ac",
        "k"
      ],
      [
        "Ġm",
        "e"
      ],
      [
        "Ġn",
        "ot"
      ],
      [
        "a",
        "g"
      ],
      [
        "Ġs",
        "o"
      ],
      [
        "Ġp",
        "ro"
      ],
      [
        "Ġs",
        "p"
      ],
      [
        "im",
        "e"
      ],
      [
        "Ġ",
        "O"
      ],
      [
        "Ġli",
        "fe"
      ],
      [
        "Ġon",
        "e"
      ],
      [
        "u",
        "d"
      ],
      [
        "Ġt",
        "r"
      ],
      [
        "or",
        "y"
      ],
      [
        "Ġp",
        "l"
      ],
      [
        "Ġs",
        "he"
      ],
      [
        "ĠT",
        "h"
      ],
      [
        "k",
        "e"
      ],
      [
        "Ġm",
        "an"
      ],
      [
        "u",
        "re"
      ],
      [
        "Ġ",
        "K"
      ],
      [
        "as",
        "t"
      ],
      [
        "ar",
        "d"
      ],
      [
        "ou",
        "r"
      ],
      [
        "Ġ",
        "\""
      ],
      [
        "Ġ",
        "("
      ],
      [
        "p",
        "l"
      ],
      [
        "ver",
        "y"
      ],
      [
        "or",
        "t"
      ],
      [
        "Ġal",
        "l"
      ],
      [
        "Ġo",
        "ut"
      ],
      [
        "id",
        "e"
      ],
      [
        "Ġg",
        "o"
      ],
      [
        "Ġab",
        "out"
      ],
      [
        "p",
        "er"
      ],
      [
        "i",
        "v"
      ],
      [
        "i",
        "re"
      ],
      [
        "Ġu",
        "p"
      ],
      [
        "Ġl",
        "e"
      ],
      [
        "on",
        "e"
      ],
      [
        "o",
        "re"
      ],
      [
        "Ġh",
        "ave"
      ],
      [
        "i",
        "ght"
      ],
      [
        "a",
        "ge"
      ],
      [
        "o",
        "k"
      ],
      [
        "ar",
        "y"
      ],
      [
        "a",
        "re"
      ],
      [
        "a",
        "v"
      ],
      [
        "Ġa",
        "r"
      ],
      [
        "ic",
        "h"
      ],
      [
        "Ġo",
        "r"
      ],
      [
        "i",
        "an"
      ],
      [
        "Ġe",
        "v"
      ],
      [
        "i",
        "p"
      ],
      [
        "re",
        "at"
      ],
      [
        "ak",
        "e"
      ],
      [
        "n",
        "g"
      ],
      [
        "Ġ",
        "im"
      ],
      [
        "Ġint",
        "o"
      ],
      [
        "i",
        "al"
      ],
      [
        "en",
        "ce"
      ],
      [
        "el",
        "y"
      ],
      [
        "r",
        "y"
      ],
      [
        "ĠI",
        "t"
      ],
      [
        "Ġbe",
        "c"
      ],
      [
        "Ġm",
        "y"
      ],
      [
        "n",
        "e"
      ],
      [
        "ĠI",
        "n"
      ],
      [
        "ri",
        "end"
      ],
      [
        "Ġf",
        "e"
      ],
      [
        "w",
        "n"
      ],
      [
        "Ġthe",
        "m"
      ],
      [
        "f",
        "f"
      ],
      [
        "Ġc",
        "l"
      ],
      [
        "Ġc",
        "an"
      ],
      [
        "m",
        "ent"
      ],
      [
        "c",
        "k"
      ],
      [
        "ot",
        "her"
      ],
      [
        "f",
        "ter"
      ],
      [
        "Ġwhe",
        "n"
      ],
      [
        "Ġy",
        "ear"
      ],
      [
        "t",
        "her"
      ],
      [
        "p",
        "p"
      ],
      [
        "ac",
        "e"
      ],
      [
        "Ġt",
        "ime"
      ],
      [
        "r",
        "u"
      ],
      [
        "an",
        "ce"
      ],
      [
        "Ġd",
        "is"
      ],
      [
        "w",
        "o"
      ],
      [
        "a",
        "u"
      ],
      [
        "Ġp",
        "er"
      ],
      [
        "il",
        "e"
      ],
      [
        ".",
        "."
      ],
      [
        "ow",
        "n"
      ],
      [
        "s",
        "el"
      ],
      [
        "il",
        "y"
      ],
      [
        "an",
        "g"
      ],
      [
        "o",
        "nd"
      ],
      [
        "Ġf",
        "am"
      ],
      [
        "v",
        "ie"
      ],
      [
        "Ġ",
        "en"
      ],
      [
        "Ġf",
        "ind"
      ],
      [
        "or",
        "m"
      ],
      [
        "Ġwh",
        "at"
      ],
      [
        "Ġw",
        "ill"
      ],
      [
        "ou",
        "ld"
      ],
      [
        "e",
        "p"
      ],
      [
        "il",
        "d"
      ],
      [
        "o",
        "y"
      ],
      [
        "Ġwor",
        "ld"
      ],
      [
        "ĠTh",
        "is"
      ],
      [
        "Ġw",
        "e"
      ],
      [
        "as",
        "s"
      ],
      [
        "Ġ",
        "Y"
      ],
      [
        "rou",
        "gh"
      ],
      [
        "i",
        "z"
      ],
      [
        "ic",
        "al"
      ],
      [
        "Ġwor",
        "k"
      ],
      [
        "i",
        "ous"
      ],
      [
        "c",
        "c"
      ],
      [
        "m",
        "er"
      ],
      [
        "in",
        "e"
      ],
      [
        "Ġa",
        "g"
      ],
      [
        "Ġs",
        "c"
      ],
      [
        "Ġlo",
        "ve"
      ],
      [
        "Ġ1",
        "9"
      ],
      [
        "ur",
        "n"
      ],
      [
        "an",
        "s"
      ],
      [
        "Ġg",
        "et"
      ],
      [
        "o",
        "g"
      ],
      [
        "n",
        "t"
      ],
      [
        "ic",
        "e"
      ],
      [
        "Ġ",
        "-"
      ],
      [
        "ay",
        "s"
      ],
      [
        "e",
        "en"
      ],
      [
        "ing",
        "s"
      ],
      [
        "Ġf",
        "riend"
      ],
      [
        "Ġli",
        "ke"
      ],
      [
        "Ġmo",
        "re"
      ],
      [
        "Ġp",
        "e"
      ],
      [
        "it",
        "e"
      ],
      [
        "Ġo",
        "ther"
      ],
      [
        "am",
        "e"
      ],
      [
        "f",
        "ul"
      ],
      [
        "Ġst",
        "ory"
      ],
      [
        "ac",
        "h"
      ],
      [
        "Ġh",
        "ow"
      ],
      [
        "ol",
        "l"
      ],
      [
        "o",
        "se"
      ],
      [
        "ion",
        "s"
      ],
      [
        "Ġe",
        "very"
      ],
      [
        "ĠC",
        "h"
      ],
      [
        "Ġof",
        "f"
      ],
      [
        "o",
        "b"
      ],
      [
        "Ġwh",
        "ich"
      ],
      [
        "Ġj",
        "ust"
      ],
      [
        "p",
        "t"
      ],
      [
        "Ġb",
        "r"
      ],
      [
        "Ġne",
        "w"
      ],
      [
        "ab",
        "le"
      ],
      [
        "at",
        "ed"
      ],
      [
        "Ġth",
        "rough"
      ],
      [
        "Ġon",
        "ly"
      ],
      [
        "Ġa",
        "d"
      ],
      [
        "Ġyou",
        "ng"
      ],
      [
        "s",
        "h"
      ],
      [
        "is",
        "h"
      ],
      [
        "Ġ",
        "âĢ"
      ],
      [
        "i",
        "a"
      ],
      [
        "ĠH",
        "e"
      ],
      [
        "ol",
        "d"
      ],
      [
        "Ġ",
        "2"
      ],
      [
        "at",
        "her"
      ],
      [
        "Ġin",
        "c"
      ],
      [
        "Ġo",
        "ver"
      ],
      [
        "at",
        "h"
      ],
      [
        "Ġt",
        "wo"
      ],
      [
        "Ġ",
        "V"
      ],
      [
        "ĠS",
        "t"
      ],
      [
        "nd",
        "er"
      ],
      [
        "sel",
        "f"
      ],
      [
        "i",
        "b"
      ],
      [
        "Ġp",
        "r"
      ],
      [
        "op",
        "le"
      ],
      [
        "Ġs",
        "ome"
      ],
      [
        "Ġk",
        "n"
      ],
      [
        "Ġa",
        "ct"
      ],
      [
        "ic",
        "k"
      ],
      [
        "ow",
        "s"
      ],
      [
        "i",
        "gh"
      ],
      [
        "ac",
        "t"
      ],
      [
        "it",
        "t"
      ],
      [
        "Ġre",
        "s"
      ],
      [
        "c",
        "es"
      ],
      [
        "f",
        "orm"
      ],
      [
        "Ġb",
        "et"
      ],
      [
        "Ġyear",
        "s"
      ],
      [
        "Ġfam",
        "ily"
      ],
      [
        "Ġ",
        "ro"
      ],
      [
        "Ġ",
        "qu"
      ],
      [
        "Ġt",
        "ra"
      ],
      [
        "ar",
        "k"
      ],
      [
        "u",
        "e"
      ],
      [
        "Ġit",
        "s"
      ],
      [
        "res",
        "s"
      ],
      [
        "Ġpe",
        "ople"
      ],
      [
        "Ġmo",
        "st"
      ],
      [
        "ir",
        "st"
      ],
      [
        "Ġre",
        "c"
      ],
      [
        "ap",
        "p"
      ],
      [
        "Ġd",
        "ec"
      ],
      [
        "Ġa",
        "fter"
      ],
      [
        "er",
        "t"
      ],
      [
        "ic",
        "t"
      ],
      [
        "he",
        "n"
      ],
      [
        "d",
        "er"
      ],
      [
        "Ġs",
        "er"
      ],
      [
        "o",
        "st"
      ],
      [
        "Ġcon",
        "t"
      ],
      [
        "Ġ",
        "U"
      ],
      [
        "ak",
        "es"
      ],
      [
        "Ġw",
        "at"
      ],
      [
        "Ġin",
        "ter"
      ],
      [
        "ent",
        "s"
      ],
      [
        "ul",
        "t"
      ],
      [
        "in",
        "k"
      ],
      [
        "s",
        "o"
      ],
      [
        "Ġn",
        "o"
      ],
      [
        "rou",
        "nd"
      ],
      [
        "Ġo",
        "wn"
      ],
      [
        "Ġp",
        "re"
      ],
      [
        "Ġc",
        "r"
      ],
      [
        "Ġe",
        "nd"
      ],
      [
        "Ġbe",
        "ing"
      ],
      [
        "en",
        "s"
      ],
      [
        "ver",
        "s"
      ],
      [
        "o",
        "od"
      ],
      [
        "ak",
        "ing"
      ],
      [
        "Ġw",
        "om"
      ],
      [
        "ir",
        "l"
      ],
      [
        "Ġwhe",
        "re"
      ],
      [
        "re",
        "e"
      ],
      [
        "Ġf",
        "irst"
      ],
      [
        "g",
        "in"
      ],
      [
        "h",
        "ing"
      ],
      [
        "Ġd",
        "es"
      ],
      [
        "Ġb",
        "ack"
      ],
      [
        "ur",
        "ing"
      ],
      [
        "Ġe",
        "m"
      ],
      [
        "Ġcom",
        "p"
      ],
      [
        "Ġu",
        "nder"
      ],
      [
        "c",
        "um"
      ],
      [
        "v",
        "ing"
      ],
      [
        "u",
        "al"
      ],
      [
        "Ġre",
        "l"
      ],
      [
        "o",
        "ol"
      ],
      [
        "v",
        "el"
      ],
      [
        "Ġre",
        "al"
      ],
      [
        "Ġb",
        "l"
      ],
      [
        "or",
        "d"
      ],
      [
        "Ġu",
        "s"
      ],
      [
        "Ġmo",
        "vie"
      ],
      [
        "ad",
        "e"
      ],
      [
        "'",
        "t"
      ],
      [
        "Ġth",
        "an"
      ],
      [
        "ĠA",
        "l"
      ],
      [
        "m",
        "an"
      ],
      [
        "re",
        "n"
      ],
      [
        "Ġat",
        "t"
      ],
      [
        "Ġo",
        "ld"
      ],
      [
        "Ġw",
        "ay"
      ],
      [
        "Ġp",
        "art"
      ],
      [
        "Ġthe",
        "re"
      ],
      [
        "n",
        "ing"
      ],
      [
        "o",
        "c"
      ],
      [
        "Ġan",
        "y"
      ],
      [
        "Ġa",
        "m"
      ],
      [
        "Ġch",
        "ild"
      ],
      [
        "Ġfe",
        "el"
      ],
      [
        "ou",
        "nd"
      ],
      [
        "Ġg",
        "irl"
      ],
      [
        "ou",
        "gh"
      ],
      [
        "Ġs",
        "ur"
      ],
      [
        "Ġh",
        "um"
      ],
      [
        "ou",
        "nt"
      ],
      [
        "c",
        "he"
      ],
      [
        "c",
        "o"
      ],
      [
        "Ġim",
        "p"
      ],
      [
        "u",
        "ch"
      ],
      [
        "p",
        "h"
      ],
      [
        "Ġse",
        "e"
      ],
      [
        "a",
        "w"
      ],
      [
        "r",
        "an"
      ],
      [
        "ter",
        "s"
      ],
      [
        "Ġdo",
        "cum"
      ],
      [
        "Ġt",
        "ri"
      ],
      [
        "ĠB",
        "ut"
      ],
      [
        "sh",
        "ip"
      ],
      [
        "Ġsh",
        "ow"
      ],
      [
        "Ġli",
        "ves"
      ],
      [
        "or",
        "s"
      ],
      [
        "Ġbe",
        "en"
      ],
      [
        "Ġag",
        "ain"
      ],
      [
        "0",
        "0"
      ],
      [
        "Ġm",
        "us"
      ],
      [
        "er",
        "e"
      ],
      [
        "âĢ",
        "Ŀ"
      ],
      [
        "Ġf",
        "ather"
      ],
      [
        "e",
        "w"
      ],
      [
        "Ġre",
        "t"
      ],
      [
        "Ġli",
        "ve"
      ],
      [
        "a",
        "ut"
      ],
      [
        "Ġw",
        "ar"
      ],
      [
        "Ġal",
        "so"
      ],
      [
        "re",
        "d"
      ],
      [
        "Ġp",
        "ol"
      ],
      [
        "l",
        "es"
      ],
      [
        "Ġwh",
        "ile"
      ],
      [
        "ĠW",
        "hen"
      ],
      [
        "Ġ",
        "ra"
      ],
      [
        "ĠA",
        "s"
      ],
      [
        "if",
        "e"
      ],
      [
        "Ġdocum",
        "ent"
      ],
      [
        "Ġp",
        "ers"
      ],
      [
        "p",
        "ect"
      ],
      [
        "Ġch",
        "ar"
      ],
      [
        "i",
        "et"
      ],
      [
        "g",
        "et"
      ],
      [
        "at",
        "ing"
      ],
      [
        "r",
        "it"
      ],
      [
        "Ġev",
        "en"
      ],
      [
        "b",
        "er"
      ],
      [
        "Ġp",
        "o"
      ],
      [
        "Ġne",
        "ver"
      ],
      [
        "ch",
        "ool"
      ],
      [
        "ig",
        "n"
      ],
      [
        "w",
        "een"
      ],
      [
        "Ġcom",
        "m"
      ],
      [
        "ĠA",
        "n"
      ],
      [
        "ire",
        "ct"
      ],
      [
        "Ġm",
        "ake"
      ],
      [
        "Ġre",
        "m"
      ],
      [
        "Ġme",
        "et"
      ],
      [
        "v",
        "ed"
      ],
      [
        "Ġlo",
        "ok"
      ],
      [
        "ĠW",
        "h"
      ],
      [
        "ĠâĢ",
        "ľ"
      ],
      [
        "Ġex",
        "per"
      ],
      [
        "ot",
        "h"
      ],
      [
        "Ġbet",
        "ween"
      ],
      [
        "Ġe",
        "ver"
      ],
      [
        "Ġa",
        "w"
      ],
      [
        "Ġper",
        "form"
      ],
      [
        "t",
        "ing"
      ],
      [
        "Ġg",
        "r"
      ],
      [
        "Ġex",
        "pl"
      ],
      [
        "is",
        "e"
      ],
      [
        "Ġar",
        "t"
      ],
      [
        "e",
        "ver"
      ],
      [
        "Ġ",
        "if"
      ],
      [
        "Ġs",
        "et"
      ],
      [
        "Ġdo",
        "es"
      ],
      [
        "a",
        "il"
      ],
      [
        "l",
        "ud"
      ],
      [
        "Ġa",
        "cc"
      ],
      [
        "Ġd",
        "ay"
      ],
      [
        "al",
        "k"
      ],
      [
        "Ġg",
        "reat"
      ],
      [
        "at",
        "er"
      ],
      [
        "re",
        "am"
      ],
      [
        "c",
        "ed"
      ],
      [
        "ow",
        "er"
      ],
      [
        "om",
        "et"
      ],
      [
        "Ġm",
        "ar"
      ],
      [
        "Ġcon",
        "c"
      ],
      [
        "Ġw",
        "ould"
      ],
      [
        "n",
        "ess"
      ],
      [
        "au",
        "se"
      ],
      [
        "Ġs",
        "chool"
      ],
      [
        "Ġser",
        "ies"
      ],
      [
        "Ġs",
        "m"
      ],
      [
        "ation",
        "s"
      ],
      [
        "a",
        "z"
      ],
      [
        "Ġl",
        "ong"
      ],
      [
        "Ġ",
        "ent"
      ],
      [
        "at",
        "es"
      ],
      [
        "ap",
        "t"
      ],
      [
        "mer",
        "ic"
      ],
      [
        "Ġh",
        "app"
      ],
      [
        "if",
        "f"
      ],
      [
        "Ġbe",
        "aut"
      ],
      [
        "u",
        "b"
      ],
      [
        "Ġkn",
        "ow"
      ],
      [
        "Ġh",
        "ad"
      ],
      [
        "Ġhe",
        "l"
      ],
      [
        "it",
        "s"
      ],
      [
        "g",
        "g"
      ],
      [
        "Ġs",
        "ec"
      ],
      [
        "Ġwat",
        "ch"
      ],
      [
        "Ġb",
        "oy"
      ],
      [
        "r",
        "on"
      ],
      [
        "u",
        "res"
      ],
      [
        "d",
        "u"
      ],
      [
        "l",
        "ess"
      ],
      [
        "v",
        "en"
      ],
      [
        "y",
        "ing"
      ],
      [
        "u",
        "ally"
      ],
      [
        "Ġin",
        "s"
      ],
      [
        "Ġf",
        "l"
      ],
      [
        "l",
        "ing"
      ],
      [
        "Ġin",
        "v"
      ],
      [
        "i",
        "ence"
      ],
      [
        "Ġhis",
        "t"
      ],
      [
        "Ġdocument",
        "ary"
      ],
      [
        "Ġm",
        "uch"
      ],
      [
        "ĠJ",
        "o"
      ],
      [
        "Ġm",
        "em"
      ],
      [
        "t",
        "y"
      ],
      [
        "Ġf",
        "in"
      ],
      [
        "Ġb",
        "el"
      ],
      [
        "h",
        "n"
      ],
      [
        "Ġwom",
        "an"
      ],
      [
        "f",
        "ore"
      ],
      [
        "Ġt",
        "e"
      ],
      [
        "Ġm",
        "other"
      ],
      [
        "as",
        "e"
      ],
      [
        "on",
        "s"
      ],
      [
        "Ġ",
        "ri"
      ],
      [
        "Ġcon",
        "f"
      ],
      [
        "Ġbe",
        "gin"
      ],
      [
        "Ġt",
        "ake"
      ],
      [
        "Ġth",
        "ink"
      ],
      [
        "Ġw",
        "ere"
      ],
      [
        "Ġn",
        "ow"
      ],
      [
        "ĠM",
        "ar"
      ],
      [
        "..",
        "."
      ],
      [
        "Ġpl",
        "ay"
      ],
      [
        "Ġfind",
        "s"
      ],
      [
        "Ġt",
        "ell"
      ],
      [
        "Ġd",
        "irect"
      ],
      [
        ")",
        ","
      ],
      [
        "Ġv",
        "is"
      ],
      [
        "Ġpers",
        "on"
      ],
      [
        "r",
        "am"
      ],
      [
        "b",
        "le"
      ],
      [
        "Ġf",
        "oll"
      ],
      [
        "Ġg",
        "u"
      ],
      [
        "Ġinc",
        "lud"
      ],
      [
        "is",
        "m"
      ],
      [
        "Ġw",
        "ant"
      ],
      [
        "Ġw",
        "ell"
      ],
      [
        "Ġfriend",
        "s"
      ],
      [
        "Ġmus",
        "ic"
      ],
      [
        "a",
        "ir"
      ],
      [
        "Ġd",
        "iff"
      ],
      [
        "Ġhum",
        "an"
      ],
      [
        "Ġc",
        "ol"
      ],
      [
        "ou",
        "se"
      ],
      [
        "Ġh",
        "ome"
      ],
      [
        "o",
        "ot"
      ],
      [
        "ĠS",
        "h"
      ],
      [
        "ĠA",
        "nd"
      ],
      [
        "th",
        "ing"
      ],
      [
        "Ġk",
        "ill"
      ],
      [
        "ĠS",
        "he"
      ],
      [
        "ĠA",
        "meric"
      ],
      [
        "id",
        "ent"
      ],
      [
        "s",
        "s"
      ],
      [
        "Ġa",
        "pp"
      ],
      [
        "Ġhim",
        "self"
      ],
      [
        "al",
        "s"
      ],
      [
        "if",
        "ul"
      ],
      [
        "am",
        "p"
      ],
      [
        "u",
        "ck"
      ],
      [
        "ct",
        "ion"
      ],
      [
        "Ġb",
        "est"
      ],
      [
        "Ġt",
        "urn"
      ],
      [
        "Ġyou",
        "r"
      ],
      [
        "Ġle",
        "ad"
      ],
      [
        "al",
        "e"
      ],
      [
        "i",
        "k"
      ],
      [
        "Ġb",
        "oth"
      ],
      [
        "au",
        "gh"
      ],
      [
        "e",
        "x"
      ],
      [
        "is",
        "s"
      ],
      [
        "Ġbec",
        "om"
      ],
      [
        "Ġa",
        "c"
      ],
      [
        "Ġc",
        "o"
      ],
      [
        "Ġret",
        "urn"
      ],
      [
        "Ġw",
        "ife"
      ],
      [
        "w",
        "ard"
      ],
      [
        "av",
        "ing"
      ],
      [
        "ne",
        "y"
      ],
      [
        "Ġ",
        "very"
      ],
      [
        "Ġg",
        "en"
      ],
      [
        "os",
        "s"
      ],
      [
        "Ġd",
        "own"
      ],
      [
        "Ġp",
        "ower"
      ],
      [
        "Ġe",
        "ach"
      ],
      [
        "f",
        "t"
      ],
      [
        "ĠThe",
        "y"
      ],
      [
        "Ġs",
        "on"
      ],
      [
        "Ġs",
        "omet"
      ],
      [
        "Ġde",
        "ath"
      ],
      [
        "an",
        "ts"
      ],
      [
        "Ġd",
        "uring"
      ],
      [
        "Ġh",
        "igh"
      ],
      [
        "Ġst",
        "ar"
      ],
      [
        "Ġm",
        "ust"
      ],
      [
        "Ġhel",
        "p"
      ],
      [
        "Ġ",
        "i"
      ],
      [
        "or",
        "k"
      ],
      [
        "Ġman",
        "y"
      ],
      [
        "Ġbec",
        "ause"
      ],
      [
        "Ġthe",
        "n"
      ],
      [
        "it",
        "ion"
      ],
      [
        "Ġp",
        "h"
      ],
      [
        "rou",
        "p"
      ],
      [
        "Ġa",
        "round"
      ],
      [
        "id",
        "es"
      ],
      [
        "itt",
        "le"
      ],
      [
        "in",
        "em"
      ],
      [
        "or",
        "ies"
      ],
      [
        "at",
        "ic"
      ],
      [
        "Ġne",
        "ed"
      ],
      [
        "Ġbe",
        "fore"
      ],
      [
        "Ġo",
        "b"
      ],
      [
        "st",
        "er"
      ],
      [
        "and",
        "s"
      ],
      [
        "Ġgo",
        "od"
      ],
      [
        "Ġm",
        "ade"
      ],
      [
        "ĠA",
        "fter"
      ],
      [
        "Ġm",
        "en"
      ],
      [
        "Ġbeaut",
        "iful"
      ],
      [
        "at",
        "ive"
      ],
      [
        "Ġthe",
        "se"
      ],
      [
        "Ġs",
        "l"
      ],
      [
        "Ġd",
        "ream"
      ],
      [
        "ul",
        "l"
      ],
      [
        "vie",
        "w"
      ],
      [
        "i",
        "x"
      ],
      [
        "ĠN",
        "ew"
      ],
      [
        "Ġc",
        "are"
      ],
      [
        "ib",
        "le"
      ],
      [
        "ow",
        "ing"
      ],
      [
        "Ġse",
        "em"
      ],
      [
        "u",
        "p"
      ],
      [
        "Ġ",
        "es"
      ],
      [
        "ĠH",
        "ow"
      ],
      [
        "ar",
        "r"
      ],
      [
        "Ġst",
        "ud"
      ],
      [
        "Ġm",
        "ay"
      ],
      [
        "im",
        "es"
      ],
      [
        "Ġj",
        "our"
      ],
      [
        "k",
        "s"
      ],
      [
        "it",
        "ies"
      ],
      [
        "Ġc",
        "all"
      ],
      [
        "Ġe",
        "ar"
      ],
      [
        "Ġto",
        "wn"
      ],
      [
        "Ġth",
        "ree"
      ],
      [
        "as",
        "ter"
      ],
      [
        "Ġre",
        "ally"
      ],
      [
        "op",
        "e"
      ],
      [
        "is",
        "on"
      ],
      [
        "in",
        "t"
      ],
      [
        "ou",
        "n"
      ],
      [
        "Ġd",
        "on"
      ],
      [
        "Ġchar",
        "ac"
      ],
      [
        "el",
        "e"
      ],
      [
        "en",
        "e"
      ],
      [
        "Ġre",
        "p"
      ],
      [
        "Ġc",
        "ould"
      ],
      [
        "Ġ2",
        "0"
      ],
      [
        "Ġso",
        "c"
      ],
      [
        "Ġp",
        "res"
      ],
      [
        "Ġsu",
        "b"
      ],
      [
        "Ġc",
        "reat"
      ],
      [
        "ut",
        "h"
      ],
      [
        "Ġb",
        "o"
      ],
      [
        "Ġde",
        "p"
      ],
      [
        "at",
        "t"
      ],
      [
        "Ġg",
        "roup"
      ],
      [
        "Ġn",
        "ight"
      ],
      [
        "Ġagain",
        "st"
      ],
      [
        "Ġhist",
        "ory"
      ],
      [
        "as",
        "ed"
      ],
      [
        "Ġc",
        "inem"
      ],
      [
        "Ġth",
        "ose"
      ],
      [
        "Ġm",
        "in"
      ],
      [
        "i",
        "er"
      ],
      [
        "i",
        "ed"
      ],
      [
        "Ġcon",
        "s"
      ],
      [
        "he",
        "d"
      ],
      [
        "Ġl",
        "ast"
      ],
      [
        "Ġrel",
        "ation"
      ],
      [
        "in",
        "ce"
      ],
      [
        "Ġto",
        "get"
      ],
      [
        "Ġin",
        "d"
      ],
      [
        "Ġtoget",
        "her"
      ],
      [
        "Ġsp",
        "ec"
      ],
      [
        "it",
        "ed"
      ],
      [
        "Ġbe",
        "h"
      ],
      [
        "Ġst",
        "ill"
      ],
      [
        "Ġbec",
        "ome"
      ],
      [
        "Ġo",
        "ur"
      ],
      [
        "en",
        "se"
      ],
      [
        "Ġt",
        "akes"
      ],
      [
        "w",
        "ays"
      ],
      [
        "Ġ",
        "'"
      ],
      [
        "Ġst",
        "ru"
      ],
      [
        "o",
        "v"
      ],
      [
        "Ġex",
        "t"
      ],
      [
        "re",
        "t"
      ],
      [
        "or",
        "n"
      ],
      [
        "augh",
        "ter"
      ],
      [
        "ol",
        "ut"
      ],
      [
        "p",
        "le"
      ],
      [
        "Ġs",
        "ame"
      ],
      [
        "he",
        "s"
      ],
      [
        "Ġrelation",
        "ship"
      ],
      [
        "T",
        "he"
      ],
      [
        "c",
        "ap"
      ],
      [
        "Ġe",
        "p"
      ],
      [
        "Ġl",
        "ittle"
      ],
      [
        "Ġr",
        "un"
      ],
      [
        "Ġbel",
        "ie"
      ],
      [
        "Ġbecom",
        "es"
      ],
      [
        "ion",
        "al"
      ],
      [
        "Ġsm",
        "all"
      ],
      [
        "u",
        "es"
      ],
      [
        "v",
        "ent"
      ],
      [
        "Ġm",
        "om"
      ],
      [
        "Ġm",
        "ur"
      ],
      [
        "Ġhe",
        "art"
      ],
      [
        "y",
        "s"
      ],
      [
        "Ġre",
        "f"
      ],
      [
        "Ġd",
        "et"
      ],
      [
        "Ġli",
        "ving"
      ],
      [
        "Ġp",
        "ast"
      ],
      [
        "Ġem",
        "ot"
      ],
      [
        "an",
        "e"
      ],
      [
        "i",
        "en"
      ],
      [
        "is",
        "ts"
      ],
      [
        "ĠA",
        "t"
      ],
      [
        "Ġcom",
        "pl"
      ],
      [
        "Ġk",
        "e"
      ],
      [
        "ĠO",
        "ne"
      ],
      [
        "ĠO",
        "n"
      ],
      [
        "Ġdis",
        "co"
      ],
      [
        "Ġc",
        "apt"
      ],
      [
        "as",
        "h"
      ],
      [
        "ĠW",
        "ar"
      ],
      [
        "Ġcom",
        "e"
      ],
      [
        "er",
        "m"
      ],
      [
        "Ġc",
        "ar"
      ],
      [
        "ĠB",
        "l"
      ],
      [
        "Ġfilm",
        "s"
      ],
      [
        "n",
        "a"
      ],
      [
        "am",
        "ed"
      ],
      [
        "Ġse",
        "en"
      ],
      [
        "Ġal",
        "ways"
      ],
      [
        "Ġl",
        "ear"
      ],
      [
        "Ġmar",
        "ri"
      ],
      [
        "o",
        "ck"
      ],
      [
        "Ġsomet",
        "hing"
      ],
      [
        "at",
        "ure"
      ],
      [
        "Ġpl",
        "ace"
      ],
      [
        "Ġf",
        "oot"
      ],
      [
        "Ġtr",
        "ans"
      ],
      [
        "Ġchild",
        "ren"
      ],
      [
        "Ġh",
        "ouse"
      ],
      [
        "in",
        "s"
      ],
      [
        "i",
        "ves"
      ],
      [
        "Ġs",
        "im"
      ],
      [
        "Ġm",
        "akes"
      ],
      [
        "i",
        "o"
      ],
      [
        "Ġs",
        "ing"
      ],
      [
        "Ġcl",
        "ass"
      ],
      [
        "Ġaw",
        "ay"
      ],
      [
        "t",
        "en"
      ],
      [
        "ĠH",
        "is"
      ],
      [
        "Ġdiff",
        "er"
      ],
      [
        "Ġf",
        "all"
      ],
      [
        "at",
        "ely"
      ],
      [
        "Ġb",
        "u"
      ],
      [
        "Ġc",
        "ount"
      ],
      [
        "Ġth",
        "ings"
      ],
      [
        "Ġas",
        "s"
      ],
      [
        "Ġim",
        "ag"
      ],
      [
        "is",
        "ter"
      ],
      [
        "Ġan",
        "other"
      ],
      [
        "l",
        "ed"
      ],
      [
        "Ġw",
        "r"
      ],
      [
        "n",
        "er"
      ],
      [
        "Ġp",
        "ass"
      ],
      [
        "Ġc",
        "ity"
      ],
      [
        "Ġm",
        "on"
      ],
      [
        ".",
        "\""
      ],
      [
        "Ġc",
        "re"
      ],
      [
        "Ġd",
        "aughter"
      ],
      [
        "ĠB",
        "e"
      ],
      [
        "ce",
        "pt"
      ],
      [
        "m",
        "y"
      ],
      [
        "in",
        "ess"
      ],
      [
        "Ġlo",
        "c"
      ],
      [
        "od",
        "y"
      ],
      [
        "ĠL",
        "e"
      ],
      [
        "Ġst",
        "art"
      ],
      [
        "Ġst",
        "r"
      ],
      [
        "Ġan",
        "im"
      ],
      [
        "Ġmur",
        "der"
      ],
      [
        "n",
        "y"
      ],
      [
        "l",
        "and"
      ],
      [
        "ĠJo",
        "hn"
      ],
      [
        "Ġf",
        "ar"
      ],
      [
        "es",
        "e"
      ],
      [
        "in",
        "ed"
      ],
      [
        "Ġsu",
        "ch"
      ],
      [
        "Ġpro",
        "du"
      ],
      [
        "Ġs",
        "ong"
      ],
      [
        "t",
        "he"
      ],
      [
        "ĠAmeric",
        "an"
      ],
      [
        "in",
        "c"
      ],
      [
        "Ġb",
        "and"
      ],
      [
        "one",
        "y"
      ],
      [
        "l",
        "l"
      ],
      [
        "Ġun",
        "i"
      ],
      [
        "Ġgo",
        "ing"
      ],
      [
        "le",
        "x"
      ],
      [
        "le",
        "ct"
      ],
      [
        "ĠA",
        "r"
      ],
      [
        "Ġbr",
        "other"
      ],
      [
        "Ġb",
        "ig"
      ],
      [
        "Ġlear",
        "n"
      ],
      [
        "on",
        "y"
      ],
      [
        "Ġqu",
        "est"
      ],
      [
        "ic",
        "ally"
      ],
      [
        "qu",
        "e"
      ],
      [
        "Ġconc",
        "ert"
      ],
      [
        "u",
        "g"
      ],
      [
        "ro",
        "ss"
      ],
      [
        "Ġjour",
        "ney"
      ],
      [
        "Ġa",
        "ff"
      ],
      [
        "Ġs",
        "w"
      ],
      [
        "Ġg",
        "l"
      ],
      [
        "i",
        "ec"
      ],
      [
        "ĠHow",
        "ever"
      ],
      [
        "er",
        "ing"
      ],
      [
        "ul",
        "ar"
      ],
      [
        "Ġt",
        "alk"
      ],
      [
        "Ġf",
        "our"
      ],
      [
        "Ġun",
        "t"
      ],
      [
        "d",
        "ay"
      ],
      [
        "Ġto",
        "o"
      ],
      [
        "ed",
        "y"
      ],
      [
        "i",
        "ally"
      ],
      [
        "p",
        "art"
      ],
      [
        "Ġde",
        "ep"
      ],
      [
        "ire",
        "d"
      ],
      [
        "Ġev",
        "ent"
      ],
      [
        "Ġstru",
        "gg"
      ],
      [
        "ur",
        "y"
      ],
      [
        "ap",
        "an"
      ],
      [
        "Ġinclud",
        "ing"
      ],
      [
        "Ġfoot",
        "age"
      ],
      [
        "i",
        "ol"
      ],
      [
        "Ġd",
        "el"
      ],
      [
        "ĠW",
        "ith"
      ],
      [
        "ĠD",
        "e"
      ],
      [
        "b",
        "r"
      ],
      [
        "Ġs",
        "el"
      ],
      [
        "Ġm",
        "aking"
      ],
      [
        "Ġwith",
        "out"
      ],
      [
        "Ġp",
        "ort"
      ],
      [
        "ĠS",
        "e"
      ],
      [
        "Ġcom",
        "es"
      ],
      [
        "ur",
        "al"
      ],
      [
        "Ġpol",
        "ice"
      ],
      [
        "f",
        "ect"
      ],
      [
        "b",
        "e"
      ],
      [
        "ĠJ",
        "apan"
      ],
      [
        "Ġo",
        "p"
      ],
      [
        "ra",
        "nd"
      ],
      [
        "i",
        "ke"
      ],
      [
        "Ġp",
        "ain"
      ],
      [
        "Ġget",
        "s"
      ],
      [
        "ar",
        "l"
      ],
      [
        "Ġd",
        "ist"
      ],
      [
        "og",
        "ra"
      ],
      [
        "er",
        "a"
      ],
      [
        "Ġhe",
        "ad"
      ],
      [
        "id",
        "d"
      ],
      [
        "Ġex",
        "p"
      ],
      [
        "ĠY",
        "ou"
      ],
      [
        "Ġbegin",
        "s"
      ],
      [
        "Ġpl",
        "an"
      ],
      [
        "Ġbeh",
        "ind"
      ],
      [
        "Ã",
        "©"
      ],
      [
        "Ġh",
        "ard"
      ],
      [
        "ak",
        "er"
      ],
      [
        "b",
        "um"
      ],
      [
        "an",
        "ces"
      ],
      [
        "Ġd",
        "id"
      ],
      [
        "Ġwom",
        "en"
      ],
      [
        "Ġpol",
        "it"
      ],
      [
        "Ġc",
        "ou"
      ],
      [
        "Ġv",
        "ill"
      ],
      [
        "a",
        "id"
      ],
      [
        "r",
        "ic"
      ],
      [
        "Ġe",
        "ff"
      ],
      [
        "ĠU",
        "n"
      ],
      [
        "Ġcomm",
        "un"
      ],
      [
        "Ġexper",
        "ience"
      ],
      [
        "Ġb",
        "re"
      ],
      [
        "an",
        "c"
      ],
      [
        "st",
        "and"
      ],
      [
        "ut",
        "e"
      ],
      [
        "Ġre",
        "st"
      ],
      [
        "Ġsu",
        "pp"
      ],
      [
        "us",
        "s"
      ],
      [
        "Ġinter",
        "view"
      ],
      [
        "Ġn",
        "amed"
      ],
      [
        "ec",
        "ts"
      ],
      [
        "cc",
        "ess"
      ],
      [
        "j",
        "ect"
      ],
      [
        "ad",
        "y"
      ],
      [
        "Ġj",
        "ob"
      ],
      [
        "Ġim",
        "m"
      ],
      [
        "f",
        "riend"
      ],
      [
        "Ġal",
        "bum"
      ],
      [
        "re",
        "en"
      ],
      [
        ")",
        "."
      ],
      [
        "Ġevery",
        "thing"
      ],
      [
        "Ġf",
        "un"
      ],
      [
        "Ġp",
        "ar"
      ],
      [
        "Ġe",
        "l"
      ],
      [
        "Ġsur",
        "v"
      ],
      [
        "Ġf",
        "ac"
      ],
      [
        "Ġdiffer",
        "ent"
      ],
      [
        "d",
        "s"
      ],
      [
        "v",
        "is"
      ],
      [
        "p",
        "r"
      ],
      [
        "Ġin",
        "st"
      ],
      [
        "ol",
        "og"
      ],
      [
        "ab",
        "ly"
      ],
      [
        "w",
        "h"
      ],
      [
        "Ġw",
        "ants"
      ],
      [
        "Ġfor",
        "m"
      ],
      [
        "ĠB",
        "r"
      ],
      [
        "Ġspec",
        "ial"
      ],
      [
        "iet",
        "y"
      ],
      [
        "Ġfilm",
        "m"
      ],
      [
        "Ġent",
        "ire"
      ],
      [
        "it",
        "al"
      ],
      [
        "ĠF",
        "ran"
      ],
      [
        "Ġv",
        "ie"
      ],
      [
        "Ġperson",
        "al"
      ],
      [
        "Ġl",
        "et"
      ],
      [
        "s",
        "on"
      ],
      [
        "che",
        "d"
      ],
      [
        "h",
        "ood"
      ],
      [
        "Ġ",
        "3"
      ],
      [
        "as",
        "on"
      ],
      [
        "or",
        "ld"
      ],
      [
        "Ġmy",
        "ster"
      ],
      [
        "Ġc",
        "ent"
      ],
      [
        "Ġsh",
        "ort"
      ],
      [
        "ain",
        "s"
      ],
      [
        "Ġvie",
        "w"
      ],
      [
        "Ġe",
        "y"
      ],
      [
        "Ġgo",
        "es"
      ],
      [
        "Ġd",
        "est"
      ],
      [
        "Ġpro",
        "f"
      ],
      [
        "Ġunt",
        "il"
      ],
      [
        "Ġgen",
        "er"
      ],
      [
        "Ġs",
        "k"
      ],
      [
        "Ġst",
        "ories"
      ],
      [
        "ing",
        "ly"
      ],
      [
        "ĠW",
        "e"
      ],
      [
        "r",
        "ist"
      ],
      [
        "Ġatt",
        "em"
      ],
      [
        "Ġp",
        "ut"
      ],
      [
        "Ġd",
        "em"
      ],
      [
        "sel",
        "ves"
      ],
      [
        "Ġmeet",
        "s"
      ],
      [
        "Ġc",
        "our"
      ],
      [
        "Ġes",
        "cap"
      ],
      [
        "u",
        "nd"
      ],
      [
        "Ġh",
        "or"
      ],
      [
        "Ġm",
        "oney"
      ],
      [
        "ĠP",
        "ar"
      ],
      [
        "ĠR",
        "e"
      ],
      [
        "at",
        "ch"
      ],
      [
        "ĠW",
        "ill"
      ],
      [
        "Ġsu",
        "ccess"
      ],
      [
        "Ġcount",
        "ry"
      ],
      [
        "Ġar",
        "ri"
      ],
      [
        "ron",
        "t"
      ],
      [
        "Ġf",
        "ut"
      ],
      [
        "Ġb",
        "us"
      ],
      [
        "le",
        "y"
      ],
      [
        "ĠThe",
        "re"
      ],
      [
        "Ġcompl",
        "et"
      ],
      [
        "an",
        "ge"
      ],
      [
        "ĠD",
        "av"
      ],
      [
        "Ġen",
        "c"
      ],
      [
        "ĠY",
        "ork"
      ],
      [
        "Ġke",
        "ep"
      ],
      [
        "is",
        "od"
      ],
      [
        "en",
        "g"
      ],
      [
        "Ġper",
        "fect"
      ],
      [
        "ist",
        "ic"
      ],
      [
        "p",
        "ite"
      ],
      [
        "a",
        "h"
      ],
      [
        "ĠS",
        "o"
      ],
      [
        "Ġpr",
        "ison"
      ],
      [
        "Ġri",
        "ght"
      ],
      [
        "Ġa",
        "ud"
      ],
      [
        "Ġs",
        "ay"
      ],
      [
        "Ġd",
        "ram"
      ],
      [
        "Ġsec",
        "ond"
      ],
      [
        "b",
        "and"
      ],
      [
        "y",
        "ear"
      ],
      [
        "it",
        "ing"
      ],
      [
        "Ġm",
        "ind"
      ],
      [
        "Ġso",
        "on"
      ],
      [
        "Ġex",
        "ist"
      ],
      [
        "r",
        "ay"
      ],
      [
        "u",
        "k"
      ],
      [
        "Ġf",
        "ight"
      ],
      [
        "ation",
        "al"
      ],
      [
        "Ġv",
        "iol"
      ],
      [
        "Ġwork",
        "ing"
      ],
      [
        "Ġor",
        "der"
      ],
      [
        "Ġh",
        "aving"
      ],
      [
        "Ġde",
        "ad"
      ],
      [
        "Ġon",
        "ce"
      ],
      [
        "Ġtr",
        "ying"
      ],
      [
        "Ġbet",
        "ter"
      ],
      [
        "ĠM",
        "e"
      ],
      [
        "Ġt",
        "er"
      ],
      [
        "Ġ",
        "ide"
      ],
      [
        ".",
        "âĢĿ"
      ],
      [
        "Ġf",
        "ace"
      ],
      [
        "Ġd",
        "ri"
      ],
      [
        "Ġl",
        "ater"
      ],
      [
        "Ġk",
        "id"
      ],
      [
        "in",
        "es"
      ],
      [
        "Ġf",
        "ound"
      ],
      [
        "Ġm",
        "aster"
      ],
      [
        "s",
        "c"
      ],
      [
        "he",
        "re"
      ],
      [
        "Ġw",
        "rit"
      ],
      [
        "Ġh",
        "us"
      ],
      [
        "ou",
        "ght"
      ],
      [
        "Ġn",
        "ear"
      ],
      [
        "un",
        "t"
      ],
      [
        "Ġrec",
        "ord"
      ],
      [
        "Ġsel",
        "f"
      ],
      [
        "Ġcinem",
        "a"
      ],
      [
        "d",
        "d"
      ],
      [
        "s",
        "ide"
      ],
      [
        "en",
        "ing"
      ],
      [
        "Ġre",
        "g"
      ],
      [
        "Ġh",
        "our"
      ],
      [
        "Ġdec",
        "ides"
      ],
      [
        "Ġcont",
        "r"
      ],
      [
        "Ġcont",
        "in"
      ],
      [
        "iec",
        "e"
      ],
      [
        "Ġ",
        "Z"
      ],
      [
        "ĠI",
        "s"
      ],
      [
        "Ġtell",
        "s"
      ],
      [
        "are",
        "n"
      ],
      [
        "ren",
        "ch"
      ],
      [
        "Ġm",
        "et"
      ],
      [
        "ure",
        "d"
      ],
      [
        "Ġvill",
        "age"
      ],
      [
        "Ġle",
        "ft"
      ],
      [
        "Ġth",
        "ing"
      ],
      [
        "Ġal",
        "ong"
      ],
      [
        "Ġse",
        "x"
      ],
      [
        "Ġtra",
        "vel"
      ],
      [
        "Ġl",
        "ar"
      ],
      [
        "ĠM",
        "an"
      ],
      [
        "Ġth",
        "ough"
      ],
      [
        "Ġst",
        "re"
      ],
      [
        "Ġun",
        "f"
      ],
      [
        "Ġep",
        "isod"
      ],
      [
        "Ġo",
        "pp"
      ],
      [
        "Ġs",
        "y"
      ],
      [
        "am",
        "es"
      ],
      [
        "iz",
        "ed"
      ],
      [
        "g",
        "er"
      ],
      [
        "t",
        "o"
      ],
      [
        "er",
        "man"
      ],
      [
        "Ġc",
        "am"
      ],
      [
        "Ġhus",
        "band"
      ],
      [
        "Ġt",
        "w"
      ],
      [
        "Ġtr",
        "ue"
      ],
      [
        "ent",
        "ly"
      ],
      [
        "ogra",
        "ph"
      ],
      [
        "i",
        "el"
      ],
      [
        "ic",
        "s"
      ],
      [
        "Ġn",
        "arr"
      ],
      [
        "Ġst",
        "op"
      ],
      [
        "Ġab",
        "s"
      ],
      [
        "u",
        "ly"
      ],
      [
        "x",
        "t"
      ],
      [
        "ter",
        "n"
      ],
      [
        "Ġd",
        "ark"
      ],
      [
        "Ġev",
        "ents"
      ],
      [
        "Ġfut",
        "ure"
      ],
      [
        "Ġdirect",
        "or"
      ],
      [
        "ri",
        "gin"
      ],
      [
        "b",
        "or"
      ],
      [
        "Ġm",
        "ed"
      ],
      [
        "Ġin",
        "f"
      ],
      [
        "Ġy",
        "et"
      ],
      [
        "Ġmo",
        "v"
      ],
      [
        "ĠE",
        "l"
      ],
      [
        "Ġpres",
        "ent"
      ],
      [
        "Ġc",
        "ur"
      ],
      [
        "ear",
        "s"
      ],
      [
        "a",
        "j"
      ],
      [
        "a",
        "x"
      ],
      [
        "ou",
        "l"
      ],
      [
        "Ġthem",
        "selves"
      ],
      [
        "il",
        "ity"
      ],
      [
        "ble",
        "m"
      ],
      [
        "s",
        "y"
      ],
      [
        "Ġf",
        "ive"
      ],
      [
        "Ġh",
        "and"
      ],
      [
        "Ġfe",
        "w"
      ],
      [
        "t",
        "e"
      ],
      [
        "Ġt",
        "imes"
      ],
      [
        "Ġsh",
        "ot"
      ],
      [
        "Ġsh",
        "ows"
      ],
      [
        "b",
        "ers"
      ],
      [
        "en",
        "ces"
      ],
      [
        "iz",
        "e"
      ],
      [
        "Ġpro",
        "v"
      ],
      [
        "Ġwatch",
        "ing"
      ],
      [
        "Ġf",
        "ull"
      ],
      [
        "Ġre",
        "le"
      ],
      [
        "ĠH",
        "ar"
      ],
      [
        "Ġde",
        "f"
      ],
      [
        "Ġunder",
        "stand"
      ],
      [
        "Ġfoll",
        "ows"
      ],
      [
        "if",
        "ic"
      ],
      [
        "ĠWh",
        "at"
      ],
      [
        "'",
        "ve"
      ],
      [
        "Ġhe",
        "re"
      ],
      [
        "Ġfor",
        "mer"
      ],
      [
        "Ġde",
        "v"
      ],
      [
        "Ġc",
        "ult"
      ],
      [
        "ĠG",
        "e"
      ],
      [
        "Ġfeel",
        "s"
      ],
      [
        "Ġmov",
        "ies"
      ],
      [
        "Ġsh",
        "ould"
      ],
      [
        "c",
        "l"
      ],
      [
        "Ġde",
        "al"
      ],
      [
        "en",
        "ed"
      ],
      [
        "an",
        "k"
      ],
      [
        "ĠW",
        "orld"
      ],
      [
        "ang",
        "er"
      ],
      [
        "Ġpower",
        "ful"
      ],
      [
        "t",
        "im"
      ],
      [
        "Ġs",
        "ol"
      ],
      [
        "un",
        "g"
      ],
      [
        "ĠF",
        "rench"
      ],
      [
        "Ġevery",
        "one"
      ],
      [
        "Ġb",
        "it"
      ],
      [
        "Ġf",
        "re"
      ],
      [
        "Ġd",
        "r"
      ],
      [
        "Ġte",
        "am"
      ],
      [
        "r",
        "or"
      ],
      [
        "Ġp",
        "ri"
      ],
      [
        "ro",
        "p"
      ],
      [
        "Ġpro",
        "blem"
      ],
      [
        "Ġsp",
        "e"
      ],
      [
        "ert",
        "ain"
      ],
      [
        "Ġdream",
        "s"
      ],
      [
        "Ġmo",
        "ve"
      ],
      [
        "Ġpr",
        "ot"
      ],
      [
        "Ġseem",
        "s"
      ],
      [
        "Ġwho",
        "se"
      ],
      [
        "ian",
        "s"
      ],
      [
        "Ġperform",
        "ance"
      ],
      [
        "Ġme",
        "an"
      ],
      [
        "ent",
        "al"
      ],
      [
        "Ġcharac",
        "ters"
      ],
      [
        "i",
        "ent"
      ],
      [
        "Ġd",
        "ays"
      ],
      [
        "Ġwh",
        "y"
      ],
      [
        "ad",
        "es"
      ],
      [
        "ĠH",
        "ol"
      ],
      [
        "Ġdoes",
        "n"
      ],
      [
        "Ġsong",
        "s"
      ],
      [
        "Ġp",
        "ur"
      ],
      [
        "Ġch",
        "ang"
      ],
      [
        "Ġ19",
        "8"
      ],
      [
        "pect",
        "ed"
      ],
      [
        "c",
        "er"
      ],
      [
        "m",
        "ost"
      ],
      [
        "ver",
        "n"
      ],
      [
        "Ġgreat",
        "est"
      ],
      [
        "a",
        "i"
      ],
      [
        "g",
        "an"
      ],
      [
        "Ġ",
        "4"
      ],
      [
        "id",
        "er"
      ],
      [
        "ĠDav",
        "id"
      ],
      [
        "l",
        "er"
      ],
      [
        "Ġk",
        "ind"
      ],
      [
        "Ġj",
        "o"
      ],
      [
        "Ġp",
        "rom"
      ],
      [
        "Ġl",
        "and"
      ],
      [
        "ĠG",
        "erman"
      ],
      [
        "Ġsc",
        "ene"
      ],
      [
        "Ġfriend",
        "ship"
      ],
      [
        "-",
        "-"
      ],
      [
        "l",
        "ic"
      ],
      [
        "ir",
        "d"
      ],
      [
        "os",
        "p"
      ],
      [
        "Ġw",
        "in"
      ],
      [
        "Ġm",
        "iss"
      ],
      [
        "Ġoff",
        "ic"
      ],
      [
        "Ġloc",
        "al"
      ],
      [
        "Ġb",
        "ar"
      ],
      [
        "Ġcharac",
        "ter"
      ],
      [
        "u",
        "c"
      ],
      [
        "Ġa",
        "part"
      ],
      [
        "Ġo",
        "rigin"
      ],
      [
        "ar",
        "ious"
      ],
      [
        "ent",
        "ial"
      ],
      [
        "ĠC",
        "on"
      ],
      [
        "Ġlo",
        "st"
      ],
      [
        "os",
        "ed"
      ],
      [
        "Ġs",
        "ound"
      ],
      [
        "Ġf",
        "ore"
      ],
      [
        "Ġth",
        "r"
      ],
      [
        "ĠT",
        "om"
      ],
      [
        "ĠB",
        "rit"
      ],
      [
        "ĠJ",
        "e"
      ],
      [
        "Ġro",
        "om"
      ],
      [
        "\"",
        ","
      ],
      [
        "Ġp",
        "oss"
      ],
      [
        "Ġother",
        "s"
      ],
      [
        "Ġ2",
        "00"
      ],
      [
        "Ġcall",
        "ed"
      ],
      [
        "Ġ",
        "5"
      ],
      [
        "Ġs",
        "ent"
      ],
      [
        "Ġs",
        "ince"
      ],
      [
        "Ġsu",
        "per"
      ],
      [
        "a",
        "f"
      ],
      [
        "aren",
        "ts"
      ],
      [
        "Ġc",
        "ast"
      ],
      [
        "Ġh",
        "ope"
      ],
      [
        "et",
        "s"
      ],
      [
        "iv",
        "al"
      ],
      [
        "Ġo",
        "cc"
      ],
      [
        "Ġst",
        "and"
      ],
      [
        "Ġse",
        "ver"
      ],
      [
        "n",
        "ot"
      ],
      [
        "an",
        "y"
      ],
      [
        "ment",
        "s"
      ],
      [
        "olut",
        "ion"
      ],
      [
        "in",
        "a"
      ],
      [
        "Ġu",
        "se"
      ],
      [
        "ran",
        "ge"
      ],
      [
        "Ġto",
        "ur"
      ],
      [
        "ĠCh",
        "rist"
      ],
      [
        "Ġimp",
        "ort"
      ],
      [
        "Ġ20",
        "1"
      ],
      [
        "Ġg",
        "ive"
      ],
      [
        "Ġs",
        "ense"
      ],
      [
        "Ġl",
        "ot"
      ],
      [
        "ĠC",
        "l"
      ],
      [
        "Ġab",
        "le"
      ],
      [
        "Ġwork",
        "s"
      ],
      [
        "Ġp",
        "arents"
      ],
      [
        "el",
        "t"
      ],
      [
        "ĠI",
        "f"
      ],
      [
        "ĠS",
        "p"
      ],
      [
        "Ġtr",
        "uth"
      ],
      [
        "o",
        "res"
      ],
      [
        "Ġm",
        "ain"
      ],
      [
        "Ġenc",
        "oun"
      ],
      [
        "o",
        "ve"
      ],
      [
        "Ġf",
        "av"
      ],
      [
        "Ġt",
        "een"
      ],
      [
        "Ġs",
        "ister"
      ],
      [
        "ĠF",
        "or"
      ],
      [
        "Ġnot",
        "hing"
      ],
      [
        "Ġf",
        "act"
      ],
      [
        "it",
        "er"
      ],
      [
        "Ġof",
        "ten"
      ],
      [
        "Ġtra",
        "g"
      ],
      [
        "Ġcou",
        "ple"
      ],
      [
        "n",
        "ect"
      ],
      [
        "Ġ",
        "ed"
      ],
      [
        "Ġf",
        "uck"
      ],
      [
        "Ġu",
        "l"
      ],
      [
        "ell",
        "ing"
      ],
      [
        "oc",
        "us"
      ],
      [
        "Ġw",
        "a"
      ],
      [
        "Ġc",
        "le"
      ],
      [
        "im",
        "in"
      ],
      [
        "ag",
        "es"
      ],
      [
        "iv",
        "id"
      ],
      [
        "al",
        "f"
      ],
      [
        "Ġre",
        "v"
      ],
      [
        "Ġad",
        "d"
      ],
      [
        "Ġwith",
        "in"
      ],
      [
        "ĠTh",
        "at"
      ],
      [
        "v",
        "al"
      ],
      [
        "Ġs",
        "ear"
      ],
      [
        "al",
        "th"
      ],
      [
        "Ġg",
        "ang"
      ],
      [
        "Ġc",
        "he"
      ],
      [
        "Ġc",
        "amp"
      ],
      [
        "ut",
        "es"
      ],
      [
        "Ġch",
        "o"
      ],
      [
        "Ġ19",
        "9"
      ],
      [
        "Ġp",
        "op"
      ],
      [
        "Ġtr",
        "uly"
      ],
      [
        "Ġinc",
        "red"
      ],
      [
        "Ġbl",
        "ack"
      ],
      [
        "b",
        "y"
      ],
      [
        "are",
        "d"
      ],
      [
        "as",
        "k"
      ],
      [
        "ĠP",
        "r"
      ],
      [
        "is",
        "ed"
      ],
      [
        "Ġth",
        "ought"
      ],
      [
        "Ġtri",
        "es"
      ],
      [
        "Ġbu",
        "ild"
      ],
      [
        "p",
        "ar"
      ],
      [
        "p",
        "ts"
      ],
      [
        "Ġc",
        "or"
      ],
      [
        "ro",
        "ad"
      ],
      [
        "Ġob",
        "s"
      ],
      [
        "!",
        "!"
      ],
      [
        "at",
        "s"
      ],
      [
        "Ġsome",
        "one"
      ],
      [
        "ra",
        "g"
      ],
      [
        "Ġph",
        "ot"
      ],
      [
        "att",
        "le"
      ],
      [
        "o",
        "f"
      ],
      [
        "Ġf",
        "ocus"
      ],
      [
        "ĠA",
        "m"
      ],
      [
        "Ġcl",
        "ose"
      ],
      [
        "Ġtra",
        "in"
      ],
      [
        "Ġmyster",
        "ious"
      ],
      [
        "ĠGe",
        "or"
      ],
      [
        "Ġl",
        "ess"
      ],
      [
        "om",
        "p"
      ],
      [
        "ac",
        "her"
      ],
      [
        "ful",
        "ly"
      ],
      [
        "Ġcol",
        "le"
      ],
      [
        "Ġmarri",
        "ed"
      ],
      [
        "a",
        "im"
      ],
      [
        "ur",
        "b"
      ],
      [
        "Ġal",
        "most"
      ],
      [
        "Ġv",
        "ide"
      ],
      [
        "Ġen",
        "ough"
      ],
      [
        "Ġpo",
        "int"
      ],
      [
        "Ġfin",
        "al"
      ],
      [
        "y",
        "n"
      ],
      [
        "Ġst",
        "age"
      ],
      [
        "um",
        "b"
      ],
      [
        "Ġgirl",
        "s"
      ],
      [
        "m",
        "ing"
      ],
      [
        "Ġher",
        "self"
      ],
      [
        "Ġkn",
        "own"
      ],
      [
        "i",
        "or"
      ],
      [
        "ent",
        "ion"
      ],
      [
        "ĠL",
        "ond"
      ],
      [
        "ĠLond",
        "on"
      ],
      [
        "Ġg",
        "iv"
      ],
      [
        "ri",
        "f"
      ],
      [
        "ak",
        "en"
      ],
      [
        "op",
        "h"
      ],
      [
        "ĠG",
        "od"
      ],
      [
        "Ġsoc",
        "ial"
      ],
      [
        ",",
        "\""
      ],
      [
        "il",
        "t"
      ],
      [
        "Ġre",
        "ve"
      ],
      [
        "ge",
        "nd"
      ],
      [
        "Ġne",
        "igh"
      ],
      [
        "Ġcr",
        "ime"
      ],
      [
        "ĠAl",
        "l"
      ],
      [
        "ele",
        "br"
      ],
      [
        "Ġw",
        "it"
      ],
      [
        "Ġn",
        "ature"
      ],
      [
        "Ġli",
        "ght"
      ],
      [
        "ĠR",
        "ob"
      ],
      [
        "Ġ",
        "Q"
      ],
      [
        "at",
        "or"
      ],
      [
        "y",
        "le"
      ],
      [
        "or",
        "ts"
      ],
      [
        "om",
        "b"
      ],
      [
        "ĠN",
        "ow"
      ],
      [
        "Ġgo",
        "vern"
      ],
      [
        "Ġhow",
        "ever"
      ],
      [
        "Ġcomp",
        "lex"
      ],
      [
        "Ġart",
        "ist"
      ],
      [
        "he",
        "l"
      ],
      [
        "Ġsp",
        "ir"
      ],
      [
        "Ġtr",
        "y"
      ],
      [
        "e",
        "ad"
      ],
      [
        "k",
        "ing"
      ],
      [
        "Ġsp",
        "end"
      ],
      [
        "vel",
        "op"
      ],
      [
        "Ġexper",
        "ien"
      ],
      [
        "Ġbus",
        "iness"
      ],
      [
        "w",
        "ay"
      ],
      [
        "Ġ",
        "ill"
      ],
      [
        "Ġs",
        "old"
      ],
      [
        "Ġm",
        "ot"
      ],
      [
        "as",
        "c"
      ],
      [
        "Ġsoc",
        "iety"
      ],
      [
        "s",
        "p"
      ],
      [
        "Ġsec",
        "ret"
      ],
      [
        "is",
        "hed"
      ],
      [
        "en",
        "es"
      ],
      [
        "Ġm",
        "ag"
      ],
      [
        "iv",
        "il"
      ],
      [
        "Ġ19",
        "7"
      ],
      [
        "Ġreal",
        "ity"
      ],
      [
        "Ġescap",
        "e"
      ],
      [
        "ac",
        "es"
      ],
      [
        "Ġey",
        "es"
      ],
      [
        "c",
        "ess"
      ],
      [
        "n",
        "own"
      ],
      [
        "Ġs",
        "it"
      ],
      [
        "Ġcon",
        "st"
      ],
      [
        "Ġcare",
        "er"
      ],
      [
        "er",
        "v"
      ],
      [
        "ic",
        "es"
      ],
      [
        "th",
        "ough"
      ],
      [
        "Ġul",
        "tim"
      ],
      [
        "i",
        "am"
      ],
      [
        "in",
        "ary"
      ],
      [
        "Ġh",
        "on"
      ],
      [
        "ub",
        "lic"
      ],
      [
        "re",
        "st"
      ],
      [
        "Ġw",
        "ays"
      ],
      [
        "Ġm",
        "is"
      ],
      [
        "Ġsc",
        "reen"
      ],
      [
        "Ġevent",
        "ually"
      ],
      [
        "in",
        "ation"
      ],
      [
        "at",
        "ter"
      ],
      [
        "ĠM",
        "r"
      ],
      [
        "Ġfe",
        "at"
      ],
      [
        "Ġus",
        "ed"
      ],
      [
        "ĠPar",
        "is"
      ],
      [
        "Ġcon",
        "v"
      ],
      [
        "Ġf",
        "ail"
      ],
      [
        "Ġch",
        "ange"
      ],
      [
        "ĠWh",
        "ile"
      ],
      [
        "Ġreturn",
        "s"
      ],
      [
        "y",
        "p"
      ],
      [
        "wo",
        "od"
      ],
      [
        "Ġ19",
        "6"
      ],
      [
        "ĠâĢ",
        "ĵ"
      ],
      [
        "Ġh",
        "om"
      ],
      [
        "el",
        "s"
      ],
      [
        "âĢ",
        "Ķ"
      ],
      [
        "Ġkn",
        "ows"
      ],
      [
        "Ġto",
        "ld"
      ],
      [
        "Ġto",
        "ward"
      ],
      [
        "Ġwho",
        "le"
      ],
      [
        "ru",
        "g"
      ],
      [
        "Ġbre",
        "ak"
      ],
      [
        "Ġinterview",
        "s"
      ],
      [
        "Ġsever",
        "al"
      ],
      [
        "Ġs",
        "il"
      ],
      [
        "Ġdis",
        "c"
      ],
      [
        "Ġear",
        "ly"
      ],
      [
        "Ġmom",
        "ent"
      ],
      [
        "Ġdisco",
        "vers"
      ],
      [
        "Ġ",
        "&"
      ],
      [
        "Ġn",
        "ame"
      ],
      [
        "Ġsl",
        "ow"
      ],
      [
        "Ġbo",
        "ok"
      ],
      [
        "Ġpolit",
        "ical"
      ],
      [
        "Ġac",
        "ross"
      ],
      [
        "Ġuni",
        "que"
      ],
      [
        "Ġh",
        "old"
      ],
      [
        "Ġfav",
        "or"
      ],
      [
        "m",
        "a"
      ],
      [
        "ĠS",
        "w"
      ],
      [
        "Ġro",
        "ck"
      ],
      [
        "ĠHol",
        "ly"
      ],
      [
        "re",
        "w"
      ],
      [
        "ot",
        "s"
      ],
      [
        "Ġg",
        "ot"
      ],
      [
        "Ġne",
        "xt"
      ],
      [
        "ab",
        "or"
      ],
      [
        "Ġpre",
        "t"
      ],
      [
        "1",
        "9"
      ],
      [
        "a",
        "ves"
      ],
      [
        "Ġto",
        "p"
      ],
      [
        "Ġst",
        "ay"
      ],
      [
        "em",
        "ber"
      ],
      [
        "Ġany",
        "thing"
      ],
      [
        "Ġvis",
        "ual"
      ],
      [
        "b",
        "re"
      ],
      [
        "Ġs",
        "um"
      ],
      [
        "Ġemot",
        "ional"
      ],
      [
        "Ġdisco",
        "ver"
      ],
      [
        "ĠJapan",
        "ese"
      ],
      [
        "ag",
        "er"
      ],
      [
        "Ġsear",
        "ch"
      ],
      [
        "Ġp",
        "sy"
      ],
      [
        "ĠC",
        "ity"
      ],
      [
        "if",
        "t"
      ],
      [
        "Ġ",
        "rom"
      ],
      [
        "Ġc",
        "elebr"
      ],
      [
        "ar",
        "th"
      ],
      [
        "Ġhe",
        "ro"
      ],
      [
        "Ġal",
        "one"
      ],
      [
        "re",
        "m"
      ],
      [
        "Ġin",
        "n"
      ],
      [
        "ac",
        "y"
      ],
      [
        "ĠP",
        "h"
      ],
      [
        "Ġget",
        "ting"
      ],
      [
        "v",
        "ious"
      ],
      [
        "ou",
        "th"
      ],
      [
        "ĠA",
        "d"
      ],
      [
        "ec",
        "hn"
      ],
      [
        "Ġinv",
        "est"
      ],
      [
        "Ġcam",
        "era"
      ],
      [
        "Ġg",
        "rand"
      ],
      [
        "Ġturn",
        "s"
      ],
      [
        "Ġimport",
        "ant"
      ],
      [
        "Ġs",
        "ix"
      ],
      [
        "Ġc",
        "ra"
      ],
      [
        "Ġde",
        "velop"
      ],
      [
        "Ġbr",
        "ings"
      ],
      [
        "Ġam",
        "ong"
      ],
      [
        "Ġdec",
        "ide"
      ],
      [
        "ĠH",
        "er"
      ],
      [
        "Ġen",
        "g"
      ],
      [
        "igh",
        "ts"
      ],
      [
        "Ġsing",
        "le"
      ],
      [
        "idd",
        "le"
      ],
      [
        "u",
        "ge"
      ],
      [
        "ar",
        "s"
      ],
      [
        "ic",
        "ult"
      ],
      [
        "Ġst",
        "range"
      ],
      [
        "Ġmus",
        "ical"
      ],
      [
        "Ġm",
        "or"
      ],
      [
        "ĠA",
        "b"
      ],
      [
        "Ġmo",
        "ving"
      ],
      [
        "Ġinter",
        "est"
      ],
      [
        "\"",
        "."
      ],
      [
        "r",
        "al"
      ],
      [
        "Ġs",
        "ide"
      ],
      [
        "Ġc",
        "ond"
      ],
      [
        "ĠI",
        "nd"
      ],
      [
        "Ġexpl",
        "or"
      ],
      [
        "Ġfall",
        "s"
      ],
      [
        "Ġcommun",
        "ity"
      ],
      [
        "'",
        "m"
      ],
      [
        "ĠD",
        "r"
      ],
      [
        "ĠN",
        "ot"
      ],
      [
        "Ġst",
        "e"
      ],
      [
        "Ġle",
        "ave"
      ],
      [
        "Ġdis",
        "app"
      ],
      [
        "ĠS",
        "c"
      ],
      [
        "ĠE",
        "ng"
      ],
      [
        "Ġbr",
        "ing"
      ],
      [
        "Ġdes",
        "pite"
      ],
      [
        "Ġquest",
        "ion"
      ],
      [
        "ĠE",
        "very"
      ],
      [
        "Ġint",
        "im"
      ],
      [
        "ack",
        "s"
      ],
      [
        "ag",
        "ed"
      ],
      [
        "Ġdiff",
        "icult"
      ],
      [
        "Ġfilmm",
        "aker"
      ],
      [
        "Ġaud",
        "ience"
      ],
      [
        "c",
        "i"
      ],
      [
        "n",
        "ed"
      ],
      [
        "Ġlo",
        "s"
      ],
      [
        "Ġsp",
        "ace"
      ],
      [
        "Ġinv",
        "ol"
      ],
      [
        "i",
        "ver"
      ],
      [
        "y",
        "l"
      ],
      [
        "Ġb",
        "ad"
      ],
      [
        "Ġh",
        "ot"
      ],
      [
        "Ġmem",
        "bers"
      ],
      [
        "ĠAmeric",
        "a"
      ],
      [
        "Ġsupp",
        "ort"
      ],
      [
        "Ġf",
        "ig"
      ],
      [
        "Ġf",
        "elt"
      ],
      [
        "ict",
        "ion"
      ],
      [
        "l",
        "in"
      ],
      [
        "u",
        "se"
      ],
      [
        "Ġs",
        "ave"
      ],
      [
        "Ġcon",
        "nect"
      ],
      [
        "Ġfam",
        "ous"
      ],
      [
        "che",
        "s"
      ],
      [
        "ĠBrit",
        "ish"
      ],
      [
        "o",
        "on"
      ],
      [
        "Ġmo",
        "der"
      ],
      [
        "ct",
        "or"
      ],
      [
        "Ġmom",
        "ents"
      ],
      [
        "Ġdram",
        "a"
      ],
      [
        "c",
        "on"
      ],
      [
        "i",
        "um"
      ],
      [
        "Ġc",
        "ase"
      ],
      [
        "Ġh",
        "alf"
      ],
      [
        "ĠA",
        "ng"
      ],
      [
        "se",
        "qu"
      ],
      [
        "ĠC",
        "ol"
      ],
      [
        "um",
        "p"
      ],
      [
        "a",
        "el"
      ],
      [
        "i",
        "res"
      ],
      [
        "Ġle",
        "gend"
      ],
      [
        "Ġfoll",
        "ow"
      ],
      [
        "Ġmarri",
        "age"
      ],
      [
        "Ġprodu",
        "ction"
      ],
      [
        "Ġattem",
        "pt"
      ],
      [
        "osp",
        "ital"
      ],
      [
        "n",
        "al"
      ],
      [
        "ec",
        "ially"
      ],
      [
        "Ġch",
        "all"
      ],
      [
        "Ġpro",
        "cess"
      ],
      [
        "Ġag",
        "o"
      ],
      [
        "Ġlook",
        "s"
      ],
      [
        "ĠQ",
        "u"
      ],
      [
        "Ġmoder",
        "n"
      ],
      [
        "b",
        "o"
      ],
      [
        "r",
        "act"
      ],
      [
        "on",
        "es"
      ],
      [
        "Ġh",
        "it"
      ],
      [
        "Ġm",
        "il"
      ],
      [
        "ri",
        "e"
      ],
      [
        "ĠB",
        "ill"
      ],
      [
        "Ġun",
        "ex"
      ],
      [
        "Ġmin",
        "utes"
      ],
      [
        "f",
        "ort"
      ],
      [
        "p",
        "ir"
      ],
      [
        "al",
        "ity"
      ],
      [
        "ĠM",
        "y"
      ],
      [
        "ĠD",
        "on"
      ],
      [
        "pl",
        "oy"
      ],
      [
        "ore",
        "d"
      ],
      [
        "Ġact",
        "ually"
      ],
      [
        "Ġchild",
        "hood"
      ],
      [
        "Ġt",
        "rou"
      ],
      [
        "Ġw",
        "alk"
      ],
      [
        "Ġd",
        "rug"
      ],
      [
        "ĠJ",
        "ack"
      ],
      [
        "Ġme",
        "ans"
      ],
      [
        "Ġes",
        "p"
      ],
      [
        "Ġ",
        "6"
      ],
      [
        "Ġ",
        "vers"
      ],
      [
        "Ġw",
        "ond"
      ],
      [
        "Ġdo",
        "ing"
      ],
      [
        "ĠE",
        "d"
      ],
      [
        "Ġlearn",
        "s"
      ],
      [
        "Ġinvest",
        "ig"
      ],
      [
        "a",
        "ul"
      ],
      [
        "a",
        "ff"
      ],
      [
        "Ġ",
        "ident"
      ],
      [
        "ress",
        "ion"
      ],
      [
        "Ġs",
        "ad"
      ],
      [
        "Ġs",
        "ign"
      ],
      [
        "Ġm",
        "ill"
      ],
      [
        "Ġd",
        "anger"
      ],
      [
        "ect",
        "ive"
      ],
      [
        "pp",
        "ed"
      ],
      [
        "Ġimag",
        "es"
      ],
      [
        "Ġe",
        "le"
      ],
      [
        "ĠM",
        "ich"
      ],
      [
        "ap",
        "s"
      ],
      [
        "th",
        "s"
      ],
      [
        "iv",
        "ely"
      ],
      [
        "Ġwat",
        "ched"
      ],
      [
        "Ġstud",
        "ent"
      ],
      [
        "Ġcour",
        "se"
      ],
      [
        "Ġsit",
        "u"
      ],
      [
        "w",
        "in"
      ],
      [
        "er",
        "y"
      ],
      [
        "er",
        "ed"
      ],
      [
        "Ġd",
        "iv"
      ],
      [
        "Ġse",
        "es"
      ],
      [
        "Ġcl",
        "os"
      ],
      [
        "Ġorigin",
        "al"
      ],
      [
        "c",
        "y"
      ],
      [
        "e",
        "v"
      ],
      [
        "Ġp",
        "ost"
      ],
      [
        "Ġp",
        "ublic"
      ],
      [
        "Ġl",
        "aw"
      ],
      [
        "ĠT",
        "o"
      ],
      [
        "ec",
        "ut"
      ],
      [
        "em",
        "y"
      ],
      [
        "Ġcom",
        "edy"
      ],
      [
        "Ġv",
        "o"
      ],
      [
        "ru",
        "pt"
      ],
      [
        "Ġlook",
        "ing"
      ],
      [
        "g",
        "round"
      ],
      [
        "i",
        "ant"
      ],
      [
        "Ġt",
        "ele"
      ],
      [
        "Ġc",
        "ir"
      ],
      [
        "Ġl",
        "on"
      ],
      [
        "st",
        "em"
      ],
      [
        "Ġact",
        "ion"
      ],
      [
        "Ġqu",
        "ite"
      ],
      [
        "Ġf",
        "ree"
      ],
      [
        "Ġres",
        "p"
      ],
      [
        "Ġst",
        "ri"
      ],
      [
        "Ġar",
        "ch"
      ],
      [
        "ĠâĢ",
        "Ķ"
      ],
      [
        "ib",
        "ly"
      ],
      [
        "Ġdes",
        "per"
      ],
      [
        "Ġpart",
        "ic"
      ],
      [
        "Ġdeep",
        "ly"
      ],
      [
        "k",
        "y"
      ],
      [
        "Ġt",
        "aking"
      ],
      [
        "is",
        "es"
      ],
      [
        "en",
        "n"
      ],
      [
        "ri",
        "ght"
      ],
      [
        "ĠC",
        "an"
      ],
      [
        "Ġle",
        "aving"
      ],
      [
        "Ġwe",
        "e"
      ],
      [
        "Ġaff",
        "ect"
      ],
      [
        "l",
        "ict"
      ],
      [
        "Ġo",
        "per"
      ],
      [
        "at",
        "ural"
      ],
      [
        "Ġbr",
        "ut"
      ],
      [
        "Ġgirl",
        "friend"
      ],
      [
        "vis",
        "ion"
      ],
      [
        "Ġgovern",
        "ment"
      ],
      [
        "a",
        "ur"
      ],
      [
        "Ġt",
        "echn"
      ],
      [
        "Ġ1",
        "0"
      ],
      [
        "Ġcre",
        "w"
      ],
      [
        "Ġprof",
        "ess"
      ],
      [
        "Ġneed",
        "s"
      ],
      [
        "Ġstr",
        "ong"
      ],
      [
        "Ġhour",
        "s"
      ],
      [
        "Ġsy",
        "stem"
      ],
      [
        "i",
        "vers"
      ],
      [
        "Ġs",
        "oul"
      ],
      [
        "Ġh",
        "op"
      ],
      [
        "Ġm",
        "ist"
      ],
      [
        "ot",
        "t"
      ],
      [
        "ra",
        "p"
      ],
      [
        "Ġkill",
        "ed"
      ],
      [
        "Ġbelie",
        "ve"
      ],
      [
        "it",
        "ive"
      ],
      [
        "Ġm",
        "iddle"
      ],
      [
        "Ġit",
        "self"
      ],
      [
        "ra",
        "w"
      ],
      [
        "Ġfeel",
        "ing"
      ],
      [
        "'",
        "re"
      ],
      [
        "Ġt",
        "aken"
      ],
      [
        "is",
        "ing"
      ],
      [
        "et",
        "h"
      ],
      [
        "Ġfor",
        "ced"
      ],
      [
        "Ġpro",
        "g"
      ],
      [
        "Ġel",
        "se"
      ],
      [
        "Ġunex",
        "pected"
      ],
      [
        "Ġb",
        "ody"
      ],
      [
        "as",
        "y"
      ],
      [
        "ĠD",
        "o"
      ],
      [
        "Ġch",
        "ance"
      ],
      [
        "Ġacc",
        "ident"
      ],
      [
        "Ġfavor",
        "ite"
      ],
      [
        "u",
        "ff"
      ],
      [
        "Ġa",
        "ge"
      ],
      [
        "Ġc",
        "oll"
      ],
      [
        "Ġm",
        "ount"
      ],
      [
        "Ġl",
        "ate"
      ],
      [
        "us",
        "ed"
      ],
      [
        "av",
        "en"
      ],
      [
        "Ġte",
        "acher"
      ],
      [
        "y",
        "o"
      ],
      [
        "Ġb",
        "ir"
      ],
      [
        "Ġl",
        "iter"
      ],
      [
        "id",
        "ing"
      ],
      [
        "ĠB",
        "er"
      ],
      [
        "Ġad",
        "m"
      ],
      [
        "Ġhapp",
        "y"
      ],
      [
        "Ġhist",
        "or"
      ],
      [
        "Ġvide",
        "o"
      ],
      [
        "Ġd",
        "a"
      ],
      [
        "ot",
        "e"
      ],
      [
        "Ġ19",
        "4"
      ],
      [
        "ĠBl",
        "ack"
      ],
      [
        "Ġreve",
        "al"
      ],
      [
        "Ġesp",
        "ecially"
      ],
      [
        "g",
        "es"
      ],
      [
        "Ġt",
        "reat"
      ],
      [
        "Ġad",
        "vent"
      ],
      [
        "t",
        "ime"
      ],
      [
        "Ġs",
        "us"
      ],
      [
        "Ġth",
        "reat"
      ],
      [
        "Ġcom",
        "ing"
      ],
      [
        "Ġcan",
        "not"
      ],
      [
        "Ġexpl",
        "ores"
      ],
      [
        "c",
        "om"
      ],
      [
        "g",
        "u"
      ],
      [
        "Ġt",
        "al"
      ],
      [
        "re",
        "nt"
      ],
      [
        "Ġf",
        "ate"
      ],
      [
        "Ġc",
        "ivil"
      ],
      [
        "Ġh",
        "ospital"
      ],
      [
        "ed",
        "om"
      ],
      [
        "Ġst",
        "yle"
      ],
      [
        "ĠP",
        "ro"
      ],
      [
        "ĠN",
        "o"
      ],
      [
        "ĠN",
        "or"
      ],
      [
        "Ġsu",
        "ff"
      ],
      [
        "Ġmem",
        "ories"
      ],
      [
        "Ġcent",
        "ury"
      ],
      [
        "Ġw",
        "ild"
      ],
      [
        "ĠI",
        "I"
      ],
      [
        "Ġst",
        "ate"
      ],
      [
        "itt",
        "en"
      ],
      [
        "Ġno",
        "vel"
      ],
      [
        "Ġfin",
        "ally"
      ],
      [
        "g",
        "o"
      ],
      [
        "Ġan",
        "t"
      ],
      [
        "ĠIt",
        "al"
      ],
      [
        "Ġperform",
        "ances"
      ],
      [
        "Ġstar",
        "s"
      ],
      [
        "Ġcomplet",
        "ely"
      ],
      [
        "s",
        "ues"
      ],
      [
        "re",
        "ady"
      ],
      [
        "ĠF",
        "rom"
      ],
      [
        "ĠK",
        "ing"
      ],
      [
        "Ġdest",
        "ro"
      ],
      [
        "ĠB",
        "ar"
      ],
      [
        "un",
        "ning"
      ],
      [
        "l",
        "o"
      ],
      [
        "ĠT",
        "V"
      ],
      [
        "ĠA",
        "lex"
      ],
      [
        "Ġal",
        "ready"
      ],
      [
        "ĠR",
        "uss"
      ],
      [
        "ĠN",
        "az"
      ],
      [
        "Ġres",
        "ult"
      ],
      [
        "Ġsur",
        "pr"
      ],
      [
        "Ġfoll",
        "owing"
      ],
      [
        "Ġp",
        "at"
      ],
      [
        "ĠThe",
        "ir"
      ],
      [
        "us",
        "es"
      ],
      [
        "ĠF",
        "r"
      ],
      [
        "Ġro",
        "b"
      ],
      [
        "Ġabs",
        "olut"
      ],
      [
        "u",
        "z"
      ],
      [
        "Ġg",
        "round"
      ],
      [
        "ent",
        "ed"
      ],
      [
        "Ġre",
        "ad"
      ],
      [
        "ĠD",
        "uring"
      ],
      [
        "ĠF",
        "ilm"
      ],
      [
        "Ġstar",
        "ts"
      ],
      [
        "Ġ",
        "9"
      ],
      [
        "Ġf",
        "ant"
      ],
      [
        "y",
        "ond"
      ],
      [
        "Ġc",
        "at"
      ],
      [
        "Ġm",
        "ight"
      ],
      [
        "ur",
        "t"
      ],
      [
        "ĠE",
        "arth"
      ],
      [
        "iz",
        "ation"
      ],
      [
        "Ġend",
        "s"
      ],
      [
        "Ġtri",
        "p"
      ],
      [
        "Ġconf",
        "ront"
      ],
      [
        "Ġfre",
        "edom"
      ],
      [
        "Ġproblem",
        "s"
      ],
      [
        "ĠJe",
        "ff"
      ],
      [
        "Ġ",
        "8"
      ],
      [
        "Ġf",
        "r"
      ],
      [
        "Ġh",
        "a"
      ],
      [
        "ĠP",
        "er"
      ],
      [
        "00",
        "0"
      ],
      [
        "Ġins",
        "ide"
      ],
      [
        "aj",
        "or"
      ],
      [
        "Ġcle",
        "ar"
      ],
      [
        "Ġtele",
        "vision"
      ],
      [
        "c",
        "le"
      ],
      [
        "Ġf",
        "em"
      ],
      [
        "Ġwor",
        "ds"
      ],
      [
        "Ġ-",
        "-"
      ],
      [
        "Ġconf",
        "lict"
      ],
      [
        "Ġapart",
        "ment"
      ],
      [
        "Ġf",
        "asc"
      ],
      [
        "ĠM",
        "ad"
      ],
      [
        "ch",
        "ie"
      ],
      [
        "Ġ1",
        "8"
      ],
      [
        "Ġle",
        "g"
      ],
      [
        "Ġcontr",
        "ol"
      ],
      [
        "Ġpo",
        "et"
      ],
      [
        "Ġmem",
        "ory"
      ],
      [
        "Ġb",
        "attle"
      ],
      [
        "ĠO",
        "r"
      ],
      [
        "iz",
        "es"
      ],
      [
        "Ġbl",
        "ood"
      ],
      [
        "Ġold",
        "er"
      ],
      [
        "Ġcons",
        "ider"
      ],
      [
        "on",
        "t"
      ],
      [
        "Ġwh",
        "om"
      ],
      [
        "ĠD",
        "es"
      ],
      [
        "Ġup",
        "on"
      ],
      [
        "Ġev",
        "il"
      ],
      [
        "Ġcr",
        "imin"
      ],
      [
        "Ġconc",
        "er"
      ],
      [
        "Ġhapp",
        "ens"
      ],
      [
        "Ġbeaut",
        "y"
      ],
      [
        "Ġlead",
        "s"
      ],
      [
        "Ġdet",
        "ail"
      ],
      [
        "ĠMich",
        "ael"
      ],
      [
        "i",
        "od"
      ],
      [
        "Ġf",
        "ront"
      ],
      [
        "Ġc",
        "ut"
      ],
      [
        "Ġis",
        "n"
      ],
      [
        "ri",
        "ed"
      ],
      [
        "Ġan",
        "n"
      ],
      [
        "ĠM",
        "c"
      ],
      [
        "un",
        "k"
      ],
      [
        "Ġany",
        "one"
      ],
      [
        "ron",
        "ic"
      ],
      [
        "Ġext",
        "ra"
      ],
      [
        "Ġbelie",
        "ves"
      ],
      [
        "Ġemot",
        "ion"
      ],
      [
        "wh",
        "ile"
      ],
      [
        "Ġneigh",
        "bor"
      ],
      [
        "it",
        "es"
      ],
      [
        "it",
        "ary"
      ],
      [
        "Ġh",
        "ands"
      ],
      [
        "Ġp",
        "os"
      ],
      [
        "Ġex",
        "c"
      ],
      [
        "ĠP",
        "al"
      ],
      [
        "Ġv",
        "al"
      ],
      [
        "Ġr",
        "ac"
      ],
      [
        "Ġwr",
        "ong"
      ],
      [
        "Ġpsy",
        "ch"
      ],
      [
        "p",
        "or"
      ],
      [
        "Ġ",
        "7"
      ],
      [
        "Ġs",
        "aid"
      ],
      [
        "it",
        "ions"
      ],
      [
        "el",
        "ess"
      ],
      [
        "ĠE",
        "m"
      ],
      [
        "Ġapp",
        "ro"
      ],
      [
        "g",
        "ed"
      ],
      [
        "es",
        "ts"
      ],
      [
        "Ġb",
        "ur"
      ],
      [
        "ivid",
        "ual"
      ],
      [
        "c",
        "ing"
      ],
      [
        "e",
        "e"
      ],
      [
        "Ġb",
        "ased"
      ],
      [
        "Ġc",
        "a"
      ],
      [
        "Ġc",
        "ry"
      ],
      [
        "it",
        "her"
      ],
      [
        "Ġto",
        "ok"
      ],
      [
        "Ġex",
        "pect"
      ],
      [
        "Ġse",
        "ven"
      ],
      [
        "ĠG",
        "u"
      ],
      [
        "ant",
        "ic"
      ],
      [
        "Ġper",
        "iod"
      ],
      [
        "Ġem",
        "b"
      ],
      [
        "Ġam",
        "b"
      ],
      [
        "Ġboy",
        "s"
      ],
      [
        "Ġinst",
        "ead"
      ],
      [
        "olog",
        "y"
      ],
      [
        "w",
        "ork"
      ],
      [
        "ar",
        "m"
      ],
      [
        "Ġre",
        "ce"
      ],
      [
        "ĠA",
        "f"
      ],
      [
        "ĠE",
        "ur"
      ],
      [
        "Ġsu",
        "re"
      ],
      [
        "ĠWill",
        "iam"
      ],
      [
        "c",
        "is"
      ],
      [
        "s",
        "u"
      ],
      [
        "Ġb",
        "ra"
      ],
      [
        "end",
        "ed"
      ],
      [
        "ous",
        "ly"
      ],
      [
        "ĠTh",
        "rough"
      ],
      [
        "Ġmean",
        "ing"
      ],
      [
        "ĠGeor",
        "ge"
      ],
      [
        "Ġintim",
        "ate"
      ],
      [
        "Ġt",
        "ale"
      ],
      [
        "ar",
        "ing"
      ],
      [
        "Ġp",
        "ot"
      ],
      [
        "ed",
        "d"
      ],
      [
        "Ġwh",
        "ite"
      ],
      [
        "ĠK",
        "ore"
      ],
      [
        "Ġset",
        "s"
      ],
      [
        "Ġf",
        "ur"
      ],
      [
        "Ġre",
        "view"
      ],
      [
        "ĠS",
        "et"
      ],
      [
        "ec",
        "h"
      ],
      [
        "Ġde",
        "b"
      ],
      [
        "Ġarri",
        "ves"
      ],
      [
        "Ġpret",
        "ty"
      ],
      [
        "l",
        "u"
      ],
      [
        "Ġto",
        "day"
      ],
      [
        "Ġfam",
        "il"
      ],
      [
        "Ġstrugg",
        "le"
      ],
      [
        "ĠHolly",
        "wood"
      ],
      [
        "Ġt",
        "en"
      ],
      [
        "Ġc",
        "ame"
      ],
      [
        "Ġd",
        "ie"
      ],
      [
        "Ġre",
        "ason"
      ],
      [
        "Ġpro",
        "ject"
      ],
      [
        "Ġwrit",
        "er"
      ],
      [
        "Ġwit",
        "ness"
      ],
      [
        "ĠEur",
        "ope"
      ],
      [
        "k",
        "nown"
      ],
      [
        "or",
        "r"
      ],
      [
        "Ġp",
        "ick"
      ],
      [
        "us",
        "h"
      ],
      [
        "ort",
        "un"
      ],
      [
        "Ġhapp",
        "ened"
      ],
      [
        "ograph",
        "y"
      ],
      [
        "Ġpri",
        "v"
      ],
      [
        "Ġspe",
        "ak"
      ],
      [
        "ĠRob",
        "ert"
      ],
      [
        "g",
        "n"
      ],
      [
        "l",
        "or"
      ],
      [
        "Ġfilm",
        "ed"
      ],
      [
        "ĠP",
        "et"
      ],
      [
        "ĠJ",
        "im"
      ],
      [
        "ĠJ",
        "ew"
      ],
      [
        "Ġplay",
        "ing"
      ],
      [
        "c",
        "ent"
      ],
      [
        "p",
        "iece"
      ],
      [
        "er",
        "r"
      ],
      [
        "on",
        "ic"
      ],
      [
        "Ġm",
        "id"
      ],
      [
        "âĢ",
        "¦"
      ],
      [
        "ĠW",
        "est"
      ],
      [
        "ĠCh",
        "arl"
      ],
      [
        "Ġwat",
        "er"
      ],
      [
        "Ġus",
        "ing"
      ],
      [
        "idd",
        "en"
      ],
      [
        "Ġlar",
        "ge"
      ],
      [
        "Ġepisod",
        "es"
      ],
      [
        "in",
        "o"
      ],
      [
        "Ġf",
        "ell"
      ],
      [
        "Ġp",
        "iece"
      ],
      [
        "ent",
        "y"
      ],
      [
        "Ġre",
        "d"
      ],
      [
        "Ġv",
        "ict"
      ],
      [
        "Ġv",
        "arious"
      ],
      [
        "Ġdo",
        "g"
      ],
      [
        "Ġser",
        "v"
      ],
      [
        "Ġviol",
        "ence"
      ],
      [
        "bre",
        "aking"
      ],
      [
        "he",
        "ad"
      ],
      [
        "Ġl",
        "ist"
      ],
      [
        "ĠT",
        "H"
      ],
      [
        "Ġg",
        "ame"
      ],
      [
        "Ġlo",
        "ved"
      ],
      [
        "ĠJ",
        "ames"
      ],
      [
        "ĠE",
        "x"
      ],
      [
        "pect",
        "ive"
      ],
      [
        "ven",
        "ge"
      ],
      [
        "Ġincred",
        "ible"
      ],
      [
        "g",
        "r"
      ],
      [
        "h",
        "ip"
      ],
      [
        "il",
        "le"
      ],
      [
        "Ġg",
        "ives"
      ],
      [
        "ac",
        "hes"
      ],
      [
        "Ġse",
        "qu"
      ],
      [
        "Ġsh",
        "are"
      ],
      [
        "ĠG",
        "en"
      ],
      [
        "ab",
        "y"
      ],
      [
        "Ġfe",
        "ature"
      ],
      [
        "Ġres",
        "c"
      ],
      [
        "Ġwant",
        "ed"
      ],
      [
        "dd",
        "en"
      ],
      [
        "ĠAng",
        "el"
      ],
      [
        "re",
        "ad"
      ],
      [
        "Ġb",
        "ro"
      ],
      [
        "ra",
        "it"
      ],
      [
        "Ġind",
        "ividual"
      ],
      [
        "Ġattem",
        "pts"
      ],
      [
        "Ġspir",
        "it"
      ],
      [
        "Ġchall",
        "eng"
      ],
      [
        "a",
        "e"
      ],
      [
        "l",
        "ine"
      ],
      [
        "m",
        "as"
      ],
      [
        "Ġf",
        "a"
      ],
      [
        "ĠT",
        "wo"
      ],
      [
        "ĠB",
        "el"
      ],
      [
        "Ġsu",
        "dden"
      ],
      [
        "Ġoff",
        "ers"
      ],
      [
        "Ġad",
        "v"
      ],
      [
        "Ġqu",
        "ick"
      ],
      [
        "Ġra",
        "re"
      ],
      [
        "Ġsim",
        "ple"
      ],
      [
        "Ġclass",
        "ic"
      ],
      [
        "Ġjo",
        "in"
      ],
      [
        "Ġencoun",
        "ter"
      ],
      [
        "Ġthe",
        "at"
      ],
      [
        "er",
        "al"
      ],
      [
        "Ġf",
        "ans"
      ],
      [
        "Ġas",
        "ks"
      ],
      [
        "Ġpl",
        "ot"
      ],
      [
        "Ġnew",
        "s"
      ],
      [
        "Ġpo",
        "or"
      ],
      [
        "Ġgr",
        "owing"
      ],
      [
        "Ġhuman",
        "ity"
      ],
      [
        "p",
        "ed"
      ],
      [
        "Ġs",
        "ens"
      ],
      [
        "re",
        "al"
      ],
      [
        "Ġc",
        "ertain"
      ],
      [
        "Ġn",
        "um"
      ],
      [
        "us",
        "ion"
      ],
      [
        "un",
        "e"
      ],
      [
        "Ġout",
        "side"
      ],
      [
        "ĠSt",
        "e"
      ],
      [
        "Ġact",
        "iv"
      ],
      [
        "Ġro",
        "ad"
      ],
      [
        "Ġstrugg",
        "les"
      ],
      [
        "Ġexist",
        "ence"
      ],
      [
        "Ġultim",
        "ately"
      ],
      [
        "Ġs",
        "n"
      ],
      [
        "Ġw",
        "ind"
      ],
      [
        "ri",
        "b"
      ],
      [
        "ĠM",
        "in"
      ],
      [
        "ne",
        "w"
      ],
      [
        "uth",
        "or"
      ],
      [
        "Ġslow",
        "ly"
      ],
      [
        "o",
        "ver"
      ],
      [
        "Ġli",
        "k"
      ],
      [
        "Ġex",
        "am"
      ],
      [
        "Ġcl",
        "im"
      ],
      [
        "Ġport",
        "ray"
      ],
      [
        "Ġviol",
        "ent"
      ],
      [
        "Ġepisod",
        "e"
      ],
      [
        "g",
        "est"
      ],
      [
        "he",
        "t"
      ],
      [
        "on",
        "na"
      ],
      [
        "ar",
        "a"
      ],
      [
        "ir",
        "t"
      ],
      [
        "ill",
        "ed"
      ],
      [
        "ĠP",
        "e"
      ],
      [
        "Ġkid",
        "s"
      ],
      [
        "Ġexperien",
        "ces"
      ],
      [
        "Ġp",
        "ay"
      ],
      [
        "Ġl",
        "im"
      ],
      [
        "Ġg",
        "ra"
      ],
      [
        "ĠP",
        "l"
      ],
      [
        "ĠP",
        "aul"
      ],
      [
        "Ġcomp",
        "any"
      ],
      [
        "Ġam",
        "az"
      ],
      [
        "Ġmar",
        "ry"
      ],
      [
        "Ġph",
        "ys"
      ],
      [
        "Ġinn",
        "oc"
      ],
      [
        "Ġsitu",
        "ation"
      ],
      [
        "b",
        "ably"
      ],
      [
        "l",
        "ike"
      ],
      [
        "w",
        "here"
      ],
      [
        "Ġt",
        "est"
      ],
      [
        "an",
        "n"
      ],
      [
        "Ġg",
        "ay"
      ],
      [
        "ĠS",
        "ome"
      ],
      [
        "rou",
        "ght"
      ],
      [
        "Ġdec",
        "is"
      ],
      [
        "ĠHar",
        "ry"
      ],
      [
        "Ġ",
        "ic"
      ],
      [
        "Ġlo",
        "ss"
      ],
      [
        "Ġnarr",
        "ative"
      ],
      [
        "Ġrev",
        "olution"
      ],
      [
        "p",
        "e"
      ],
      [
        "t",
        "on"
      ],
      [
        "Ġa",
        "chie"
      ],
      [
        "Ġc",
        "ap"
      ],
      [
        "om",
        "m"
      ],
      [
        "ic",
        "ide"
      ],
      [
        "ic",
        "ated"
      ],
      [
        "ol",
        "ic"
      ],
      [
        "Ġint",
        "ro"
      ],
      [
        "Ġsurv",
        "ive"
      ],
      [
        "Ġlegend",
        "ary"
      ],
      [
        "Ġa",
        "ir"
      ],
      [
        "Ġse",
        "nd"
      ],
      [
        "Ġqu",
        "iet"
      ],
      [
        "ress",
        "ed"
      ],
      [
        "Ġsurv",
        "iv"
      ],
      [
        "Ġs",
        "at"
      ],
      [
        "Ġd",
        "one"
      ],
      [
        "im",
        "s"
      ],
      [
        "Ġst",
        "unning"
      ],
      [
        "ĠL",
        "ou"
      ],
      [
        "Ġcr",
        "it"
      ],
      [
        "Ġep",
        "ic"
      ],
      [
        "Ġsum",
        "mer"
      ],
      [
        "Ġ",
        "est"
      ],
      [
        "Ġw",
        "on"
      ],
      [
        "Ġf",
        "ear"
      ],
      [
        "ĠM",
        "o"
      ],
      [
        "Ġcon",
        "sequ"
      ],
      [
        "Ġlo",
        "ves"
      ],
      [
        "Ġwor",
        "th"
      ],
      [
        "Ġr",
        "ich"
      ],
      [
        "Ġle",
        "aves"
      ],
      [
        "Ġcre",
        "ate"
      ],
      [
        "Ġop",
        "en"
      ],
      [
        "ĠFran",
        "k"
      ],
      [
        "Ġstre",
        "et"
      ],
      [
        "Ġinf",
        "lu"
      ],
      [
        "Ġw",
        "ent"
      ],
      [
        "Ġf",
        "ood"
      ],
      [
        "Ġb",
        "omb"
      ],
      [
        "Ġm",
        "ajor"
      ],
      [
        "Ġre",
        "venge"
      ],
      [
        "ol",
        "es"
      ],
      [
        "Ġas",
        "k"
      ],
      [
        "ĠW",
        "ood"
      ],
      [
        "ĠG",
        "r"
      ],
      [
        "os",
        "es"
      ],
      [
        "Ġor",
        "gan"
      ],
      [
        "Ġsc",
        "enes"
      ],
      [
        "Ġgl",
        "ob"
      ],
      [
        "Ġide",
        "a"
      ],
      [
        "Ġbir",
        "th"
      ],
      [
        "I",
        "N"
      ],
      [
        "g",
        "y"
      ],
      [
        "Ġn",
        "on"
      ],
      [
        "Ġli",
        "f"
      ],
      [
        "ĠM",
        "ay"
      ],
      [
        "un",
        "ch"
      ],
      [
        "Ġbec",
        "ame"
      ],
      [
        "ik",
        "o"
      ],
      [
        "Ġdet",
        "erm"
      ],
      [
        "Ġpass",
        "ion"
      ],
      [
        "ĠMe",
        "an"
      ],
      [
        "Ġobs",
        "ess"
      ],
      [
        "Ġc",
        "ross"
      ],
      [
        "Ġm",
        "ater"
      ],
      [
        "ar",
        "ies"
      ],
      [
        "ĠT",
        "ony"
      ],
      [
        "ag",
        "ing"
      ],
      [
        "Ġbegin",
        "ning"
      ],
      [
        "ĠMean",
        "while"
      ],
      [
        "o",
        "le"
      ],
      [
        "re",
        "as"
      ],
      [
        "Ġb",
        "le"
      ],
      [
        "ĠS",
        "outh"
      ],
      [
        "ak",
        "i"
      ],
      [
        "ĠD",
        "an"
      ],
      [
        "ĠF",
        "oll"
      ],
      [
        "end",
        "er"
      ],
      [
        "Ġchang",
        "es"
      ],
      [
        "Ġpartic",
        "ular"
      ],
      [
        "r",
        "ing"
      ],
      [
        "Ġbe",
        "yond"
      ],
      [
        "id",
        "ence"
      ],
      [
        "Ġyou",
        "th"
      ],
      [
        "iz",
        "ing"
      ],
      [
        "itt",
        "ed"
      ],
      [
        "Ġcont",
        "em"
      ],
      [
        "Ġcur",
        "rent"
      ],
      [
        "Ġrele",
        "ased"
      ],
      [
        "Ġprot",
        "ect"
      ],
      [
        "Ġfuck",
        "ing"
      ],
      [
        "Ġc",
        "ru"
      ],
      [
        "Ġm",
        "ark"
      ],
      [
        "ud",
        "e"
      ],
      [
        "ep",
        "t"
      ],
      [
        "Ġmeet",
        "ing"
      ],
      [
        "Ġvis",
        "it"
      ],
      [
        "Ġaff",
        "air"
      ],
      [
        "Ġtoward",
        "s"
      ],
      [
        "in",
        "y"
      ],
      [
        "re",
        "y"
      ],
      [
        "Ġl",
        "ine"
      ],
      [
        "id",
        "ed"
      ],
      [
        "ill",
        "er"
      ],
      [
        "Ġlo",
        "ver"
      ],
      [
        "ant",
        "ly"
      ],
      [
        "Ġbecom",
        "ing"
      ],
      [
        "Ġsomet",
        "imes"
      ],
      [
        "Ġcult",
        "ure"
      ],
      [
        "Ġgiv",
        "en"
      ],
      [
        "Ġdanger",
        "ous"
      ],
      [
        "Ġdestro",
        "y"
      ],
      [
        "Ġa",
        "ut"
      ],
      [
        "Ġm",
        "ess"
      ],
      [
        "Ġe",
        "qu"
      ],
      [
        "Ġfor",
        "ces"
      ],
      [
        "Ġmo",
        "ves"
      ],
      [
        "Ġfeel",
        "ings"
      ],
      [
        "Ġexper",
        "im"
      ],
      [
        "Ġoffic",
        "er"
      ],
      [
        "rie",
        "f"
      ],
      [
        "Ġextra",
        "ord"
      ],
      [
        "e",
        "et"
      ],
      [
        "in",
        "ing"
      ],
      [
        "an",
        "a"
      ],
      [
        "Ġl",
        "ed"
      ],
      [
        "Ġn",
        "atural"
      ],
      [
        "Ġfor",
        "ce"
      ],
      [
        "Ġan",
        "g"
      ],
      [
        "and",
        "on"
      ],
      [
        "Ġr",
        "u"
      ],
      [
        "Ġr",
        "ather"
      ],
      [
        "Ġfind",
        "ing"
      ],
      [
        "ĠJo",
        "e"
      ],
      [
        "Ġlead",
        "er"
      ],
      [
        "Ġjour",
        "nal"
      ],
      [
        "a",
        "ust"
      ],
      [
        "o",
        "int"
      ],
      [
        "Ġ",
        "ess"
      ],
      [
        "Ġa",
        "uthor"
      ],
      [
        "Ġis",
        "sues"
      ],
      [
        "et",
        "t"
      ],
      [
        "us",
        "ive"
      ],
      [
        "un",
        "ting"
      ],
      [
        "Ġse",
        "par"
      ],
      [
        "Ġact",
        "ress"
      ],
      [
        "Ġdes",
        "ign"
      ],
      [
        "Ġco",
        "ver"
      ],
      [
        "Ġter",
        "ror"
      ],
      [
        "Ġvers",
        "ion"
      ],
      [
        "j",
        "ects"
      ],
      [
        "m",
        "b"
      ],
      [
        "Ġc",
        "op"
      ],
      [
        "Ġm",
        "ass"
      ],
      [
        "Ġex",
        "cept"
      ],
      [
        "Ġus",
        "es"
      ],
      [
        "Ġatt",
        "ract"
      ],
      [
        "Ġtalk",
        "ing"
      ],
      [
        "Ġsuccess",
        "ful"
      ],
      [
        "iel",
        "d"
      ],
      [
        "Ġwond",
        "er"
      ],
      [
        "d",
        "e"
      ],
      [
        "l",
        "ish"
      ],
      [
        "p",
        "ly"
      ],
      [
        "Ġb",
        "or"
      ],
      [
        "Ġch",
        "ronic"
      ],
      [
        "ĠJ",
        "ul"
      ],
      [
        "Ġse",
        "ason"
      ],
      [
        "Ġwe",
        "alth"
      ],
      [
        "Ġro",
        "le"
      ],
      [
        "Ġanim",
        "ation"
      ],
      [
        "Ġc",
        "ost"
      ],
      [
        "Ġm",
        "ult"
      ],
      [
        "om",
        "in"
      ],
      [
        "Ġis",
        "land"
      ],
      [
        "ĠThe",
        "n"
      ],
      [
        "itt",
        "ing"
      ],
      [
        "Ġatt",
        "ention"
      ],
      [
        "Ġdr",
        "ink"
      ],
      [
        "Ġinvol",
        "ved"
      ],
      [
        "c",
        "ome"
      ],
      [
        "s",
        "w"
      ],
      [
        "al",
        "d"
      ],
      [
        "ie",
        "f"
      ],
      [
        "ain",
        "ing"
      ],
      [
        "Ġinclud",
        "es"
      ],
      [
        "Ġmaster",
        "piece"
      ],
      [
        "Ġtrag",
        "edy"
      ],
      [
        "Ġ",
        "era"
      ],
      [
        "Ġf",
        "ul"
      ],
      [
        "ir",
        "on"
      ],
      [
        "Ġad",
        "apt"
      ],
      [
        "Ġport",
        "rait"
      ],
      [
        "Ġdid",
        "n"
      ],
      [
        "aim",
        "ed"
      ],
      [
        "Ġda",
        "ily"
      ],
      [
        "ĠFr",
        "ance"
      ],
      [
        "ĠCharl",
        "ie"
      ],
      [
        "Ġd",
        "anc"
      ],
      [
        "Ġin",
        "form"
      ],
      [
        "Ġe",
        "ld"
      ],
      [
        "ot",
        "ic"
      ],
      [
        "Ġst",
        "ra"
      ],
      [
        "ĠM",
        "us"
      ],
      [
        "ĠM",
        "art"
      ],
      [
        "Ġex",
        "act"
      ],
      [
        "ĠR",
        "o"
      ],
      [
        "Ġtr",
        "ad"
      ],
      [
        "ru",
        "ction"
      ],
      [
        "Ġear",
        "th"
      ],
      [
        "Ġhon",
        "est"
      ],
      [
        "Ġextraord",
        "inary"
      ],
      [
        "a",
        "res"
      ],
      [
        "Ġre",
        "b"
      ],
      [
        "ĠA",
        "nt"
      ],
      [
        "ac",
        "ed"
      ],
      [
        "Ġab",
        "andon"
      ],
      [
        "ĠAl",
        "though"
      ],
      [
        "Ġcinem",
        "atic"
      ],
      [
        "Ġext",
        "rem"
      ],
      [
        "Ġbrother",
        "s"
      ],
      [
        "Ġfun",
        "ny"
      ],
      [
        "Ġgener",
        "al"
      ],
      [
        "Ġdisc",
        "uss"
      ],
      [
        "Ġabsolut",
        "ely"
      ],
      [
        "2",
        "0"
      ],
      [
        "is",
        "ters"
      ],
      [
        "Ġp",
        "le"
      ],
      [
        "Ġin",
        "h"
      ],
      [
        "em",
        "ent"
      ],
      [
        "ĠJ",
        "ust"
      ],
      [
        "Ġse",
        "a"
      ],
      [
        "all",
        "s"
      ],
      [
        "Ġsu",
        "icide"
      ],
      [
        "Ġar",
        "m"
      ],
      [
        "Ġrun",
        "s"
      ],
      [
        "Ġref",
        "uge"
      ],
      [
        "Ġtrans",
        "form"
      ],
      [
        "l",
        "ight"
      ],
      [
        "p",
        "s"
      ],
      [
        "r",
        "ation"
      ],
      [
        "Ġa",
        "v"
      ],
      [
        "Ġhe",
        "av"
      ],
      [
        "Ġr",
        "ad"
      ],
      [
        "Ġstud",
        "ents"
      ],
      [
        "Ġrelationship",
        "s"
      ],
      [
        "Ġfeat",
        "ures"
      ],
      [
        "Ġident",
        "ity"
      ],
      [
        "ĠPal",
        "est"
      ],
      [
        "Ġmater",
        "ial"
      ],
      [
        "Ġs",
        "le"
      ],
      [
        "Ġs",
        "aw"
      ],
      [
        "Ġb",
        "ond"
      ],
      [
        "ow",
        "ers"
      ],
      [
        "Ġpre",
        "vious"
      ],
      [
        "Ġend",
        "ing"
      ],
      [
        "Ġem",
        "ploy"
      ],
      [
        "ĠAn",
        "ne"
      ],
      [
        "Ġrem",
        "ark"
      ],
      [
        "Ġrem",
        "ember"
      ],
      [
        "Ġplan",
        "et"
      ],
      [
        "ĠFran",
        "cis"
      ],
      [
        "Ġfem",
        "ale"
      ],
      [
        "Ġfasc",
        "in"
      ],
      [
        "z",
        "y"
      ],
      [
        "Ġp",
        "ath"
      ],
      [
        "Ġp",
        "ict"
      ],
      [
        "ak",
        "ers"
      ],
      [
        "ul",
        "ts"
      ],
      [
        "and",
        "er"
      ],
      [
        "Ġle",
        "ast"
      ],
      [
        "g",
        "ot"
      ],
      [
        "j",
        "oy"
      ],
      [
        "Ġd",
        "ied"
      ],
      [
        "ow",
        "ed"
      ],
      [
        "Ġst",
        "ep"
      ],
      [
        "ĠChrist",
        "mas"
      ],
      [
        "Ġexplor",
        "ation"
      ],
      [
        "Ġfur",
        "ther"
      ],
      [
        "Ġconsequ",
        "ences"
      ],
      [
        "j",
        "i"
      ],
      [
        "Ġm",
        "er"
      ],
      [
        "ok",
        "ing"
      ],
      [
        "Ġar",
        "rest"
      ],
      [
        "Ġpart",
        "y"
      ],
      [
        "Ġke",
        "y"
      ],
      [
        "Ġcolle",
        "ge"
      ],
      [
        "Ġtrou",
        "b"
      ],
      [
        "i",
        "ers"
      ],
      [
        "ar",
        "i"
      ],
      [
        "Ġg",
        "un"
      ],
      [
        "Ġg",
        "od"
      ],
      [
        "ĠM",
        "ark"
      ],
      [
        "Ġpl",
        "ays"
      ],
      [
        "Ġturn",
        "ed"
      ],
      [
        "Ġrep",
        "res"
      ],
      [
        "Ġsim",
        "ply"
      ],
      [
        "Ġwr",
        "itten"
      ],
      [
        "Ġamaz",
        "ing"
      ],
      [
        "z",
        "e"
      ],
      [
        "Ġc",
        "oun"
      ],
      [
        "Ġm",
        "ad"
      ],
      [
        "Ġd",
        "ou"
      ],
      [
        "Ġin",
        "it"
      ],
      [
        "pl",
        "ic"
      ],
      [
        "Ġmy",
        "self"
      ],
      [
        "ru",
        "ct"
      ],
      [
        "Ġatt",
        "ack"
      ],
      [
        "Ġsur",
        "round"
      ],
      [
        "i",
        "us"
      ],
      [
        "Ġt",
        "erm"
      ],
      [
        "Ġw",
        "id"
      ],
      [
        "ĠD",
        "irect"
      ],
      [
        "ist",
        "ance"
      ],
      [
        "end",
[...]
