{
  "version": "1.0",
  "truncation": null,
  "padding": null,
  "added_tokens": [
    {
      "id": 0,
      "content": "[PAD]",
      "single_word": false,
      "lstrip": false,
      "rstrip": false,
      "normalized": false,
      "special": true
    }
  ],
  "normalizer": null,
  "pre_tokenizer": {
    "type": "ByteLevel",
    "add_prefix_space": false,
    "trim_offsets": true,
    "use_regex": true
  },
  "post_processor": null,
  "decoder": {
    "type": "ByteLevel",
    "add_prefix_space": true,
    "trim_offsets": true,
    "use_regex": true
  },
  "model": {
    "type": "BPE",
    "dropout": null,
    "unk_token": null,
    "continuing_subword_prefix": null,
    "end_of_word_suffix": null,
    "fuse_unk": false,
    "byte_fallback": false,
    "ignore_merges": false,
    "vocab": {
      "[PAD]": 0,
      "!": 1,
      "\"": 2,
      "'": 3,
      "(": 4,
      ")": 5,
      ",": 6,
      "-": 7,
      ".": 8,
      "0": 9,
      "1": 10,
      "2": 11,
      "3": 12,
      "4": 13,
      "5": 14,
      "6": 15,
      "7": 16,
      "8": 17,
      "9": 18,
      ":": 19,
      ";": 20,
      "?": 21,
      "A": 22,
      "B": 23,
      "C": 24,
      "D": 25,
      "E": 26,
      "F": 27,
      "G": 28,
      "H": 29,
      "I": 30,
      "J": 31,
      "K": 32,
      "L": 33,
      "M": 34,
      "N": 35,
      "O": 36,
      "P": 37,
      "Q": 38,
      "R": 39,
      "S": 40,
      "T": 41,
      "U": 42,
      "V": 43,
      "W": 44,
      "X": 45,
      "Y": 46,
      "Z": 47,
      "a": 48,
      "b": 49,
      "c": 50,
      "d": 51,
      "e": 52,
      "f": 53,
      "g": 54,
      "h": 55,
      "i": 56,
      "j": 57,
      "k": 58,
      "l": 59,
      "m": 60,
      "n": 61,
      "o": 62,
      "p": 63,
      "q": 64,
      "r": 65,
      "s": 66,
      "t": 67,
      "u": 68,
      "v": 69,
      "w": 70,
      "x": 71,
      "y": 72,
      "z": 73,
      "¨": 74,
      "©": 75,
      "¯": 76,
      "Â": 77,
      "â": 78,
      "Ġ": 79,
      "Ģ": 80,
      "Ĥ": 81,
      "ħ": 82,
      "ł": 83,
      "Ġt": 84,
      "Ġa": 85,
      "in": 86,
      "he": 87,
      "Ġs": 88,
      "re": 89,
      "Ġw": 90,
      "Ġthe": 91,
      "is": 92,
      "Ġo": 93,
      "er": 94,
      "Ġm": 95,
      "Ġf": 96,
      "it": 97,
      "nd": 98,
      "at": 99,
      "Ġb": 100,
      "ing": 101,
      "Ġc": 102,
      "en": 103,
      "or": 104,
      "es": 105,
      "on": 106,
      "an": 107,
      "Ġth": 108,
      "ou": 109,
      "Ġd": 110,
      "al": 111,
      "ar": 112,
      "Ġp": 113,
      "Ġh": 114,
      "Ġof": 115,
      "Ġl": 116,
      "Ġand": 117,
      "ed": 118,
      "il": 119,
      "Ġto": 120,
      "as": 121,
      "Ġin": 122,
      "ly": 123,
      "om": 124,
      "ut": 125,
      "Ġg": 126,
      "ic": 127,
      "le": 128,
      "ĠI": 129,
      "Ġe": 130,
      "st": 131,
      "ot": 132,
      "Ġn": 133,
      "Ġit": 134,
      "Ġis": 135,
      "ve": 136,
      "et": 137,
      "Ġre": 138,
      "ct": 139,
      "el": 140,
      "ent": 141,
      "Ġon": 142,
      "ion": 143,
      "ay": 144,
      "im": 145,
      "Ġthis": 146,
      "ow": 147,
      "ver": 148,
      "ad": 149,
      "Ġbe": 150,
      "ie": 151,
      "Ġst": 152,
      "ch": 153,
      "'s": 154,
      "Ġmo": 155,
      "Ġthat": 156,
      "ĠT": 157,
      "gh": 158,
      "am": 159,
      "id": 160,
      "oo": 161,
      "un": 162,
      "Ġy": 163,
      "ke": 164,
      "Ġfor": 165,
      "Ġwh": 166,
      "ith": 167,
      "ilm": 168,
      "Ġhe": 169,
      "Ġwas": 170,
      "ir": 171,
      "Ġwith": 172,
      "Ġan": 173,
      "Ġfilm": 174,
      "se": 175,
      "Ġbut": 176,
      "ol": 177,
      "Ġli": 178,
      "ce": 179,
      "ra": 180,
      "ĠS": 181,
      "Ġal": 182,
      "ur": 183,
      "ul": 184,
      "Ġas": 185,
      "ĠA": 186,
      "Ġha": 187,
      "vie": 188,
      "ro": 189,
      "ally": 190,
      "Ġsh": 191,
      "Ġse": 192,
      "Ġyou": 193,
      "ck": 194,
      "ter": 195,
      "ld": 196,
      "ĠB": 197,
      "us": 198,
      "ri": 199,
      "Ġk": 200,
      "..": 201,
      "ĠM": 202,
      "Ġj": 203,
      "ill": 204,
      "ers": 205,
      "ĠC": 206,
      "Ġdo": 207,
      "her": 208,
      "ag": 209,
      "em": 210,
      "ome": 211,
      "ght": 212,
      "ak": 213,
      "'t": 214,
      "out": 215,
      "um": 216,
      "Ġab": 217,
      "ain": 218,
      "if": 219,
      "ust": 220,
      "Ġso": 221,
      "ist": 222,
      "Ġfr": 223,
      "est": 224,
      "ort": 225,
      "pe": 226,
      "his": 227,
      "Ġat": 228,
      "Ġme": 229,
      "ĠThe": 230,
      "Ġcon": 231,
      "up": 232,
      "Ġex": 233,
      "Ġch": 234,
      "Ġnot": 235,
      "ab": 236,
      "ess": 237,
      "ere": 238,
      "Ġmovie": 239,
      "ĠW": 240,
      "Ġde": 241,
      "ĠH": 242,
      "Ġlike": 243,
      "ant": 244,
      "ation": 245,
      "art": 246,
      "ĠD": 247,
      "very": 248,
      "ould": 249,
      "Ġcom": 250,
      "Ġmy": 251,
      "qu": 252,
      "Ġv": 253,
      "Ġone": 254,
      "ood": 255,
      "Ġr": 256,
      "Ġint": 257,
      "op": 258,
      "Ġlo": 259,
      "and": 260,
      "ell": 261,
      "ure": 262,
      "Ġcan": 263,
      "ĠF": 264,
      "Ġare": 265,
      "Ġtr": 266,
      "Ġwat": 267,
      "ies": 268,
      "Ġabout": 269,
      "Ġfrom": 270,
      "Ġne": 271,
      "ĠL": 272,
      "ĠP": 273,
      "ive": 274,
      "ap": 275,
      "Ġhis": 276,
      "Ġ(": 277,
      "ind": 278,
      "Ġhave": 279,
      "ast": 280,
      "Ġall": 281,
      "hing": 282,
      "Ġby": 283,
      "ate": 284,
      "ĠR": 285,
      "Ġsome": 286,
      "Ġsc": 287,
      "os": 288,
      "ough": 289,
      "Ġfe": 290,
      "Ġjust": 291,
      "ime": 292,
      "Ġpl": 293,
      "ĠG": 294,
      "ig": 295,
      "ire": 296,
      "Ġact": 297,
      "Ġwor": 298,
      "Ġun": 299,
      "ous": 300,
      "This": 301,
      "Ġwho": 302,
      "Ġwhe": 303,
      "ory": 304,
      "ang": 305,
      "ong": 306,
      "one": 307,
      "Ġout": 308,
      "all": 309,
      "ard": 310,
      "ud": 311,
      "ĠN": 312,
      "ight": 313,
      "uch": 314,
      "Ġmore": 315,
      "The": 316,
      "Ġsp": 317,
      "act": 318,
      "ore": 319,
      "ĠJ": 320,
      "Ġpre": 321,
      "ite": 322,
      "ack": 323,
      "reat": 324,
      "Ġle": 325,
      "Ġwatch": 326,
      "ven": 327,
      "Ġpro": 328,
      "od": 329,
      "ound": 330,
      "Ġi": 331,
      "Ġen": 332,
      "au": 333,
      "ĠIt": 334,
      "Ġup": 335,
      "fe": 336,
      "Ġthey": 337,
      "Ġwe": 338,
      "Ġreally": 339,
      "nt": 340,
      "view": 341,
      "Ġgood": 342,
      "ity": 343,
      "ĠE": 344,
      "pp": 345,
      "ich": 346,
      "ake": 347,
      "ook": 348,
      "Ġget": 349,
      "Ġman": 350,
      "tain": 351,
      "Ġwhat": 352,
      "Ġor": 353,
      "itt": 354,
      "are": 355,
      "og": 356,
      "Ġhas": 357,
      "Ġ\"": 358,
      "Ġqu": 359,
      "!!": 360,
      "ide": 361,
      "ci": 362,
      "Ġtime": 363,
      "ary": 364,
      "che": 365,
      "able": 366,
      "Ġits": 367,
      "Ġgo": 368,
      "ĠO": 369,
      "th": 370,
      "Ġim": 371,
      "ine": 372,
      "Ġar": 373,
      "our": 374,
      "ĠK": 375,
      "ade": 376,
      "oy": 377,
      "Ġher": 378,
      "Ġhow": 379,
      "Ġthan": 380,
      "ame": 381,
      "Ġno": 382,
      "Ġvery": 383,
      "ll": 384,
      "ss": 385,
      "Ġper": 386,
      "Ġstory": 387,
      "Ġchar": 388,
      "ub": 389,
      "ne": 390,
      "iv": 391,
      "Ġmuch": 392,
      "Ġmay": 393,
      "ge": 394,
      "av": 395,
      "Ġ1": 396,
      "Ġlove": 397,
      "ick": 398,
      "ays": 399,
      "Ġthere": 400,
      "age": 401,
      "ink": 402,
      "ty": 403,
      "ice": 404,
      "Ġinto": 405,
      "Ġpe": 406,
      "Ġbec": 407,
      "now": 408,
      "ry": 409,
      "Ġsee": 410,
      "Ġcl": 411,
      "Ġany": 412,
      "pl": 413,
      "ib": 414,
      "...": 415,
      "ish": 416,
      "Ġwould": 417,
      "Ġhand": 418,
      "pt": 419,
      "nder": 420,
      "Ġwhen": 421,
      "Ġtheir": 422,
      "Ġthr": 423,
      "so": 424,
      "uck": 425,
      "Ġu": 426,
      "ac": 427,
      "Ġfeel": 428,
      "Ġfun": 429,
      "ian": 430,
      "Ġam": 431,
      "Ġreview": 432,
      "ff": 433,
      "Ġend": 434,
      "ars": 435,
      "ass": 436,
      "Ġshort": 437,
      "Ġif": 438,
      "ost": 439,
      "Ġevery": 440,
      "ful": 441,
      "Ġbet": 442,
      "Ġhad": 443,
      "Ġdid": 444,
      "Ġmost": 445,
      "ep": 446,
      "man": 447,
      "Ġ2": 448,
      "Ġgreat": 449,
      "ue": 450,
      "Ġad": 451,
      "ment": 452,
      "Ġmade": 453,
      "Ġover": 454,
      "ther": 455,
      "Ġthem": 456,
      "ious": 457,
      "Ġknow": 458,
      "Ġwork": 459,
      "ple": 460,
      "Ġtoo": 461,
      "ny": 462,
      "ople": 463,
      "irect": 464,
      "Ġdoc": 465,
      "uth": 466,
      "Ġcharact": 467,
      "Ġlook": 468,
      "ence": 469,
      "Ġeven": 470,
      "hat": 471,
      "Ġthing": 472,
      "ical": 473,
      "ile": 474,
      "for": 475,
      "Ġonly": 476,
      "Ġwhich": 477,
      "irst": 478,
      "Ġway": 479,
      "ause": 480,
      "te": 481,
      "Ġpeople": 482,
      "Ġdoes": 483,
      "oil": 484,
      "ittle": 485,
      "Ġ-": 486,
      "per": 487,
      "Ġwere": 488,
      "'m": 489,
      "ument": 490,
      "ched": 491,
      "Ġtw": 492,
      "omet": 493,
      "int": 494,
      "ia": 495,
      "iz": 496,
      "Ġtruth": 497,
      "erest": 498,
      "Ġpart": 499,
      "Ġcontain": 500,
      "Ġthink": 501,
      "Ġdirect": 502,
      "Ġcould": 503,
      "ĠY": 504,
      "ute": 505,
      "ated": 506,
      "Ġspoil": 507,
      "Ġlittle": 508,
      "Ġwell": 509,
      "ial": 510,
      "'ve": 511,
      "Ġmin": 512,
      "Ġbl": 513,
      "Ġbeing": 514,
      "ose": 515,
      "we": 516,
      "Ġhandle": 517,
      "Ġother": 518,
      "Ġte": 519,
      "Ġspoilers": 520,
      "pect": 521,
      "ual": 522,
      "Ġpo": 523,
      "ace": 524,
      "Ġmak": 525,
      "Ġfirst": 526,
      "aw": 527,
      "Ġye": 528,
      "Ġshow": 529,
      "Ġgu": 530,
      "Ġhere": 531,
      "other": 532,
      "Ġhim": 533,
      "hy": 534,
      "elf": 535,
      "ult": 536,
      "Ġus": 537,
      "Ġdis": 538,
      "Ġmov": 539,
      "ĠCh": 540,
      "ah": 541,
      "Ġmake": 542,
      "tty": 543,
      "Ġag": 544,
      "red": 545,
      "Ġshe": 546,
      "Ġfilms": 547,
      "Ġoff": 548,
      "Ġdocument": 549,
      "Ġbecause": 550,
      "ber": 551,
      "ip": 552,
      "Ġscen": 553,
      "ting": 554,
      "Ġreal": 555,
      "Ġbeen": 556,
      "ress": 557,
      "ĠV": 558,
      "ans": 559,
      "ond": 560,
      "Ġwant": 561,
      "Ġinterest": 562,
      "ark": 563,
      "Ġlife": 564,
      "ild": 565,
      "Ġsomet": 566,
      "get": 567,
      "fter": 568,
      "own": 569,
      "Ġbr": 570,
      "ram": 571,
      "inem": 572,
      "Ġdes": 573,
      "ually": 574,
      "Ġent": 575,
      "Ġalso": 576,
      "ens": 577,
      "Ġthrough": 578,
      "Ġra": 579,
      "Ġdon": 580,
      "Ġyour": 581,
      "ction": 582,
      "ict": 583,
      "Ġser": 584,
      "ces": 585,
      "Ġpr": 586,
      "Ġstill": 587,
      "Ġbit": 588,
      "ance": 589,
      "Ġsl": 590,
      "ĠThis": 591,
      "Ġfl": 592,
      "Ġlot": 593,
      "ating": 594,
      "Ġro": 595,
      "Ġwill": 596,
      "Ġbad": 597,
      "ved": 598,
      "thing": 599,
      "the": 600,
      "cc": 601,
      "Ġwhere": 602,
      "Ġever": 603,
      "Ġgr": 604,
      "Ġcr": 605,
      "ool": 606,
      "aut": 607,
      "ise": 608,
      "az": 609,
      "Ġnever": 610,
      "ach": 611,
      "Ġback": 612,
      "sh": 613,
      "Ġhor": 614,
      "Ġpretty": 615,
      "oc": 616,
      "ily": 617,
      "ng": 618,
      "fect": 619,
      "Ġbest": 620,
      "Ġrem": 621,
      "urn": 622,
      "Ġdocumentary": 623,
      "mer": 624,
      "oll": 625,
      "Ġseen": 626,
      "Ġunder": 627,
      "Ġplay": 628,
      "ob": 629,
      "Ġsomething": 630,
      "Ġstr": 631,
      "Ġ20": 632,
      "arr": 633,
      "Ġri": 634,
      "vers": 635,
      "Ġkind": 636,
      "ug": 637,
      "Ġcinem": 638,
      "Ġbetter": 639,
      "Ġimp": 640,
      "Ġmovies": 641,
      "ves": 642,
      "ving": 643,
      "Ġgen": 644,
      "Ġtal": 645,
      "arly": 646,
      "Ġafter": 647,
      "Ġwr": 648,
      "ull": 649,
      "??": 650,
      "ĠSt": 651,
      "Ġinteresting": 652,
      "Ġtwo": 653,
      "old": 654,
      "Ġinc": 655,
      "Ġgot": 656,
      "ble": 657,
      "ors": 658,
      "Ġwatching": 659,
      "Ġaw": 660,
      "Ġthese": 661,
      "Ġem": 662,
      "Ġsay": 663,
      "be": 664,
      "Ġsur": 665,
      "Ġmus": 666,
      "ĠU": 667,
      "Ġtra": 668,
      "wn": 669,
      "Ġspe": 670,
      "imes": 671,
      "Ġthen": 672,
      "du": 673,
      "Ġdec": 674,
      "Ġwom": 675,
      "ought": 676,
      "ions": 677,
      "Ġfuck": 678,
      "iful": 679,
      "ree": 680,
      "ath": 681,
      "ase": 682,
      "Ġcomed": 683,
      "vel": 684,
      "Ġ19": 685,
      "Ġlong": 686,
      "autiful": 687,
      "rap": 688,
      "oot": 689,
      "ror": 690,
      "ents": 691,
      "Ġperfor": 692,
      "Ġrec": 693,
      "ik": 694,
      "inal": 695,
      "ature": 696,
      "ying": 697,
      "Ġsub": 698,
      "Ġhapp": 699,
      "Ġwhile": 700,
      "joy": 701,
      "Ġneed": 702,
      "Ġsup": 703,
      "Ġpers": 704,
      "aa": 705,
      ".\"": 706,
      "me": 707,
      "Ġke": 708,
      "Ġset": 709,
      "ery": 710,
      "ning": 711,
      "iss": 712,
      "fore": 713,
      "Ġgoing": 714,
      "igh": 715,
      "irl": 716,
      "ably": 717,
      "iend": 718,
      "iff": 719,
      "les": 720,
      "Ġfam": 721,
      "ways": 722,
      "Ġche": 723,
      "utes": 724,
      "ĠAnd": 725,
      "Ġfind": 726,
      "Ġins": 727,
      "Ġmany": 728,
      "Ġcomp": 729,
      "Ġseem": 730,
      "ism": 731,
      "Ġter": 732,
      "Ġwatched": 733,
      "Ġmom": 734,
      "It": 735,
      "'re": 736,
      "ect": 737,
      "Ġenjoy": 738,
      "ertain": 739,
      "Ġcharacter": 740,
      "ative": 741,
      "Ġnow": 742,
      "ather": 743,
      "ail": 744,
      "Ġart": 745,
      "Ġworld": 746,
      "Ġcou": 747,
      "ird": 748,
      "reen": 749,
      "Ġcharacters": 750,
      "ense": 751,
      "Ġrel": 752,
      "uff": 753,
      "Ġagain": 754,
      "Ġminutes": 755,
      "Ġthough": 756,
      "Ġsm": 757,
      "Ġguy": 758,
      "cial": 759,
      "ĠBut": 760,
      "Ġshot": 761,
      "Ġold": 762,
      "ign": 763,
      "Ġhum": 764,
      "der": 765,
      "Ġes": 766,
      "ft": 767,
      "Ġanim": 768,
      "Ġmakes": 769,
      "Ġstart": 770,
      "Ġbeautiful": 771,
      "ons": 772,
      "....": 773,
      "Ġshould": 774,
      ").": 775,
      "Ġplot": 776,
      "ically": 777,
      "Ġperforman": 778,
      "ave": 779,
      "Ġbefore": 780,
      "Ġ'": 781,
      "li": 782,
      "Ġactually": 783,
      "aking": 784,
      "less": 785,
      "self": 786,
      "Ġalways": 787,
      "Ġres": 788,
      "Ġdidn": 789,
      "Ġcont": 790,
      "iting": 791,
      "ock": 792,
      "ren": 793,
      "Ġenough": 794,
      "Ġyears": 795,
      "ok": 796,
      "ness": 797,
      "Ġthose": 798,
      "ank": 799,
      "Ġaround": 800,
      "Ġinter": 801,
      "Ġdown": 802,
      "Ġnew": 803,
      "Ġdram": 804,
      "elt": 805,
      "Ġsuch": 806,
      "Ġthings": 807,
      "ible": 808,
      "ater": 809,
      "Ġsim": 810,
      "oh": 811,
      "Ġcomedy": 812,
      "Ġperson": 813,
      "Ġsame": 814,
      "ience": 815,
      "Ġob": 816,
      "Ġdiff": 817,
      "ween": 818,
      "Ġdoesn": 819,
      "here": 820,
      "Ġthought": 821,
      "ream": 822,
      "Ġsound": 823,
      "pr": 824,
      "na": 825,
      "Ġpoint": 826,
      "Ġmusic": 827,
      "Ġexper": 828,
      "Ġquite": 829,
      "air": 830,
      "Ġright": 831,
      "oth": 832,
      "ĠSh": 833,
      "Ġown": 834,
      "rig": 835,
      "its": 836,
      "Ġatt": 837,
      "ĠIn": 838,
      "ations": 839,
      "xt": 840,
      "atch": 841,
      "ograp": 842,
      "ord": 843,
      "ward": 844,
      "fin": 845,
      "Ġapp": 846,
      "Ġgirl": 847,
      "Ġbetween": 848,
      "cept": 849,
      "Ġhard": 850,
      "ject": 851,
      "era": 852,
      "Ġfunny": 853,
      "Ġmen": 854,
      "oss": 855,
      "ash": 856,
      "ĠAl": 857,
      "Ġhorror": 858,
      "Ġkid": 859,
      "ĠBr": 860,
      "uring": 861,
      "Ġ3": 862,
      "Ġsec": 863,
      "ling": 864,
      "Ġinv": 865,
      "Ġtri": 866,
      "Ġide": 867,
      "ee": 868,
      "alf": 869,
      "Ġscene": 870,
      "Ġsa": 871,
      "Ġbig": 872,
      "Ġind": 873,
      "Ġwhy": 874,
      "Ġcol": 875,
      "Ġfeels": 876,
      "Ġvis": 877,
      "Ġev": 878,
      "sol": 879,
      "hen": 880,
      "AA": 881,
      "ional": 882,
      "Ġfriend": 883,
      "Ġprodu": 884,
      "Ġdirector": 885,
      "Ġexpl": 886,
      "io": 887,
      "Ġturn": 888,
      "Ġel": 889,
      "Ġsex": 890,
      "Ġfav": 891,
      "ked": 892,
      "Ġfew": 893,
      "!!!!": 894,
      "Ġkill": 895,
      "Ġcast": 896,
      "Ġbel": 897,
      "Ġap": 898,
      "king": 899,
      "ec": 900,
      "ately": 901,
      "ced": 902,
      "ĠHe": 903,
      "Ġdel": 904,
      "ane": 905,
      "iter": 906,
      "ĠThere": 907,
      "akes": 908,
      "most": 909,
      "Ġexpect": 910,
      "Ġlast": 911,
      "Ġed": 912,
      "ont": 913,
      "ER": 914,
      "Ġchild": 915,
      "Ġtell": 916,
      "Ġlead": 917,
      "Ġco": 918,
      "ings": 919,
      "ffect": 920,
      "Ġcam": 921,
      "sc": 922,
      "Ġcinema": 923,
      "Ġwhole": 924,
      "ks": 925,
      "Ġcomple": 926,
      "apt": 927,
      "ins": 928,
      "Ġput": 929,
      "ale": 930,
      "Ġrun": 931,
      "ĠTH": 932,
      "Ġhist": 933,
      "Ġnothing": 934,
      "augh": 935,
      "hed": 936,
      "Ġscenes": 937,
      "Ġhigh": 938,
      "Ġtimes": 939,
      "Ġhalf": 940,
      "),": 941,
      "Ġclass": 942,
      "Ġbas": 943,
      "Ġsure": 944,
      "Ġgets": 945,
      "ox": 946,
      "atic": 947,
      "solute": 948,
      "tern": 949,
      "An": 950,
      "Ġtake": 951,
      "Ġacc": 952,
      "Ġacting": 953,
      "Ġdiffere": 954,
      "Ġseries": 955,
      "'d": 956,
      "Ġnice": 957,
      "Ġscreen": 958,
      "Ġheart": 959,
      "ope": 960,
      "Ġfar": 961,
      "ead": 962,
      "Ġgl": 963,
      "Ġz": 964,
      "Ġday": 965,
      "Ġaction": 966,
      "Ġdi": 967,
      "Ġpol": 968,
      "ody": 969,
      "Ġlet": 970,
      "ung": 971,
      "ĠYou": 972,
      "IN": 973,
      "Ġyoung": 974,
      "Ġfelt": 975,
      "Ġmaking": 976,
      "Ġanother": 977,
      "ming": 978,
      "iece": 979,
      "ower": 980,
      "ered": 981,
      "rist": 982,
      "Ġnarr": 983,
      "arn": 984,
      "Ġshit": 985,
      "this": 986,
      "ove": 987,
      "eng": 988,
      "Ġfeature": 989,
      "ix": 990,
      "bably": 991,
      "Ġsu": 992,
      "Ġmem": 993,
      "Ġanything": 994,
      "Ġmas": 995,
      "Ġour": 996,
      "Ġinst": 997,
      "Ġexc": 998,
      "Ġdrama": 999,
      "Ġboth": 1000,
      "Ġcool": 1001,
      "led": 1002,
      "Ġcare": 1003,
      "Ġsty": 1004,
      "app": 1005,
      "Ġfamily": 1006,
      "ason": 1007,
      "Ġfound": 1008,
      "ingly": 1009,
      "orth": 1010,
      "ince": 1011,
      "ady": 1012,
      "Ġep": 1013,
      "ier": 1014,
      "que": 1015,
      "Ġop": 1016,
      "ouse": 1017,
      "Ġwoman": 1018,
      "Ġimag": 1019,
      "Ġwithout": 1020,
      "ange": 1021,
      "Ġwar": 1022,
      "Ġcons": 1023,
      "ever": 1024,
      "ition": 1025,
      "Ġyear": 1026,
      "Ġleast": 1027,
      "orn": 1028,
      "Ġeverything": 1029,
      "Ġbu": 1030,
      "Ġisn": 1031,
      "Ġpres": 1032,
      "Ġdifferent": 1033,
      "finite": 1034,
      "ew": 1035,
      "Ġhel": 1036,
      "day": 1037,
      "HA": 1038,
      "icul": 1039,
      "Ġass": 1040,
      "ĠTh": 1041,
      "ican": 1042,
      "onder": 1043,
      "Ġalmost": 1044,
      "Ġeffect": 1045,
      "Ġcle": 1046,
      "Ġfoot": 1047,
      "cially": 1048,
      "ography": 1049,
      "Ġcra": 1050,
      "Ġmain": 1051,
      "ph": 1052,
      "ics": 1053,
      "ues": 1054,
      "ĠNot": 1055,
      "Ġcall": 1056,
      "Ġtit": 1057,
      "'ll": 1058,
      "oring": 1059,
      "udget": 1060,
      "Ġrom": 1061,
      "Ġext": 1062,
      "Ġcomm": 1063,
      "finitely": 1064,
      "Ġdep": 1065,
      "ten": 1066,
      "Ġfin": 1067,
      "Ġcreat": 1068,
      "Ġvers": 1069,
      "Ġsecond": 1070,
      "olog": 1071,
      "Ġless": 1072,
      "00": 1073,
      "Ġmight": 1074,
      "Ġfucking": 1075,
      "Ġweird": 1076,
      "Ġsurpr": 1077,
      "Ġsing": 1078,
      "umb": 1079,
      "Ġtrying": 1080,
      "Ġending": 1081,
      "Ġstand": 1082,
      "sy": 1083,
      "gether": 1084,
      "Ġtogether": 1085,
      "ists": 1086,
      "ohn": 1087,
      "Ġyet": 1088,
      "Ġsol": 1089,
      "Ġhour": 1090,
      "Ġentertain": 1091,
      "ĠRe": 1092,
      "Ġque": 1093,
      "Ġcome": 1094,
      "ount": 1095,
      "pecially": 1096,
      "Ġhappen": 1097,
      "Ġsil": 1098,
      "ollow": 1099,
      "Ġcre": 1100,
      "stand": 1101,
      "Ġplace": 1102,
      "Ġemot": 1103,
      "ĠFilm": 1104,
      "ese": 1105,
      "ates": 1106,
      "Ġmon": 1107,
      "Ġentire": 1108,
      "Ġstar": 1109,
      "ited": 1110,
      "Ġkeep": 1111,
      "ories": 1112,
      "ship": 1113,
      "Ġabsolute": 1114,
      "fort": 1115,
      "Ġ5": 1116,
      "Ġsch": 1117,
      "Ġview": 1118,
      "Ġconf": 1119,
      "Ġsuper": 1120,
      "ret": 1121,
      "Ġhelp": 1122,
      "Ġcar": 1123,
      "ives": 1124,
      "Ġsomeone": 1125,
      "ures": 1126,
      "ien": 1127,
      "Ġprobably": 1128,
      "Ġgive": 1129,
      "Ġwomen": 1130,
      "Ġstuff": 1131,
      "OO": 1132,
      "ife": 1133,
      "istic": 1134,
      "Ġdr": 1135,
      "anc": 1136,
      "Ġele": 1137,
      "ĠFr": 1138,
      "Ġfilmm": 1139,
      "Ġtrans": 1140,
      "res": 1141,
      "leas": 1142,
      "Ġmean": 1143,
      "Ġsk": 1144,
      "ney": 1145,
      "Ġadd": 1146,
      "ĠAmer": 1147,
      "Ġfact": 1148,
      "Ġnight": 1149,
      "Ġearly": 1150,
      "ality": 1151,
      "iet": 1152,
      "my": 1153,
      "ĠBl": 1154,
      "Ġlow": 1155,
      "HH": 1156,
      "onest": 1157,
      "ex": 1158,
      "Ġdone": 1159,
      "Ġfull": 1160,
      "atched": 1161,
      "Ġfavor": 1162,
      "Ġbelie": 1163,
      "Ġwonder": 1164,
      "Ġmoments": 1165,
      "com": 1166,
      "Ġloved": 1167,
      "ye": 1168,
      "Ġseems": 1169,
      "Ġsong": 1170,
      "ĠDe": 1171,
      "ner": 1172,
      "Ġwasn": 1173,
      "Ġlive": 1174,
      "Ġliked": 1175,
      "ross": 1176,
      "Ġac": 1177,
      "Ġperformance": 1178,
      "ho": 1179,
      "ival": 1180,
      "ugg": 1181,
      "ya": 1182,
      "Ġperfect": 1183,
      "ĠSo": 1184,
      "Ġboy": 1185,
      "iller": 1186,
      "oooo": 1187,
      "Ġhaving": 1188,
      "Ġform": 1189,
      "Ġanimation": 1190,
      "Ġorig": 1191,
      "Ġcomplete": 1192,
      "ai": 1193,
      "Ġidea": 1194,
      "ster": 1195,
      "Ġph": 1196,
      "yn": 1197,
      "Ġsense": 1198,
      "Ġsequ": 1199,
      "aj": 1200,
      "Ġduring": 1201,
      "In": 1202,
      "Ġlight": 1203,
      "uk": 1204,
      "Ġhead": 1205,
      "Ġ4": 1206,
      "Ġhistory": 1207,
      "Ġgra": 1208,
      "Ġunt": 1209,
      "Ġeach": 1210,
      "Ġmar": 1211,
      "Ġfollow": 1212,
      "Ġstyle": 1213,
      "Ġsince": 1214,
      "son": 1215,
      "isod": 1216,
      "als": 1217,
      "idd": 1218,
      "ention": 1219,
      "Ġterri": 1220,
      "Ġversion": 1221,
      "AN": 1222,
      "ĠAn": 1223,
      "Ġlooks": 1224,
      "Ġbeg": 1225,
      "amp": 1226,
      "Ġrather": 1227,
      "iously": 1228,
      "ering": 1229,
      "Ġ202": 1230,
      "ired": 1231,
      "Ġaway": 1232,
      "Ġref": 1233,
      "ilar": 1234,
      "ident": 1235,
      "ru": 1236,
      "Ġhuman": 1237,
      "Ġsad": 1238,
      "Ġfight": 1239,
      "ann": 1240,
      "Ġsupp": 1241,
      "azing": 1242,
      "att": 1243,
      "Ġfootage": 1244,
      "ude": 1245,
      "unt": 1246,
      "land": 1247,
      "Ġdisc": 1248,
      "Ġaud": 1249,
      "Ġmiss": 1250,
      "Ġpar": 1251,
      "Not": 1252,
      "19": 1253,
      "zy": 1254,
      "Ġgoes": 1255,
      "Ġgetting": 1256,
      "ĠThat": 1257,
      "Ġmed": 1258,
      "Ġespecially": 1259,
      "ike": 1260,
      "ural": 1261,
      "Ġstud": 1262,
      "Ġpost": 1263,
      "Ġpower": 1264,
      "not": 1265,
      "Ġrep": 1266,
      "Ġgener": 1267,
      "ript": 1268,
      "Ġdoing": 1269,
      "Ġeveryone": 1270,
      "aaaa": 1271,
      "Ġtakes": 1272,
      "ames": 1273,
      "Ġspecial": 1274,
      "Ġrest": 1275,
      "Ġdist": 1276,
      "Ġworth": 1277,
      "yp": 1278,
      "ĠBe": 1279,
      "asc": 1280,
      "Ġdream": 1281,
      "Ġla": 1282,
      "Ġexperience": 1283,
      "ĠChrist": 1284,
      "to": 1285,
      "but": 1286,
      "Ġbudget": 1287,
      "Ġunderstand": 1288,
      "Ġsaid": 1289,
      "Ġincred": 1290,
      "Ġswe": 1291,
      "Ġmess": 1292,
      "oon": 1293,
      "Ġdial": 1294,
      "Ġhome": 1295,
      "gr": 1296,
      "Ġdefinitely": 1297,
      "Ġmind": 1298,
      "Ġepisod": 1299,
      "atter": 1300,
      "Ġcult": 1301,
      "Ġproduction": 1302,
      "Ġsurpris": 1303,
      "ments": 1304,
      "Ġvide": 1305,
      "fr": 1306,
      "ms": 1307,
      "ax": 1308,
      "Ġdet": 1309,
      "cer": 1310,
      "Ġtop": 1311,
      "Ġwish": 1312,
      "und": 1313,
      "uss": 1314,
      "ĠTHE": 1315,
      "Ġstars": 1316,
      "ches": 1317,
      "reak": 1318,
      "Ġboring": 1319,
      "What": 1320,
      "ets": 1321,
      "Ġfavorite": 1322,
      "Ġmur": 1323,
      "Ġpiece": 1324,
      "Ġlaugh": 1325,
      "ĠTV": 1326,
      "ibly": 1327,
      "Ġslow": 1328,
      "Ġperformances": 1329,
      "Ġcount": 1330,
      "lease": 1331,
      "unch": 1332,
      "Ġ9": 1333,
      "Ġthree": 1334,
      "Ġvo": 1335,
      "ocus": 1336,
      "Ġfinal": 1337,
      "Ġuni": 1338,
      "Ġbeh": 1339,
      "vent": 1340,
      "arent": 1341,
      "aring": 1342,
      "Ġlooking": 1343,
      "illi": 1344,
      "Ġpass": 1345,
      "Ġelse": 1346,
      "Ġdra": 1347,
      "ied": 1348,
      "llll": 1349,
      "Ġactors": 1350,
      "Ġstop": 1351,
      "Ġtitle": 1352,
      "aps": 1353,
      "med": 1354,
      "ĠAr": 1355,
      "ov": 1356,
      "ump": 1357,
      "dd": 1358,
      "Ġfall": 1359,
      "fully": 1360,
      "Ġschool": 1361,
      "Ġsaw": 1362,
      "If": 1363,
      "Ġonce": 1364,
      "Ġ8": 1365,
      "Ġmust": 1366,
      "Ġport": 1367,
      "Ġdialog": 1368,
      "elling": 1369,
      "Ġyang": 1370,
      "Ġcame": 1371,
      "ening": 1372,
      "Ġliter": 1373,
      "estern": 1374,
      "Ġdeep": 1375,
      "ĠJohn": 1376,
      "Âł": 1377,
      "ract": 1378,
      "cess": 1379,
      "You": 1380,
      "Ġread": 1381,
      "Ġcomes": 1382,
      "Ġuse": 1383,
      "St": 1384,
      "Ġremem": 1385,
      "ats": 1386,
      "Ġitself": 1387,
      "Ġexp": 1388,
      "ines": 1389,
      "Ġcour": 1390,
      "Ġpain": 1391,
      "Ġappe": 1392,
      "Ġseeing": 1393,
      "Ġcertain": 1394,
      "Ġsw": 1395,
      "Ġcouple": 1396,
      "Ġeas": 1397,
      "Ġgi": 1398,
      "ational": 1399,
      "nya": 1400,
      "Ġsy": 1401,
      "iol": 1402,
      "rop": 1403,
      "Ġdecent": 1404,
      "ities": 1405,
      "ĠWe": 1406,
      "iness": 1407,
      "ott": 1408,
      "Ġoriginal": 1409,
      "Ġdark": 1410,
      "Ġmet": 1411,
      "Ġcur": 1412,
      "ĠMar": 1413,
      "Ġenjoyed": 1414,
      "Ġreg": 1415,
      "ger": 1416,
      "Ġposs": 1417,
      "Ġsmall": 1418,
      "Ġhonest": 1419,
      "oint": 1420,
      "ork": 1421,
      "Ġvisual": 1422,
      "Ġimpress": 1423,
      "Ġjob": 1424,
      "Ġloc": 1425,
      "way": 1426,
      "ley": 1427,
      "Ġuntil": 1428,
      "Ġcut": 1429,
      "Ġguess": 1430,
      "ither": 1431,
      "ized": 1432,
      "empt": 1433,
      "Ġcamera": 1434,
      "orge": 1435,
      "Ġwanted": 1436,
      "mas": 1437,
      "Ġstrong": 1438,
      "Ġreason": 1439,
      "Ġmel": 1440,
      "uly": 1441,
      "ON": 1442,
      "Ġabsolutely": 1443,
      "ES": 1444,
      "ĠZ": 1445,
      "Ġfocus": 1446,
      "There": 1447,
      "Ġblack": 1448,
      "Ġeng": 1449,
      "Ġamazing": 1450,
      "ma": 1451,
      "Ġcute": 1452,
      "olly": 1453,
      "ĠAs": 1454,
      "AT": 1455,
      "EN": 1456,
      "Ġdeath": 1457,
      "Ġinstead": 1458,
      "Ġfan": 1459,
      "uc": 1460,
      "ĠWh": 1461,
      "Ġlack": 1462,
      "Ġentertaining": 1463,
      "My": 1464,
      "Ġstra": 1465,
      "ray": 1466,
      "ĠUn": 1467,
      "hes": 1468,
      "Ġused": 1469,
      "IS": 1470,
      "ts": 1471,
      "ĠCl": 1472,
      "iel": 1473,
      "iment": 1474,
      "reme": 1475,
      "Ġnarrative": 1476,
      "Ġpast": 1477,
      "ĠWhat": 1478,
      "unk": 1479,
      "Ġsolid": 1480,
      "--": 1481,
      "Ġleft": 1482,
      "Ġgay": 1483,
      "ular": 1484,
      "gg": 1485,
      "Ġret": 1486,
      "Ġmaster": 1487,
      "ison": 1488,
      "ĠThey": 1489,
      "Ġfriends": 1490,
      "Ġdirected": 1491,
      "ĠShe": 1492,
      "Ġsort": 1493,
      "lud": 1494,
      "Ġimport": 1495,
      "Ġworks": 1496,
      "oney": 1497,
      "omb": 1498,
      "de": 1499,
      "Ġlost": 1500,
      "ica": 1501,
      "Ġquest": 1502,
      "ING": 1503,
      "Ġword": 1504,
      "Ġhell": 1505,
      "what": 1506,
      "Ġcapt": 1507,
      "AR": 1508,
      "Ġplays": 1509,
      "het": 1510,
      "how": 1511,
      "Ġfant": 1512,
      "ific": 1513,
      "wood": 1514,
      "Ġlist": 1515,
      "vis": 1516,
      "pite": 1517,
      "orm": 1518,
      "Ġ7": 1519,
      "HAHA": 1520,
      "Ġbra": 1521,
      "ently": 1522,
      "One": 1523,
      "ution": 1524,
      "Ġstories": 1525,
      "Ġsat": 1526,
      "Ġwent": 1527,
      "Ġshows": 1528,
      "Ġcinemat": 1529,
      "apan": 1530,
      "Ġviol": 1531,
      "Ġmag": 1532,
      "Ġcop": 1533,
      "Ġcent": 1534,
      "Ġscript": 1535,
      "Ġpolit": 1536,
      "Ġhope": 1537,
      "Ġtrue": 1538,
      "ĠHow": 1539,
      "Ġdeser": 1540,
      "amn": 1541,
      "Ġparticul": 1542,
      "Ġkids": 1543,
      "ĠSc": 1544,
      "Ġbelieve": 1545,
      "Ġtruly": 1546,
      "osed": 1547,
      "ĠIf": 1548,
      "ĠLe": 1549,
      "Ġsubject": 1550,
      "Ġvideo": 1551,
      "Ġplaying": 1552,
      "Ġrole": 1553,
      "OR": 1554,
      "Ġmoment": 1555,
      "ĠAmerican": 1556,
      "iving": 1557,
      "ared": 1558,
      "ows": 1559,
      "Ġrelation": 1560,
      "Ġthriller": 1561,
      "ina": 1562,
      "Ġmaybe": 1563,
      "ief": 1564,
      "!!!": 1565,
      "ĠSp": 1566,
      "Ġmis": 1567,
      "Ġkinda": 1568,
      "ube": 1569,
      "br": 1570,
      "ari": 1571,
      "els": 1572,
      "Ġbecom": 1573,
      "ones": 1574,
      "Ġhouse": 1575,
      "Ġwhite": 1576,
      "?\"": 1577,
      "yes": 1578,
      "Ġdan": 1579,
      "ides": 1580,
      "ters": 1581,
      "Ġfilmmak": 1582,
      "ascin": 1583,
      "Ġmostly": 1584,
      "ored": 1585,
      "LL": 1586,
      "Ġinf": 1587,
      "Ġalong": 1588,
      "over": 1589,
      "Ġhimself": 1590,
      "estival": 1591,
      "oe": 1592,
      "uu": 1593,
      "Ġworst": 1594,
      "Ġcompletely": 1595,
      "box": 1596,
      "ote": 1597,
      "Ġpop": 1598,
      "Ġexist": 1599,
      "ential": 1600,
      "Ġang": 1601,
      "oke": 1602,
      "Ġsit": 1603,
      "Ġface": 1604,
      "Ġfair": 1605,
      "Ġrelationship": 1606,
      "though": 1607,
      "Ġland": 1608,
      "Ġbehind": 1609,
      "mend": 1610,
      "Ġgenre": 1611,
      "Re": 1612,
      "min": 1613,
      "Ġname": 1614,
      "ha": 1615,
      "ony": 1616,
      "ino": 1617,
      "Ġgod": 1618,
      "lish": 1619,
      "Ġremember": 1620,
      "OU": 1621,
      "ages": 1622,
      "ried": 1623,
      "Ġlater": 1624,
      "line": 1625,
      "ili": 1626,
      "Ġdem": 1627,
      "Ġvib": 1628,
      "time": 1629,
      "bert": 1630,
      "use": 1631,
      "ape": 1632,
      "Ġpresent": 1633,
      "right": 1634,
      "chn": 1635,
      "like": 1636,
      "oup": 1637,
      "osp": 1638,
      "Ġdialogue": 1639,
      "Ġwrong": 1640,
      "Ġliterally": 1641,
      "rench": 1642,
      "tra": 1643,
      "ted": 1644,
      "ready": 1645,
      "ij": 1646,
      "Ġoften": 1647,
      "Ġinvol": 1648,
      "form": 1649,
      "ek": 1650,
      "Ġexact": 1651,
      "udd": 1652,
      "light": 1653,
      "onna": 1654,
      "gy": 1655,
      "Ġagainst": 1656,
      "Ġtou": 1657,
      "uine": 1658,
      "????": 1659,
      "Ġpoor": 1660,
      "Ġprot": 1661,
      "Ġdri": 1662,
      "Ġmother": 1663,
      "Ġdesign": 1664,
      "side": 1665,
      "itten": 1666,
      "Ġinsp": 1667,
      "Ġattempt": 1668,
      "ize": 1669,
      "Ġmyself": 1670,
      "Ġmor": 1671,
      "Ġcinematography": 1672,
      "Ġfore": 1673,
      "Ġplayed": 1674,
      "AAAA": 1675,
      "Ġcor": 1676,
      "aces": 1677,
      "Ġprem": 1678,
      "Ġnon": 1679,
      "Ġself": 1680,
      "astic": 1681,
      "Ġdead": 1682,
      "Ġsweet": 1683,
      "ital": 1684,
      "Ġcourse": 1685,
      "Ġbro": 1686,
      "!\"": 1687,
      "Ġwal": 1688,
      "Ġsimple": 1689,
      "Ġve": 1690,
      "Ġhot": 1691,
      "Ġ6": 1692,
      "Ġimportant": 1693,
      "So": 1694,
      "Ġtalking": 1695,
      "enn": 1696,
      "erman": 1697,
      "Ġsle": 1698,
      "ara": 1699,
      "ene": 1700,
      "Ġalready": 1701,
      "Ġcoming": 1702,
      "Ġfeeling": 1703,
      "Ġtoday": 1704,
      "fortun": 1705,
      "Ġpict": 1706,
      "Ġtalk": 1707,
      "ĠSe": 1708,
      "Ġshots": 1709,
      "Ġant": 1710,
      "Ġstraight": 1711,
      "ĠRo": 1712,
      "Ġwa": 1713,
      "ĠAll": 1714,
      "Ġbook": 1715,
      "Ġtot": 1716,
      "Ġav": 1717,
      "owing": 1718,
      "terbox": 1719,
      "Ġnext": 1720,
      "Ġflick": 1721,
      "Ġfine": 1722,
      "itch": 1723,
      "Ġinterview": 1724,
      "Ġmatter": 1725,
      "Ġcrime": 1726,
      "ommend": 1727,
      "Ġconcept": 1728,
      "Ġok": 1729,
      "ler": 1730,
      "Ġcolle": 1731,
      "Ġ10": 1732,
      "rew": 1733,
      "Ġtry": 1734,
      "Ġanyone": 1735,
      "inning": 1736,
      "ĠNo": 1737,
      "Ġdog": 1738,
      "Ġlives": 1739,
      "reci": 1740,
      "Ġremind": 1741,
      "Ġfascin": 1742,
      "ided": 1743,
      "Ġsingle": 1744,
      "Watched": 1745,
      "Ġproble": 1746,
      "Ġest": 1747,
      "cl": 1748,
      "Ġconsid": 1749,
      "ĠBrit": 1750,
      "Ġminute": 1751,
      "any": 1752,
      "new": 1753,
      "Ġann": 1754,
      "ih": 1755,
      "Ġlevel": 1756,
      "play": 1757,
      "ric": 1758,
      "Ġpsy": 1759,
      "Ġactor": 1760,
      "ility": 1761,
      "Ġhate": 1762,
      "arch": 1763,
      "oof": 1764,
      "nce": 1765,
      "by": 1766,
      "Ġbecome": 1767,
      "ished": 1768,
      "Ġ90": 1769,
      "Ġconst": 1770,
      "Ġdays": 1771,
      "ollywood": 1772,
      "20": 1773,
      "ama": 1774,
      "terboxd": 1775,
      "Ġmot": 1776,
      "AS": 1777,
      "Ġ:": 1778,
      "Ġfather": 1779,
      "ots": 1780,
      "Ġterrible": 1781,
      "wards": 1782,
      "ĠInd": 1783,
      "ovie": 1784,
      "Ġclassic": 1785,
      "mp": 1786,
      "ĠNew": 1787,
      "Ġguys": 1788,
      "Ġside": 1789,
      "Ġdie": 1790,
      "iddle": 1791,
      "Ġlearn": 1792,
      "oles": 1793,
      "Ġadapt": 1794,
      "aby": 1795,
      "Ġpot": 1796,
      "ured": 1797,
      "ĠQ": 1798,
      "Ġepisode": 1799,
      "Ġclose": 1800,
      "Ġgroup": 1801,
      "ĠJapan": 1802,
      "Ġson": 1803,
      "Ġmove": 1804,
      "let": 1805,
      "ged": 1806,
      "ains": 1807,
      "antly": 1808,
      "Ġaudience": 1809,
      "where": 1810,
      "Ġfem": 1811,
      "Ġvoice": 1812,
      "Ġeff": 1813,
      "ky": 1814,
      "Ġinclud": 1815,
      "arl": 1816,
      "ED": 1817,
      "ator": 1818,
      "arring": 1819,
      "Ġtold": 1820,
      "ada": 1821,
      "retty": 1822,
      "Ġchildren": 1823,
      "cing": 1824,
      "Ġer": 1825,
      "ustr": 1826,
      "Ġeffects": 1827,
      "Ġwife": 1828,
      "Ġmix": 1829,
      "Ġvill": 1830,
      "Ġactual": 1831,
      "ety": 1832,
      "ĠOne": 1833,
      "aging": 1834,
      "ians": 1835,
      "Ġcred": 1836,
      "vol": 1837,
      "Ġcommun": 1838,
      "ĠMy": 1839,
      "ĠAlso": 1840,
      "Ġediting": 1841,
      "Ġera": 1842,
      "Ġeither": 1843,
      "Ġbased": 1844,
      "Ġeyes": 1845,
      "ĠAt": 1846,
      "sel": 1847,
      "Ġcountry": 1848,
      "ined": 1849,
      "oud": 1850,
      "Ġgonna": 1851,
      "Ġmurder": 1852,
      "Ġquality": 1853,
      "Ġlate": 1854,
      "Ġprop": 1855,
      "Ġscore": 1856,
      "Ġpersonal": 1857,
      "pped": 1858,
      "vious": 1859,
      "Ġemotional": 1860,
      "body": 1861,
      "Ġcart": 1862,
      "Ġbuild": 1863,
      "Ġgives": 1864,
      "Ġmusical": 1865,
      "ĠIs": 1866,
      "oes": 1867,
      "ana": 1868,
      "Th": 1869,
      "remely": 1870,
      "ively": 1871,
      "ĠSome": 1872,
      "Ġgenuine": 1873,
      "Ġappreci": 1874,
      "\".": 1875,
      "Ġrecommend": 1876,
      "ĠFor": 1877,
      "Ġopp": 1878,
      "OV": 1879,
      "iction": 1880,
      "Ġsoci": 1881,
      "Ġbreak": 1882,
      "Ġmoder": 1883,
      "key": 1884,
      "Ġiss": 1885,
      "Ġprom": 1886,
      "Ġenjoyable": 1887,
      "ald": 1888,
      "ground": 1889,
      "Ġcase": 1890,
      "Ġblood": 1891,
      "hh": 1892,
      "Ġtechn": 1893,
      "avid": 1894,
      "ient": 1895,
      "of": 1896,
      "wh": 1897,
      "real": 1898,
      "Ġfre": 1899,
      "Ġprof": 1900,
      "Ġknew": 1901,
      "watch": 1902,
      "anger": 1903,
      "using": 1904,
      "zz": 1905,
      "ĠGod": 1906,
      "Ġexactly": 1907,
      "Ġthroughout": 1908,
      "ett": 1909,
      "ole": 1910,
      "ype": 1911,
      "Ġhappened": 1912,
      "ĠMan": 1913,
      "urb": 1914,
      "Ġpat": 1915,
      "Ġfail": 1916,
      "Ġpleas": 1917,
      "Ġtook": 1918,
      "oul": 1919,
      "Ġhom": 1920,
      "Ġable": 1921,
      "Ġexec": 1922,
      "ush": 1923,
      "cy": 1924,
      "Ġcry": 1925,
      "off": 1926,
      "Ġhold": 1927,
      "Ġstrugg": 1928,
      "Ġroom": 1929,
      "fortunately": 1930,
      "ellent": 1931,
      "Ġstrange": 1932,
      "Ġ201": 1933,
      "Ġhit": 1934,
      "anda": 1935,
      "Ġfut": 1936,
      "Ġwriting": 1937,
      "ball": 1938,
      "Ġobs": 1939,
      "As": 1940,
      "Ġval": 1941,
      "Ġna": 1942,
      "Ġcap": 1943,
      "TH": 1944,
      "ita": 1945,
      "track": 1946,
      "Ġsn": 1947,
      "ĠPl": 1948,
      "Ġodd": 1949,
      "Ġgiven": 1950,
      "RE": 1951,
      "Ġtown": 1952,
      "alian": 1953,
      "Ġwestern": 1954,
      "Ġoverall": 1955,
      "Ġdev": 1956,
      "Ġliving": 1957,
      "Ġparts": 1958,
      "Ġdou": 1959,
      "ael": 1960,
      "Ġexcept": 1961,
      "vin": 1962,
      "aged": 1963,
      "Ġtale": 1964,
      "Ġcouldn": 1965,
      "selves": 1966,
      "itting": 1967,
      "otic": 1968,
      "Ġmyst": 1969,
      "Ġcrazy": 1970,
      "ology": 1971,
      "Ġstarted": 1972,
      "ka": 1973,
      "aling": 1974,
      "host": 1975,
      "Ġpur": 1976,
      "ze": 1977,
      "Ġage": 1978,
      "Ġste": 1979,
      "amb": 1980,
      "Ġhappy": 1981,
      "Ġband": 1982,
      "Ġcalled": 1983,
      "Ġmodern": 1984,
      "Ġmiddle": 1985,
      "Ġline": 1986,
      "rodu": 1987,
      "Ġforg": 1988,
      "omp": 1989,
      "Ġbecomes": 1990,
      "Ġhumor": 1991,
      "upid": 1992,
      "ĠBritish": 1993,
      "Ġ80": 1994,
      "Ġunique": 1995,
      "ices": 1996,
      "ron": 1997,
      "hehe": 1998,
      "Ch": 1999,
      "Ġcho": 2000,
      "Ġsubt": 2001,
      "Ġhero": 2002,
      "ĠOn": 2003,
      "Ġshorts": 2004,
      "Ġocc": 2005,
      "antic": 2006,
      "odram": 2007,
      "Ġsometimes": 2008,
      "Ġpsych": 2009,
      "haps": 2010,
      "Ġeffort": 2011,
      "ences": 2012,
      "Ġir": 2013,
      "Ġfascinating": 2014,
      "mosp": 2015,
      "aced": 2016,
      "okes": 2017,
      "hood": 2018,
      "itive": 2019,
      "Al": 2020,
      "nding": 2021,
      "Be": 2022,
      "Ġcharming": 2023,
      "CK": 2024,
      "........": 2025,
      "nds": 2026,
      "Ġacross": 2027,
      "Ġago": 2028,
      "Ġwithin": 2029,
      "ĠAm": 2030,
      "Ġturns": 2031,
      "Ġends": 2032,
      "Ġcareer": 2033,
      "HHHH": 2034,
      "used": 2035,
      "Ġsoundtrack": 2036,
      "Ġini": 2037,
      "Ġma": 2038,
      "Ġwon": 2039,
      "no": 2040,
      "ton": 2041,
      "Ġwild": 2042,
      "Ġdespite": 2043,
      "Ġwants": 2044,
      "Ġhours": 2045,
      "Ġmoney": 2046,
      "aries": 2047,
      "Ġworking": 2048,
      "Ġhilar": 2049,
      "Ġbar": 2050,
      "Ġways": 2051,
      "Ġbus": 2052,
      "ĠChristmas": 2053,
      "ta": 2054,
      "Ġquick": 2055,
      "Ġfinally": 2056,
      "Ġbrother": 2057,
      "Ġgame": 2058,
      "ĠJust": 2059,
      "ichael": 2060,
      "agon": 2061,
      "Ġsilly": 2062,
      "Ġcontin": 2063,
      "Ġfig": 2064,
      "Ġwritten": 2065,
      "appoint": 2066,
      "amed": 2067,
      "Ġcertainly": 2068,
      "fying": 2069,
      "imp": 2070,
      "Very": 2071,
      "Ġge": 2072,
      "read": 2073,
      "Ġpred": 2074,
      "urd": 2075,
      "Ġincredible": 2076,
      "Ġstre": 2077,
      "Ġfree": 2078,
      "Sh": 2079,
      "Ġtwist": 2080,
      "velop": 2081,
      "Ġwonderful": 2082,
      "oved": 2083,
      "Ġchang": 2084,
      "Ġgreatest": 2085,
      "Ġatmosp": 2086,
      "outh": 2087,
      "mm": 2088,
      "Ġexam": 2089,
      "con": 2090,
      "Ġconne": 2091,
      "Ġbunch": 2092,
      "ĠAN": 2093,
      "eless": 2094,
      "Ġble": 2095,
      "Ġcheck": 2096,
      "ination": 2097,
      "Ġproject": 2098,
      "When": 2099,
      "Ġbo": 2100,
      "!!!!!!!!": 2101,
      "Ġmelodram": 2102,
      "Ġlar": 2103,
      "ury": 2104,
      "Ġpremise": 2105,
      "Ġmater": 2106,
      "ccess": 2107,
      "aybe": 2108,
      "ĠMc": 2109,
      "Ġ--": 2110,
      "Ġslight": 2111,
      "iod": 2112,
      "Ġdeli": 2113,
      "ĠEng": 2114,
      "gic": 2115,
      "Ġmoving": 2116,
      "Ġshoot": 2117,
      "ĠDon": 2118,
      "aughter": 2119,
      "ised": 2120,
      "Ġrid": 2121,
      "We": 2122,
      "Ġgave": 2123,
      "ards": 2124,
      "Ġbody": 2125,
      "ising": 2126,
      "ister": 2127,
      "Ġothers": 2128,
      "ength": 2129,
      "Ġstupid": 2130,
      "Ġlos": 2131,
      "Ġstarts": 2132,
      "atural": 2133,
      "Ġsocial": 2134,
      "Ġadm": 2135,
      "lic": 2136,
      "Ġtouch": 2137,
      "aving": 2138,
      "ys": 2139,
      "Ġrand": 2140,
      "Ġsus": 2141,
      "irc": 2142,
      "Ġvar": 2143,
      "Ġcat": 2144,
      "Ġcontr": 2145,
      "Ġhappens": 2146,
      "aul": 2147,
      "piece": 2148,
      "Ġprov": 2149,
      "Some": 2150,
      "Ġpick": 2151,
      "ura": 2152,
      "anch": 2153,
      "ĠLet": 2154,
      "ially": 2155,
      "Ġbi": 2156,
      "Ġda": 2157,
      "illed": 2158,
      "Ġstri": 2159,
      "Ġfour": 2160,
      "Ġhu": 2161,
      "Ġfuture": 2162,
      "gan": 2163,
      "orld": 2164,
      "Ġphot": 2165,
      "ously": 2166,
      "Ġsimp": 2167,
      "Ġmaterial": 2168,
      "Ġparticularly": 2169,
      "uct": 2170,
      "Ġpri": 2171,
      "Ġjour": 2172,
      "Ġnature": 2173,
      "Ġneeds": 2174,
      "Ġsent": 2175,
      "Ġmystery": 2176,
      "nded": 2177,
      "gu": 2178,
      "ĠPr": 2179,
      "Ġspace": 2180,
      "He": 2181,
      "Ġdisappoint": 2182,
      "Ġdesc": 2183,
      "ement": 2184,
      "Ġromance": 2185,
      "ero": 2186,
      "Ġgrand": 2187,
      "Ġheard": 2188,
      "Ġhorri": 2189,
      "Ġrandom": 2190,
      "wise": 2191,
      "Ġheav": 2192,
      "Ġdirection": 2193,
      "Ġteen": 2194,
      "Ġabs": 2195,
      "ĠCan": 2196,
      "Ġbring": 2197,
      "Ġgang": 2198,
      "Ġid": 2199,
      "Ġsuck": 2200,
      "Ġesc": 2201,
      "Ġtype": 2202,
      "mb": 2203,
      "Ġdad": 2204,
      "Ġspir": 2205,
      "go": 2206,
      "Ġess": 2207,
      "Ġaut": 2208,
      "verse": 2209,
      "Ġexpected": 2210,
      "Ġincredibly": 2211,
      "friend": 2212,
      "itation": 2213,
      "Ġtaking": 2214,
      "Ġneeded": 2215,
      "ĠWar": 2216,
      "arth": 2217,
      "Ġpicture": 2218,
      "Ġsongs": 2219,
      "Ġult": 2220,
      "head": 2221,
      "aves": 2222,
      "lect": 2223,
      "Ġlooked": 2224,
      "Ġworse": 2225,
      "ja": 2226,
      "Ġ30": 2227,
      "Ġsupport": 2228,
      "orable": 2229,
      "Ġdamn": 2230,
      "aaaaaaaa": 2231,
      "viously": 2232,
      "That": 2233,
      "llllllll": 2234,
      "itty": 2235,
      "co": 2236,
      "Ġhop": 2237,
      "Ġculture": 2238,
      "Ġperiod": 2239,
      "Ġhonestly": 2240,
      "lu": 2241,
      "Ġbasically": 2242,
      "reaking": 2243,
      "Ġund": 2244,
      "Ġimages": 2245,
      "Ġsign": 2246,
      "IT": 2247,
      "ĠEd": 2248,
      "Ġrock": 2249,
      "Ġhistor": 2250,
      "aken": 2251,
      "Ġthinking": 2252,
      "Ġextremely": 2253,
      "Ġcreep": 2254,
      "Ġtreat": 2255,
      "uel": 2256,
      "Ġver": 2257,
      "Ġthemselves": 2258,
      "Ġanimated": 2259,
      "la": 2260,
      "ĠHollywood": 2261,
      "Ġamb": 2262,
      "Ġknown": 2263,
      "ĠFrench": 2264,
      "ĠMe": 2265,
      "ĠKe": 2266,
      "Ġsuccess": 2267,
      "Ġbare": 2268,
      "Ġtalent": 2269,
      "Ġchange": 2270,
      "Ġleg": 2271,
      "ĠFestival": 2272,
      "ĠTr": 2273,
      "arry": 2274,
      "rent": 2275,
      "Ġlang": 2276,
      "Ġcity": 2277,
      "iliar": 2278,
      "Ġforget": 2279,
      "verage": 2280,
      "Ġsimply": 2281,
      "Ġdetail": 2282,
      "Ġviolence": 2283,
      "Ġsays": 2284,
      "ully": 2285,
      "Ġcheap": 2286,
      "Ġprog": 2287,
      "OT": 2288,
      "Ġones": 2289,
      "urt": 2290,
      "Ġreleas": 2291,
      "pping": 2292,
      "ield": 2293,
      "Ġopening": 2294,
      "lin": 2295,
      "enge": 2296,
      "Ġexcellent": 2297,
      "Ġfavour": 2298,
      "ele": 2299,
      "Ġsens": 2300,
      "Ġgiving": 2301,
      "Ġbeginning": 2302,
      "Ġunf": 2303,
      "hetic": 2304,
      "ĠGerman": 2305,
      "Ġmid": 2306,
      "ased": 2307,
      "Ġmeans": 2308,
      "Ġles": 2309,
      "ĠEvery": 2310,
      "Ġalone": 2311,
      "Ġamount": 2312,
      "hel": 2313,
      "ants": 2314,
      "Ġsilent": 2315,
      "ĠGe": 2316,
      "acing": 2317,
      "Ġill": 2318,
      "Ġappro": 2319,
      "bb": 2320,
      "Ġpure": 2321,
      "rup": 2322,
      "ĠOr": 2323,
      "EE": 2324,
      "No": 2325,
      "Ġinsane": 2326,
      "Ġtries": 2327,
      "ries": 2328,
      "AL": 2329,
      "Ġimpressive": 2330,
      "Ġcompl": 2331,
      "Ġsaying": 2332,
      "Ġmad": 2333,
      "Ġuns": 2334,
      "Ġkiller": 2335,
      "Ġeasy": 2336,
      "Ġquestion": 2337,
      "Ġclearly": 2338,
      "Ġturned": 2339,
      "Ġener": 2340,
      "Ġdest": 2341,
      "eresting": 2342,
      "Ġhilarious": 2343,
      "Ġeye": 2344,
      "Ġpolitical": 2345,
      "?!": 2346,
      "Ġmark": 2347,
      "Ġgirls": 2348,
      "ances": 2349,
      "Ġsomehow": 2350,
      "Ġevent": 2351,
      "oooooooo": 2352,
      "band": 2353,
      "Ġparent": 2354,
      "Ġsuff": 2355,
      "Ġmil": 2356,
      "ini": 2357,
      "yond": 2358,
      "ĠAd": 2359,
      "por": 2360,
      "Ġtyp": 2361,
      "enty": 2362,
      "aster": 2363,
      "For": 2364,
      "Ġbaby": 2365,
      "Ġsetting": 2366,
      "Ġcamp": 2367,
      "imate": 2368,
      "fic": 2369,
      "Ġber": 2370,
      "Ġannoy": 2371,
      "Ġjokes": 2372,
      "Ġconcer": 2373,
      "Ġdull": 2374,
      "ga": 2375,
      "Ġlonger": 2376,
      "Ġpowerful": 2377,
      "ĠJack": 2378,
      "Ġdevelop": 2379,
      "Ġhear": 2380,
      "Ġrespect": 2381,
      "Ġsociety": 2382,
      "Ġstay": 2383,
      "Ġattention": 2384,
      "Ġimm": 2385,
      "izing": 2386,
      "Ġportray": 2387,
      "Ġdig": 2388,
      "ĠPe": 2389,
      "Ġcost": 2390,
      "Ġinvest": 2391,
      "arb": 2392,
      "Ġpull": 2393,
      "Ġtowards": 2394,
      "ĠBer": 2395,
      "Ġwords": 2396,
      "anna": 2397,
      "Ġreality": 2398,
      "Ġexperiment": 2399,
      "ĠSte": 2400,
      "Ġgun": 2401,
      "Ġromantic": 2402,
      "Tube": 2403,
      "cent": 2404,
      "Ġsurv": 2405,
      "ades": 2406,
      "ris": 2407,
      "Ġgag": 2408,
      "arre": 2409,
      "Ġghost": 2410,
      "Ġfantastic": 2411,
      "Ġposter": 2412,
      "ĠNe": 2413,
      "Ġfilmmaking": 2414,
      "erv": 2415,
      "ension": 2416,
      "ĠDis": 2417,
      "Ġrare": 2418,
      "orgeous": 2419,
      "aught": 2420,
      "Just": 2421,
      "Ġpos": 2422,
      "Ġbrilli": 2423,
      "Ġfa": 2424,
      "esome": 2425,
      "Ġrunning": 2426,
      "kan": 2427,
      "Ġreturn": 2428,
      "back": 2429,
      "Ġdue": 2430,
      "irt": 2431,
      "Ġje": 2432,
      "ĠGreat": 2433,
      "illiam": 2434,
      "za": 2435,
      "Ġut": 2436,
      "Ġopen": 2437,
      "Ġmaj": 2438,
      "Ġsoon": 2439,
      "Ġpossible": 2440,
      "ionally": 2441,
      "ĠLove": 2442,
      "ĠDavid": 2443,
      "imately": 2444,
      "Ġmasterpiece": 2445,
      "Ġworked": 2446,
      "ills": 2447,
      "Ġbackground": 2448,
      "Ġusual": 2449,
      "Ġresult": 2450,
      "Ġemp": 2451,
      "Ġinform": 2452,
      "asy": 2453,
      "ĠVery": 2454,
      "ĠWith": 2455,
      "ĠHowever": 2456,
      "Ġinvolved": 2457,
      "ips": 2458,
      "ĠJapanese": 2459,
      "oose": 2460,
      "Ġcomb": 2461,
      "Ġatmosphere": 2462,
      "eter": 2463,
      "Ġfilmmaker": 2464,
      "Ġaspect": 2465,
      "Why": 2466,
      "Ġcolor": 2467,
      "Ġleads": 2468,
      "umber": 2469,
      "Ġcinematic": 2470,
      "oop": 2471,
      "Ġsexual": 2472,
      "Ġsomewhat": 2473,
      "Ġevil": 2474,
      "Ġred": 2475,
      "Ġlovely": 2476,
      "Ġtheat": 2477,
      "Ġemb": 2478,
      "oph": 2479,
      "usband": 2480,
      "Ġtotally": 2481,
      "Ġsimilar": 2482,
      "Ġ70": 2483,
      "II": 2484,
      "iest": 2485,
      "Ġwouldn": 2486,
      "Ġawful": 2487,
      "Ġsitu": 2488,
      "lo": 2489,
      "Ġfans": 2490,
      "Ġproblem": 2491,
      "Ġng": 2492,
      "Ġelements": 2493,
      "Ġsever": 2494,
      "Ġfive": 2495,
      "Ġfeatures": 2496,
      "Ġcartoon": 2497,
      "acy": 2498,
      "Ġextra": 2499,
      "een": 2500,
      "Ġsupposed": 2501,
      "Ġcrit": 2502,
      "Ġnovel": 2503,
      "Ġclear": 2504,
      "atever": 2505,
      "unny": 2506,
      "text": 2507,
      "Ġfamiliar": 2508,
      "ior": 2509,
      "hic": 2510,
      "Ġyes": 2511,
      "Ġdaughter": 2512,
      "Another": 2513,
      "Ġideas": 2514,
      "ille": 2515,
      "OM": 2516,
      "ĠJames": 2517,
      "Ġintrig": 2518,
      "And": 2519,
      "Ġfairly": 2520,
      "Ġlim": 2521,
      "Ġteam": 2522,
      "Ġadvent": 2523,
      "Ġadaptation": 2524,
      "ĠYouTube": 2525,
      "\",": 2526,
      "ression": 2527,
      "Ġequ": 2528,
      "Ġprotagon": 2529,
      "ĠWell": 2530,
      "Ġthird": 2531,
      "Ġglad": 2532,
      "Ġunc": 2533,
      "ges": 2534,
      "rest": 2535,
      "Ġrac": 2536,
      "Ġseveral": 2537,
      "ĠTo": 2538,
      "Ġsum": 2539,
      "Ġforgot": 2540,
      "Ġhands": 2541,
      "unning": 2542,
      "Ġtone": 2543,
      "Ġet": 2544,
      "orts": 2545,
      "mark": 2546,
      "war": 2547,
      "Ġdance": 2548,
      "Ġdecided": 2549,
      "Ġgenuinely": 2550,
      "Ġended": 2551,
      "resent": 2552,
      "De": 2553,
      "ĠStill": 2554,
      "Ġear": 2555,
      "Ġmessage": 2556,
      "Ġpolice": 2557,
      "How": 2558,
      "sw": 2559,
      "Ġ200": 2560,
      "uted": 2561,
      "bs": 2562,
      "ĠTom": 2563,
      "Well": 2564,
      "Ġtele": 2565,
      "gend": 2566,
      "Ġwhose": 2567,
      "onic": 2568,
      "Ġreleased": 2569,
      "Ġpay": 2570,
      "Ġrecord": 2571,
      "Ġplease": 2572,
      "ST": 2573,
      "Ġsounds": 2574,
      "Ġsurprisingly": 2575,
      "Ġwater": 2576,
      "ining": 2577,
      "Ġokay": 2578,
      "Ġfavourite": 2579,
      "Ġstarring": 2580,
      "ctor": 2581,
      "Ġfemale": 2582,
      "Ġgem": 2583,
      "Ġissues": 2584,
      "Ġmult": 2585,
      "Ġcirc": 2586,
      "stal": 2587,
      "Ġreve": 2588,
      "Ġfire": 2589,
      "Ġhusband": 2590,
      "ĠMichael": 2591,
      "Ġrich": 2592,
      "Ġactress": 2593,
      "Ġspec": 2594,
      "Ġexpecting": 2595,
      "ĠPer": 2596,
      "ublic": 2597,
      "uh": 2598,
      "Ġapart": 2599,
      "illing": 2600,
      "wo": 2601,
      "Ġdebut": 2602,
      "Ġshowing": 2603,
      "uma": 2604,
      "Ġsequel": 2605,
      "Ġengaging": 2606,
      "Ġfell": 2607,
      "sp": 2608,
      "usion": 2609,
      "hys": 2610,
      "ĠEx": 2611,
      "rit": 2612,
      "Ġartist": 2613,
      "OW": 2614,
      "Ġspeak": 2615,
      "oor": 2616,
      "ĠEven": 2617,
      "Ġlocal": 2618,
      "Ġment": 2619,
      "IL": 2620,
      "VD": 2621,
      "icks": 2622,
      "ĠLike": 2623,
      "ilt": 2624,
      "Ġ.": 2625,
      "Ġusing": 2626,
      "Ġstage": 2627,
      "Ġalthough": 2628,
      "eth": 2629,
      "ĠDan": 2630,
      "Ġhowever": 2631,
      "more": 2632,
      "ĠEnglish": 2633,
      "Ġmedi": 2634,
      "Ġak": 2635,
      "Ġwin": 2636,
      "ging": 2637,
      "ala": 2638,
      "ressed": 2639,
      "Ġtrad": 2640,
      "ĠCon": 2641,
      "ĠIN": 2642,
      "men": 2643,
      "Ġton": 2644,
      "ĠHall": 2645,
      "ĠPro": 2646,
      "pective": 2647,
      "oid": 2648,
      "Ġkn": 2649,
      "Ġrad": 2650,
      "ĠWhen": 2651,
      "ĠGood": 2652,
      "icult": 2653,
      "Ġmajor": 2654,
      "Ġdelight": 2655,
      "Ġdumb": 2656,
      "Ġporn": 2657,
      "Ġbeyond": 2658,
      "Ġru": 2659,
      "Ġentirely": 2660,
      "Ġfront": 2661,
      "Ġinde": 2662,
      "Ġupon": 2663,
      "atching": 2664,
      "Ġimagine": 2665,
      "Ġlength": 2666,
      "arently": 2667,
      "allenge": 2668,
      "that": 2669,
      "Ġenergy": 2670,
      "row": 2671,
      "Ġeffective": 2672,
      "Ġkept": 2673,
      "Ġmeet": 2674,
      "Ġ197": 2675,
      "Ġappreciate": 2676,
      "ĠFe": 2677,
      "Ġfilmed": 2678,
      "ĠJe": 2679,
      "venge": 2680,
      "uing": 2681,
      "Ġplan": 2682,
      "Ġbox": 2683,
      "mist": 2684,
      "Ġserious": 2685,
      "Ġjump": 2686,
      "Ġsleep": 2687,
      "ĠOF": 2688,
      "Ġpotential": 2689,
      "Ġsoul": 2690,
      "Ġshock": 2691,
      "Ġtre": 2692,
      "ancing": 2693,
      "auty": 2694,
      "par": 2695,
      "Ġamong": 2696,
      "Ġlarge": 2697,
      "aganda": 2698,
      "Ġlol": 2699,
      "stem": 2700,
      "Ġpoints": 2701,
      "Ġdeal": 2702,
      "Ġindust": 2703,
      "Ġinspir": 2704,
      "Ġgorgeous": 2705,
      "inema": 2706,
      "ĠLetterboxd": 2707,
      "alth": 2708,
      "Ġic": 2709,
      "ĠWhile": 2710,
      "Really": 2711,
      "rom": 2712,
      "Ġlesb": 2713,
      "AD": 2714,
      "Ġtelling": 2715,
      "aked": 2716,
      "ĠRobert": 2717,
      "Ġorder": 2718,
      "erson": 2719,
      "Ġfinds": 2720,
      "Pretty": 2721,
      "Ġvisuals": 2722,
      "Ġrelease": 2723,
      "ĠAND": 2724,
      "Ġinn": 2725,
      "af": 2726,
      "Ġjourney": 2727,
      "Ġground": 2728,
      "Ġpun": 2729,
      "ĠRuss": 2730,
      "ken": 2731,
      "was": 2732,
      "oun": 2733,
      "Ġaf": 2734,
      "Ġnear": 2735,
      "Ġleave": 2736,
      "AM": 2737,
      "Ġrating": 2738,
      "ula": 2739,
      "omen": 2740,
      "oly": 2741,
      "Ġevents": 2742,
      "gen": 2743,
      "Ġmelodrama": 2744,
      "Ġbrain": 2745,
      "Ġincluding": 2746,
      "Ġbrilliant": 2747,
      "Ġclos": 2748,
      "Ġperhaps": 2749,
      "Ġspirit": 2750,
      "ata": 2751,
      "cious": 2752,
      "edy": 2753,
      "ĠSw": 2754,
      "Ġaest": 2755,
      "itions": 2756,
      "CH": 2757,
      "Ġwind": 2758,
      "Ġpoet": 2759,
      "fer": 2760,
      "Ġfully": 2761,
      "Ġoper": 2762,
      "uper": 2763,
      "ĠHis": 2764,
      "ĠEl": 2765,
      "Ġdocumentaries": 2766,
      "Ġseemed": 2767,
      "Ġmention": 2768,
      "All": 2769,
      "Ġhuge": 2770,
      "osh": 2771,
      "Ġhaven": 2772,
      "ĠWorld": 2773,
      "Ġ198": 2774,
      "Ġfilmmakers": 2775,
      "Ġsurprised": 2776,
      "ros": 2777,
      "ume": 2778,
      "Ġappear": 2779,
      "Ġbag": 2780,
      "ichard": 2781,
      "Ġparents": 2782,
      "Ġmeaning": 2783,
      "Ġobsess": 2784,
      "ID": 2785,
      "Ġmer": 2786,
      "ĠWilliam": 2787,
      "Ġ15": 2788,
      "Ġcompelling": 2789,
      "vision": 2790,
      "film": 2791,
      "kes": 2792,
      "rated": 2793,
      "upp": 2794,
      "Ġawesome": 2795,
      "Ġmonth": 2796,
      "Ġknows": 2797,
      "Ġeasily": 2798,
      "Ġdude": 2799,
      "ires": 2800,
      "Ġ199": 2801,
      "ĠCom": 2802,
      "ĠHer": 2803,
      "Ġten": 2804,
      "irth": 2805,
      "Ġnearly": 2806,
      "Ġstruct": 2807,
      "iny": 2808,
      "Ġpredict": 2809,
      "Ġhighlight": 2810,
      "Ġslightly": 2811,
      "Ġdifficult": 2812,
      "Ġhar": 2813,
      "Ġmass": 2814,
      "ĠGu": 2815,
      "illy": 2816,
      "attle": 2817,
      "Ġaverage": 2818,
      "Oh": 2819,
      "medi": 2820,
      "you": 2821,
      "Ġfol": 2822,
      "Ġannoying": 2823,
      "Ġviewing": 2824,
      "Every": 2825,
      "Ġder": 2826,
      "Ġsequence": 2827,
      "oitation": 2828,
      "ivid": 2829,
      "ĠDVD": 2830,
      "Ġpa": 2831,
      "ĠPh": 2832,
      "LE": 2833,
      "ĠAb": 2834,
      "Ġclim": 2835,
      "Ġpen": 2836,
      "Ġprison": 2837,
      "Ġcomment": 2838,
      "Ġarch": 2839,
      "Un": 2840,
      "ĠGr": 2841,
      "dy": 2842,
      "Ġident": 2843,
      "Ġwhatever": 2844,
      "Ġruntime": 2845,
      "ped": 2846,
      "unting": 2847,
      "Ġbarely": 2848,
      "Ġperfectly": 2849,
      "ki": 2850,
      "Ġanime": 2851,
      "Ġridicul": 2852,
      "Ġbeautifully": 2853,
      "orry": 2854,
      "Wh": 2855,
      "ĠMovie": 2856,
      "???": 2857,
      "Ġaren": 2858,
      "ctions": 2859,
      "ĠMon": 2860,
      "ĠCol": 2861,
      "Ġoutside": 2862,
      "Ġair": 2863,
      "Ġsave": 2864,
      "Ġcreepy": 2865,
      "They": 2866,
      "Ġenc": 2867,
      "Ġjoy": 2868,
      "Great": 2869,
      "cted": 2870,
      "Ġsystem": 2871,
      "On": 2872,
      "ĠBlack": 2873,
      "Ġweak": 2874,
      "Ġinside": 2875,
      "fi": 2876,
      "lor": 2877,
      "ĠChe": 2878,
      "pend": 2879,
      "Ġcannot": 2880,
      "Ġinterested": 2881,
      "Ġbur": 2882,
      "Ġimpact": 2883,
      "Ġfur": 2884,
      "Ġaff": 2885,
      "Ġtrack": 2886,
      "Ġintrodu": 2887,
      "Ġintern": 2888,
      "Ġtaken": 2889,
      "Ġsi": 2890,
      "Ġotherwise": 2891,
      "Ġtravel": 2892,
      "UT": 2893,
      "acher": 2894,
      "ĠUS": 2895,
      "Ġcoll": 2896,
      "olid": 2897,
      "ishing": 2898,
      "ims": 2899,
      "Ġroll": 2900,
      "bed": 2901,
      "ogn": 2902,
      "Ġexperien": 2903,
      "ugs": 2904,
      "rag": 2905,
      "Ġlots": 2906,
      "Ġchildhood": 2907,
      "Ġpropaganda": 2908,
      "Ġbiz": 2909,
      "Ġcond": 2910,
      "Ġyourself": 2911,
      "Ġheavy": 2912,
      "ĠLee": 2913,
      "bo": 2914,
      "Ġlangu": 2915,
      "inn": 2916,
      "ert": 2917,
      "ĠIS": 2918,
      "ĠQu": 2919,
      "anks": 2920,
      "ares": 2921,
      "Ġtrou": 2922,
      "Ġhair": 2923,
      "Ġinterviews": 2924,
      "Ġcharm": 2925,
      "Ġmedia": 2926,
      "Ġinflu": 2927,
      "Ġprocess": 2928,
      "Ġnostal": 2929,
      "Ġcreative": 2930,
      "Ġbang": 2931,
      "Ġnorm": 2932,
      "Ġearli": 2933,
      "ider": 2934,
      "uuuu": 2935,
      "Ġexplain": 2936,
      "Ġcommunity": 2937,
      "Ġfeat": 2938,
      "Ġbeauty": 2939,
      "AY": 2940,
      "scar": 2941,
      "Ġvan": 2942,
      "Ġmulti": 2943,
      "Ġsecret": 2944,
      "Ġbrought": 2945,
      "Ġchance": 2946,
      "mistry": 2947,
      "Ġanti": 2948,
      "ĠDisney": 2949,
      "Ġfast": 2950,
      "ament": 2951,
      "Ġphys": 2952,
      "ailable": 2953,
      "Ġcomplex": 2954,
      "Ġepisodes": 2955,
      "Ġabsurd": 2956,
      "cher": 2957,
      "ization": 2958,
      "ises": 2959,
      "Ġcover": 2960,
      "ios": 2961,
      "Ġseg": 2962,
      "Ġkilled": 2963,
      "Ġtap": 2964,
      "Ġmale": 2965,
      "Ġproper": 2966,
      "Ġbrut": 2967,
      "adi": 2968,
      "Ġhang": 2969,
      "ato": 2970,
      "ĠMor": 2971,
      "Ġnumber": 2972,
      "Ġtrip": 2973,
      "Int": 2974,
      "urs": 2975,
      "ral": 2976,
      "Ġlaw": 2977,
      "Ġcontext": 2978,
      "aly": 2979,
      "ĠCar": 2980,
      "Ġkeeps": 2981,
      "Ġrepresent": 2982,
      "Ġapproach": 2983,
      "Ġsets": 2984,
      "gest": 2985,
      "come": 2986,
      "ius": 2987,
      "ieces": 2988,
      "Ġexample": 2989,
      "Ġbusiness": 2990,
      "Ġtells": 2991,
      "Ġlady": 2992,
      "ĠHor": 2993,
      "uit": 2994,
      "boy": 2995,
      "Ġjoke": 2996,
      "abor": 2997,
      "hor": 2998,
      "Ġtast": 2999,
      "Ġvibe": 3000,
      "Ġprotagonist": 3001,
      "Ġmissing": 3002,
      "Ġtv": 3003,
      "ĠSam": 3004,
      "Ġimmedi": 3005,
      "Ġvarious": 3006,
      "Ġwrite": 3007,
      "Ġsequences": 3008,
      "Ġdeeply": 3009,
      "just": 3010,
      "Ġrob": 3011,
      "ometimes": 3012,
      "inally": 3013,
      "Ġchemistry": 3014,
      "ĠSch": 3015,
      "Ġtension": 3016,
      "lex": 3017,
      "Ġmood": 3018,
      "ĠSm": 3019,
      "oman": 3020,
      "val": 3021,
      "Ġinsight": 3022,
      "Ġtried": 3023,
      "rupt": 3024,
      "Ġcredits": 3025,
      "Ġweek": 3026,
      "Ġbal": 3027,
      "ĠBra": 3028,
      "ressing": 3029,
      "lict": 3030,
      "Ġfalls": 3031,
      "Ġwit": 3032,
      "room": 3033,
      "Ġball": 3034,
      "Ġcross": 3035,
      "ological": 3036,
      "Ġdeserves": 3037,
      "Ġsal": 3038,
      "IE": 3039,
      "ĠDo": 3040,
      "anya": 3041,
      "Ġ50": 3042,
      "cast": 3043,
      "Ġbrief": 3044,
      "Ġtest": 3045,
      "Ġtheme": 3046,
      "itles": 3047,
      ",\"": 3048,
      "Ġrelig": 3049,
      "Ġsold": 3050,
      "Ġbecame": 3051,
      "Ġpract": 3052,
      "Ġach": 3053,
      "alk": 3054,
      "Ġcreate": 3055,
      "Ġmanages": 3056,
      "Ġmurd": 3057,
      "Ġlines": 3058,
      "Ġrewatch": 3059,
      "Ġwall": 3060,
      "ali": 3061,
      "ante": 3062,
      "Ġadventure": 3063,
      "je": 3064,
      "Ġadult": 3065,
      "ano": 3066,
      "Ġwanna": 3067,
      "Ġshame": 3068,
      "Ġnatural": 3069,
      "Ġrevenge": 3070,
      "ado": 3071,
      "olf": 3072,
      "breaking": 3073,
      "elebr": 3074,
      "une": 3075,
      "Ġdrag": 3076,
      "bel": 3077,
      "Ġnamed": 3078,
      "Don": 3079,
      "Good": 3080,
      "Ġ193": 3081,
      "Ġpack": 3082,
      "ĠItalian": 3083,
      "engan": 3084,
      "Ġmir": 3085,
      "OOOO": 3086,
      "Ġvict": 3087,
      "AAAAAAAA": 3088,
      "Ġsoft": 3089,
      "watched": 3090,
      "Ġhistorical": 3091,
      "Ġunfortunately": 3092,
      "Ġgeneral": 3093,
      "KK": 3094,
      "ĠAng": 3095,
      "bt": 3096,
      "Ġroad": 3097,
      "Ġrevol": 3098,
      "Ġobviously": 3099,
      "Ġyeah": 3100,
      "Ġcompet": 3101,
      "Ġthemes": 3102,
      "ĠTHIS": 3103,
      "cessary": 3104,
      "rey": 3105,
      "isa": 3106,
      "Ġcause": 3107,
      "Ġchoice": 3108,
      "ipp": 3109,
      "Ġparticular": 3110,
      "Ġforced": 3111,
      "Ġwait": 3112,
      "omin": 3113,
      "Ġlegend": 3114,
      "Ġstoryt": 3115,
      "Ġvibes": 3116,
      "Ġstate": 3117,
      "Ġcomic": 3118,
      "Ġwood": 3119,
      "ĠPaul": 3120,
      "inge": 3121,
      "Ġpassion": 3122,
      "Ġreviews": 3123,
      "ressive": 3124,
      "Ġsurreal": 3125,
      "Ġmagic": 3126,
      "ĠOf": 3127,
      "Ġ60": 3128,
      "Ġdescri": 3129,
      "work": 3130,
      "oofy": 3131,
      "Ġmist": 3132,
      "bl": 3133,
      "ĠAmerica": 3134,
      "opp": 3135,
      "Ġusually": 3136,
      "aff": 3137,
      "Ġ,": 3138,
      "IC": 3139,
      "ites": 3140,
      "aper": 3141,
      "atur": 3142,
      "Ġstep": 3143,
      "Ġbizarre": 3144,
      "Ġdramatic": 3145,
      "Ġforever": 3146,
      "Ġgold": 3147,
      "Ġpacing": 3148,
      "ĠAnt": 3149,
      "Ġsurprise": 3150,
      "Ġultimately": 3151,
      "Ġterms": 3152,
      "Ġreading": 3153,
      "Ġparty": 3154,
      "ps": 3155,
      "Ġcomfort": 3156,
      "ET": 3157,
      "inc": 3158,
      "solutely": 3159,
      "yl": 3160,
      "ĠYOU": 3161,
      "Ġmemb": 3162,
      "ued": 3163,
      "Ġcontent": 3164,
      "Ġspect": 3165,
      "Ġperspective": 3166,
      "Ġ196": 3167,
      "UCK": 3168,
      "wr": 3169,
      "Ġdiscuss": 3170,
      "Ġexecution": 3171,
      "Ġtem": 3172,
      "uts": 3173,
      "ĠRob": 3174,
      "ĠFrank": 3175,
      "Ġcas": 3176,
      "ĠGra": 3177,
      "Ġcelebr": 3178,
      "ĠGeorge": 3179,
      "Ġobvious": 3180,
      "idden": 3181,
      "vant": 3182,
      "Ġresp": 3183,
      "Ġsatis": 3184,
      "face": 3185,
      "Ġstunning": 3186,
      "Ġhappening": 3187,
      "Ġlog": 3188,
      "Ġstandard": 3189,
      "Ġtim": 3190,
      "rem": 3191,
      "Ġsusp": 3192,
      "budget": 3193,
      "Ġfigure": 3194,
      "Ab": 3195,
      "ste": 3196,
      "Ġoccas": 3197,
      "Ġgone": 3198,
      "Ġtext": 3199,
      "inese": 3200,
      "Ġprofess": 3201,
      "annel": 3202,
      "awa": 3203,
      "Ġmemory": 3204,
      "Ġdengan": 3205,
      "Ġroles": 3206,
      "Ġindie": 3207,
      "Ġridiculous": 3208,
      "Ġpal": 3209,
      "vern": 3210,
      "Ġnoir": 3211,
      "Ġexperimental": 3212,
      "Ġinspired": 3213,
      "ĠTO": 3214,
      "ĠNight": 3215,
      "Ġbed": 3216,
      "uz": 3217,
      "list": 3218,
      "str": 3219,
      "Ġfilled": 3220,
      "ĠRichard": 3221,
      "Ġpublic": 3222,
      "ĠKore": 3223,
      "ti": 3224,
      "Ġbreat": 3225,
      "Ġframe": 3226,
      "lix": 3227,
      "Ġzomb": 3228,
      "Ġmill": 3229,
      "rait": 3230,
      "arily": 3231,
      "ette": 3232,
      "Ġsqu": 3233,
      "Ġprevious": 3234,
      "Ġconvers": 3235,
      "Ġrecogn": 3236,
      "Ġhighly": 3237,
      "ern": 3238,
      "Ġthanks": 3239,
      "Ġcrim": 3240,
      "Ġmach": 3241,
      "Ġden": 3242,
      "Ġfighting": 3243,
      "Ġdepth": 3244,
      "ani": 3245,
      "Ġcraft": 3246,
      "Ġseason": 3247,
      "Ġcrew": 3248,
      "Ġca": 3249,
      "Ġnightm": 3250,
      "Ġvillain": 3251,
      ".)": 3252,
      "ĠIr": 3253,
      "ores": 3254,
      "Ġbrings": 3255,
      "Ġfeaturing": 3256,
      "Ġansw": 3257,
      "Ġnarration": 3258,
      "Ġquickly": 3259,
      "Ġimage": 3260,
      "ĠEur": 3261,
      "Ġtrain": 3262,
      "Ġsinging": 3263,
      "IG": 3264,
      "Ġcow": 3265,
      "Ġlay": 3266,
      "ague": 3267,
      "Ġplaces": 3268,
      "kward": 3269,
      "Ġbiggest": 3270,
      "ĠMart": 3271,
      "ĠMr": 3272,
      "Ġdreams": 3273,
      "Ġforward": 3274,
      "Ġstudent": 3275,
      "Ġfamous": 3276,
      "aya": 3277,
      "ida": 3278,
      "pected": 3279,
      "Me": 3280,
      "Ġfestival": 3281,
      "Ġmeets": 3282,
      "olic": 3283,
      "uggest": 3284,
      "icated": 3285,
      "Ġkick": 3286,
      "inda": 3287,
      "Ġburn": 3288,
      "HAHAHAHA": 3289,
      "Ġbon": 3290,
      "Ġdirectors": 3291,
      "Ġlanguage": 3292,
      "ĠYork": 3293,
      "After": 3294,
      "well": 3295,
      "Ġleading": 3296,
      "Ġthank": 3297,
      "Ġsick": 3298,
      "asher": 3299,
      "asons": 3300,
      "ynam": 3301,
      "Ġavailable": 3302,
      "ĠAfter": 3303,
      "look": 3304,
      "ift": 3305,
      "Ġquiet": 3306,
      "ĠCr": 3307,
      "ii": 3308,
      "Ġentry": 3309,
      "ĠPar": 3310,
      "Ġstorytelling": 3311,
      "entially": 3312,
      "ando": 3313,
      "Ġsuggest": 3314,
      "Love": 3315,
      "alam": 3316,
      "Ġdrink": 3317,
      "Ġmotion": 3318,
      "Is": 3319,
      "Ġfollows": 3320,
      "ĠLa": 3321,
      "Ġcold": 3322,
      "ogy": 3323,
      "ĠMaybe": 3324,
      "Ġseriously": 3325,
      "reaming": 3326,
      "round": 3327,
      "Ġlif": 3328,
      "Ġvamp": 3329,
      "Ġeat": 3330,
      "Ġspent": 3331,
      "ĠEn": 3332,
      "why": 3333,
      "erry": 3334,
      "Ġpredictable": 3335,
      "ceed": 3336,
      "Ġspot": 3337,
      "which": 3338,
      "set": 3339,
      "Ġdraw": 3340,
      "Ġmod": 3341,
      "know": 3342,
      "itted": 3343,
      "Ġproduced": 3344,
      "Ġexciting": 3345,
      "Ġpurp": 3346,
      "Ġdiv": 3347,
      "Ġfollowing": 3348,
      "rel": 3349,
      "espite": 3350,
      "Ġshown": 3351,
      "Ġindustry": 3352,
      "Ġremake": 3353,
      "irector": 3354,
      "Ġconflict": 3355,
      "Ġlisten": 3356,
      "bum": 3357,
      "flix": 3358,
      "Ġprim": 3359,
      "ode": 3360,
      "Ġnone": 3361,
      "Ġserial": 3362,
      "Ġqueer": 3363,
      "azz": 3364,
      "ĠChar": 3365,
      "Ġunex": 3366,
      "ortun": 3367,
      "ĠST": 3368,
      "Ġreminded": 3369,
      "FF": 3370,
      "ses": 3371,
      "ubi": 3372,
      "Ġune": 3373,
      "At": 3374,
      "ĠDay": 3375,
      "Ġrefere": 3376,
      "yle": 3377,
      "Ġtelevision": 3378,
      "aming": 3379,
      "Ġaccident": 3380,
      "Ġinte": 3381,
      "Ġwee": 3382,
      "Ġask": 3383,
      "Ġawkward": 3384,
      "Ġinvestig": 3385,
      "Ġuses": 3386,
      "Ġ...": 3387,
      "Film": 3388,
      "Ġimmediately": 3389,
      "Ġfinding": 3390,
      "ĠWestern": 3391,
      "Ġtheater": 3392,
      "vert": 3393,
      "action": 3394,
      "asa": 3395,
      "ĠWho": 3396,
      "ashion": 3397,
      "Ġsituation": 3398,
      "oration": 3399,
      "ĠIT": 3400,
      "with": 3401,
      "Ġcurrent": 3402,
      "etflix": 3403,
      "iding": 3404,
      "kin": 3405,
      "Ġetc": 3406,
      "pir": 3407,
      "ops": 3408,
      "Ġanth": 3409,
      "Ġnons": 3410,
      "Ġalive": 3411,
      "Ġwarm": 3412,
      "Ġmonster": 3413,
      "oking": 3414,
      "Ġfood": 3415,
      "ding": 3416,
      "Ġflat": 3417,
      "Ġregard": 3418,
      "OL": 3419,
      "Ġsister": 3420,
      "Ġboys": 3421,
      "ring": 3422,
      "Am": 3423,
      "VER": 3424,
      "Ġearlier": 3425,
      "arted": 3426,
      "ivity": 3427,
      "berg": 3428,
      "inary": 3429,
      "cle": 3430,
      "Ġhy": 3431,
      "Ġbeat": 3432,
      "ĠPeter": 3433,
      "Ġplenty": 3434,
      "Ġgovern": 3435,
      "Ġviolent": 3436,
      "ĠYe": 3437,
      "EL": 3438,
      "Ġleaves": 3439,
      "Ġfantasy": 3440,
      "Ġtypical": 3441,
      "Ġnor": 3442,
      "who": 3443,
      "ĠMad": 3444,
      "Ġpopular": 3445,
      "Ġstat": 3446,
      "Ġachie": 3447,
      "core": 3448,
      "Ġpor": 3449,
      "Ġmal": 3450,
      "ĠTra": 3451,
      "Ġdub": 3452,
      "Ġaccept": 3453,
      "ĠKong": 3454,
      "azy": 3455,
      "Ġ195": 3456,
      "Ġkiss": 3457,
      "Ġmeant": 3458,
      "ique": 3459,
      "Ġtour": 3460,
      "ĠCinema": 3461,
      "Ġconsidering": 3462,
      "Ġlesbian": 3463,
      "Ġopin": 3464,
      "Ġsexy": 3465,
      "ĠThen": 3466,
      "ĠKing": 3467,
      "do": 3468,
      "Ġmi": 3469,
      "ena": 3470,
      "Ġfinish": 3471,
      "Ġpresence": 3472,
      "asi": 3473,
      "Ġya": 3474,
      "Ġmemories": 3475,
      "Ġfear": 3476,
      "Ġoffic": 3477,
      "Ġsubtitles": 3478,
      "Ġhorrible": 3479,
      "Ġallow": 3480,
      "Ġdynam": 3481,
      "Ġrough": 3482,
      "ĠJoe": 3483,
      "Ġintense": 3484,
      "han": 3485,
      "Ġfunn": 3486,
      "Ġserv": 3487,
      "Ġindivid": 3488,
      "onestly": 3489,
      "ived": 3490,
      "Ġbirth": 3491,
      "iety": 3492,
      "Ġoh": 3493,
      "ĠMore": 3494,
      "bing": 3495,
      "Ġhat": 3496,
      "etime": 3497,
      "ossible": 3498,
      "ĠJim": 3499,
      "Ġbored": 3500,
      "Ġcha": 3501,
      "ĠReally": 3502,
      "Ġemotions": 3503,
      "Ġjud": 3504,
      "Ġolder": 3505,
      "irty": 3506,
      "Ġletterboxd": 3507,
      "Ġalbum": 3508,
      "Ġflaw": 3509,
      "Ġrecently": 3510,
      "Ġbuilding": 3511,
      "ĠX": 3512,
      "cul": 3513,
      "Ġpieces": 3514,
      "Ġteacher": 3515,
      "Ġbits": 3516,
      "ĠMa": 3517,
      "Ġur": 3518,
      "illa": 3519,
      "Ġcaught": 3520,
      "Ġdancing": 3521,
      "hehehehe": 3522,
      "ective": 3523,
      "Ġviewer": 3524,
      "Ġherself": 3525,
      "ahah": 3526,
      "ĠFl": 3527,
      "appy": 3528,
      "Ġsem": 3529,
      "riage": 3530,
      "Ġtrash": 3531,
      "Ġmultiple": 3532,
      "Ġhits": 3533,
      "fuck": 3534,
      "esy": 3535,
      "Ġvalue": 3536,
      "Ġchanged": 3537,
      "Ġdu": 3538,
      "Ġconvin": 3539,
      "ito": 3540,
      "Ġportrait": 3541,
      "ified": 3542,
      "Ġmemorable": 3543,
      "Ġlandsc": 3544,
      "ager": 3545,
      "Bl": 3546,
      "Ġdin": 3547,
      "Ġadded": 3548,
      "Ġcontem": 3549,
      "Ġwriter": 3550,
      "aven": 3551,
      "Ġpus": 3552,
      "Ġuna": 3553,
      "Ġrealize": 3554,
      "Ġclever": 3555,
      "udden": 3556,
      "Ġneg": 3557,
      "Ġcreated": 3558,
      "eries": 3559,
      "Ġgore": 3560,
      "Ġalien": 3561,
      "Ġcapital": 3562,
      "Ġimpro": 3563,
      "Ġcla": 3564,
      "Ġsearch": 3565,
      "Ġstudio": 3566,
      "ĠGl": 3567,
      "Ġepic": 3568,
      "Ġdesper": 3569,
      "Se": 3570,
      "Ġ194": 3571,
      "Ġproblems": 3572,
      "Ġgags": 3573,
      "reg": 3574,
      "ision": 3575,
      "HHHHHHHH": 3576,
      "ĠHong": 3577,
      "Ġacted": 3578,
      "Ġfaces": 3579,
      "ĠPat": 3580,
      "Ġride": 3581,
      "Ġapparently": 3582,
      "Ġabove": 3583,
      "Ġvs": 3584,
      "ĠNow": 3585,
      "Ġdouble": 3586,
      "ĠHar": 3587,
      "inct": 3588,
      "ora": 3589,
      "ĠOver": 3590,
      "iron": 3591,
      "plic": 3592,
      "table": 3593,
      "Ġrepe": 3594,
      "cra": 3595,
      "Ġquestions": 3596,
      "Ġintriguing": 3597,
      "Ġsin": 3598,
      "Ġslasher": 3599,
      "Ġwatchable": 3600,
      "ĠBen": 3601,
      "Ġjo": 3602,
      "Ex": 3603,
      "Ġbasic": 3604,
      "uster": 3605,
      "Ġscary": 3606,
      "Ġ12": 3607,
      "Ġkilling": 3608,
      "HS": 3609,
      "Ġeen": 3610,
      "Ġdisturb": 3611,
      "Ġtho": 3612,
      "Ġexists": 3613,
      "Ġuniverse": 3614,
      "Ġmovement": 3615,
      "ĠSO": 3616,
      "ateur": 3617,
      "Ġearth": 3618,
      "iche": 3619,
      "Ġrese": 3620,
      "aka": 3621,
      "shit": 3622,
      "Ġwrote": 3623,
      "aze": 3624,
      "llllllllllllllll": 3625,
      "Ġuncom": 3626,
      "VE": 3627,
      "gia": 3628,
      "ĠJo": 3629,
      "ĠWal": 3630,
      "Ġwel": 3631,
      "Ġmyster": 3632,
      "Ġ2024": 3633,
      "bly": 3634,
      "Ġeventually": 3635,
      "herent": 3636,
      "Ġindividual": 3637,
      "IM": 3638,
      "ĠBoy": 3639,
      "Ġcopy": 3640,
      "Ġfly": 3641,
      "Ġpace": 3642,
      "Ġplus": 3643,
      "Ġattack": 3644,
      "Ġtraged": 3645,
      "Ġine": 3646,
      "Ġcentury": 3647,
      "Ġsci": 3648,
      "Ġbland": 3649,
      "ĠTe": 3650,
      "Ġ40": 3651,
      "esque": 3652,
      "Ġlaughs": 3653,
      "sequ": 3654,
      "onton": 3655,
      "whel": 3656,
      "Ġmixed": 3657,
      "Ġhaunt": 3658,
      "Ġtragic": 3659,
      "Ġcriminal": 3660,
      "Ġcomedic": 3661,
      "Ġforgotten": 3662,
      "Ġmere": 3663,
      "house": 3664,
      "agine": 3665,
      "yr": 3666,
      "Ġgoofy": 3667,
      "Ġaesthetic": 3668,
      "Ġgent": 3669,
      "Ġknowing": 3670,
      "Ġopportun": 3671,
      "sters": 3672,
      "Ġwhether": 3673,
      "Ġdoll": 3674,
      "Ġfurther": 3675,
      "gl": 3676,
      "Ġanyway": 3677,
      "lessly": 3678,
      "ener": 3679,
      "ux": 3680,
      "ĠPol": 3681,
      "Ġsun": 3682,
      "Ġcontrol": 3683,
      "Ġbattle": 3684,
      "Ġdied": 3685,
      "Ġobject": 3686,
      "ĠAustr": 3687,
      "yy": 3688,
      "ĠChinese": 3689,
      "vil": 3690,
      "ĠWhy": 3691,
      "Ġpossibly": 3692,
      "Ġformer": 3693,
      "Ġimagery": 3694,
      "IR": 3695,
      "arts": 3696,
      "Ġrate": 3697,
      "movie": 3698,
      "Interesting": 3699,
      "Ġinvent": 3700,
      "Like": 3701,
      "Ġtotal": 3702,
      "ham": 3703,
      "umentary": 3704,
      "aaaaaaaaaaaaaaaa": 3705,
      "Ġsav": 3706,
      "esus": 3707,
      "Ġslowly": 3708,
      "rick": 3709,
      "osition": 3710,
      "Ġfrustr": 3711,
      "Man": 3712,
      "omething": 3713,
      "down": 3714,
      "Ġbene": 3715,
      "ĠMost": 3716,
      "Ġthoughts": 3717,
      "ading": 3718,
      "pro": 3719,
      "lection": 3720,
      "Ġhost": 3721,
      "Ġfeelings": 3722,
      "ĠON": 3723,
      "AK": 3724,
      "Ġpunch": 3725,
      "Ġmoves": 3726,
      "bu": 3727,
      "apes": 3728,
      "Ġ100": 3729,
      "Ġnormal": 3730,
      "Ġhall": 3731,
      "Ġstruggle": 3732,
      "Ġprogram": 3733,
      "uan": 3734,
      "Ġcollection": 3735,
      "odies": 3736,
      "Ġspend": 3737,
      "ĠFranc": 3738,
      "Ġlocation": 3739,
      "Ġgovernment": 3740,
      "Ġracist": 3741,
      "Ġremains": 3742,
      "inger": 3743,
      "Ġsam": 3744,
      "ĠIndian": 3745,
      "Le": 3746,
      "Ġcommentary": 3747,
      "Ġinformation": 3748,
      "Ġremark": 3749,
      "gent": 3750,
      "Ġwaiting": 3751,
      "ĠWas": 3752,
      "Ġbull": 3753,
      "mar": 3754,
      "Ġstuck": 3755,
      "Beautiful": 3756,
      "Ġtouching": 3757,
      "Ġtaste": 3758,
      "But": 3759,
      "rr": 3760,
      "urpr": 3761,
      "Ġ:)": 3762,
      "ivers": 3763,
      "rian": 3764,
      "ĠPal": 3765,
      "Ġconsider": 3766,
      "Ġsorry": 3767,
      "Ġsudden": 3768,
      "Ġstructure": 3769,
      "Ġdefin": 3770,
      "Ġhorse": 3771,
      "Ġdeliver": 3772,
      "bor": 3773,
      "Ġfashion": 3774,
      "Ġutter": 3775,
      "Ġx": 3776,
      "Ġvision": 3777,
      "minute": 3778,
      "imal": 3779,
      "ĠAfr": 3780,
      "gar": 3781,
      "ache": 3782,
      "Ġinnoc": 3783,
      "Ġstoryline": 3784,
      "UN": 3785,
      "xual": 3786,
      "they": 3787,
      "Ġpil": 3788,
      "ruction": 3789,
      "Ġlau": 3790,
      "udes": 3791,
      "ĠUnfortunately": 3792,
      "ico": 3793,
      "arsh": 3794,
      "Ġlad": 3795,
      "ĠRE": 3796,
      "Ġconcert": 3797,
      "Ġlived": 3798,
      "ĠScott": 3799,
      "ĠWW": 3800,
      "Ġchoices": 3801,
      "Ġdari": 3802,
      "ability": 3803,
      "never": 3804,
      "Ġbitch": 3805,
      "ĠLOV": 3806,
      "Ġsurround": 3807,
      "Ġboo": 3808,
      "Ġloud": 3809,
      "ĠWatch": 3810,
      "ĠAny": 3811,
      "Ġpeak": 3812,
      "Ġputting": 3813,
      "ĠNothing": 3814,
      "BC": 3815,
      "ait": 3816,
      "To": 3817,
      "ĠSl": 3818,
      "Ġpolitics": 3819,
      "Ġpoorly": 3820,
      "First": 3821,
      "Ġeduc": 3822,
      "ĠRed": 3823,
      "Ġpurpose": 3824,
      "ĠSouth": 3825,
      "????????": 3826,
      "Ġyouth": 3827,
      "Ġcommer": 3828,
      "CT": 3829,
      "vey": 3830,
      "idn": 3831,
      "ĠNaz": 3832,
      "ĠFrom": 3833,
      "Ġfit": 3834,
      "ocre": 3835,
      "ĠDr": 3836,
      "Ġdrunk": 3837,
      "Ġtort": 3838,
      "Ġsix": 3839,
      "Ġmart": 3840,
      "Ġthrow": 3841,
      "Ġunderrated": 3842,
      "ami": 3843,
      "Ġbecoming": 3844,
      "Ġconstantly": 3845,
      "Ġrecent": 3846,
      "Ġreveal": 3847,
      "Ġdanger": 3848,
      "ĠRay": 3849,
      "va": 3850,
      "uses": 3851,
      "ĠOscar": 3852,
      "Ġmental": 3853,
      "oom": 3854,
      "itional": 3855,
      "Ġforce": 3856,
      "ids": 3857,
      "Ġcrying": 3858,
      "Ġspectac": 3859,
      "ĠWood": 3860,
      "Ġraw": 3861,
      "Ġdestro": 3862,
      "vable": 3863,
      "Ġluck": 3864,
      "ĠWill": 3865,
      "ander": 3866,
      "Ġphysical": 3867,
      "mon": 3868,
      "Qu": 3869,
      "Ok": 3870,
      "Ġwitness": 3871,
      "John": 3872,
      "Ġcolour": 3873,
      "Ġunexpected": 3874,
      "Ġfake": 3875,
      "Ġshowc": 3876,
      "Ġfresh": 3877,
      "Ġcal": 3878,
      "umes": 3879,
      "Ġ18": 3880,
      "ovies": 3881,
      "ĠSH": 3882,
      "ĠCG": 3883,
      "Ġign": 3884,
      "orthy": 3885,
      "Who": 3886,
      "ALL": 3887,
      "Ġclimax": 3888,
      "ĠMal": 3889,
      "Ġgenius": 3890,
      "uce": 3891,
      "Ġtrail": 3892,
      "Ġbroad": 3893,
      "Ġwaste": 3894,
      "Ġconv": 3895,
      "ĠIts": 3896,
      "ĠBob": 3897,
      "Ġchrist": 3898,
      "ĠEm": 3899,
      "Ġsupporting": 3900,
      "Ġbrutal": 3901,
      "Ġ2000": 3902,
      "itary": 3903,
      "Ġhyp": 3904,
      "Ġflash": 3905,
      "Ġgiant": 3906,
      "More": 3907,
      "emy": 3908,
      "da": 3909,
      "Ġrelationships": 3910,
      "cise": 3911,
      "Ġju": 3912,
      "Ġgotta": 3913,
      "Ġfucked": 3914,
      "................": 3915,
      "Ġrout": 3916,
      "ĠMex": 3917,
      "While": 3918,
      ".....": 3919,
      "Can": 3920,
      "ĠDead": 3921,
      "Ġamusing": 3922,
      "Ġentertainment": 3923,
      "Ġseconds": 3924,
      "iro": 3925,
      "Ġstreet": 3926,
      "Ġhumour": 3927,
      "Ġdoubt": 3928,
      "ION": 3929,
      "Ġom": 3930,
      "Ġcrow": 3931,
      "Ġsuspense": 3932,
      "Ġko": 3933,
      "Ġheads": 3934,
      "Ġvisually": 3935,
      "Ġcy": 3936,
      "Ġcatch": 3937,
      "aku": 3938,
      "Ġamateur": 3939,
      "ensive": 3940,
      "?)": 3941,
      "aint": 3942,
      "Ġdate": 3943,
      "TV": 3944,
      "Ġfights": 3945,
      "Ġwearing": 3946,
      "Ġscreenplay": 3947,
      "Ġshowed": 3948,
      "Ġobsc": 3949,
      "Ġpriv": 3950,
      "umbers": 3951,
      "made": 3952,
      "Ġshitty": 3953,
      "ĠPart": 3954,
      "Ġunlike": 3955,
      "ynch": 3956,
      "asure": 3957,
      "adian": 3958,
      "Ġanymore": 3959,
      "Ġsour": 3960,
      "Ġblind": 3961,
      "Ġsmart": 3962,
      "Ġdepict": 3963,
      "Ġsubtle": 3964,
      "life": 3965,
      "ĠInst": 3966,
      "Ġcultural": 3967,
      "ĠHam": 3968,
      "Ġenv": 3969,
      "Ġmissed": 3970,
      "Ġdemon": 3971,
      "ĠWest": 3972,
      "Ġwalk": 3973,
      "Ġmarried": 3974,
      "ji": 3975,
      "Ġterror": 3976,
      "Ġcollege": 3977,
      "Ġtalented": 3978,
      "Ġexecuted": 3979,
      "ĠGirl": 3980,
      "Ġanimals": 3981,
      "Ġkey": 3982,
      "aded": 3983,
      "Ġloves": 3984,
      "ooks": 3985,
      "Ġpeace": 3986,
      "ĠEurope": 3987,
      "Ġappears": 3988,
      "With": 3989,
      "ĠFUCK": 3990,
      "Ġdirecting": 3991,
      "Ġfriendship": 3992,
      "Ġopinion": 3993,
      "iy": 3994,
      "ima": 3995,
      "Ġaffect": 3996,
      "anta": 3997,
      "ĠNOT": 3998,
      "ĠVHS": 3999
    },
    "merges": [
      [
        "Ġ",
        "t"
      ],
      [
        "Ġ",
        "a"
      ],
      [
        "i",
        "n"
      ],
      [
        "h",
        "e"
      ],
      [
        "Ġ",
        "s"
      ],
      [
        "r",
        "e"
      ],
      [
        "Ġ",
        "w"
      ],
      [
        "Ġt",
        "he"
      ],
      [
        "i",
        "s"
      ],
      [
        "Ġ",
        "o"
      ],
      [
        "e",
        "r"
      ],
      [
        "Ġ",
        "m"
      ],
      [
        "Ġ",
        "f"
      ],
      [
        "i",
        "t"
      ],
      [
        "n",
        "d"
      ],
      [
        "a",
        "t"
      ],
      [
        "Ġ",
        "b"
      ],
      [
        "in",
        "g"
      ],
      [
        "Ġ",
        "c"
      ],
      [
        "e",
        "n"
      ],
      [
        "o",
        "r"
      ],
      [
        "e",
        "s"
      ],
      [
        "o",
        "n"
      ],
      [
        "a",
        "n"
      ],
      [
        "Ġt",
        "h"
      ],
      [
        "o",
        "u"
      ],
      [
        "Ġ",
        "d"
      ],
      [
        "a",
        "l"
      ],
      [
        "a",
        "r"
      ],
      [
        "Ġ",
        "p"
      ],
      [
        "Ġ",
        "h"
      ],
      [
        "Ġo",
        "f"
      ],
      [
        "Ġ",
        "l"
      ],
      [
        "Ġa",
        "nd"
      ],
      [
        "e",
        "d"
      ],
      [
        "i",
        "l"
      ],
      [
        "Ġt",
        "o"
      ],
      [
        "a",
        "s"
      ],
      [
        "Ġ",
        "in"
      ],
      [
        "l",
        "y"
      ],
      [
        "o",
        "m"
      ],
      [
        "u",
        "t"
      ],
      [
        "Ġ",
        "g"
      ],
      [
        "i",
        "c"
      ],
      [
        "l",
        "e"
      ],
      [
        "Ġ",
        "I"
      ],
      [
        "Ġ",
        "e"
      ],
      [
        "s",
        "t"
      ],
      [
        "o",
        "t"
      ],
      [
        "Ġ",
        "n"
      ],
      [
        "Ġ",
        "it"
      ],
      [
        "Ġ",
        "is"
      ],
      [
        "v",
        "e"
      ],
      [
        "e",
        "t"
      ],
      [
        "Ġ",
        "re"
      ],
      [
        "c",
        "t"
      ],
      [
        "e",
        "l"
      ],
      [
        "en",
        "t"
      ],
      [
        "Ġo",
        "n"
      ],
      [
        "i",
        "on"
      ],
      [
        "a",
        "y"
      ],
      [
        "i",
        "m"
      ],
      [
        "Ġth",
        "is"
      ],
      [
        "o",
        "w"
      ],
      [
        "v",
        "er"
      ],
      [
        "a",
        "d"
      ],
      [
        "Ġb",
        "e"
      ],
      [
        "i",
        "e"
      ],
      [
        "Ġs",
        "t"
      ],
      [
        "c",
        "h"
      ],
      [
        "'",
        "s"
      ],
      [
        "Ġm",
        "o"
      ],
      [
        "Ġth",
        "at"
      ],
      [
        "Ġ",
        "T"
      ],
      [
        "g",
        "h"
      ],
      [
        "a",
        "m"
      ],
      [
        "i",
        "d"
      ],
      [
        "o",
        "o"
      ],
      [
        "u",
        "n"
      ],
      [
        "Ġ",
        "y"
      ],
      [
        "k",
        "e"
      ],
      [
        "Ġf",
        "or"
      ],
      [
        "Ġw",
        "h"
      ],
      [
        "it",
        "h"
      ],
      [
        "il",
        "m"
      ],
      [
        "Ġ",
        "he"
      ],
      [
        "Ġw",
        "as"
      ],
      [
        "i",
        "r"
      ],
      [
        "Ġw",
        "ith"
      ],
      [
        "Ġa",
        "n"
      ],
      [
        "Ġf",
        "ilm"
      ],
      [
        "s",
        "e"
      ],
      [
        "Ġb",
        "ut"
      ],
      [
        "o",
        "l"
      ],
      [
        "Ġl",
        "i"
      ],
      [
        "c",
        "e"
      ],
      [
        "r",
        "a"
      ],
      [
        "Ġ",
        "S"
      ],
      [
        "Ġa",
        "l"
      ],
      [
        "u",
        "r"
      ],
      [
        "u",
        "l"
      ],
      [
        "Ġa",
        "s"
      ],
      [
        "Ġ",
        "A"
      ],
      [
        "Ġh",
        "a"
      ],
      [
        "v",
        "ie"
      ],
      [
        "r",
        "o"
      ],
      [
        "al",
        "ly"
      ],
      [
        "Ġs",
        "h"
      ],
      [
        "Ġs",
        "e"
      ],
      [
        "Ġy",
        "ou"
      ],
      [
        "c",
        "k"
      ],
      [
        "t",
        "er"
      ],
      [
        "l",
        "d"
      ],
      [
        "Ġ",
        "B"
      ],
      [
        "u",
        "s"
      ],
      [
        "r",
        "i"
      ],
      [
        "Ġ",
        "k"
      ],
      [
        ".",
        "."
      ],
      [
        "Ġ",
        "M"
      ],
      [
        "Ġ",
        "j"
      ],
      [
        "il",
        "l"
      ],
      [
        "er",
        "s"
      ],
      [
        "Ġ",
        "C"
      ],
      [
        "Ġd",
        "o"
      ],
      [
        "he",
        "r"
      ],
      [
        "a",
        "g"
      ],
      [
        "e",
        "m"
      ],
      [
        "om",
        "e"
      ],
      [
        "gh",
        "t"
      ],
      [
        "a",
        "k"
      ],
      [
        "'",
        "t"
      ],
      [
        "ou",
        "t"
      ],
      [
        "u",
        "m"
      ],
      [
        "Ġa",
        "b"
      ],
      [
        "a",
        "in"
      ],
      [
        "i",
        "f"
      ],
      [
        "u",
        "st"
      ],
      [
        "Ġs",
        "o"
      ],
      [
        "is",
        "t"
      ],
      [
        "Ġf",
        "r"
      ],
      [
        "es",
        "t"
      ],
      [
        "or",
        "t"
      ],
      [
        "p",
        "e"
      ],
      [
        "h",
        "is"
      ],
      [
        "Ġa",
        "t"
      ],
      [
        "Ġm",
        "e"
      ],
      [
        "ĠT",
        "he"
      ],
      [
        "Ġc",
        "on"
      ],
      [
        "u",
        "p"
      ],
      [
        "Ġe",
        "x"
      ],
      [
        "Ġc",
        "h"
      ],
      [
        "Ġn",
        "ot"
      ],
      [
        "a",
        "b"
      ],
      [
        "es",
        "s"
      ],
      [
        "e",
        "re"
      ],
      [
        "Ġmo",
        "vie"
      ],
      [
        "Ġ",
        "W"
      ],
      [
        "Ġd",
        "e"
      ],
      [
        "Ġ",
        "H"
      ],
      [
        "Ġli",
        "ke"
      ],
      [
        "an",
        "t"
      ],
      [
        "at",
        "ion"
      ],
      [
        "ar",
        "t"
      ],
      [
        "Ġ",
        "D"
      ],
      [
        "ver",
        "y"
      ],
      [
        "ou",
        "ld"
      ],
      [
        "Ġc",
        "om"
      ],
      [
        "Ġm",
        "y"
      ],
      [
        "q",
        "u"
      ],
      [
        "Ġ",
        "v"
      ],
      [
        "Ġon",
        "e"
      ],
      [
        "oo",
        "d"
      ],
      [
        "Ġ",
        "r"
      ],
      [
        "Ġin",
        "t"
      ],
      [
        "o",
        "p"
      ],
      [
        "Ġl",
        "o"
      ],
      [
        "a",
        "nd"
      ],
      [
        "el",
        "l"
      ],
      [
        "u",
        "re"
      ],
      [
        "Ġc",
        "an"
      ],
      [
        "Ġ",
        "F"
      ],
      [
        "Ġa",
        "re"
      ],
      [
        "Ġt",
        "r"
      ],
      [
        "Ġw",
        "at"
      ],
      [
        "i",
        "es"
      ],
      [
        "Ġab",
        "out"
      ],
      [
        "Ġfr",
        "om"
      ],
      [
        "Ġn",
        "e"
      ],
      [
        "Ġ",
        "L"
      ],
      [
        "Ġ",
        "P"
      ],
      [
        "i",
        "ve"
      ],
      [
        "a",
        "p"
      ],
      [
        "Ġh",
        "is"
      ],
      [
        "Ġ",
        "("
      ],
      [
        "in",
        "d"
      ],
      [
        "Ġha",
        "ve"
      ],
      [
        "as",
        "t"
      ],
      [
        "Ġal",
        "l"
      ],
      [
        "h",
        "ing"
      ],
      [
        "Ġb",
        "y"
      ],
      [
        "at",
        "e"
      ],
      [
        "Ġ",
        "R"
      ],
      [
        "Ġs",
        "ome"
      ],
      [
        "Ġs",
        "c"
      ],
      [
        "o",
        "s"
      ],
      [
        "ou",
        "gh"
      ],
      [
        "Ġf",
        "e"
      ],
      [
        "Ġj",
        "ust"
      ],
      [
        "im",
        "e"
      ],
      [
        "Ġp",
        "l"
      ],
      [
        "Ġ",
        "G"
      ],
      [
        "i",
        "g"
      ],
      [
        "i",
        "re"
      ],
      [
        "Ġa",
        "ct"
      ],
      [
        "Ġw",
        "or"
      ],
      [
        "Ġ",
        "un"
      ],
      [
        "ou",
        "s"
      ],
      [
        "T",
        "his"
      ],
      [
        "Ġwh",
        "o"
      ],
      [
        "Ġw",
        "he"
      ],
      [
        "or",
        "y"
      ],
      [
        "an",
        "g"
      ],
      [
        "on",
        "g"
      ],
      [
        "on",
        "e"
      ],
      [
        "Ġo",
        "ut"
      ],
      [
        "al",
        "l"
      ],
      [
        "ar",
        "d"
      ],
      [
        "u",
        "d"
      ],
      [
        "Ġ",
        "N"
      ],
      [
        "i",
        "ght"
      ],
      [
        "u",
        "ch"
      ],
      [
        "Ġmo",
        "re"
      ],
      [
        "T",
        "he"
      ],
      [
        "Ġs",
        "p"
      ],
      [
        "a",
        "ct"
      ],
      [
        "o",
        "re"
      ],
      [
        "Ġ",
        "J"
      ],
      [
        "Ġp",
        "re"
      ],
      [
        "it",
        "e"
      ],
      [
        "a",
        "ck"
      ],
      [
        "re",
        "at"
      ],
      [
        "Ġl",
        "e"
      ],
      [
        "Ġwat",
        "ch"
      ],
      [
        "v",
        "en"
      ],
      [
        "Ġp",
        "ro"
      ],
      [
        "o",
        "d"
      ],
      [
        "ou",
        "nd"
      ],
      [
        "Ġ",
        "i"
      ],
      [
        "Ġ",
        "en"
      ],
      [
        "a",
        "u"
      ],
      [
        "ĠI",
        "t"
      ],
      [
        "Ġ",
        "up"
      ],
      [
        "f",
        "e"
      ],
      [
        "Ġthe",
        "y"
      ],
      [
        "Ġw",
        "e"
      ],
      [
        "Ġre",
        "ally"
      ],
      [
        "n",
        "t"
      ],
      [
        "vie",
        "w"
      ],
      [
        "Ġg",
        "ood"
      ],
      [
        "it",
        "y"
      ],
      [
        "Ġ",
        "E"
      ],
      [
        "p",
        "p"
      ],
      [
        "ic",
        "h"
      ],
      [
        "a",
        "ke"
      ],
      [
        "oo",
        "k"
      ],
      [
        "Ġg",
        "et"
      ],
      [
        "Ġm",
        "an"
      ],
      [
        "t",
        "ain"
      ],
      [
        "Ġwh",
        "at"
      ],
      [
        "Ġo",
        "r"
      ],
      [
        "it",
        "t"
      ],
      [
        "a",
        "re"
      ],
      [
        "o",
        "g"
      ],
      [
        "Ġh",
        "as"
      ],
      [
        "Ġ",
        "\""
      ],
      [
        "Ġ",
        "qu"
      ],
      [
        "!",
        "!"
      ],
      [
        "id",
        "e"
      ],
      [
        "c",
        "i"
      ],
      [
        "Ġt",
        "ime"
      ],
      [
        "ar",
        "y"
      ],
      [
        "c",
        "he"
      ],
      [
        "ab",
        "le"
      ],
      [
        "Ġit",
        "s"
      ],
      [
        "Ġg",
        "o"
      ],
      [
        "Ġ",
        "O"
      ],
      [
        "t",
        "h"
      ],
      [
        "Ġ",
        "im"
      ],
      [
        "in",
        "e"
      ],
      [
        "Ġa",
        "r"
      ],
      [
        "ou",
        "r"
      ],
      [
        "Ġ",
        "K"
      ],
      [
        "ad",
        "e"
      ],
      [
        "o",
        "y"
      ],
      [
        "Ġhe",
        "r"
      ],
      [
        "Ġh",
        "ow"
      ],
      [
        "Ġth",
        "an"
      ],
      [
        "am",
        "e"
      ],
      [
        "Ġn",
        "o"
      ],
      [
        "Ġ",
        "very"
      ],
      [
        "l",
        "l"
      ],
      [
        "s",
        "s"
      ],
      [
        "Ġp",
        "er"
      ],
      [
        "Ġst",
        "ory"
      ],
      [
        "Ġch",
        "ar"
      ],
      [
        "u",
        "b"
      ],
      [
        "n",
        "e"
      ],
      [
        "i",
        "v"
      ],
      [
        "Ġm",
        "uch"
      ],
      [
        "Ġm",
        "ay"
      ],
      [
        "g",
        "e"
      ],
      [
        "a",
        "v"
      ],
      [
        "Ġ",
        "1"
      ],
      [
        "Ġlo",
        "ve"
      ],
      [
        "ic",
        "k"
      ],
      [
        "ay",
        "s"
      ],
      [
        "Ġthe",
        "re"
      ],
      [
        "ag",
        "e"
      ],
      [
        "in",
        "k"
      ],
      [
        "t",
        "y"
      ],
      [
        "ic",
        "e"
      ],
      [
        "Ġint",
        "o"
      ],
      [
        "Ġp",
        "e"
      ],
      [
        "Ġbe",
        "c"
      ],
      [
        "n",
        "ow"
      ],
      [
        "r",
        "y"
      ],
      [
        "Ġse",
        "e"
      ],
      [
        "Ġc",
        "l"
      ],
      [
        "Ġan",
        "y"
      ],
      [
        "p",
        "l"
      ],
      [
        "i",
        "b"
      ],
      [
        "..",
        "."
      ],
      [
        "is",
        "h"
      ],
      [
        "Ġw",
        "ould"
      ],
      [
        "Ġha",
        "nd"
      ],
      [
        "p",
        "t"
      ],
      [
        "nd",
        "er"
      ],
      [
        "Ġwhe",
        "n"
      ],
      [
        "Ġthe",
        "ir"
      ],
      [
        "Ġth",
        "r"
      ],
      [
        "s",
        "o"
      ],
      [
        "u",
        "ck"
      ],
      [
        "Ġ",
        "u"
      ],
      [
        "a",
        "c"
      ],
      [
        "Ġfe",
        "el"
      ],
      [
        "Ġf",
        "un"
      ],
      [
        "i",
        "an"
      ],
      [
        "Ġa",
        "m"
      ],
      [
        "Ġre",
        "view"
      ],
      [
        "f",
        "f"
      ],
      [
        "Ġe",
        "nd"
      ],
      [
        "ar",
        "s"
      ],
      [
        "as",
        "s"
      ],
      [
        "Ġsh",
        "ort"
      ],
      [
        "Ġ",
        "if"
      ],
      [
        "o",
        "st"
      ],
      [
        "Ġe",
        "very"
      ],
      [
        "f",
        "ul"
      ],
      [
        "Ġb",
        "et"
      ],
      [
        "Ġh",
        "ad"
      ],
      [
        "Ġd",
        "id"
      ],
      [
        "Ġmo",
        "st"
      ],
      [
        "e",
        "p"
      ],
      [
        "m",
        "an"
      ],
      [
        "Ġ",
        "2"
      ],
      [
        "Ġg",
        "reat"
      ],
      [
        "u",
        "e"
      ],
      [
        "Ġa",
        "d"
      ],
      [
        "m",
        "ent"
      ],
      [
        "Ġm",
        "ade"
      ],
      [
        "Ġo",
        "ver"
      ],
      [
        "t",
        "her"
      ],
      [
        "Ġthe",
        "m"
      ],
      [
        "i",
        "ous"
      ],
      [
        "Ġk",
        "now"
      ],
      [
        "Ġwor",
        "k"
      ],
      [
        "p",
        "le"
      ],
      [
        "Ġto",
        "o"
      ],
      [
        "n",
        "y"
      ],
      [
        "op",
        "le"
      ],
      [
        "ire",
        "ct"
      ],
      [
        "Ġdo",
        "c"
      ],
      [
        "ut",
        "h"
      ],
      [
        "Ġchar",
        "act"
      ],
      [
        "Ġl",
        "ook"
      ],
      [
        "en",
        "ce"
      ],
      [
        "Ġe",
        "ven"
      ],
      [
        "h",
        "at"
      ],
      [
        "Ġth",
        "ing"
      ],
      [
        "ic",
        "al"
      ],
      [
        "il",
        "e"
      ],
      [
        "f",
        "or"
      ],
      [
        "Ġon",
        "ly"
      ],
      [
        "Ġwh",
        "ich"
      ],
      [
        "ir",
        "st"
      ],
      [
        "Ġw",
        "ay"
      ],
      [
        "au",
        "se"
      ],
      [
        "t",
        "e"
      ],
      [
        "Ġpe",
        "ople"
      ],
      [
        "Ġdo",
        "es"
      ],
      [
        "o",
        "il"
      ],
      [
        "itt",
        "le"
      ],
      [
        "Ġ",
        "-"
      ],
      [
        "p",
        "er"
      ],
      [
        "Ġw",
        "ere"
      ],
      [
        "'",
        "m"
      ],
      [
        "um",
        "ent"
      ],
      [
        "che",
        "d"
      ],
      [
        "Ġt",
        "w"
      ],
      [
        "om",
        "et"
      ],
      [
        "in",
        "t"
      ],
      [
        "i",
        "a"
      ],
      [
        "i",
        "z"
      ],
      [
        "Ġtr",
        "uth"
      ],
      [
        "ere",
        "st"
      ],
      [
        "Ġp",
        "art"
      ],
      [
        "Ġcon",
        "tain"
      ],
      [
        "Ġth",
        "ink"
      ],
      [
        "Ġd",
        "irect"
      ],
      [
        "Ġc",
        "ould"
      ],
      [
        "Ġ",
        "Y"
      ],
      [
        "ut",
        "e"
      ],
      [
        "at",
        "ed"
      ],
      [
        "Ġsp",
        "oil"
      ],
      [
        "Ġl",
        "ittle"
      ],
      [
        "Ġw",
        "ell"
      ],
      [
        "i",
        "al"
      ],
      [
        "'",
        "ve"
      ],
      [
        "Ġm",
        "in"
      ],
      [
        "Ġb",
        "l"
      ],
      [
        "Ġbe",
        "ing"
      ],
      [
        "o",
        "se"
      ],
      [
        "w",
        "e"
      ],
      [
        "Ġhand",
        "le"
      ],
      [
        "Ġo",
        "ther"
      ],
      [
        "Ġt",
        "e"
      ],
      [
        "Ġspoil",
        "ers"
      ],
      [
        "pe",
        "ct"
      ],
      [
        "u",
        "al"
      ],
      [
        "Ġp",
        "o"
      ],
      [
        "a",
        "ce"
      ],
      [
        "Ġm",
        "ak"
      ],
      [
        "Ġf",
        "irst"
      ],
      [
        "a",
        "w"
      ],
      [
        "Ġy",
        "e"
      ],
      [
        "Ġsh",
        "ow"
      ],
      [
        "Ġg",
        "u"
      ],
      [
        "Ġhe",
        "re"
      ],
      [
        "ot",
        "her"
      ],
      [
        "Ġh",
        "im"
      ],
      [
        "h",
        "y"
      ],
      [
        "el",
        "f"
      ],
      [
        "ul",
        "t"
      ],
      [
        "Ġ",
        "us"
      ],
      [
        "Ġd",
        "is"
      ],
      [
        "Ġmo",
        "v"
      ],
      [
        "ĠC",
        "h"
      ],
      [
        "a",
        "h"
      ],
      [
        "Ġm",
        "ake"
      ],
      [
        "t",
        "ty"
      ],
      [
        "Ġa",
        "g"
      ],
      [
        "re",
        "d"
      ],
      [
        "Ġs",
        "he"
      ],
      [
        "Ġfilm",
        "s"
      ],
      [
        "Ġof",
        "f"
      ],
      [
        "Ġdoc",
        "ument"
      ],
      [
        "Ġbec",
        "ause"
      ],
      [
        "b",
        "er"
      ],
      [
        "i",
        "p"
      ],
      [
        "Ġsc",
        "en"
      ],
      [
        "t",
        "ing"
      ],
      [
        "Ġre",
        "al"
      ],
      [
        "Ġbe",
        "en"
      ],
      [
        "re",
        "ss"
      ],
      [
        "Ġ",
        "V"
      ],
      [
        "an",
        "s"
      ],
      [
        "o",
        "nd"
      ],
      [
        "Ġw",
        "ant"
      ],
      [
        "Ġint",
        "erest"
      ],
      [
        "ar",
        "k"
      ],
      [
        "Ġli",
        "fe"
      ],
      [
        "il",
        "d"
      ],
      [
        "Ġs",
        "omet"
      ],
      [
        "g",
        "et"
      ],
      [
        "f",
        "ter"
      ],
      [
        "ow",
        "n"
      ],
      [
        "Ġb",
        "r"
      ],
      [
        "r",
        "am"
      ],
      [
        "in",
        "em"
      ],
      [
        "Ġd",
        "es"
      ],
      [
        "u",
        "ally"
      ],
      [
        "Ġ",
        "ent"
      ],
      [
        "Ġal",
        "so"
      ],
      [
        "en",
        "s"
      ],
      [
        "Ġthr",
        "ough"
      ],
      [
        "Ġ",
        "ra"
      ],
      [
        "Ġd",
        "on"
      ],
      [
        "Ġyou",
        "r"
      ],
      [
        "ct",
        "ion"
      ],
      [
        "ic",
        "t"
      ],
      [
        "Ġs",
        "er"
      ],
      [
        "c",
        "es"
      ],
      [
        "Ġp",
        "r"
      ],
      [
        "Ġst",
        "ill"
      ],
      [
        "Ġb",
        "it"
      ],
      [
        "an",
        "ce"
      ],
      [
        "Ġs",
        "l"
      ],
      [
        "ĠT",
        "his"
      ],
      [
        "Ġf",
        "l"
      ],
      [
        "Ġl",
        "ot"
      ],
      [
        "at",
        "ing"
      ],
      [
        "Ġ",
        "ro"
      ],
      [
        "Ġw",
        "ill"
      ],
      [
        "Ġb",
        "ad"
      ],
      [
        "v",
        "ed"
      ],
      [
        "t",
        "hing"
      ],
      [
        "t",
        "he"
      ],
      [
        "c",
        "c"
      ],
      [
        "Ġwhe",
        "re"
      ],
      [
        "Ġe",
        "ver"
      ],
      [
        "Ġg",
        "r"
      ],
      [
        "Ġc",
        "r"
      ],
      [
        "oo",
        "l"
      ],
      [
        "a",
        "ut"
      ],
      [
        "is",
        "e"
      ],
      [
        "a",
        "z"
      ],
      [
        "Ġne",
        "ver"
      ],
      [
        "a",
        "ch"
      ],
      [
        "Ġb",
        "ack"
      ],
      [
        "s",
        "h"
      ],
      [
        "Ġh",
        "or"
      ],
      [
        "Ġpre",
        "tty"
      ],
      [
        "o",
        "c"
      ],
      [
        "il",
        "y"
      ],
      [
        "n",
        "g"
      ],
      [
        "fe",
        "ct"
      ],
      [
        "Ġb",
        "est"
      ],
      [
        "Ġre",
        "m"
      ],
      [
        "ur",
        "n"
      ],
      [
        "Ġdocument",
        "ary"
      ],
      [
        "m",
        "er"
      ],
      [
        "ol",
        "l"
      ],
      [
        "Ġse",
        "en"
      ],
      [
        "Ġu",
        "nder"
      ],
      [
        "Ġpl",
        "ay"
      ],
      [
        "o",
        "b"
      ],
      [
        "Ġsomet",
        "hing"
      ],
      [
        "Ġst",
        "r"
      ],
      [
        "Ġ2",
        "0"
      ],
      [
        "ar",
        "r"
      ],
      [
        "Ġ",
        "ri"
      ],
      [
        "ver",
        "s"
      ],
      [
        "Ġk",
        "ind"
      ],
      [
        "u",
        "g"
      ],
      [
        "Ġc",
        "inem"
      ],
      [
        "Ġbet",
        "ter"
      ],
      [
        "Ġim",
        "p"
      ],
      [
        "Ġmov",
        "ies"
      ],
      [
        "v",
        "es"
      ],
      [
        "v",
        "ing"
      ],
      [
        "Ġg",
        "en"
      ],
      [
        "Ġt",
        "al"
      ],
      [
        "ar",
        "ly"
      ],
      [
        "Ġa",
        "fter"
      ],
      [
        "Ġw",
        "r"
      ],
      [
        "ul",
        "l"
      ],
      [
        "?",
        "?"
      ],
      [
        "ĠS",
        "t"
      ],
      [
        "Ġinterest",
        "ing"
      ],
      [
        "Ġtw",
        "o"
      ],
      [
        "ol",
        "d"
      ],
      [
        "Ġin",
        "c"
      ],
      [
        "Ġg",
        "ot"
      ],
      [
        "b",
        "le"
      ],
      [
        "or",
        "s"
      ],
      [
        "Ġwatch",
        "ing"
      ],
      [
        "Ġa",
        "w"
      ],
      [
        "Ġthe",
        "se"
      ],
      [
        "Ġe",
        "m"
      ],
      [
        "Ġs",
        "ay"
      ],
      [
        "b",
        "e"
      ],
      [
        "Ġs",
        "ur"
      ],
      [
        "Ġm",
        "us"
      ],
      [
        "Ġ",
        "U"
      ],
      [
        "Ġt",
        "ra"
      ],
      [
        "w",
        "n"
      ],
      [
        "Ġs",
        "pe"
      ],
      [
        "im",
        "es"
      ],
      [
        "Ġthe",
        "n"
      ],
      [
        "d",
        "u"
      ],
      [
        "Ġde",
        "c"
      ],
      [
        "Ġw",
        "om"
      ],
      [
        "ou",
        "ght"
      ],
      [
        "ion",
        "s"
      ],
      [
        "Ġf",
        "uck"
      ],
      [
        "if",
        "ul"
      ],
      [
        "re",
        "e"
      ],
      [
        "at",
        "h"
      ],
      [
        "as",
        "e"
      ],
      [
        "Ġcom",
        "ed"
      ],
      [
        "ve",
        "l"
      ],
      [
        "Ġ1",
        "9"
      ],
      [
        "Ġl",
        "ong"
      ],
      [
        "aut",
        "iful"
      ],
      [
        "ra",
        "p"
      ],
      [
        "o",
        "ot"
      ],
      [
        "r",
        "or"
      ],
      [
        "ent",
        "s"
      ],
      [
        "Ġper",
        "for"
      ],
      [
        "Ġre",
        "c"
      ],
      [
        "i",
        "k"
      ],
      [
        "in",
        "al"
      ],
      [
        "at",
        "ure"
      ],
      [
        "y",
        "ing"
      ],
      [
        "Ġs",
        "ub"
      ],
      [
        "Ġha",
        "pp"
      ],
      [
        "Ġwh",
        "ile"
      ],
      [
        "j",
        "oy"
      ],
      [
        "Ġne",
        "ed"
      ],
      [
        "Ġs",
        "up"
      ],
      [
        "Ġp",
        "ers"
      ],
      [
        "a",
        "a"
      ],
      [
        ".",
        "\""
      ],
      [
        "m",
        "e"
      ],
      [
        "Ġ",
        "ke"
      ],
      [
        "Ġs",
        "et"
      ],
      [
        "er",
        "y"
      ],
      [
        "n",
        "ing"
      ],
      [
        "is",
        "s"
      ],
      [
        "f",
        "ore"
      ],
      [
        "Ġgo",
        "ing"
      ],
      [
        "i",
        "gh"
      ],
      [
        "ir",
        "l"
      ],
      [
        "ab",
        "ly"
      ],
      [
        "ie",
        "nd"
      ],
      [
        "if",
        "f"
      ],
      [
        "l",
        "es"
      ],
      [
        "Ġf",
        "am"
      ],
      [
        "w",
        "ays"
      ],
      [
        "Ġc",
        "he"
      ],
      [
        "ut",
        "es"
      ],
      [
        "ĠA",
        "nd"
      ],
      [
        "Ġf",
        "ind"
      ],
      [
        "Ġin",
        "s"
      ],
      [
        "Ġman",
        "y"
      ],
      [
        "Ġcom",
        "p"
      ],
      [
        "Ġse",
        "em"
      ],
      [
        "is",
        "m"
      ],
      [
        "Ġt",
        "er"
      ],
      [
        "Ġwat",
        "ched"
      ],
      [
        "Ġm",
        "om"
      ],
      [
        "I",
        "t"
      ],
      [
        "'",
        "re"
      ],
      [
        "e",
        "ct"
      ],
      [
        "Ġen",
        "joy"
      ],
      [
        "er",
        "tain"
      ],
      [
        "Ġcharact",
        "er"
      ],
      [
        "at",
        "ive"
      ],
      [
        "Ġn",
        "ow"
      ],
      [
        "at",
        "her"
      ],
      [
        "a",
        "il"
      ],
      [
        "Ġar",
        "t"
      ],
      [
        "Ġwor",
        "ld"
      ],
      [
        "Ġc",
        "ou"
      ],
      [
        "ir",
        "d"
      ],
      [
        "re",
        "en"
      ],
      [
        "Ġcharact",
        "ers"
      ],
      [
        "en",
        "se"
      ],
      [
        "Ġre",
        "l"
      ],
      [
        "u",
        "ff"
      ],
      [
        "Ġag",
        "ain"
      ],
      [
        "Ġmin",
        "utes"
      ],
      [
        "Ġth",
        "ough"
      ],
      [
        "Ġs",
        "m"
      ],
      [
        "Ġgu",
        "y"
      ],
      [
        "ci",
        "al"
      ],
      [
        "ĠB",
        "ut"
      ],
      [
        "Ġsh",
        "ot"
      ],
      [
        "Ġo",
        "ld"
      ],
      [
        "ig",
        "n"
      ],
      [
        "Ġh",
        "um"
      ],
      [
        "d",
        "er"
      ],
      [
        "Ġ",
        "es"
      ],
      [
        "f",
        "t"
      ],
      [
        "Ġan",
        "im"
      ],
      [
        "Ġmak",
        "es"
      ],
      [
        "Ġst",
        "art"
      ],
      [
        "Ġbe",
        "autiful"
      ],
      [
        "on",
        "s"
      ],
      [
        "..",
        ".."
      ],
      [
        "Ġsh",
        "ould"
      ],
      [
        ")",
        "."
      ],
      [
        "Ġpl",
        "ot"
      ],
      [
        "ic",
        "ally"
      ],
      [
        "Ġperfor",
        "man"
      ],
      [
        "a",
        "ve"
      ],
      [
        "Ġbe",
        "fore"
      ],
      [
        "Ġ",
        "'"
      ],
      [
        "l",
        "i"
      ],
      [
        "Ġact",
        "ually"
      ],
      [
        "ak",
        "ing"
      ],
      [
        "l",
        "ess"
      ],
      [
        "s",
        "elf"
      ],
      [
        "Ġal",
        "ways"
      ],
      [
        "Ġre",
        "s"
      ],
      [
        "Ġdid",
        "n"
      ],
      [
        "Ġcon",
        "t"
      ],
      [
        "it",
        "ing"
      ],
      [
        "o",
        "ck"
      ],
      [
        "re",
        "n"
      ],
      [
        "Ġen",
        "ough"
      ],
      [
        "Ġye",
        "ars"
      ],
      [
        "o",
        "k"
      ],
      [
        "n",
        "ess"
      ],
      [
        "Ġth",
        "ose"
      ],
      [
        "an",
        "k"
      ],
      [
        "Ġar",
        "ound"
      ],
      [
        "Ġin",
        "ter"
      ],
      [
        "Ġd",
        "own"
      ],
      [
        "Ġne",
        "w"
      ],
      [
        "Ġd",
        "ram"
      ],
      [
        "el",
        "t"
      ],
      [
        "Ġs",
        "uch"
      ],
      [
        "Ġthing",
        "s"
      ],
      [
        "ib",
        "le"
      ],
      [
        "at",
        "er"
      ],
      [
        "Ġs",
        "im"
      ],
      [
        "o",
        "h"
      ],
      [
        "Ġcomed",
        "y"
      ],
      [
        "Ġpers",
        "on"
      ],
      [
        "Ġs",
        "ame"
      ],
      [
        "i",
        "ence"
      ],
      [
        "Ġo",
        "b"
      ],
      [
        "Ġd",
        "iff"
      ],
      [
        "we",
        "en"
      ],
      [
        "Ġdoes",
        "n"
      ],
      [
        "he",
        "re"
      ],
      [
        "Ġth",
        "ought"
      ],
      [
        "re",
        "am"
      ],
      [
        "Ġs",
        "ound"
      ],
      [
        "p",
        "r"
      ],
      [
        "n",
        "a"
      ],
      [
        "Ġpo",
        "int"
      ],
      [
        "Ġmus",
        "ic"
      ],
      [
        "Ġex",
        "per"
      ],
      [
        "Ġqu",
        "ite"
      ],
      [
        "a",
        "ir"
      ],
      [
        "Ġri",
        "ght"
      ],
      [
        "ot",
        "h"
      ],
      [
        "ĠS",
        "h"
      ],
      [
        "Ġo",
        "wn"
      ],
      [
        "ri",
        "g"
      ],
      [
        "it",
        "s"
      ],
      [
        "Ġat",
        "t"
      ],
      [
        "ĠI",
        "n"
      ],
      [
        "ation",
        "s"
      ],
      [
        "x",
        "t"
      ],
      [
        "at",
        "ch"
      ],
      [
        "og",
        "rap"
      ],
      [
        "or",
        "d"
      ],
      [
        "w",
        "ard"
      ],
      [
        "f",
        "in"
      ],
      [
        "Ġa",
        "pp"
      ],
      [
        "Ġg",
        "irl"
      ],
      [
        "Ġbet",
        "ween"
      ],
      [
        "ce",
        "pt"
      ],
      [
        "Ġh",
        "ard"
      ],
      [
        "j",
        "ect"
      ],
      [
        "er",
        "a"
      ],
      [
        "Ġfun",
        "ny"
      ],
      [
        "Ġm",
        "en"
      ],
      [
        "os",
        "s"
      ],
      [
        "as",
        "h"
      ],
      [
        "ĠA",
        "l"
      ],
      [
        "Ġhor",
        "ror"
      ],
      [
        "Ġk",
        "id"
      ],
      [
        "ĠB",
        "r"
      ],
      [
        "ur",
        "ing"
      ],
      [
        "Ġ",
        "3"
      ],
      [
        "Ġse",
        "c"
      ],
      [
        "l",
        "ing"
      ],
      [
        "Ġin",
        "v"
      ],
      [
        "Ġt",
        "ri"
      ],
      [
        "Ġ",
        "ide"
      ],
      [
        "e",
        "e"
      ],
      [
        "al",
        "f"
      ],
      [
        "Ġscen",
        "e"
      ],
      [
        "Ġs",
        "a"
      ],
      [
        "Ġb",
        "ig"
      ],
      [
        "Ġin",
        "d"
      ],
      [
        "Ġwh",
        "y"
      ],
      [
        "Ġc",
        "ol"
      ],
      [
        "Ġfeel",
        "s"
      ],
      [
        "Ġv",
        "is"
      ],
      [
        "Ġe",
        "v"
      ],
      [
        "s",
        "ol"
      ],
      [
        "he",
        "n"
      ],
      [
        "A",
        "A"
      ],
      [
        "ion",
        "al"
      ],
      [
        "Ġfr",
        "iend"
      ],
      [
        "Ġpro",
        "du"
      ],
      [
        "Ġdirect",
        "or"
      ],
      [
        "Ġex",
        "pl"
      ],
      [
        "i",
        "o"
      ],
      [
        "Ġt",
        "urn"
      ],
      [
        "Ġe",
        "l"
      ],
      [
        "Ġse",
        "x"
      ],
      [
        "Ġf",
        "av"
      ],
      [
        "k",
        "ed"
      ],
      [
        "Ġfe",
        "w"
      ],
      [
        "!!",
        "!!"
      ],
      [
        "Ġk",
        "ill"
      ],
      [
        "Ġc",
        "ast"
      ],
      [
        "Ġb",
        "el"
      ],
      [
        "Ġa",
        "p"
      ],
      [
        "k",
        "ing"
      ],
      [
        "e",
        "c"
      ],
      [
        "ate",
        "ly"
      ],
      [
        "c",
        "ed"
      ],
      [
        "ĠH",
        "e"
      ],
      [
        "Ġd",
        "el"
      ],
      [
        "an",
        "e"
      ],
      [
        "it",
        "er"
      ],
      [
        "ĠThe",
        "re"
      ],
      [
        "ak",
        "es"
      ],
      [
        "m",
        "ost"
      ],
      [
        "Ġex",
        "pect"
      ],
      [
        "Ġl",
        "ast"
      ],
      [
        "Ġ",
        "ed"
      ],
      [
        "on",
        "t"
      ],
      [
        "E",
        "R"
      ],
      [
        "Ġch",
        "ild"
      ],
      [
        "Ġt",
        "ell"
      ],
      [
        "Ġle",
        "ad"
      ],
      [
        "Ġc",
        "o"
      ],
      [
        "ing",
        "s"
      ],
      [
        "f",
        "fect"
      ],
      [
        "Ġc",
        "am"
      ],
      [
        "s",
        "c"
      ],
      [
        "Ġcinem",
        "a"
      ],
      [
        "Ġwho",
        "le"
      ],
      [
        "k",
        "s"
      ],
      [
        "Ġcom",
        "ple"
      ],
      [
        "ap",
        "t"
      ],
      [
        "in",
        "s"
      ],
      [
        "Ġp",
        "ut"
      ],
      [
        "al",
        "e"
      ],
      [
        "Ġr",
        "un"
      ],
      [
        "ĠT",
        "H"
      ],
      [
        "Ġh",
        "ist"
      ],
      [
        "Ġnot",
        "hing"
      ],
      [
        "au",
        "gh"
      ],
      [
        "he",
        "d"
      ],
      [
        "Ġscen",
        "es"
      ],
      [
        "Ġh",
        "igh"
      ],
      [
        "Ġt",
        "imes"
      ],
      [
        "Ġh",
        "alf"
      ],
      [
        ")",
        ","
      ],
      [
        "Ġcl",
        "ass"
      ],
      [
        "Ġb",
        "as"
      ],
      [
        "Ġs",
        "ure"
      ],
      [
        "Ġget",
        "s"
      ],
      [
        "o",
        "x"
      ],
      [
        "at",
        "ic"
      ],
      [
        "sol",
        "ute"
      ],
      [
        "ter",
        "n"
      ],
      [
        "A",
        "n"
      ],
      [
        "Ġt",
        "ake"
      ],
      [
        "Ġa",
        "cc"
      ],
      [
        "Ġact",
        "ing"
      ],
      [
        "Ġdiff",
        "ere"
      ],
      [
        "Ġser",
        "ies"
      ],
      [
        "'",
        "d"
      ],
      [
        "Ġn",
        "ice"
      ],
      [
        "Ġsc",
        "reen"
      ],
      [
        "Ġhe",
        "art"
      ],
      [
        "o",
        "pe"
      ],
      [
        "Ġf",
        "ar"
      ],
      [
        "e",
        "ad"
      ],
      [
        "Ġg",
        "l"
      ],
      [
        "Ġ",
        "z"
      ],
      [
        "Ġd",
        "ay"
      ],
      [
        "Ġact",
        "ion"
      ],
      [
        "Ġd",
        "i"
      ],
      [
        "Ġp",
        "ol"
      ],
      [
        "od",
        "y"
      ],
      [
        "Ġl",
        "et"
      ],
      [
        "un",
        "g"
      ],
      [
        "ĠY",
        "ou"
      ],
      [
        "I",
        "N"
      ],
      [
        "Ġyou",
        "ng"
      ],
      [
        "Ġf",
        "elt"
      ],
      [
        "Ġmak",
        "ing"
      ],
      [
        "Ġan",
        "other"
      ],
      [
        "m",
        "ing"
      ],
      [
        "ie",
        "ce"
      ],
      [
        "ow",
        "er"
      ],
      [
        "ere",
        "d"
      ],
      [
        "r",
        "ist"
      ],
      [
        "Ġn",
        "arr"
      ],
      [
        "ar",
        "n"
      ],
      [
        "Ġsh",
        "it"
      ],
      [
        "t",
        "his"
      ],
      [
        "o",
        "ve"
      ],
      [
        "en",
        "g"
      ],
      [
        "Ġfe",
        "ature"
      ],
      [
        "i",
        "x"
      ],
      [
        "b",
        "ably"
      ],
      [
        "Ġs",
        "u"
      ],
      [
        "Ġm",
        "em"
      ],
      [
        "Ġany",
        "thing"
      ],
      [
        "Ġm",
        "as"
      ],
      [
        "Ġo",
        "ur"
      ],
      [
        "Ġin",
        "st"
      ],
      [
        "Ġex",
        "c"
      ],
      [
        "Ġdram",
        "a"
      ],
      [
        "Ġb",
        "oth"
      ],
      [
        "Ġc",
        "ool"
      ],
      [
        "l",
        "ed"
      ],
      [
        "Ġc",
        "are"
      ],
      [
        "Ġst",
        "y"
      ],
      [
        "ap",
        "p"
      ],
      [
        "Ġfam",
        "ily"
      ],
      [
        "as",
        "on"
      ],
      [
        "Ġf",
        "ound"
      ],
      [
        "ing",
        "ly"
      ],
      [
        "ort",
        "h"
      ],
      [
        "in",
        "ce"
      ],
      [
        "ad",
        "y"
      ],
      [
        "Ġe",
        "p"
      ],
      [
        "i",
        "er"
      ],
      [
        "qu",
        "e"
      ],
      [
        "Ġo",
        "p"
      ],
      [
        "ou",
        "se"
      ],
      [
        "Ġwom",
        "an"
      ],
      [
        "Ġim",
        "ag"
      ],
      [
        "Ġwith",
        "out"
      ],
      [
        "ang",
        "e"
      ],
      [
        "Ġw",
        "ar"
      ],
      [
        "Ġcon",
        "s"
      ],
      [
        "e",
        "ver"
      ],
      [
        "it",
        "ion"
      ],
      [
        "Ġye",
        "ar"
      ],
      [
        "Ġle",
        "ast"
      ],
      [
        "or",
        "n"
      ],
      [
        "Ġevery",
        "thing"
      ],
      [
        "Ġb",
        "u"
      ],
      [
        "Ġis",
        "n"
      ],
      [
        "Ġpre",
        "s"
      ],
      [
        "Ġdiffere",
        "nt"
      ],
      [
        "fin",
        "ite"
      ],
      [
        "e",
        "w"
      ],
      [
        "Ġhe",
        "l"
      ],
      [
        "d",
        "ay"
      ],
      [
        "H",
        "A"
      ],
      [
        "ic",
        "ul"
      ],
      [
        "Ġas",
        "s"
      ],
      [
        "ĠT",
        "h"
      ],
      [
        "ic",
        "an"
      ],
      [
        "o",
        "nder"
      ],
      [
        "Ġal",
        "most"
      ],
      [
        "Ġe",
        "ffect"
      ],
      [
        "Ġc",
        "le"
      ],
      [
        "Ġf",
        "oot"
      ],
      [
        "ci",
        "ally"
      ],
      [
        "ograp",
        "hy"
      ],
      [
        "Ġc",
        "ra"
      ],
      [
        "Ġm",
        "ain"
      ],
      [
        "p",
        "h"
      ],
      [
        "ic",
        "s"
      ],
      [
        "u",
        "es"
      ],
      [
        "ĠN",
        "ot"
      ],
      [
        "Ġc",
        "all"
      ],
      [
        "Ġt",
        "it"
      ],
      [
        "'",
        "ll"
      ],
      [
        "or",
        "ing"
      ],
      [
        "ud",
        "get"
      ],
      [
        "Ġr",
        "om"
      ],
      [
        "Ġex",
        "t"
      ],
      [
        "Ġcom",
        "m"
      ],
      [
        "finite",
        "ly"
      ],
      [
        "Ġde",
        "p"
      ],
      [
        "t",
        "en"
      ],
      [
        "Ġf",
        "in"
      ],
      [
        "Ġc",
        "reat"
      ],
      [
        "Ġ",
        "vers"
      ],
      [
        "Ġsec",
        "ond"
      ],
      [
        "ol",
        "og"
      ],
      [
        "Ġl",
        "ess"
      ],
      [
        "0",
        "0"
      ],
      [
        "Ġm",
        "ight"
      ],
      [
        "Ġfuck",
        "ing"
      ],
      [
        "Ġwe",
        "ird"
      ],
      [
        "Ġsur",
        "pr"
      ],
      [
        "Ġs",
        "ing"
      ],
      [
        "um",
        "b"
      ],
      [
        "Ġtr",
        "ying"
      ],
      [
        "Ġend",
        "ing"
      ],
      [
        "Ġst",
        "and"
      ],
      [
        "s",
        "y"
      ],
      [
        "get",
        "her"
      ],
      [
        "Ġto",
        "gether"
      ],
      [
        "ist",
        "s"
      ],
      [
        "oh",
        "n"
      ],
      [
        "Ġy",
        "et"
      ],
      [
        "Ġs",
        "ol"
      ],
      [
        "Ġh",
        "our"
      ],
      [
        "Ġent",
        "ertain"
      ],
      [
        "ĠR",
        "e"
      ],
      [
        "Ġqu",
        "e"
      ],
      [
        "Ġc",
        "ome"
      ],
      [
        "ou",
        "nt"
      ],
      [
        "pe",
        "cially"
      ],
      [
        "Ġhapp",
        "en"
      ],
      [
        "Ġs",
        "il"
      ],
      [
        "oll",
        "ow"
      ],
      [
        "Ġc",
        "re"
      ],
      [
        "st",
        "and"
      ],
      [
        "Ġpl",
        "ace"
      ],
      [
        "Ġem",
        "ot"
      ],
      [
        "ĠF",
        "ilm"
      ],
      [
        "es",
        "e"
      ],
      [
        "at",
        "es"
      ],
      [
        "Ġm",
        "on"
      ],
      [
        "Ġent",
        "ire"
      ],
      [
        "Ġst",
        "ar"
      ],
      [
        "it",
        "ed"
      ],
      [
        "Ġke",
        "ep"
      ],
      [
        "or",
        "ies"
      ],
      [
        "sh",
        "ip"
      ],
      [
        "Ġab",
        "solute"
      ],
      [
        "f",
        "ort"
      ],
      [
        "Ġ",
        "5"
      ],
      [
        "Ġs",
        "ch"
      ],
      [
        "Ġ",
        "view"
      ],
      [
        "Ġcon",
        "f"
      ],
      [
        "Ġsup",
        "er"
      ],
      [
        "re",
        "t"
      ],
      [
        "Ġhel",
        "p"
      ],
      [
        "Ġc",
        "ar"
      ],
      [
        "iv",
        "es"
      ],
      [
        "Ġsome",
        "one"
      ],
      [
        "ure",
        "s"
      ],
      [
        "i",
        "en"
      ],
      [
        "Ġpro",
        "bably"
      ],
      [
        "Ġg",
        "ive"
      ],
      [
        "Ġwom",
        "en"
      ],
      [
        "Ġst",
        "uff"
      ],
      [
        "O",
        "O"
      ],
      [
        "if",
        "e"
      ],
      [
        "ist",
        "ic"
      ],
      [
        "Ġd",
        "r"
      ],
      [
        "an",
        "c"
      ],
      [
        "Ġe",
        "le"
      ],
      [
        "ĠF",
        "r"
      ],
      [
        "Ġfilm",
        "m"
      ],
      [
        "Ġtr",
        "ans"
      ],
      [
        "re",
        "s"
      ],
      [
        "le",
        "as"
      ],
      [
        "Ġme",
        "an"
      ],
      [
        "Ġs",
        "k"
      ],
      [
        "ne",
        "y"
      ],
      [
        "Ġad",
        "d"
      ],
      [
        "ĠA",
        "mer"
      ],
      [
        "Ġf",
        "act"
      ],
      [
        "Ġn",
        "ight"
      ],
      [
        "Ġe",
        "arly"
      ],
      [
        "al",
        "ity"
      ],
      [
        "i",
        "et"
      ],
      [
        "m",
        "y"
      ],
      [
        "ĠB",
        "l"
      ],
      [
        "Ġl",
        "ow"
      ],
      [
        "H",
        "H"
      ],
      [
        "on",
        "est"
      ],
      [
        "e",
        "x"
      ],
      [
        "Ġd",
        "one"
      ],
      [
        "Ġf",
        "ull"
      ],
      [
        "at",
        "ched"
      ],
      [
        "Ġfav",
        "or"
      ],
      [
        "Ġbel",
        "ie"
      ],
      [
        "Ġw",
        "onder"
      ],
      [
        "Ġmom",
        "ents"
      ],
      [
        "c",
        "om"
      ],
      [
        "Ġlo",
        "ved"
      ],
      [
        "y",
        "e"
      ],
      [
        "Ġseem",
        "s"
      ],
      [
        "Ġs",
        "ong"
      ],
      [
        "ĠD",
        "e"
      ],
      [
        "n",
        "er"
      ],
      [
        "Ġwas",
        "n"
      ],
      [
        "Ġli",
        "ve"
      ],
      [
        "Ġli",
        "ked"
      ],
      [
        "ro",
        "ss"
      ],
      [
        "Ġa",
        "c"
      ],
      [
        "Ġperforman",
        "ce"
      ],
      [
        "h",
        "o"
      ],
      [
        "iv",
        "al"
      ],
      [
        "ug",
        "g"
      ],
      [
        "y",
        "a"
      ],
      [
        "Ġper",
        "fect"
      ],
      [
        "ĠS",
        "o"
      ],
      [
        "Ġb",
        "oy"
      ],
      [
        "ill",
        "er"
      ],
      [
        "oo",
        "oo"
      ],
      [
        "Ġha",
        "ving"
      ],
      [
        "Ġfor",
        "m"
      ],
      [
        "Ġanim",
        "ation"
      ],
      [
        "Ġo",
        "rig"
      ],
      [
        "Ġcomple",
        "te"
      ],
      [
        "a",
        "i"
      ],
      [
        "Ġide",
        "a"
      ],
      [
        "st",
        "er"
      ],
      [
        "Ġp",
        "h"
      ],
      [
        "y",
        "n"
      ],
      [
        "Ġs",
        "ense"
      ],
      [
        "Ġse",
        "qu"
      ],
      [
        "a",
        "j"
      ],
      [
        "Ġd",
        "uring"
      ],
      [
        "I",
        "n"
      ],
      [
        "Ġli",
        "ght"
      ],
      [
        "u",
        "k"
      ],
      [
        "Ġhe",
        "ad"
      ],
      [
        "Ġ",
        "4"
      ],
      [
        "Ġhist",
        "ory"
      ],
      [
        "Ġg",
        "ra"
      ],
      [
        "Ġun",
        "t"
      ],
      [
        "Ġe",
        "ach"
      ],
      [
        "Ġm",
        "ar"
      ],
      [
        "Ġf",
        "ollow"
      ],
      [
        "Ġsty",
        "le"
      ],
      [
        "Ġs",
        "ince"
      ],
      [
        "s",
        "on"
      ],
      [
        "is",
        "od"
      ],
      [
        "al",
        "s"
      ],
      [
        "id",
        "d"
      ],
      [
        "ent",
        "ion"
      ],
      [
        "Ġter",
        "ri"
      ],
      [
        "Ġvers",
        "ion"
      ],
      [
        "A",
        "N"
      ],
      [
        "ĠA",
        "n"
      ],
      [
        "Ġlook",
        "s"
      ],
      [
        "Ġbe",
        "g"
      ],
      [
        "am",
        "p"
      ],
      [
        "Ġr",
        "ather"
      ],
      [
        "ious",
        "ly"
      ],
      [
        "er",
        "ing"
      ],
      [
        "Ġ20",
        "2"
      ],
      [
        "ire",
        "d"
      ],
      [
        "Ġaw",
        "ay"
      ],
      [
        "Ġre",
        "f"
      ],
      [
        "il",
        "ar"
      ],
      [
        "id",
        "ent"
      ],
      [
        "r",
        "u"
      ],
      [
        "Ġhum",
        "an"
      ],
      [
        "Ġs",
        "ad"
      ],
      [
        "Ġf",
        "ight"
      ],
      [
        "an",
        "n"
      ],
      [
        "Ġsup",
        "p"
      ],
      [
        "az",
        "ing"
      ],
      [
        "at",
        "t"
      ],
      [
        "Ġfoot",
        "age"
      ],
      [
        "ud",
        "e"
      ],
      [
        "un",
        "t"
      ],
      [
        "l",
        "and"
      ],
      [
        "Ġdis",
        "c"
      ],
      [
        "Ġa",
        "ud"
      ],
      [
        "Ġm",
        "iss"
      ],
      [
        "Ġp",
        "ar"
      ],
      [
        "N",
        "ot"
      ],
      [
        "1",
        "9"
      ],
      [
        "z",
        "y"
      ],
      [
        "Ġgo",
        "es"
      ],
      [
        "Ġget",
        "ting"
      ],
      [
        "ĠT",
        "hat"
      ],
      [
        "Ġm",
        "ed"
      ],
      [
        "Ġes",
        "pecially"
      ],
      [
        "i",
        "ke"
      ],
      [
        "ur",
        "al"
      ],
      [
        "Ġst",
        "ud"
      ],
      [
        "Ġp",
        "ost"
      ],
      [
        "Ġp",
        "ower"
      ],
      [
        "n",
        "ot"
      ],
      [
        "Ġre",
        "p"
      ],
      [
        "Ġgen",
        "er"
      ],
      [
        "ri",
        "pt"
      ],
      [
        "Ġdo",
        "ing"
      ],
      [
        "Ġevery",
        "one"
      ],
      [
        "aa",
        "aa"
      ],
      [
        "Ġt",
        "akes"
      ],
      [
        "am",
        "es"
      ],
      [
        "Ġspe",
        "cial"
      ],
      [
        "Ġre",
        "st"
      ],
      [
        "Ġd",
        "ist"
      ],
      [
        "Ġw",
        "orth"
      ],
      [
        "y",
        "p"
      ],
      [
        "ĠB",
        "e"
      ],
      [
        "as",
        "c"
      ],
      [
        "Ġd",
        "ream"
      ],
      [
        "Ġl",
        "a"
      ],
      [
        "Ġexper",
        "ience"
      ],
      [
        "ĠCh",
        "rist"
      ],
      [
        "t",
        "o"
      ],
      [
        "b",
        "ut"
      ],
      [
        "Ġb",
        "udget"
      ],
      [
        "Ġunder",
        "stand"
      ],
      [
        "Ġsa",
        "id"
      ],
      [
        "Ġinc",
        "red"
      ],
      [
        "Ġs",
        "we"
      ],
      [
        "Ġm",
        "ess"
      ],
      [
        "o",
        "on"
      ],
      [
        "Ġd",
        "ial"
      ],
      [
        "Ġh",
        "ome"
      ],
      [
        "g",
        "r"
      ],
      [
        "Ġde",
        "finitely"
      ],
      [
        "Ġm",
        "ind"
      ],
      [
        "Ġep",
        "isod"
      ],
      [
        "at",
        "ter"
      ],
      [
        "Ġc",
        "ult"
      ],
      [
        "Ġprodu",
        "ction"
      ],
      [
        "Ġsurpr",
        "is"
      ],
      [
        "ment",
        "s"
      ],
      [
        "Ġv",
        "ide"
      ],
      [
        "f",
        "r"
      ],
      [
        "m",
        "s"
      ],
      [
        "a",
        "x"
      ],
      [
        "Ġd",
        "et"
      ],
      [
        "c",
        "er"
      ],
      [
        "Ġto",
        "p"
      ],
      [
        "Ġw",
        "ish"
      ],
      [
        "u",
        "nd"
      ],
      [
        "us",
        "s"
      ],
      [
        "ĠTH",
        "E"
      ],
      [
        "Ġst",
        "ars"
      ],
      [
        "che",
        "s"
      ],
      [
        "re",
        "ak"
      ],
      [
        "Ġb",
        "oring"
      ],
      [
        "W",
        "hat"
      ],
      [
        "et",
        "s"
      ],
      [
        "Ġfavor",
        "ite"
      ],
      [
        "Ġm",
        "ur"
      ],
      [
        "Ġp",
        "iece"
      ],
      [
        "Ġl",
        "augh"
      ],
      [
        "ĠT",
        "V"
      ],
      [
        "ib",
        "ly"
      ],
      [
        "Ġsl",
        "ow"
      ],
      [
        "Ġperforman",
        "ces"
      ],
      [
        "Ġcou",
        "nt"
      ],
      [
        "le",
        "ase"
      ],
      [
        "un",
        "ch"
      ],
      [
        "Ġ",
        "9"
      ],
      [
        "Ġth",
        "ree"
      ],
      [
        "Ġv",
        "o"
      ],
      [
        "oc",
        "us"
      ],
      [
        "Ġf",
        "inal"
      ],
      [
        "Ġun",
        "i"
      ],
      [
        "Ġbe",
        "h"
      ],
      [
        "v",
        "ent"
      ],
      [
        "are",
        "nt"
      ],
      [
        "ar",
        "ing"
      ],
      [
        "Ġlook",
        "ing"
      ],
      [
        "ill",
        "i"
      ],
      [
        "Ġp",
        "ass"
      ],
      [
        "Ġel",
        "se"
      ],
      [
        "Ġd",
        "ra"
      ],
      [
        "i",
        "ed"
      ],
      [
        "ll",
        "ll"
      ],
      [
        "Ġact",
        "ors"
      ],
      [
        "Ġst",
        "op"
      ],
      [
        "Ġtit",
        "le"
      ],
      [
        "ap",
        "s"
      ],
      [
        "m",
        "ed"
      ],
      [
        "ĠA",
        "r"
      ],
      [
        "o",
        "v"
      ],
      [
        "um",
        "p"
      ],
      [
        "d",
        "d"
      ],
      [
        "Ġf",
        "all"
      ],
      [
        "ful",
        "ly"
      ],
      [
        "Ġsch",
        "ool"
      ],
      [
        "Ġs",
        "aw"
      ],
      [
        "I",
        "f"
      ],
      [
        "Ġon",
        "ce"
      ],
      [
        "Ġ",
        "8"
      ],
      [
        "Ġm",
        "ust"
      ],
      [
        "Ġp",
        "ort"
      ],
      [
        "Ġdial",
        "og"
      ],
      [
        "ell",
        "ing"
      ],
      [
        "Ġy",
        "ang"
      ],
      [
        "Ġc",
        "ame"
      ],
      [
        "en",
        "ing"
      ],
      [
        "Ġl",
        "iter"
      ],
      [
        "es",
        "tern"
      ],
      [
        "Ġde",
        "ep"
      ],
      [
        "ĠJ",
        "ohn"
      ],
      [
        "Â",
        "ł"
      ],
      [
        "ra",
        "ct"
      ],
      [
        "c",
        "ess"
      ],
      [
        "Y",
        "ou"
      ],
      [
        "Ġre",
        "ad"
      ],
      [
        "Ġcom",
        "es"
      ],
      [
        "Ġu",
        "se"
      ],
      [
        "S",
        "t"
      ],
      [
        "Ġrem",
        "em"
      ],
      [
        "at",
        "s"
      ],
      [
        "Ġits",
        "elf"
      ],
      [
        "Ġex",
        "p"
      ],
      [
        "in",
        "es"
      ],
      [
        "Ġc",
        "our"
      ],
      [
        "Ġp",
        "ain"
      ],
      [
        "Ġap",
        "pe"
      ],
      [
        "Ġsee",
        "ing"
      ],
      [
        "Ġc",
        "ertain"
      ],
      [
        "Ġs",
        "w"
      ],
      [
        "Ġcou",
        "ple"
      ],
      [
        "Ġe",
        "as"
      ],
      [
        "Ġg",
        "i"
      ],
      [
        "ation",
        "al"
      ],
      [
        "ny",
        "a"
      ],
      [
        "Ġs",
        "y"
      ],
      [
        "i",
        "ol"
      ],
      [
        "ro",
        "p"
      ],
      [
        "Ġdec",
        "ent"
      ],
      [
        "it",
        "ies"
      ],
      [
        "ĠW",
        "e"
      ],
      [
        "in",
        "ess"
      ],
      [
        "ot",
        "t"
      ],
      [
        "Ġorig",
        "inal"
      ],
      [
        "Ġd",
        "ark"
      ],
      [
        "Ġm",
        "et"
      ],
      [
        "Ġc",
        "ur"
      ],
      [
        "ĠM",
        "ar"
      ],
      [
        "Ġenjoy",
        "ed"
      ],
      [
        "Ġre",
        "g"
      ],
      [
        "g",
        "er"
      ],
      [
        "Ġp",
        "oss"
      ],
      [
        "Ġsm",
        "all"
      ],
      [
        "Ġh",
        "onest"
      ],
      [
        "o",
        "int"
      ],
      [
        "or",
        "k"
      ],
      [
        "Ġvis",
        "ual"
      ],
      [
        "Ġimp",
        "ress"
      ],
      [
        "Ġj",
        "ob"
      ],
      [
        "Ġlo",
        "c"
      ],
      [
        "w",
        "ay"
      ],
      [
        "le",
        "y"
      ],
      [
        "Ġunt",
        "il"
      ],
      [
        "Ġc",
        "ut"
      ],
      [
        "Ġgu",
        "ess"
      ],
      [
        "it",
        "her"
      ],
      [
        "iz",
        "ed"
      ],
      [
        "em",
        "pt"
      ],
      [
        "Ġcam",
        "era"
      ],
      [
        "or",
        "ge"
      ],
      [
        "Ġwant",
        "ed"
      ],
      [
        "m",
        "as"
      ],
      [
        "Ġstr",
        "ong"
      ],
      [
        "Ġre",
        "ason"
      ],
      [
        "Ġm",
        "el"
      ],
      [
        "u",
        "ly"
      ],
      [
        "O",
        "N"
      ],
      [
        "Ġabsolute",
        "ly"
      ],
      [
        "E",
        "S"
      ],
      [
        "Ġ",
        "Z"
      ],
      [
        "Ġf",
        "ocus"
      ],
      [
        "The",
        "re"
      ],
      [
        "Ġbl",
        "ack"
      ],
      [
        "Ġen",
        "g"
      ],
      [
        "Ġam",
        "azing"
      ],
      [
        "m",
        "a"
      ],
      [
        "Ġc",
        "ute"
      ],
      [
        "ol",
        "ly"
      ],
      [
        "ĠA",
        "s"
      ],
      [
        "A",
        "T"
      ],
      [
        "E",
        "N"
      ],
      [
        "Ġde",
        "ath"
      ],
      [
        "Ġinst",
        "ead"
      ],
      [
        "Ġf",
        "an"
      ],
      [
        "u",
        "c"
      ],
      [
        "ĠW",
        "h"
      ],
      [
        "Ġl",
        "ack"
      ],
      [
        "Ġentertain",
        "ing"
      ],
      [
        "M",
        "y"
      ],
      [
        "Ġst",
        "ra"
      ],
      [
        "r",
        "ay"
      ],
      [
        "ĠU",
        "n"
      ],
      [
        "he",
        "s"
      ],
      [
        "Ġus",
        "ed"
      ],
      [
        "I",
        "S"
      ],
      [
        "t",
        "s"
      ],
      [
        "ĠC",
        "l"
      ],
      [
        "i",
        "el"
      ],
      [
        "im",
        "ent"
      ],
      [
        "re",
        "me"
      ],
      [
        "Ġnarr",
        "ative"
      ],
      [
        "Ġp",
        "ast"
      ],
      [
        "ĠW",
        "hat"
      ],
      [
        "un",
        "k"
      ],
      [
        "Ġsol",
        "id"
      ],
      [
        "-",
        "-"
      ],
      [
        "Ġle",
        "ft"
      ],
      [
        "Ġg",
        "ay"
      ],
      [
        "ul",
        "ar"
      ],
      [
        "g",
        "g"
      ],
      [
        "Ġre",
        "t"
      ],
      [
        "Ġmas",
        "ter"
      ],
      [
        "is",
        "on"
      ],
      [
        "ĠThe",
        "y"
      ],
      [
        "Ġfriend",
        "s"
      ],
      [
        "Ġdirect",
        "ed"
      ],
      [
        "ĠS",
        "he"
      ],
      [
        "Ġs",
        "ort"
      ],
      [
        "l",
        "ud"
      ],
      [
        "Ġimp",
        "ort"
      ],
      [
        "Ġwork",
        "s"
      ],
      [
        "one",
        "y"
      ],
      [
        "om",
        "b"
      ],
      [
        "d",
        "e"
      ],
      [
        "Ġlo",
        "st"
      ],
      [
        "ic",
        "a"
      ],
      [
        "Ġqu",
        "est"
      ],
      [
        "IN",
        "G"
      ],
      [
        "Ġwor",
        "d"
      ],
      [
        "Ġhe",
        "ll"
      ],
      [
        "w",
        "hat"
      ],
      [
        "Ġc",
        "apt"
      ],
      [
        "A",
        "R"
      ],
      [
        "Ġpl",
        "ays"
      ],
      [
        "he",
        "t"
      ],
      [
        "h",
        "ow"
      ],
      [
        "Ġf",
        "ant"
      ],
      [
        "if",
        "ic"
      ],
      [
        "w",
        "ood"
      ],
      [
        "Ġl",
        "ist"
      ],
      [
        "v",
        "is"
      ],
      [
        "p",
        "ite"
      ],
      [
        "or",
        "m"
      ],
      [
        "Ġ",
        "7"
      ],
      [
        "HA",
        "HA"
      ],
      [
        "Ġb",
        "ra"
      ],
      [
        "ent",
        "ly"
      ],
      [
        "O",
        "ne"
      ],
      [
        "ut",
        "ion"
      ],
      [
        "Ġst",
        "ories"
      ],
      [
        "Ġs",
        "at"
      ],
      [
        "Ġw",
        "ent"
      ],
      [
        "Ġshow",
        "s"
      ],
      [
        "Ġcinem",
        "at"
      ],
      [
        "ap",
        "an"
      ],
      [
        "Ġv",
        "iol"
      ],
      [
        "Ġm",
        "ag"
      ],
      [
        "Ġc",
        "op"
      ],
      [
        "Ġc",
        "ent"
      ],
      [
        "Ġsc",
        "ript"
      ],
      [
        "Ġpol",
        "it"
      ],
      [
        "Ġh",
        "ope"
      ],
      [
        "Ġtr",
        "ue"
      ],
      [
        "ĠH",
        "ow"
      ],
      [
        "Ġdes",
        "er"
      ],
      [
        "am",
        "n"
      ],
      [
        "Ġpart",
        "icul"
      ],
      [
        "Ġkid",
        "s"
      ],
      [
        "ĠS",
        "c"
      ],
      [
        "Ġbelie",
        "ve"
      ],
      [
        "Ġtr",
        "uly"
      ],
      [
        "os",
        "ed"
      ],
      [
        "ĠI",
        "f"
      ],
      [
        "ĠL",
        "e"
      ],
      [
        "Ġsub",
        "ject"
      ],
      [
        "Ġvide",
        "o"
      ],
      [
        "Ġplay",
        "ing"
      ],
      [
        "Ġro",
        "le"
      ],
      [
        "O",
        "R"
      ],
      [
        "Ġmom",
        "ent"
      ],
      [
        "ĠAmer",
        "ican"
      ],
      [
        "iv",
        "ing"
      ],
      [
        "are",
        "d"
      ],
      [
        "ow",
        "s"
      ],
      [
        "Ġrel",
        "ation"
      ],
      [
        "Ġthr",
        "iller"
      ],
      [
        "in",
        "a"
      ],
      [
        "Ġmay",
        "be"
      ],
      [
        "ie",
        "f"
      ],
      [
        "!!",
        "!"
      ],
      [
        "ĠS",
        "p"
      ],
      [
        "Ġm",
        "is"
      ],
      [
        "Ġkind",
        "a"
      ],
      [
        "ub",
        "e"
      ],
      [
        "b",
        "r"
      ],
      [
        "ar",
        "i"
      ],
      [
        "el",
        "s"
      ],
      [
        "Ġbec",
        "om"
      ],
      [
        "on",
        "es"
      ],
      [
        "Ġh",
        "ouse"
      ],
      [
        "Ġwh",
        "ite"
      ],
      [
        "?",
        "\""
      ],
      [
        "y",
        "es"
      ],
      [
        "Ġd",
        "an"
      ],
      [
        "id",
        "es"
      ],
      [
        "ter",
        "s"
      ],
      [
        "Ġfilmm",
        "ak"
      ],
      [
        "asc",
        "in"
      ],
      [
        "Ġmost",
        "ly"
      ],
      [
        "ore",
        "d"
      ],
      [
        "L",
        "L"
      ],
      [
        "Ġin",
        "f"
      ],
      [
        "Ġal",
        "ong"
      ],
      [
        "o",
        "ver"
      ],
      [
        "Ġhim",
        "self"
      ],
      [
        "est",
        "ival"
      ],
      [
        "o",
        "e"
      ],
      [
        "u",
        "u"
      ],
      [
        "Ġwor",
        "st"
      ],
      [
        "Ġcomplete",
        "ly"
      ],
      [
        "b",
        "ox"
      ],
      [
        "ot",
        "e"
      ],
      [
        "Ġp",
        "op"
      ],
      [
        "Ġex",
        "ist"
      ],
      [
        "ent",
        "ial"
      ],
      [
        "Ġan",
        "g"
      ],
      [
        "o",
        "ke"
      ],
      [
        "Ġs",
        "it"
      ],
      [
        "Ġf",
        "ace"
      ],
      [
        "Ġf",
        "air"
      ],
      [
        "Ġrelation",
        "ship"
      ],
      [
        "th",
        "ough"
      ],
      [
        "Ġl",
        "and"
      ],
      [
        "Ġbeh",
        "ind"
      ],
      [
        "me",
        "nd"
      ],
      [
        "Ġgen",
        "re"
      ],
      [
        "R",
        "e"
      ],
      [
        "m",
        "in"
      ],
      [
        "Ġn",
        "ame"
      ],
      [
        "h",
        "a"
      ],
      [
        "on",
        "y"
      ],
      [
        "in",
        "o"
      ],
      [
        "Ġg",
        "od"
      ],
      [
        "l",
        "ish"
      ],
      [
        "Ġremem",
        "ber"
      ],
      [
        "O",
        "U"
      ],
      [
        "ag",
        "es"
      ],
      [
        "ri",
        "ed"
      ],
      [
        "Ġl",
        "ater"
      ],
      [
        "l",
        "ine"
      ],
      [
        "il",
        "i"
      ],
      [
        "Ġd",
        "em"
      ],
      [
        "Ġv",
        "ib"
      ],
      [
        "t",
        "ime"
      ],
      [
        "ber",
        "t"
      ],
      [
        "u",
        "se"
      ],
      [
        "a",
        "pe"
      ],
      [
        "Ġpres",
        "ent"
      ],
      [
        "ri",
        "ght"
      ],
      [
        "ch",
        "n"
      ],
      [
        "li",
        "ke"
      ],
      [
        "ou",
        "p"
      ],
      [
        "os",
        "p"
      ],
      [
        "Ġdialog",
        "ue"
      ],
      [
        "Ġwr",
        "ong"
      ],
      [
        "Ġliter",
        "ally"
      ],
      [
        "ren",
        "ch"
      ],
      [
        "t",
        "ra"
      ],
      [
        "t",
        "ed"
      ],
      [
        "re",
        "ady"
      ],
      [
        "i",
        "j"
      ],
      [
        "Ġof",
        "ten"
      ],
      [
        "Ġinv",
        "ol"
      ],
      [
        "for",
        "m"
      ],
      [
        "e",
        "k"
      ],
      [
        "Ġex",
        "act"
      ],
      [
        "ud",
        "d"
      ],
      [
        "l",
        "ight"
      ],
      [
        "on",
        "na"
      ],
      [
        "g",
        "y"
      ],
      [
        "Ġagain",
        "st"
      ],
      [
        "Ġt",
        "ou"
      ],
      [
        "u",
        "ine"
      ],
      [
        "??",
        "??"
      ],
      [
        "Ġpo",
        "or"
      ],
      [
        "Ġpr",
        "ot"
      ],
      [
        "Ġd",
        "ri"
      ],
      [
        "Ġm",
        "other"
      ],
      [
        "Ġdes",
        "ign"
      ],
      [
        "s",
        "ide"
      ],
      [
        "itt",
        "en"
      ],
      [
        "Ġins",
        "p"
      ],
      [
        "Ġatt",
        "empt"
      ],
      [
        "iz",
        "e"
      ],
      [
        "Ġmy",
        "self"
      ],
      [
        "Ġm",
        "or"
      ],
      [
        "Ġcinemat",
        "ography"
      ],
      [
        "Ġf",
        "ore"
      ],
      [
        "Ġplay",
        "ed"
      ],
      [
        "AA",
        "AA"
      ],
      [
        "Ġc",
        "or"
      ],
      [
        "ac",
        "es"
      ],
      [
        "Ġpre",
        "m"
      ],
      [
        "Ġn",
        "on"
      ],
      [
        "Ġs",
        "elf"
      ],
      [
        "ast",
        "ic"
      ],
      [
        "Ġde",
        "ad"
      ],
      [
        "Ġswe",
        "et"
      ],
      [
        "it",
        "al"
      ],
      [
        "Ġcour",
        "se"
      ],
      [
        "Ġb",
        "ro"
      ],
      [
        "!",
        "\""
      ],
      [
        "Ġw",
        "al"
      ],
      [
        "Ġsim",
        "ple"
      ],
      [
        "Ġ",
        "ve"
      ],
      [
        "Ġh",
        "ot"
      ],
      [
        "Ġ",
        "6"
      ],
      [
        "Ġimport",
        "ant"
      ],
      [
        "S",
        "o"
      ],
      [
        "Ġtal",
        "king"
      ],
      [
        "en",
        "n"
      ],
      [
        "er",
        "man"
      ],
      [
        "Ġs",
        "le"
      ],
      [
        "ar",
        "a"
      ],
      [
        "en",
        "e"
      ],
      [
        "Ġal",
        "ready"
      ],
      [
        "Ġcom",
        "ing"
      ],
      [
        "Ġfeel",
        "ing"
      ],
      [
        "Ġto",
        "day"
      ],
      [
        "fort",
        "un"
      ],
      [
        "Ġp",
        "ict"
      ],
      [
        "Ġtal",
        "k"
      ],
      [
        "ĠS",
        "e"
      ],
      [
        "Ġshot",
        "s"
      ],
      [
        "Ġan",
        "t"
      ],
      [
        "Ġstra",
        "ight"
      ],
      [
        "ĠR",
        "o"
      ],
      [
        "Ġw",
        "a"
      ],
      [
        "ĠA",
        "ll"
      ],
      [
        "Ġb",
        "ook"
      ],
      [
        "Ġto",
        "t"
      ],
      [
        "Ġa",
        "v"
      ],
      [
        "ow",
        "ing"
      ],
      [
        "ter",
        "box"
      ],
      [
        "Ġne",
        "xt"
      ],
      [
        "Ġfl",
        "ick"
      ],
      [
        "Ġf",
        "ine"
      ],
      [
        "it",
        "ch"
      ],
      [
        "Ġinter",
        "view"
      ],
      [
        "Ġm",
        "atter"
      ],
      [
        "Ġcr",
        "ime"
      ],
      [
        "om",
        "mend"
      ],
      [
        "Ġcon",
        "cept"
      ],
      [
        "Ġo",
        "k"
      ],
      [
        "l",
        "er"
      ],
      [
        "Ġcol",
        "le"
      ],
      [
        "Ġ1",
        "0"
      ],
      [
        "re",
        "w"
      ],
      [
        "Ġtr",
        "y"
      ],
      [
        "Ġany",
        "one"
      ],
      [
        "in",
        "ning"
      ],
      [
        "ĠN",
        "o"
      ],
      [
        "Ġdo",
        "g"
      ],
      [
        "Ġli",
        "ves"
      ],
      [
        "re",
        "ci"
      ],
      [
        "Ġrem",
        "ind"
      ],
      [
        "Ġf",
        "ascin"
      ],
      [
        "id",
        "ed"
      ],
      [
        "Ġsing",
        "le"
      ],
      [
        "W",
        "atched"
      ],
      [
        "Ġpro",
        "ble"
      ],
      [
        "Ġ",
        "est"
      ],
      [
        "c",
        "l"
      ],
      [
        "Ġcons",
        "id"
      ],
      [
        "ĠBr",
        "it"
      ],
      [
        "Ġmin",
        "ute"
      ],
      [
        "an",
        "y"
      ],
      [
        "ne",
        "w"
      ],
      [
        "Ġan",
        "n"
      ],
      [
        "i",
        "h"
      ],
      [
        "Ġle",
        "vel"
      ],
      [
        "pl",
        "ay"
      ],
      [
        "r",
        "ic"
      ],
      [
        "Ġp",
        "sy"
      ],
      [
        "Ġact",
        "or"
      ],
      [
        "il",
        "ity"
      ],
      [
        "Ġh",
        "ate"
      ],
      [
        "ar",
        "ch"
      ],
      [
        "oo",
        "f"
      ],
      [
        "n",
        "ce"
      ],
      [
        "b",
        "y"
      ],
      [
        "Ġbec",
        "ome"
      ],
      [
        "is",
        "hed"
      ],
      [
        "Ġ9",
        "0"
      ],
      [
        "Ġcon",
        "st"
      ],
      [
        "Ġd",
        "ays"
      ],
      [
        "olly",
        "wood"
      ],
      [
        "2",
        "0"
      ],
      [
        "am",
        "a"
      ],
      [
        "terbox",
        "d"
      ],
      [
        "Ġm",
        "ot"
      ],
      [
        "A",
        "S"
      ],
      [
        "Ġ",
        ":"
      ],
      [
        "Ġf",
        "ather"
      ],
      [
        "ot",
        "s"
      ],
      [
        "Ġterri",
        "ble"
      ],
      [
        "ward",
        "s"
      ],
      [
        "ĠI",
        "nd"
      ],
      [
        "o",
        "vie"
      ],
      [
        "Ġclass",
        "ic"
      ],
      [
        "m",
        "p"
      ],
      [
        "ĠN",
        "ew"
      ],
      [
        "Ġguy",
        "s"
      ],
      [
        "Ġs",
        "ide"
      ],
      [
        "Ġd",
        "ie"
      ],
      [
        "idd",
        "le"
      ],
      [
        "Ġle",
        "arn"
      ],
      [
        "ol",
        "es"
      ],
      [
        "Ġad",
        "apt"
      ],
      [
        "ab",
        "y"
      ],
      [
        "Ġp",
        "ot"
      ],
      [
        "ure",
        "d"
      ],
      [
        "Ġ",
        "Q"
      ],
      [
        "Ġepisod",
        "e"
      ],
      [
        "Ġcl",
        "ose"
      ],
      [
        "Ġgr",
        "oup"
      ],
      [
        "ĠJ",
        "apan"
      ],
      [
        "Ġs",
        "on"
      ],
      [
        "Ġmo",
        "ve"
      ],
      [
        "le",
        "t"
      ],
      [
        "g",
        "ed"
      ],
      [
        "ain",
        "s"
      ],
      [
        "ant",
        "ly"
      ],
      [
        "Ġaud",
        "ience"
      ],
      [
        "w",
        "here"
      ],
      [
        "Ġf",
        "em"
      ],
      [
        "Ġvo",
        "ice"
      ],
      [
        "Ġe",
        "ff"
      ],
      [
        "k",
        "y"
      ],
      [
        "Ġinc",
        "lud"
      ],
      [
        "ar",
        "l"
      ],
      [
        "E",
        "D"
      ],
      [
        "at",
        "or"
      ],
      [
        "arr",
        "ing"
      ],
      [
        "Ġto",
        "ld"
      ],
      [
        "ad",
        "a"
      ],
      [
        "re",
        "tty"
      ],
      [
        "Ġchild",
        "ren"
      ],
      [
        "c",
        "ing"
      ],
      [
        "Ġ",
        "er"
      ],
      [
        "ust",
        "r"
      ],
      [
        "Ġeffect",
        "s"
      ],
      [
        "Ġw",
        "ife"
      ],
      [
        "Ġm",
        "ix"
      ],
      [
        "Ġv",
        "ill"
      ],
      [
        "Ġact",
        "ual"
      ],
      [
        "et",
        "y"
      ],
      [
        "ĠO",
        "ne"
      ],
      [
        "ag",
        "ing"
      ],
      [
        "ian",
        "s"
      ],
      [
        "Ġc",
        "red"
      ],
      [
        "v",
        "ol"
      ],
      [
        "Ġcomm",
        "un"
      ],
      [
        "ĠM",
        "y"
      ],
      [
        "ĠAl",
        "so"
      ],
      [
        "Ġed",
        "iting"
      ],
      [
        "Ġ",
        "era"
      ],
      [
        "Ġe",
        "ither"
      ],
      [
        "Ġbas",
        "ed"
      ],
      [
        "Ġe",
        "yes"
      ],
      [
        "ĠA",
        "t"
      ],
      [
        "s",
        "el"
      ],
      [
        "Ġcount",
        "ry"
      ],
      [
        "in",
        "ed"
      ],
      [
        "ou",
        "d"
      ],
      [
        "Ġg",
        "onna"
      ],
      [
        "Ġmur",
        "der"
      ],
      [
        "Ġqu",
        "ality"
      ],
      [
        "Ġl",
        "ate"
      ],
      [
        "Ġpro",
        "p"
      ],
      [
        "Ġsc",
        "ore"
      ],
      [
        "Ġperson",
        "al"
      ],
      [
        "pp",
        "ed"
      ],
      [
        "v",
        "ious"
      ],
      [
        "Ġemot",
        "ional"
      ],
      [
        "b",
        "ody"
      ],
      [
        "Ġc",
        "art"
      ],
      [
        "Ġbu",
        "ild"
      ],
      [
        "Ġg",
        "ives"
      ],
      [
        "Ġmus",
        "ical"
      ],
      [
        "ĠI",
        "s"
      ],
      [
        "o",
        "es"
      ],
      [
        "an",
        "a"
      ],
      [
        "T",
        "h"
      ],
      [
        "reme",
        "ly"
      ],
      [
        "ive",
        "ly"
      ],
      [
        "ĠS",
        "ome"
      ],
      [
        "Ġgen",
        "uine"
      ],
      [
        "Ġapp",
        "reci"
      ],
      [
        "\"",
        "."
      ],
      [
        "Ġrec",
        "ommend"
      ],
      [
        "ĠF",
        "or"
      ],
      [
        "Ġo",
        "pp"
      ],
      [
        "O",
        "V"
      ],
      [
        "ict",
        "ion"
      ],
      [
        "Ġso",
        "ci"
      ],
      [
        "Ġb",
        "reak"
      ],
      [
        "Ġmo",
        "der"
      ],
      [
        "ke",
        "y"
      ],
      [
        "Ġis",
        "s"
      ],
      [
        "Ġpr",
        "om"
      ],
      [
        "Ġenjoy",
        "able"
      ],
      [
        "al",
        "d"
      ],
      [
        "gr",
        "ound"
      ],
      [
        "Ġc",
        "ase"
      ],
      [
        "Ġbl",
        "ood"
      ],
      [
        "h",
        "h"
      ],
      [
        "Ġte",
        "chn"
      ],
      [
        "av",
        "id"
      ],
      [
        "i",
        "ent"
      ],
      [
        "o",
        "f"
      ],
      [
        "w",
        "h"
      ],
      [
        "re",
        "al"
      ],
      [
        "Ġf",
        "re"
      ],
      [
        "Ġpro",
        "f"
      ],
      [
        "Ġk",
        "new"
      ],
      [
        "w",
        "atch"
      ],
      [
        "ang",
        "er"
      ],
      [
        "us",
        "ing"
      ],
      [
        "z",
        "z"
      ],
      [
        "ĠG",
        "od"
      ],
      [
        "Ġexact",
        "ly"
      ],
      [
        "Ġthrough",
        "out"
      ],
      [
        "et",
        "t"
      ],
      [
        "o",
        "le"
      ],
      [
        "y",
        "pe"
      ],
      [
        "Ġhappen",
        "ed"
      ],
      [
        "ĠM",
        "an"
      ],
      [
        "ur",
        "b"
      ],
      [
        "Ġp",
        "at"
      ],
      [
        "Ġf",
        "ail"
      ],
      [
        "Ġp",
        "leas"
      ],
      [
        "Ġtoo",
        "k"
      ],
      [
        "ou",
        "l"
      ],
      [
        "Ġh",
        "om"
      ],
      [
        "Ġab",
        "le"
      ],
      [
        "Ġex",
        "ec"
      ],
      [
        "us",
        "h"
      ],
      [
        "c",
        "y"
      ],
      [
        "Ġc",
        "ry"
      ],
      [
        "o",
        "ff"
      ],
      [
        "Ġh",
        "old"
      ],
      [
        "Ġstr",
        "ugg"
      ],
      [
        "Ġro",
        "om"
      ],
      [
        "fortun",
        "ately"
      ],
      [
        "ell",
        "ent"
      ],
      [
        "Ġstr",
        "ange"
      ],
      [
        "Ġ20",
        "1"
      ],
      [
        "Ġh",
        "it"
      ],
      [
        "and",
        "a"
      ],
      [
        "Ġf",
        "ut"
      ],
      [
        "Ġwr",
        "iting"
      ],
      [
        "b",
        "all"
      ],
      [
        "Ġob",
        "s"
      ],
      [
        "A",
        "s"
      ],
      [
        "Ġv",
        "al"
      ],
      [
        "Ġn",
        "a"
      ],
      [
        "Ġc",
        "ap"
      ],
      [
        "T",
        "H"
      ],
      [
        "it",
        "a"
      ],
      [
        "tra",
        "ck"
      ],
      [
        "Ġs",
        "n"
      ],
      [
        "ĠP",
        "l"
      ],
      [
        "Ġo",
        "dd"
      ],
      [
        "Ġgi",
        "ven"
      ],
      [
        "R",
        "E"
      ],
      [
        "Ġto",
        "wn"
      ],
      [
        "al",
        "ian"
      ],
      [
        "Ġw",
        "estern"
      ],
      [
        "Ġover",
        "all"
      ],
      [
        "Ġde",
        "v"
      ],
      [
        "Ġli",
        "ving"
      ],
      [
        "Ġpart",
        "s"
      ],
      [
        "Ġd",
        "ou"
      ],
      [
        "a",
        "el"
      ],
      [
        "Ġex",
        "cept"
      ],
      [
        "v",
        "in"
      ],
      [
        "ag",
        "ed"
      ],
      [
        "Ġtal",
        "e"
      ],
      [
        "Ġcould",
        "n"
      ],
      [
        "sel",
        "ves"
      ],
      [
        "itt",
        "ing"
      ],
      [
        "ot",
        "ic"
      ],
      [
        "Ġmy",
        "st"
      ],
      [
        "Ġcra",
        "zy"
      ],
      [
        "olog",
        "y"
      ],
      [
        "Ġstart",
        "ed"
      ],
      [
        "k",
        "a"
      ],
      [
        "al",
        "ing"
      ],
      [
        "h",
        "ost"
      ],
      [
        "Ġp",
        "ur"
      ],
      [
        "z",
        "e"
      ],
      [
        "Ġa",
        "ge"
      ],
      [
        "Ġst",
        "e"
      ],
      [
        "am",
        "b"
      ],
      [
        "Ġhapp",
        "y"
      ],
      [
        "Ġb",
        "and"
      ],
      [
        "Ġcall",
        "ed"
      ],
      [
        "Ġmoder",
        "n"
      ],
      [
        "Ġm",
        "iddle"
      ],
      [
        "Ġl",
        "ine"
      ],
      [
        "ro",
        "du"
      ],
      [
        "Ġfor",
        "g"
      ],
      [
        "om",
        "p"
      ],
      [
        "Ġbecom",
        "es"
      ],
      [
        "Ġhum",
        "or"
      ],
      [
        "up",
        "id"
      ],
      [
        "ĠBrit",
        "ish"
      ],
      [
        "Ġ8",
        "0"
      ],
      [
        "Ġuni",
        "que"
      ],
      [
        "ic",
        "es"
      ],
      [
        "r",
        "on"
      ],
      [
        "he",
        "he"
      ],
      [
        "C",
        "h"
      ],
      [
        "Ġch",
        "o"
      ],
      [
        "Ġsub",
        "t"
      ],
      [
        "Ġhe",
        "ro"
      ],
      [
        "ĠO",
        "n"
      ],
      [
        "Ġshort",
        "s"
      ],
      [
        "Ġo",
        "cc"
      ],
      [
        "ant",
        "ic"
      ],
      [
        "od",
        "ram"
      ],
      [
        "Ġsomet",
        "imes"
      ],
      [
        "Ġpsy",
        "ch"
      ],
      [
        "h",
        "aps"
      ],
      [
        "Ġeff",
        "ort"
      ],
      [
        "en",
        "ces"
      ],
      [
        "Ġ",
        "ir"
      ],
      [
        "Ġfascin",
        "ating"
      ],
      [
        "m",
        "osp"
      ],
      [
        "ac",
        "ed"
      ],
      [
        "ok",
        "es"
      ],
      [
        "h",
        "ood"
      ],
      [
        "it",
        "ive"
      ],
      [
        "A",
        "l"
      ],
      [
        "nd",
        "ing"
      ],
      [
        "B",
        "e"
      ],
      [
        "Ġchar",
        "ming"
      ],
      [
        "C",
        "K"
      ],
      [
        "....",
        "...."
      ],
      [
        "nd",
        "s"
      ],
      [
        "Ġac",
        "ross"
      ],
      [
        "Ġag",
        "o"
      ],
      [
        "Ġwith",
        "in"
      ],
      [
        "ĠA",
        "m"
      ],
      [
        "Ġturn",
        "s"
      ],
      [
        "Ġend",
        "s"
      ],
      [
        "Ġcare",
        "er"
      ],
      [
        "HH",
        "HH"
      ],
      [
        "us",
        "ed"
      ],
      [
        "Ġsound",
        "track"
      ],
      [
        "Ġin",
        "i"
      ],
      [
        "Ġm",
        "a"
      ],
      [
        "Ġw",
        "on"
      ],
      [
        "n",
        "o"
      ],
      [
        "t",
        "on"
      ],
      [
        "Ġw",
        "ild"
      ],
      [
        "Ġdes",
        "pite"
      ],
      [
        "Ġwant",
        "s"
      ],
      [
        "Ġhour",
        "s"
      ],
      [
        "Ġm",
        "oney"
      ],
      [
        "ar",
        "ies"
      ],
      [
        "Ġwork",
        "ing"
      ],
      [
        "Ġh",
        "ilar"
      ],
      [
        "Ġb",
        "ar"
      ],
      [
        "Ġw",
        "ays"
      ],
      [
        "Ġb",
        "us"
      ],
      [
        "ĠChrist",
        "mas"
      ],
      [
        "t",
        "a"
      ],
      [
        "Ġqu",
        "ick"
      ],
      [
        "Ġfin",
        "ally"
      ],
      [
        "Ġbr",
        "other"
      ],
      [
        "Ġg",
        "ame"
      ],
      [
        "ĠJ",
        "ust"
      ],
      [
        "ich",
        "ael"
      ],
      [
        "ag",
        "on"
      ],
      [
        "Ġsil",
        "ly"
      ],
      [
        "Ġcont",
        "in"
      ],
      [
        "Ġf",
        "ig"
      ],
      [
        "Ġwr",
        "itten"
      ],
      [
        "app",
        "oint"
      ],
      [
        "am",
        "ed"
      ],
      [
        "Ġcertain",
        "ly"
      ],
      [
        "f",
        "ying"
      ],
      [
        "im",
        "p"
      ],
      [
        "V",
        "ery"
      ],
      [
        "Ġg",
        "e"
      ],
      [
        "re",
        "ad"
      ],
      [
        "Ġpre",
        "d"
      ],
      [
        "ur",
        "d"
      ],
      [
        "Ġincred",
        "ible"
      ],
      [
        "Ġst",
        "re"
      ],
      [
        "Ġf",
        "ree"
      ],
      [
        "S",
        "h"
      ],
      [
        "Ġtw",
        "ist"
      ],
      [
        "vel",
        "op"
      ],
      [
        "Ġwonder",
        "ful"
      ],
      [
        "o",
        "ved"
      ],
      [
        "Ġch",
        "ang"
      ],
      [
        "Ġgreat",
        "est"
      ],
      [
        "Ġat",
        "mosp"
      ],
      [
        "out",
        "h"
      ],
      [
        "m",
        "m"
      ],
      [
        "Ġex",
        "am"
      ],
      [
        "c",
        "on"
      ],
      [
        "Ġcon",
        "ne"
      ],
      [
        "Ġb",
        "unch"
      ],
      [
        "ĠA",
        "N"
      ],
      [
        "el",
        "ess"
      ],
      [
        "Ġb",
        "le"
      ],
      [
        "Ġche",
        "ck"
      ],
      [
        "in",
        "ation"
      ],
      [
        "Ġpro",
        "ject"
      ],
      [
        "W",
        "hen"
      ],
      [
        "Ġb",
        "o"
      ],
      [
        "!!!!",
        "!!!!"
      ],
      [
        "Ġmel",
        "odram"
      ],
      [
        "Ġl",
        "ar"
      ],
      [
        "ur",
        "y"
      ],
      [
        "Ġprem",
        "ise"
      ],
      [
        "Ġm",
        "ater"
      ],
      [
        "cc",
        "ess"
      ],
      [
        "ay",
        "be"
      ],
      [
        "ĠM",
        "c"
      ],
      [
        "Ġ-",
        "-"
      ],
      [
        "Ġsl",
        "ight"
      ],
      [
        "i",
        "od"
      ],
      [
        "Ġdel",
        "i"
      ],
      [
        "ĠE",
        "ng"
      ],
      [
        "g",
        "ic"
      ],
      [
        "Ġmov",
        "ing"
      ],
      [
        "Ġsh",
        "oot"
      ],
      [
        "ĠD",
        "on"
      ],
      [
        "augh",
        "ter"
      ],
      [
        "is",
        "ed"
      ],
      [
        "Ġr",
        "id"
      ],
      [
        "W",
        "e"
      ],
      [
        "Ġg",
        "ave"
      ],
      [
        "ard",
        "s"
      ],
      [
        "Ġb",
        "ody"
      ],
      [
        "is",
        "ing"
      ],
      [
        "is",
        "ter"
      ],
      [
        "Ġother",
        "s"
      ],
      [
        "eng",
        "th"
      ],
      [
        "Ġst",
        "upid"
      ],
      [
        "Ġlo",
        "s"
      ],
      [
        "Ġstart",
        "s"
      ],
      [
        "at",
        "ural"
      ],
      [
        "Ġso",
        "cial"
      ],
      [
        "Ġad",
        "m"
      ],
      [
        "l",
        "ic"
      ],
      [
        "Ġtou",
        "ch"
      ],
      [
        "av",
        "ing"
      ],
      [
        "y",
        "s"
      ],
      [
        "Ġra",
        "nd"
      ],
      [
        "Ġs",
        "us"
      ],
      [
        "ir",
        "c"
      ],
      [
        "Ġv",
        "ar"
      ],
      [
        "Ġc",
        "at"
      ],
      [
        "Ġcont",
        "r"
      ],
      [
        "Ġhapp",
        "ens"
      ],
      [
        "a",
        "ul"
      ],
      [
        "p",
        "iece"
      ],
      [
        "Ġpro",
        "v"
      ],
      [
        "S",
        "ome"
      ],
      [
        "Ġp",
        "ick"
      ],
      [
        "u",
        "ra"
      ],
      [
        "an",
        "ch"
      ],
      [
        "ĠL",
        "et"
      ],
      [
        "i",
        "ally"
      ],
      [
        "Ġb",
        "i"
      ],
      [
        "Ġd",
        "a"
      ],
      [
        "ill",
        "ed"
      ],
      [
        "Ġst",
        "ri"
      ],
      [
        "Ġf",
        "our"
      ],
      [
        "Ġh",
        "u"
      ],
      [
        "Ġfut",
        "ure"
      ],
      [
        "g",
        "an"
      ],
      [
        "or",
        "ld"
      ],
      [
        "Ġph",
        "ot"
      ],
      [
        "ous",
        "ly"
      ],
      [
        "Ġsim",
        "p"
      ],
      [
        "Ġmater",
        "ial"
      ],
      [
        "Ġparticul",
        "arly"
      ],
      [
        "u",
        "ct"
      ],
      [
        "Ġp",
        "ri"
      ],
      [
        "Ġj",
        "our"
      ],
      [
        "Ġn",
        "ature"
      ],
      [
        "Ġneed",
        "s"
      ],
      [
        "Ġs",
        "ent"
      ],
      [
        "Ġmyst",
        "ery"
      ],
      [
        "nd",
        "ed"
      ],
      [
        "g",
        "u"
      ],
      [
        "ĠP",
        "r"
      ],
      [
        "Ġsp",
        "ace"
      ],
      [
        "H",
        "e"
      ],
      [
        "Ġdis",
        "appoint"
      ],
      [
        "Ġdes",
        "c"
      ],
      [
        "em",
        "ent"
      ],
      [
        "Ġrom",
        "ance"
      ],
      [
        "er",
        "o"
      ],
      [
        "Ġgra",
        "nd"
      ],
      [
        "Ġhe",
        "ard"
      ],
      [
        "Ġhor",
        "ri"
      ],
      [
        "Ġrand",
        "om"
      ],
      [
        "w",
        "ise"
      ],
      [
        "Ġhe",
        "av"
      ],
      [
        "Ġdirect",
        "ion"
      ],
      [
        "Ġte",
        "en"
      ],
      [
        "Ġab",
        "s"
      ],
      [
        "ĠC",
        "an"
      ],
      [
        "Ġbr",
        "ing"
      ],
      [
        "Ġg",
        "ang"
      ],
      [
        "Ġ",
        "id"
      ],
      [
        "Ġs",
        "uck"
      ],
      [
        "Ġes",
        "c"
      ],
      [
        "Ġt",
        "ype"
      ],
      [
        "m",
        "b"
      ],
      [
        "Ġd",
        "ad"
      ],
      [
        "Ġsp",
        "ir"
      ],
      [
        "g",
        "o"
      ],
      [
        "Ġ",
        "ess"
      ],
      [
        "Ġa",
        "ut"
      ],
      [
        "ver",
        "se"
      ],
      [
        "Ġexpect",
        "ed"
      ],
      [
        "Ġincred",
        "ibly"
      ],
      [
        "fr",
        "iend"
      ],
      [
        "it",
        "ation"
      ],
      [
        "Ġt",
        "aking"
      ],
      [
        "Ġneed",
        "ed"
      ],
      [
        "ĠW",
        "ar"
      ],
      [
        "art",
        "h"
      ],
      [
        "Ġpict",
        "ure"
      ],
      [
        "Ġsong",
        "s"
      ],
      [
        "Ġ",
        "ult"
      ],
      [
        "he",
        "ad"
      ],
      [
        "av",
        "es"
      ],
      [
        "le",
        "ct"
      ],
      [
        "Ġlook",
        "ed"
      ],
      [
        "Ġwor",
        "se"
      ],
      [
        "j",
        "a"
      ],
      [
        "Ġ3",
        "0"
      ],
      [
        "Ġsupp",
        "ort"
      ],
      [
        "or",
        "able"
      ],
      [
        "Ġd",
        "amn"
      ],
      [
        "aaaa",
        "aaaa"
      ],
      [
        "v",
        "iously"
      ],
      [
        "T",
        "hat"
      ],
      [
        "llll",
        "llll"
      ],
      [
        "itt",
        "y"
      ],
      [
        "c",
        "o"
      ],
      [
        "Ġh",
        "op"
      ],
      [
        "Ġcult",
        "ure"
      ],
      [
        "Ġper",
        "iod"
      ],
      [
        "Ġhonest",
        "ly"
      ],
      [
        "l",
        "u"
      ],
      [
        "Ġbas",
        "ically"
      ],
      [
        "re",
        "aking"
      ],
      [
        "Ġu",
        "nd"
      ],
      [
        "Ġimag",
        "es"
      ],
      [
        "Ġs",
        "ign"
      ],
      [
        "I",
        "T"
      ],
      [
        "ĠE",
        "d"
      ],
      [
        "Ġro",
        "ck"
      ],
      [
        "Ġhist",
        "or"
      ],
      [
        "ak",
        "en"
      ],
      [
        "Ġthink",
        "ing"
      ],
      [
        "Ġext",
        "remely"
      ],
      [
        "Ġcre",
        "ep"
      ],
      [
        "Ġt",
        "reat"
      ],
      [
        "u",
        "el"
      ],
      [
        "Ġ",
        "ver"
      ],
      [
        "Ġthem",
        "selves"
      ],
      [
        "Ġanim",
        "ated"
      ],
      [
        "l",
        "a"
      ],
      [
        "ĠH",
        "ollywood"
      ],
      [
        "Ġam",
        "b"
      ],
      [
        "Ġknow",
        "n"
      ],
      [
        "ĠF",
        "rench"
      ],
      [
        "ĠM",
        "e"
      ],
      [
        "ĠK",
        "e"
      ],
      [
        "Ġsu",
        "ccess"
      ],
      [
        "Ġb",
        "are"
      ],
      [
        "Ġtal",
        "ent"
      ],
      [
        "Ġch",
        "ange"
      ],
      [
        "Ġle",
        "g"
      ],
      [
        "ĠF",
        "estival"
      ],
      [
        "ĠT",
        "r"
      ],
      [
        "ar",
        "ry"
      ],
      [
        "re",
        "nt"
      ],
      [
        "Ġl",
        "ang"
      ],
      [
        "Ġc",
        "ity"
      ],
      [
        "ili",
        "ar"
      ],
      [
        "Ġfor",
        "get"
      ],
      [
        "ver",
        "age"
      ],
      [
        "Ġsimp",
        "ly"
      ],
      [
        "Ġdet",
        "ail"
      ],
      [
        "Ġviol",
        "ence"
      ],
      [
        "Ġs",
        "ays"
      ],
      [
        "ul",
        "ly"
      ],
      [
        "Ġche",
        "ap"
      ],
      [
        "Ġpro",
        "g"
      ],
      [
        "O",
        "T"
      ],
      [
        "Ġon",
        "es"
      ],
      [
        "ur",
        "t"
      ],
      [
        "Ġre",
        "leas"
      ],
      [
        "pp",
        "ing"
      ],
      [
        "iel",
        "d"
      ],
      [
        "Ġop",
        "ening"
      ],
      [
        "l",
        "in"
      ],
      [
        "en",
        "ge"
      ],
      [
        "Ġexc",
        "ellent"
      ],
      [
        "Ġfav",
        "our"
      ],
      [
        "e",
        "le"
      ],
      [
        "Ġs",
        "ens"
      ],
      [
        "Ġg",
        "iving"
      ],
      [
        "Ġbeg",
        "inning"
      ],
      [
        "Ġun",
        "f"
      ],
      [
        "het",
        "ic"
      ],
      [
        "ĠG",
        "erman"
      ],
      [
        "Ġm",
        "id"
      ],
      [
        "as",
        "ed"
      ],
      [
        "Ġme",
        "ans"
      ],
      [
        "Ġl",
        "es"
      ],
      [
        "ĠE",
        "very"
      ],
      [
        "Ġal",
        "one"
      ],
      [
        "Ġam",
        "ount"
      ],
      [
        "he",
        "l"
      ],
      [
        "ant",
        "s"
      ],
      [
        "Ġsil",
        "ent"
      ],
      [
        "ĠG",
        "e"
      ],
      [
        "ac",
        "ing"
      ],
      [
        "Ġ",
        "ill"
      ],
      [
        "Ġapp",
        "ro"
      ],
      [
        "b",
        "b"
      ],
      [
        "Ġp",
        "ure"
      ],
      [
        "r",
        "up"
      ],
      [
        "ĠO",
        "r"
      ],
      [
        "E",
        "E"
      ],
      [
        "N",
        "o"
      ],
      [
        "Ġins",
        "ane"
      ],
      [
        "Ġtri",
        "es"
      ],
      [
        "ri",
        "es"
      ],
      [
        "A",
        "L"
      ],
      [
        "Ġimpress",
        "ive"
      ],
      [
        "Ġcom",
        "pl"
      ],
      [
        "Ġsay",
        "ing"
      ],
      [
        "Ġm",
        "ad"
      ],
      [
        "Ġun",
        "s"
      ],
      [
        "Ġkill",
        "er"
      ],
      [
        "Ġeas",
        "y"
      ],
      [
        "Ġquest",
        "ion"
      ],
      [
        "Ġcle",
        "arly"
      ],
      [
        "Ġturn",
        "ed"
      ],
      [
        "Ġen",
        "er"
      ],
      [
        "Ġd",
        "est"
      ],
      [
        "erest",
        "ing"
      ],
      [
        "Ġhilar",
        "ious"
      ],
      [
        "Ġe",
        "ye"
      ],
      [
        "Ġpolit",
        "ical"
      ],
      [
        "?",
        "!"
      ],
      [
        "Ġm",
        "ark"
      ],
      [
        "Ġgirl",
        "s"
      ],
      [
        "an",
        "ces"
      ],
      [
        "Ġsome",
        "how"
      ],
      [
        "Ġev",
        "ent"
      ],
      [
        "oooo",
        "oooo"
      ],
      [
        "b",
        "and"
      ],
      [
        "Ġp",
        "arent"
      ],
      [
        "Ġs",
        "uff"
      ],
      [
        "Ġm",
        "il"
      ],
      [
        "in",
        "i"
      ],
      [
        "y",
        "ond"
      ],
      [
        "ĠA",
        "d"
      ],
      [
        "p",
        "or"
      ],
      [
        "Ġt",
        "yp"
      ],
      [
        "ent",
        "y"
      ],
      [
        "as",
        "ter"
      ],
      [
        "F",
        "or"
      ],
      [
        "Ġb",
        "aby"
      ],
      [
        "Ġset",
        "ting"
      ],
      [
        "Ġcam",
        "p"
      ],
      [
        "im",
        "ate"
      ],
      [
        "f",
        "ic"
      ],
      [
        "Ġb",
        "er"
      ],
      [
        "Ġann",
        "oy"
      ],
      [
        "Ġj",
        "okes"
      ],
      [
        "Ġcon",
        "cer"
      ],
      [
        "Ġd",
        "ull"
      ],
      [
        "g",
        "a"
      ],
      [
        "Ġlong",
        "er"
      ],
      [
        "Ġpower",
        "ful"
      ],
      [
        "ĠJ",
        "ack"
      ],
      [
        "Ġde",
        "velop"
      ],
      [
        "Ġhe",
        "ar"
      ],
      [
        "Ġres",
        "pect"
      ],
      [
        "Ġsoci",
        "ety"
      ],
      [
        "Ġst",
        "ay"
      ],
      [
        "Ġatt",
        "ention"
      ],
      [
        "Ġim",
        "m"
      ],
      [
        "iz",
        "ing"
      ],
      [
        "Ġport",
        "ray"
      ],
      [
        "Ġd",
        "ig"
      ],
      [
        "ĠP",
        "e"
      ],
      [
        "Ġc",
        "ost"
      ],
      [
        "Ġinv",
        "est"
      ],
      [
        "ar",
        "b"
      ],
      [
        "Ġp",
        "ull"
      ],
      [
        "Ġto",
        "wards"
      ],
      [
        "ĠB",
        "er"
      ],
      [
        "Ġword",
        "s"
      ],
      [
        "an",
        "na"
      ],
      [
        "Ġreal",
        "ity"
      ],
      [
        "Ġexper",
        "iment"
      ],
      [
        "ĠS",
        "te"
      ],
      [
        "Ġg",
        "un"
      ],
      [
        "Ġrom",
        "antic"
      ],
      [
        "T",
        "ube"
      ],
      [
        "c",
        "ent"
      ],
      [
        "Ġsur",
        "v"
      ],
      [
        "ad",
        "es"
      ],
      [
        "r",
        "is"
      ],
      [
        "Ġg",
        "ag"
      ],
      [
        "ar",
        "re"
      ],
      [
        "Ġg",
        "host"
      ],
      [
        "Ġfant",
        "astic"
      ],
      [
        "Ġpost",
        "er"
      ],
      [
        "ĠN",
        "e"
      ],
      [
        "Ġfilmm",
        "aking"
      ],
      [
        "er",
        "v"
      ],
      [
        "ens",
        "ion"
      ],
      [
        "ĠD",
        "is"
      ],
      [
        "Ġra",
        "re"
      ],
      [
        "orge",
        "ous"
      ],
      [
        "au",
        "ght"
      ],
      [
        "J",
        "ust"
      ],
      [
        "Ġp",
        "os"
      ],
      [
        "Ġbr",
        "illi"
      ],
      [
        "Ġf",
        "a"
      ],
      [
        "es",
        "ome"
      ],
      [
        "Ġrun",
        "ning"
      ],
      [
        "k",
        "an"
      ],
      [
        "Ġret",
        "urn"
      ],
      [
        "b",
        "ack"
      ],
      [
        "Ġd",
        "ue"
      ],
      [
        "ir",
        "t"
      ],
      [
        "Ġj",
        "e"
      ],
      [
        "ĠG",
        "reat"
      ],
      [
        "illi",
        "am"
      ],
      [
        "z",
        "a"
      ],
      [
        "Ġ",
        "ut"
      ],
      [
        "Ġop",
        "en"
      ],
      [
        "Ġm",
        "aj"
      ],
      [
        "Ġso",
        "on"
      ],
      [
        "Ġposs",
        "ible"
      ],
      [
        "ion",
        "ally"
      ],
      [
        "ĠL",
        "ove"
      ],
      [
        "ĠD",
        "avid"
      ],
      [
        "im",
        "ately"
      ],
      [
        "Ġmaster",
        "piece"
      ],
      [
        "Ġwork",
        "ed"
      ],
      [
        "ill",
        "s"
      ],
      [
        "Ġback",
        "ground"
      ],
      [
        "Ġus",
        "ual"
      ],
      [
        "Ġres",
        "ult"
      ],
      [
        "Ġem",
        "p"
      ],
      [
        "Ġin",
        "form"
      ],
      [
        "as",
        "y"
      ],
      [
        "ĠV",
        "ery"
      ],
      [
        "ĠW",
        "ith"
      ],
      [
        "ĠHow",
        "ever"
      ],
      [
        "Ġinvol",
        "ved"
      ],
      [
        "ip",
        "s"
      ],
      [
        "ĠJapan",
        "ese"
      ],
      [
        "oo",
        "se"
      ],
      [
        "Ġcom",
        "b"
      ],
      [
        "Ġatmosp",
        "here"
      ],
      [
        "et",
        "er"
      ],
      [
        "Ġfilmmak",
        "er"
      ],
      [
        "Ġas",
        "pect"
      ],
      [
        "W",
        "hy"
      ],
      [
        "Ġcol",
        "or"
      ],
      [
        "Ġlead",
        "s"
      ],
      [
        "um",
        "ber"
      ],
      [
        "Ġcinem",
        "atic"
      ],
      [
        "oo",
        "p"
      ],
      [
        "Ġsex",
        "ual"
      ],
      [
        "Ġsome",
        "what"
      ],
      [
        "Ġev",
        "il"
      ],
      [
        "Ġre",
        "d"
      ],
      [
        "Ġlove",
        "ly"
      ],
      [
        "Ġthe",
        "at"
      ],
      [
        "Ġem",
        "b"
      ],
      [
        "op",
        "h"
      ],
      [
        "us",
        "band"
      ],
      [
        "Ġtot",
        "ally"
      ],
      [
        "Ġsim",
        "ilar"
      ],
      [
        "Ġ7",
        "0"
      ],
      [
        "I",
        "I"
      ],
      [
        "i",
        "est"
      ],
      [
        "Ġwould",
        "n"
      ],
      [
        "Ġaw",
        "ful"
      ],
      [
        "Ġsit",
        "u"
      ],
      [
        "l",
        "o"
      ],
      [
        "Ġf",
        "ans"
      ],
      [
        "Ġproble",
        "m"
      ],
      [
        "Ġn",
        "g"
      ],
      [
        "Ġele",
        "ments"
      ],
      [
        "Ġse",
        "ver"
      ],
      [
        "Ġf",
        "ive"
      ],
      [
        "Ġfeature",
        "s"
      ],
      [
        "Ġcart",
        "oon"
      ],
      [
        "ac",
        "y"
      ],
      [
        "Ġext",
        "ra"
      ],
      [
        "e",
        "en"
      ],
      [
        "Ġsupp",
        "osed"
      ],
      [
        "Ġcr",
        "it"
      ],
      [
        "Ġno",
        "vel"
      ],
      [
        "Ġcle",
        "ar"
      ],
      [
        "ate",
        "ver"
      ],
      [
        "un",
        "ny"
      ],
      [
        "te",
        "xt"
      ],
      [
        "Ġfam",
        "iliar"
      ],
      [
        "i",
        "or"
      ],
      [
        "h",
        "ic"
      ],
      [
        "Ġy",
        "es"
      ],
      [
        "Ġd",
        "aughter"
      ],
      [
        "An",
        "other"
      ],
      [
        "Ġide",
        "as"
      ],
      [
        "il",
        "le"
      ],
      [
        "O",
        "M"
      ],
      [
        "ĠJ",
        "ames"
      ],
      [
        "Ġint",
        "rig"
      ],
      [
        "A",
        "nd"
      ],
      [
        "Ġfair",
        "ly"
      ],
      [
        "Ġl",
        "im"
      ],
      [
        "Ġte",
        "am"
      ],
      [
        "Ġad",
        "vent"
      ],
      [
        "Ġadapt",
        "ation"
      ],
      [
        "ĠYou",
        "Tube"
      ],
      [
        "\"",
        ","
      ],
      [
        "ress",
        "ion"
      ],
      [
        "Ġe",
        "qu"
      ],
      [
        "Ġprot",
        "agon"
      ],
      [
        "ĠW",
        "ell"
      ],
      [
        "Ġth",
        "ird"
      ],
      [
        "Ġgl",
        "ad"
      ],
      [
        "Ġun",
        "c"
      ],
      [
        "g",
        "es"
      ],
      [
        "re",
        "st"
      ],
      [
        "Ġra",
        "c"
      ],
      [
        "Ġsever",
        "al"
      ],
      [
        "ĠT",
        "o"
      ],
      [
        "Ġs",
        "um"
      ],
      [
        "Ġforg",
        "ot"
      ],
      [
        "Ġhand",
        "s"
      ],
      [
        "un",
        "ning"
      ],
      [
        "Ġt",
        "one"
      ],
      [
        "Ġe",
        "t"
      ],
      [
        "ort",
        "s"
      ],
      [
        "m",
        "ark"
      ],
      [
        "w",
        "ar"
      ],
      [
        "Ġd",
        "ance"
      ],
      [
        "Ġdec",
        "ided"
      ],
      [
        "Ġgenuine",
        "ly"
      ],
      [
        "Ġend",
        "ed"
      ],
      [
        "res",
        "ent"
      ],
      [
        "D",
        "e"
      ],
      [
        "ĠSt",
        "ill"
      ],
      [
        "Ġe",
        "ar"
      ],
      [
        "Ġmess",
        "age"
      ],
      [
        "Ġpol",
        "ice"
      ],
      [
        "H",
        "ow"
      ],
      [
        "s",
        "w"
      ],
      [
        "Ġ20",
        "0"
      ],
      [
        "ut",
        "ed"
      ],
      [
        "b",
        "s"
      ],
      [
        "ĠT",
        "om"
      ],
      [
        "W",
        "ell"
      ],
      [
        "Ġte",
        "le"
      ],
      [
        "ge",
        "nd"
      ],
      [
        "Ġwho",
        "se"
      ],
      [
        "on",
        "ic"
      ],
      [
        "Ġreleas",
        "ed"
      ],
      [
        "Ġp",
        "ay"
      ],
      [
        "Ġrec",
        "ord"
      ],
      [
        "Ġp",
        "lease"
      ],
      [
        "S",
        "T"
      ],
      [
        "Ġsound",
        "s"
      ],
      [
        "Ġsurpris",
        "ingly"
      ],
      [
        "Ġwat",
        "er"
      ],
      [
        "in",
        "ing"
      ],
      [
        "Ġok",
        "ay"
      ],
      [
        "Ġfavour",
        "ite"
      ],
      [
        "Ġst",
        "arring"
      ],
      [
        "ct",
        "or"
      ],
      [
        "Ġfem",
        "ale"
      ],
      [
        "Ġg",
        "em"
      ],
      [
        "Ġiss",
        "ues"
      ],
      [
        "Ġm",
        "ult"
      ],
      [
        "Ġc",
        "irc"
      ],
      [
        "st",
        "al"
      ],
      [
        "Ġre",
        "ve"
      ],
      [
        "Ġf",
        "ire"
      ],
      [
        "Ġh",
        "usband"
      ],
      [
        "ĠM",
        "ichael"
      ],
      [
        "Ġr",
        "ich"
      ],
      [
        "Ġact",
        "ress"
      ],
      [
        "Ġspe",
        "c"
      ],
      [
        "Ġexpect",
        "ing"
      ],
      [
        "ĠP",
        "er"
      ],
      [
        "ub",
        "lic"
      ],
      [
        "u",
        "h"
      ],
      [
        "Ġap",
        "art"
      ],
      [
        "ill",
        "ing"
      ],
      [
        "w",
        "o"
      ],
      [
        "Ġde",
        "but"
      ],
      [
        "Ġshow",
        "ing"
      ],
      [
        "um",
        "a"
      ],
      [
        "Ġsequ",
        "el"
      ],
      [
        "Ġeng",
        "aging"
      ],
      [
        "Ġf",
        "ell"
      ],
      [
        "s",
        "p"
      ],
      [
        "us",
        "ion"
      ],
      [
        "hy",
        "s"
      ],
      [
        "ĠE",
        "x"
      ],
      [
        "r",
        "it"
      ],
      [
        "Ġart",
        "ist"
      ],
      [
        "O",
        "W"
      ],
      [
        "Ġspe",
        "ak"
      ],
      [
        "o",
        "or"
      ],
      [
        "ĠE",
        "ven"
      ],
      [
        "Ġloc",
        "al"
      ],
      [
        "Ġm",
        "ent"
      ],
      [
        "I",
        "L"
      ],
      [
        "V",
        "D"
      ],
      [
        "ick",
        "s"
      ],
      [
        "ĠL",
        "ike"
      ],
      [
        "il",
        "t"
      ],
      [
        "Ġ",
        "."
      ],
      [
        "Ġus",
        "ing"
      ],
      [
        "Ġst",
        "age"
      ],
      [
        "Ġal",
        "though"
      ],
      [
        "et",
        "h"
      ],
      [
        "ĠD",
        "an"
      ],
      [
        "Ġhow",
        "ever"
      ],
      [
        "m",
        "ore"
      ],
      [
        "ĠEng",
        "lish"
      ],
      [
        "Ġmed",
        "i"
      ],
      [
        "Ġa",
        "k"
      ],
      [
        "Ġw",
        "in"
      ],
      [
        "g",
        "ing"
      ],
      [
        "al",
        "a"
      ],
      [
        "ress",
        "ed"
      ],
      [
        "Ġtr",
        "ad"
      ],
      [
        "ĠC",
        "on"
      ],
      [
        "ĠI",
        "N"
      ],
      [
        "m",
        "en"
      ],
      [
        "Ġt",
        "on"
      ],
      [
        "ĠH",
        "all"
      ],
      [
        "ĠP",
        "ro"
      ],
      [
        "pect",
        "ive"
      ],
      [
        "o",
        "id"
      ],
      [
        "Ġk",
        "n"
      ],
      [
        "Ġr",
        "ad"
      ],
      [
        "ĠW",
        "hen"
      ],
      [
        "ĠG",
        "ood"
      ],
      [
        "ic",
        "ult"
      ],
      [
        "Ġmaj",
        "or"
      ],
      [
        "Ġdel",
        "ight"
      ],
      [
        "Ġd",
        "umb"
      ],
      [
        "Ġp",
        "orn"
      ],
      [
        "Ġbe",
        "yond"
      ],
      [
        "Ġr",
        "u"
      ],
      [
        "Ġentire",
        "ly"
      ],
      [
        "Ġfr",
        "ont"
      ],
      [
        "Ġind",
        "e"
      ],
      [
        "Ġup",
        "on"
      ],
      [
        "atch",
        "ing"
      ],
      [
        "Ġimag",
        "ine"
      ],
      [
        "Ġl",
        "ength"
      ],
      [
        "arent",
        "ly"
      ],
      [
        "all",
        "enge"
      ],
      [
        "th",
        "at"
      ],
      [
        "Ġener",
        "gy"
      ],
      [
        "r",
        "ow"
      ],
      [
        "Ġeffect",
        "ive"
      ],
      [
        "Ġke",
        "pt"
      ],
      [
        "Ġme",
        "et"
      ],
      [
        "Ġ19",
        "7"
      ],
      [
        "Ġappreci",
        "ate"
      ],
      [
        "ĠF",
        "e"
      ],
      [
        "Ġfilm",
        "ed"
      ],
      [
        "ĠJ",
        "e"
      ],
      [
        "ven",
        "ge"
      ],
      [
        "u",
        "ing"
      ],
      [
        "Ġpl",
        "an"
      ],
      [
        "Ġb",
        "ox"
      ],
      [
        "m",
        "ist"
      ],
      [
        "Ġser",
        "ious"
      ],
      [
        "Ġj",
        "ump"
      ],
      [
        "Ġsle",
        "ep"
      ],
      [
        "ĠO",
        "F"
      ],
      [
        "Ġpot",
        "ential"
      ],
      [
        "Ġs",
        "oul"
      ],
      [
        "Ġsh",
        "ock"
      ],
      [
        "Ġt",
        "re"
      ],
      [
        "anc",
        "ing"
      ],
      [
        "aut",
        "y"
      ],
      [
        "p",
        "ar"
      ],
      [
        "Ġam",
        "ong"
      ],
      [
        "Ġlar",
        "ge"
      ],
      [
        "ag",
        "anda"
      ],
      [
        "Ġl",
        "ol"
      ],
      [
        "st",
        "em"
      ],
      [
        "Ġpoint",
        "s"
      ],
      [
        "Ġde",
        "al"
      ],
      [
        "Ġind",
        "ust"
      ],
      [
        "Ġinsp",
        "ir"
      ],
      [
        "Ġg",
        "orgeous"
      ],
      [
        "inem",
        "a"
      ],
      [
[...]
