{
  "version": "1.0",
  "truncation": null,
  "padding": null,
  "added_tokens": [
    {
      "id": 0,
      "content": "<PAD>",
      "single_word": false,
      "lstrip": false,
      "rstrip": false,
      "normalized": false,
      "special": true
    },
    {
      "id": 1,
      "content": "<BOS>",
      "single_word": false,
      "lstrip": false,
      "rstrip": false,
      "normalized": false,
      "special": true
    },
    {
      "id": 2,
      "content": "<EOS>",
      "single_word": false,
      "lstrip": false,
      "rstrip": false,
      "normalized": false,
      "special": true
    }
  ],
  "normalizer": null,
  "pre_tokenizer": {
    "type": "ByteLevel",
    "add_prefix_space": false,
    "trim_offsets": true,
    "use_regex": true
  },
  "post_processor": null,
  "decoder": {
    "type": "ByteLevel",
    "add_prefix_space": true,
    "trim_offsets": true,
    "use_regex": true
  },
  "model": {
    "type": "BPE",
    "dropout": null,
    "unk_token": null,
    "continuing_subword_prefix": null,
    "end_of_word_suffix": null,
    "fuse_unk": false,
    "byte_fallback": false,
    "ignore_merges": false,
    "vocab": {
      "<PAD>": 0,
      "<BOS>": 1,
      "<EOS>": 2,
      "!": 3,
      "\"": 4,
      "#": 5,
      "$": 6,
      "%": 7,
      "&": 8,
      "'": 9,
      "(": 10,
      ")": 11,
      "*": 12,
      "+": 13,
      ",": 14,
      "-": 15,
      ".": 16,
      "/": 17,
      "0": 18,
      "1": 19,
      "2": 20,
      "3": 21,
      "4": 22,
      "5": 23,
      "6": 24,
      "7": 25,
      "8": 26,
      "9": 27,
      ":": 28,
      ";": 29,
      "<": 30,
      "=": 31,
      ">": 32,
      "?": 33,
      "@": 34,
      "A": 35,
      "B": 36,
      "C": 37,
      "D": 38,
      "E": 39,
      "F": 40,
      "G": 41,
      "H": 42,
      "I": 43,
      "J": 44,
      "K": 45,
      "L": 46,
      "M": 47,
      "N": 48,
      "O": 49,
      "P": 50,
      "Q": 51,
      "R": 52,
      "S": 53,
      "T": 54,
      "U": 55,
      "V": 56,
      "W": 57,
      "X": 58,
      "Y": 59,
      "Z": 60,
      "[": 61,
      "\\": 62,
      "]": 63,
      "^": 64,
      "_": 65,
      "a": 66,
      "b": 67,
      "c": 68,
      "d": 69,
      "e": 70,
      "f": 71,
      "g": 72,
      "h": 73,
      "i": 74,
      "j": 75,
      "k": 76,
      "l": 77,
      "m": 78,
      "n": 79,
      "o": 80,
      "p": 81,
      "q": 82,
      "r": 83,
      "s": 84,
      "t": 85,
      "u": 86,
      "v": 87,
      "w": 88,
      "x": 89,
      "y": 90,
      "z": 91,
      "{": 92,
      "|": 93,
      "}": 94,
      "~": 95,
      "¡": 96,
      "¢": 97,
      "£": 98,
      "¤": 99,
      "¥": 100,
      "¦": 101,
      "§": 102,
      "¨": 103,
      "©": 104,
      "ª": 105,
      "«": 106,
      "¬": 107,
      "®": 108,
      "¯": 109,
      "°": 110,
      "±": 111,
      "²": 112,
      "³": 113,
      "´": 114,
      "µ": 115,
      "¶": 116,
      "·": 117,
      "¸": 118,
      "¹": 119,
      "º": 120,
      "»": 121,
      "¼": 122,
      "½": 123,
      "¾": 124,
      "¿": 125,
      "Â": 126,
      "Ã": 127,
      "Ä": 128,
      "Å": 129,
      "Ë": 130,
      "Ì": 131,
      "á": 132,
      "â": 133,
      "ã": 134,
      "ï": 135,
      "ð": 136,
      "Ġ": 137,
      "Ģ": 138,
      "ģ": 139,
      "Ĥ": 140,
      "ĥ": 141,
      "Ħ": 142,
      "ħ": 143,
      "Ĩ": 144,
      "ĩ": 145,
      "Ī": 146,
      "ī": 147,
      "Ĭ": 148,
      "ĭ": 149,
      "Į": 150,
      "į": 151,
      "İ": 152,
      "ı": 153,
      "Ĳ": 154,
      "ĳ": 155,
      "Ĵ": 156,
      "ĵ": 157,
      "Ķ": 158,
      "ķ": 159,
      "ĸ": 160,
      "Ĺ": 161,
      "ĺ": 162,
      "Ļ": 163,
      "ļ": 164,
      "Ľ": 165,
      "ľ": 166,
      "Ŀ": 167,
      "ŀ": 168,
      "Ł": 169,
      "ł": 170,
      "Ń": 171,
      "Ġt": 172,
      "Ġa": 173,
      "in": 174,
      "Ġth": 175,
      "er": 176,
      "Ġs": 177,
      "Ġo": 178,
      "Ġthe": 179,
      "Ġw": 180,
      "re": 181,
      "is": 182,
      "at": 183,
      "nd": 184,
      "Ġm": 185,
      "it": 186,
      "ing": 187,
      "Ġf": 188,
      "Ġb": 189,
      "en": 190,
      "es": 191,
      "Ġc": 192,
      "Ġh": 193,
      "on": 194,
      "ou": 195,
      "Ġof": 196,
      "or": 197,
      "an": 198,
      "Ġand": 199,
      "al": 200,
      "Ġp": 201,
      "Ġd": 202,
      "Ġto": 203,
      "ed": 204,
      "ar": 205,
      "Ġl": 206,
      "Ġin": 207,
      "ly": 208,
      "Ġe": 209,
      "il": 210,
      "as": 211,
      "ic": 212,
      "om": 213,
      "ĠI": 214,
      "âĢ": 215,
      "ut": 216,
      "Ġg": 217,
      "ve": 218,
      "st": 219,
      "Ġit": 220,
      "le": 221,
      "Ġbe": 222,
      "Ġn": 223,
      "Ġis": 224,
      "ow": 225,
      "ot": 226,
      "im": 227,
      "ion": 228,
      "ver": 229,
      "Ġthat": 230,
      "Ġwh": 231,
      "ent": 232,
      "Ġre": 233,
      "el": 234,
      "ch": 235,
      "Ġon": 236,
      "Ġy": 237,
      "ct": 238,
      "et": 239,
      "ay": 240,
      "Ġthis": 241,
      "Ġst": 242,
      "Ġyou": 243,
      "Th": 244,
      "ce": 245,
      "Ġmo": 246,
      "âĢĻ": 247,
      "Ġu": 248,
      "ad": 249,
      "gh": 250,
      "se": 251,
      "Ġli": 252,
      "Ġfor": 253,
      "id": 254,
      "ith": 255,
      "Ġan": 256,
      "Ġal": 257,
      "am": 258,
      "'s": 259,
      "ke": 260,
      "ur": 261,
      "ol": 262,
      "ir": 263,
      "th": 264,
      "Ġwith": 265,
      "Ġas": 266,
      "ie": 267,
      "ul": 268,
      "ere": 269,
      "Ġsh": 270,
      "ilm": 271,
      "ter": 272,
      "ld": 273,
      "Ġfilm": 274,
      "ra": 275,
      "ro": 276,
      "ĠA": 277,
      "if": 278,
      "est": 279,
      "Ġbut": 280,
      "Ġse": 281,
      "ĠTh": 282,
      "Ġso": 283,
      "Ġme": 284,
      "Ġwas": 285,
      "ck": 286,
      "Ġha": 287,
      "ally": 288,
      "ĠS": 289,
      "Ġj": 290,
      "od": 291,
      "Ġab": 292,
      "Ġmy": 293,
      "ist": 294,
      "ill": 295,
      "Ġhe": 296,
      "Ġex": 297,
      "um": 298,
      "ust": 299,
      "Ġlo": 300,
      "em": 301,
      "out": 302,
      "op": 303,
      "ess": 304,
      "ak": 305,
      "ght": 306,
      "Ġch": 307,
      "ers": 308,
      "ation": 309,
      "Ġever": 310,
      "Ġdo": 311,
      "Ġfr": 312,
      "ag": 313,
      "ĠB": 314,
      "ri": 315,
      "Ġnot": 316,
      "Ġde": 317,
      "Ġcom": 318,
      "ĠM": 319,
      "ant": 320,
      "Ġk": 321,
      "Ġat": 322,
      "Ġcon": 323,
      "Ġi": 324,
      "un": 325,
      "Ġone": 326,
      "Ġwor": 327,
      "Ġall": 328,
      "ies": 329,
      "ĠW": 330,
      "pe": 331,
      "Ġlike": 332,
      "us": 333,
      "Ġne": 334,
      "Ġare": 335,
      "Ġv": 336,
      "art": 337,
      "atch": 338,
      "ould": 339,
      "ive": 340,
      "ure": 341,
      "Ġhis": 342,
      "ime": 343,
      "ain": 344,
      "ab": 345,
      "Ġabout": 346,
      "Ġsom": 347,
      "fe": 348,
      "ĠThe": 349,
      "rou": 350,
      "ĠH": 351,
      "..": 352,
      "Ġfe": 353,
      "and": 354,
      "Ġmov": 355,
      "Ġwe": 356,
      "ity": 357,
      "os": 358,
      "Ġjust": 359,
      "ell": 360,
      "ĠC": 361,
      "'t": 362,
      "ate": 363,
      "Ġcan": 364,
      "ap": 365,
      "Ġgo": 366,
      "Ġsu": 367,
      "ĠT": 368,
      "qu": 369,
      "Ġint": 370,
      "Ġhave": 371,
      "Ġr": 372,
      "Ġun": 373,
      "Ġfrom": 374,
      "Ġby": 375,
      "ast": 376,
      "ind": 377,
      "Ġim": 378,
      "ong": 379,
      "Ġwatch": 380,
      "one": 381,
      "Ġwho": 382,
      "ĠIt": 383,
      "ire": 384,
      "ven": 385,
      "pp": 386,
      "act": 387,
      "Ġor": 388,
      "reat": 389,
      "ous": 390,
      "Ġthey": 391,
      "ĠF": 392,
      "res": 393,
      "ort": 394,
      "our": 395,
      "ard": 396,
      "Ġevery": 397,
      "Ġtr": 398,
      "Ġout": 399,
      "Ġhow": 400,
      "Ġman": 401,
      "Ġwhat": 402,
      "ĠD": 403,
      "Ġtime": 404,
      "ory": 405,
      "ore": 406,
      "Ġits": 407,
      "her": 408,
      "au": 409,
      "ight": 410,
      "Ġpro": 411,
      "ok": 412,
      "Ġ(": 413,
      "ig": 414,
      "ear": 415,
      "Ġmore": 416,
      "Ġsc": 417,
      "ence": 418,
      "ĠP": 419,
      "ĠL": 420,
      "ack": 421,
      "Ġmost": 422,
      "all": 423,
      "ite": 424,
      "Ġfeel": 425,
      "hing": 426,
      "Ġpl": 427,
      "Ġmovie": 428,
      "Ġpe": 429,
      "Ġkn": 430,
      "Ġup": 431,
      "Ġbec": 432,
      "ial": 433,
      "Ġtheir": 434,
      "Ġinto": 435,
      "Ġwhen": 436,
      "ge": 437,
      "ĠR": 438,
      "ĠG": 439,
      "Ġper": 440,
      "Ġsome": 441,
      "ich": 442,
      "Ġlife": 443,
      "Ġlove": 444,
      "per": 445,
      "ake": 446,
      "Ġle": 447,
      "ib": 448,
      "ink": 449,
      "Ġthem": 450,
      "Ġhas": 451,
      "uch": 452,
      "ople": 453,
      "og": 454,
      "ĠE": 455,
      "ame": 456,
      "ays": 457,
      "ĠO": 458,
      "The": 459,
      "pl": 460,
      "âĢ¦": 461,
      "are": 462,
      "Ġany": 463,
      "av": 464,
      "nder": 465,
      "ide": 466,
      "ĠJ": 467,
      "ical": 468,
      "Ġpeople": 469,
      "Ġknow": 470,
      "iv": 471,
      "Ġno": 472,
      "ass": 473,
      "Ġthan": 474,
      "Ġyour": 475,
      "pt": 476,
      "Ġshow": 477,
      "ful": 478,
      "ĠN": 479,
      "Ġar": 480,
      "very": 481,
      "âĢľ": 482,
      "Ġget": 483,
      "Ġact": 484,
      "Ġcl": 485,
      "ry": 486,
      "âĢĿ": 487,
      "elf": 488,
      "iz": 489,
      "Ġif": 490,
      "Ġam": 491,
      "Ġmuch": 492,
      "Ġthere": 493,
      "ary": 494,
      "ud": 495,
      "Ġ1": 496,
      "Ġonly": 497,
      "ause": 498,
      "ose": 499,
      "ade": 500,
      "Ġsee": 501,
      "ine": 502,
      "Ġeven": 503,
      "able": 504,
      "Ġwould": 505,
      "Ġover": 506,
      "Ġwill": 507,
      "Ġ\"": 508,
      "ish": 509,
      "ings": 510,
      "rough": 511,
      "Ġus": 512,
      "ac": 513,
      "Ġher": 514,
      "ment": 515,
      "Ġthink": 516,
      "Ġen": 517,
      "age": 518,
      "ach": 519,
      "Ġway": 520,
      "Ġem": 521,
      "Ġworld": 522,
      "ance": 523,
      "ne": 524,
      "ep": 525,
      "ans": 526,
      "Ġchar": 527,
      "ile": 528,
      "Ġcomp": 529,
      "ace": 530,
      "Ġgreat": 531,
      "Ġthrough": 532,
      "ang": 533,
      "Ġpo": 534,
      "uck": 535,
      "aut": 536,
      "ĠK": 537,
      "Ġreally": 538,
      "ting": 539,
      "Ġbecause": 540,
      "ress": 541,
      "orm": 542,
      "Ġsp": 543,
      "Ġdon": 544,
      "inem": 545,
      "so": 546,
      "Ġreal": 547,
      "Ġag": 548,
      "Ġyear": 549,
      "Ġnever": 550,
      "Ġwhich": 551,
      "ions": 552,
      "Ġoth": 553,
      "Ġqu": 554,
      "ue": 555,
      "irst": 556,
      "Ġwork": 557,
      "Ġaf": 558,
      "thing": 559,
      "Ġend": 560,
      "aking": 561,
      "ated": 562,
      "Ġsomet": 563,
      "Ġbet": 564,
      "Ġhad": 565,
      "ious": 566,
      "nt": 567,
      "Ġbest": 568,
      "ual": 569,
      "Ġbeing": 570,
      "akes": 571,
      "Ġbeen": 572,
      "ru": 573,
      "Ġcharact": 574,
      "te": 575,
      "ath": 576,
      "Ġimp": 577,
      "ip": 578,
      "Ġmade": 579,
      "Ġhum": 580,
      "ces": 581,
      "Ġbeaut": 582,
      "ome": 583,
      "Ġseen": 584,
      "Ġbl": 585,
      "Ġstory": 586,
      "Ġwant": 587,
      "ough": 588,
      "Ġcinem": 589,
      "ound": 590,
      "Ġhim": 591,
      "Ġfirst": 592,
      "ice": 593,
      "Ġcould": 594,
      "Ġdis": 595,
      "Ġdid": 596,
      "ating": 597,
      "ves": 598,
      "Ġpre": 599,
      "iew": 600,
      "'m": 601,
      "Ġspe": 602,
      "ost": 603,
      "ĠY": 604,
      "we": 605,
      "ph": 606,
      "ild": 607,
      "round": 608,
      "Ġpart": 609,
      "Ġ2": 610,
      "Ġad": 611,
      "Ġdes": 612,
      "ark": 613,
      "Ġwhere": 614,
      "Ġfilms": 615,
      "...": 616,
      "Ġother": 617,
      "ult": 618,
      "Ġdoc": 619,
      "'ve": 620,
      "Ġser": 621,
      "ll": 622,
      "Ġ-": 623,
      "aw": 624,
      "ond": 625,
      "Ġsay": 626,
      "itt": 627,
      "oy": 628,
      "ument": 629,
      "ism": 630,
      "iful": 631,
      "Ġbr": 632,
      "fect": 633,
      "Ġrem": 634,
      "!!": 635,
      "ict": 636,
      "own": 637,
      "Ġsomething": 638,
      "ick": 639,
      "ert": 640,
      "form": 641,
      "Ġgood": 642,
      "fer": 643,
      "irect": 644,
      "Ġvery": 645,
      "Ġtw": 646,
      "Ġte": 647,
      "Ġback": 648,
      "ning": 649,
      "Ġmake": 650,
      "oc": 651,
      "red": 652,
      "ens": 653,
      "Ġpers": 654,
      "Ġunder": 655,
      "ood": 656,
      "ving": 657,
      "Ġalso": 658,
      "Ġdoes": 659,
      "Ġinter": 660,
      "Ġep": 661,
      "Ġent": 662,
      "Ġnow": 663,
      "Ġour": 664,
      "cc": 665,
      "ness": 666,
      "Ġlook": 667,
      "Ġbeautiful": 668,
      "low": 669,
      "ci": 670,
      "Ġthese": 671,
      "Ġlong": 672,
      "ute": 673,
      "sh": 674,
      "Ġstill": 675,
      "ĠâĢľ": 676,
      "Ġfin": 677,
      "Ġafter": 678,
      "Ġhere": 679,
      "Ġwere": 680,
      "Ġmin": 681,
      "Ġmom": 682,
      "Ġdirect": 683,
      "az": 684,
      "Ġri": 685,
      "Ġthen": 686,
      "ible": 687,
      "Ġart": 688,
      "ually": 689,
      "wn": 690,
      "Ġra": 691,
      "ian": 692,
      "alk": 693,
      "old": 694,
      "Ġdocument": 695,
      "oth": 696,
      "Ġhuman": 697,
      "ree": 698,
      "pect": 699,
      "ience": 700,
      "ily": 701,
      "Ġtra": 702,
      "Ġinc": 703,
      "ents": 704,
      "wh": 705,
      "Ġcont": 706,
      "Ġmany": 707,
      "int": 708,
      "ĠThis": 709,
      "ĠWh": 710,
      "other": 711,
      "Ġwatching": 712,
      "Ġro": 713,
      "Ġshe": 714,
      "ty": 715,
      "Ġwr": 716,
      "Ġexper": 717,
      "self": 718,
      "imes": 719,
      "Ġmus": 720,
      "Ġcr": 721,
      "ways": 722,
      "be": 723,
      "ber": 724,
      "Ġpr": 725,
      "urn": 726,
      "ream": 727,
      "Ġrec": 728,
      "Ġfuck": 729,
      "âĢĶ": 730,
      "ved": 731,
      "Ġgu": 732,
      "Ġperson": 733,
      "ia": 734,
      "arr": 735,
      "fore": 736,
      "Ġres": 737,
      "Ġheart": 738,
      "Ġagain": 739,
      "Ġtoo": 740,
      "Ġaw": 741,
      "Ġwhile": 742,
      "Ġyears": 743,
      "vel": 744,
      "vers": 745,
      "Ġsur": 746,
      "Ġgen": 747,
      "Ġsuch": 748,
      "ĠAnd": 749,
      "Ġgr": 750,
      "Ġcinema": 751,
      "ater": 752,
      "Ġoff": 753,
      "the": 754,
      "ail": 755,
      "ise": 756,
      "Ġalways": 757,
      "ff": 758,
      "Ġown": 759,
      ".\"": 760,
      "ying": 761,
      "mer": 762,
      "ense": 763,
      "Ġhist": 764,
      "aster": 765,
      "Ġtwo": 766,
      "Ġwar": 767,
      "ob": 768,
      "Ġwell": 769,
      "ram": 770,
      "Ġthose": 771,
      "Ġsim": 772,
      "ors": 773,
      "ect": 774,
      "isod": 775,
      "less": 776,
      "Ġhapp": 777,
      "Ġthings": 778,
      "'re": 779,
      "Ġco": 780,
      "ft": 781,
      "Ġins": 782,
      "Ġemot": 783,
      "Ġthing": 784,
      "ren": 785,
      "This": 786,
      "Ġseries": 787,
      "ations": 788,
      "Ġgoing": 789,
      "Ġscen": 790,
      "ower": 791,
      "Ġcol": 792,
      "Ġfl": 793,
      "Ġmakes": 794,
      "Ġsm": 795,
      "Ġbefore": 796,
      "Ġperform": 797,
      "Ġdif": 798,
      "Ġsame": 799,
      "Ġfind": 800,
      "ative": 801,
      "ull": 802,
      "Ġneed": 803,
      "Ġrel": 804,
      "der": 805,
      "ave": 806,
      "Ġsub": 807,
      "iece": 808,
      "Ġepisod": 809,
      "he": 810,
      "Ġright": 811,
      "Ġmusic": 812,
      "ably": 813,
      "igh": 814,
      "oss": 815,
      "ional": 816,
      "Ġaround": 817,
      "ittle": 818,
      "Ġev": 819,
      "ature": 820,
      "Ġabs": 821,
      "me": 822,
      "Ġcomple": 823,
      "ount": 824,
      "Ġlast": 825,
      "cial": 826,
      "Ġfav": 827,
      "Ġhour": 828,
      "Ġchild": 829,
      "Ġfam": 830,
      "ought": 831,
      "ason": 832,
      "Ġeverything": 833,
      "ction": 834,
      "Ġplay": 835,
      "get": 836,
      "ĠV": 837,
      "atic": 838,
      "iend": 839,
      "view": 840,
      "ĠCh": 841,
      "Ġdown": 842,
      "ween": 843,
      "Ġdocumentary": 844,
      "man": 845,
      "ĠBut": 846,
      "ward": 847,
      "aid": 848,
      "gin": 849,
      "ase": 850,
      "Ġtell": 851,
      "Ġstart": 852,
      "Ġcharacters": 853,
      "Ġmaster": 854,
      "ord": 855,
      "Ġlittle": 856,
      "Ġlive": 857,
      "Ġmovies": 858,
      "Ġpower": 859,
      "ather": 860,
      "Ġgot": 861,
      "Ġdec": 862,
      "Ġnew": 863,
      "ĠHe": 864,
      "most": 865,
      "Ġob": 866,
      "Ġmay": 867,
      "Ġshould": 868,
      "Ġph": 869,
      "Ġwom": 870,
      "Ġday": 871,
      "Ġbetween": 872,
      "ĠU": 873,
      "ign": 874,
      "Ġimag": 875,
      "Ġentire": 876,
      "Ġexpl": 877,
      "Ġvis": 878,
      "gg": 879,
      "ject": 880,
      "iss": 881,
      "ope": 882,
      "Ġcharacter": 883,
      "ðŁ": 884,
      "Ġsing": 885,
      "Ġ20": 886,
      "It": 887,
      "Ġfun": 888,
      "les": 889,
      "ys": 890,
      "ale": 891,
      "stand": 892,
      "Ġseem": 893,
      "Wh": 894,
      "Ġthought": 895,
      "Ġset": 896,
      "Ġperfect": 897,
      "Ġboth": 898,
      "Ġwithout": 899,
      "ling": 900,
      "Ġbel": 901,
      "Ġ19": 902,
      "Ġbetter": 903,
      "Ġdidn": 904,
      "xt": 905,
      "ĠIn": 906,
      "ĠTH": 907,
      "Ġexist": 908,
      "iter": 909,
      "Ġhard": 910,
      "Ġlot": 911,
      "Ġanim": 912,
      "day": 913,
      "ew": 914,
      "Ġyet": 915,
      "li": 916,
      "Ġop": 917,
      "utes": 918,
      "Ġke": 919,
      "reen": 920,
      "iting": 921,
      "Ġind": 922,
      "uring": 923,
      "ane": 924,
      "Ġlet": 925,
      "Ġhistory": 926,
      "Ġcap": 927,
      "Ġdep": 928,
      "ten": 929,
      "era": 930,
      "cept": 931,
      "Ġeach": 932,
      "olute": 933,
      "ĠSt": 934,
      "ced": 935,
      "ple": 936,
      "Ġbit": 937,
      "Ġpol": 938,
      "Ġtalk": 939,
      "Ġcam": 940,
      "ific": 941,
      "Ġfriend": 942,
      "Ġcons": 943,
      "ny": 944,
      "Ġold": 945,
      "Ġkind": 946,
      "Ġfeels": 947,
      "Ġapp": 948,
      "Ġdiffer": 949,
      "ars": 950,
      "arly": 951,
      "istic": 952,
      "ng": 953,
      "Âł": 954,
      "Ġconc": 955,
      "Ġminutes": 956,
      "Ġwatched": 957,
      "Ġalmost": 958,
      "Ġpoint": 959,
      "fin": 960,
      "Ġsin": 961,
      "du": 962,
      "Ġpain": 963,
      "ah": 964,
      "up": 965,
      "atter": 966,
      "Ġwhy": 967,
      "IN": 968,
      "Ġtrans": 969,
      "orr": 970,
      "Ġey": 971,
      "Ġdream": 972,
      "Ġform": 973,
      "Ġword": 974,
      "ories": 975,
      "Ġcome": 976,
      "Ġnarr": 977,
      "elt": 978,
      "Ġview": 979,
      "Ġwhole": 980,
      "Ġexperience": 981,
      "ks": 982,
      "Ġstr": 983,
      "Ġshot": 984,
      "ately": 985,
      "ble": 986,
      "oot": 987,
      "Ġinst": 988,
      "Ġatt": 989,
      "Ġanything": 990,
      "Ġfavor": 991,
      "Ġgl": 992,
      "ss": 993,
      "ition": 994,
      "Ġtimes": 995,
      "raph": 996,
      "Ġput": 997,
      "ertain": 998,
      "Ġaway": 999,
      "Ġsaid": 1000,
      "ates": 1001,
      "Ġel": 1002,
      "sc": 1003,
      "Ġcomm": 1004,
      "led": 1005,
      "Ġdram": 1006,
      "Ġread": 1007,
      "Ġgreatest": 1008,
      "na": 1009,
      "ner": 1010,
      "ock": 1011,
      "Ġacc": 1012,
      "Ġunderstand": 1013,
      "Ġincred": 1014,
      "Ġsy": 1015,
      "Ġcreat": 1016,
      "Ġhigh": 1017,
      "Ġdoesn": 1018,
      "RE": 1019,
      "Ġ&": 1020,
      "ically": 1021,
      "Ġmem": 1022,
      "read": 1023,
      "Ġbo": 1024,
      "ont": 1025,
      "Ġ3": 1026,
      "Ġhand": 1027,
      "ody": 1028,
      "its": 1029,
      "Ġtake": 1030,
      "Ġpres": 1031,
      "Ġmoment": 1032,
      "ied": 1033,
      "Ġdifferent": 1034,
      "Ġabsolute": 1035,
      "ov": 1036,
      "Ġsomeone": 1037,
      "Ġmean": 1038,
      "Ġbelie": 1039,
      "Ġbig": 1040,
      "),": 1041,
      "AT": 1042,
      "Ġplace": 1043,
      "Ġscene": 1044,
      "Ġfew": 1045,
      "Ġide": 1046,
      "Ġonce": 1047,
      "irl": 1048,
      "ures": 1049,
      "ead": 1050,
      "Ġcare": 1051,
      "Ġclass": 1052,
      "00": 1053,
      "Ġturn": 1054,
      "Ġfucking": 1055,
      "Ġanother": 1056,
      "not": 1057,
      "ub": 1058,
      "ening": 1059,
      "ret": 1060,
      "Ġinv": 1061,
      "oh": 1062,
      "Ġdeep": 1063,
      "Ġconf": 1064,
      "Ġcomplete": 1065,
      "Ġap": 1066,
      "ances": 1067,
      "Ġpass": 1068,
      "ĠYou": 1069,
      "Ġfelt": 1070,
      "Ġsec": 1071,
      "Ġfavorite": 1072,
      "Ġexp": 1073,
      "Ġactually": 1074,
      "ized": 1075,
      "Ġfact": 1076,
      "Ġdel": 1077,
      "Ġwo": 1078,
      "ange": 1079,
      "lect": 1080,
      "Ġext": 1081,
      "Ġfamily": 1082,
      "Ġsound": 1083,
      "ality": 1084,
      "Ġsl": 1085,
      "ons": 1086,
      "ĠThere": 1087,
      "Ġeveryone": 1088,
      "Ġfar": 1089,
      "ese": 1090,
      "Ġscreen": 1091,
      "Ġter": 1092,
      "Ġfull": 1093,
      "Ġdet": 1094,
      "Ġunt": 1095,
      "??": 1096,
      "Ġes": 1097,
      "Ġhon": 1098,
      "Ġshort": 1099,
      ".âĢĿ": 1100,
      "Ġfilmm": 1101,
      "Ġrun": 1102,
      "ograph": 1103,
      "edy": 1104,
      "Ġnight": 1105,
      "ien": 1106,
      "Ġsense": 1107,
      "ash": 1108,
      "Ġtri": 1109,
      "Ġsong": 1110,
      "Ġcall": 1111,
      "Ġaud": 1112,
      "ery": 1113,
      "Ġdeath": 1114,
      "cess": 1115,
      "Ġgive": 1116,
      "ember": 1117,
      "ship": 1118,
      "Ġpolit": 1119,
      "iet": 1120,
      "Ġduring": 1121,
      "Ġuni": 1122,
      "Ġmind": 1123,
      "Ġbu": 1124,
      "ics": 1125,
      "Ġmoments": 1126,
      "Ġhours": 1127,
      "Ġmyself": 1128,
      "Ġmed": 1129,
      "Ġhel": 1130,
      "Ġreview": 1131,
      "Ġnothing": 1132,
      "Ġimm": 1133,
      "'ll": 1134,
      "Ġmaking": 1135,
      "Ġpret": 1136,
      "Ġpast": 1137,
      "que": 1138,
      "meric": 1139,
      "Ġenough": 1140,
      "Ġimport": 1141,
      ").": 1142,
      "Ġ4": 1143,
      "Ġmon": 1144,
      "olog": 1145,
      "Ġtru": 1146,
      "Ġac": 1147,
      "Ġsingle": 1148,
      "Ġ'": 1149,
      "Ġcry": 1150,
      "orn": 1151,
      "Ġstru": 1152,
      "Ġcra": 1153,
      "alf": 1154,
      "Ġliter": 1155,
      "Ġref": 1156,
      "Ġdisc": 1157,
      "air": 1158,
      "Ġgra": 1159,
      "aps": 1160,
      "Ġkeep": 1161,
      "Ġsad": 1162,
      "oul": 1163,
      "ird": 1164,
      "Ġdist": 1165,
      "Ġwonder": 1166,
      "bo": 1167,
      "Ġthough": 1168,
      "Ġposs": 1169,
      "Ġsince": 1170,
      "ility": 1171,
      "Ġisn": 1172,
      "Ġleft": 1173,
      "Ġinterest": 1174,
      "Ġepisode": 1175,
      "Ġtruly": 1176,
      "ever": 1177,
      "Ġlives": 1178,
      "Ġ5": 1179,
      "ities": 1180,
      "ential": 1181,
      "ĠWe": 1182,
      "ix": 1183,
      "vis": 1184,
      "Ġed": 1185,
      "als": 1186,
      "ased": 1187,
      "ĠAmeric": 1188,
      "ney": 1189,
      "bably": 1190,
      "pr": 1191,
      "Ġmight": 1192,
      "Ġport": 1193,
      "Ġwithin": 1194,
      "ize": 1195,
      "Ġsty": 1196,
      "ĠSh": 1197,
      "Ġdirector": 1198,
      "ĠâĢĶ": 1199,
      "Ġmen": 1200,
      "ank": 1201,
      "Ġkid": 1202,
      "Ġuntil": 1203,
      "iness": 1204,
      "cho": 1205,
      "augh": 1206,
      "Ġmasterp": 1207,
      "Ġfol": 1208,
      "asc": 1209,
      "Ġgirl": 1210,
      "ural": 1211,
      "ular": 1212,
      "Ġfeeling": 1213,
      "Ġpretty": 1214,
      "illi": 1215,
      "ĠBe": 1216,
      "Ġdark": 1217,
      "Ġeyes": 1218,
      "etic": 1219,
      "Ġemotional": 1220,
      "uth": 1221,
      "Ġoften": 1222,
      "Ġcamera": 1223,
      "Ġelse": 1224,
      "Ġhonest": 1225,
      "Ġsure": 1226,
      "Ġcour": 1227,
      "Ġrep": 1228,
      "ished": 1229,
      "'d": 1230,
      "fort": 1231,
      "ove": 1232,
      "Ġhalf": 1233,
      "Ġremember": 1234,
      "ER": 1235,
      "ming": 1236,
      "ently": 1237,
      "ĠThat": 1238,
      "Ġsecond": 1239,
      "Ġhome": 1240,
      "Ġhaving": 1241,
      "Ġabsolutely": 1242,
      "ier": 1243,
      "ider": 1244,
      "ĠTHE": 1245,
      "Ġhope": 1246,
      "azing": 1247,
      "Ġimportant": 1248,
      "Ġfound": 1249,
      "Ġbad": 1250,
      "Ġpiece": 1251,
      "ives": 1252,
      "Ġlight": 1253,
      "Ġdefin": 1254,
      "ibly": 1255,
      "fully": 1256,
      "ps": 1257,
      "Ġthree": 1258,
      "Ġreg": 1259,
      "Ġstand": 1260,
      "tern": 1261,
      "Ġcapt": 1262,
      "Ġhorr": 1263,
      "Ġsit": 1264,
      "Ġwomen": 1265,
      "Ġsk": 1266,
      "Ġcent": 1267,
      "Ġeas": 1268,
      "Ġtrue": 1269,
      "Ġdrama": 1270,
      "OU": 1271,
      "Ġslow": 1272,
      "Ġexpect": 1273,
      "Ġnature": 1274,
      "Ġrest": 1275,
      "Ġyoung": 1276,
      "You": 1277,
      "ues": 1278,
      "Ġmust": 1279,
      "ited": 1280,
      "idd": 1281,
      "to": 1282,
      "Ġself": 1283,
      "Ġfore": 1284,
      "Ġcount": 1285,
      "Ġtoget": 1286,
      "Ġless": 1287,
      "Ġbegin": 1288,
      "Ġshit": 1289,
      "iously": 1290,
      "Ġmasterpiece": 1291,
      "Ġtogether": 1292,
      "Ġsil": 1293,
      "Ġmatter": 1294,
      "Ġcle": 1295,
      "ression": 1296,
      "io": 1297,
      "Ġstop": 1298,
      "this": 1299,
      "ross": 1300,
      "Ġitself": 1301,
      "Ġperformance": 1302,
      "ING": 1303,
      "Ġtakes": 1304,
      "ened": 1305,
      "ouse": 1306,
      "elves": 1307,
      "Ġexc": 1308,
      "elling": 1309,
      "Ġshows": 1310,
      "Ġbre": 1311,
      "Ġtrying": 1312,
      "cially": 1313,
      "Ġgener": 1314,
      "Ġtoday": 1315,
      "Ġbeh": 1316,
      "ments": 1317,
      "Ġincredible": 1318,
      "Ġcompletely": 1319,
      "ĠðŁ": 1320,
      "Ġmag": 1321,
      "ident": 1322,
      "ife": 1323,
      "Ġlost": 1324,
      "ows": 1325,
      "aring": 1326,
      "Ġhead": 1327,
      "Ġsupp": 1328,
      "Ġprobably": 1329,
      "Ġbecome": 1330,
      "Ġseems": 1331,
      "ms": 1332,
      "ply": 1333,
      "watch": 1334,
      "Ġcult": 1335,
      "ĠSo": 1336,
      "Ġquite": 1337,
      "ocus": 1338,
      "Ġsmall": 1339,
      "Ġbelieve": 1340,
      "ger": 1341,
      "erg": 1342,
      "ution": 1343,
      "Ġmar": 1344,
      "Ġboy": 1345,
      "Ġtop": 1346,
      "ĠAl": 1347,
      "apan": 1348,
      "Ġgets": 1349,
      "Ġspecial": 1350,
      "Ġwords": 1351,
      "my": 1352,
      "ins": 1353,
      "Ġsw": 1354,
      "Ġface": 1355,
      "Ġbro": 1356,
      "Ġreason": 1357,
      "Ġass": 1358,
      "Ġdoing": 1359,
      "Ġamazing": 1360,
      "Ġsoul": 1361,
      "Ġlist": 1362,
      "Ġliving": 1363,
      "ract": 1364,
      "Ġkill": 1365,
      "ared": 1366,
      "Ġfinal": 1367,
      "ingly": 1368,
      "ĠAn": 1369,
      "Ġsoci": 1370,
      "Ġprodu": 1371,
      "ography": 1372,
      "AN": 1373,
      "ush": 1374,
      "Ġvo": 1375,
      "of": 1376,
      "Ġadd": 1377,
      "selves": 1378,
      "onna": 1379,
      "ains": 1380,
      "Ġepisodes": 1381,
      "ĠâĢ": 1382,
      "Ġdest": 1383,
      "Ġdev": 1384,
      "Ġblack": 1385,
      "Ġanimation": 1386,
      "Ġcar": 1387,
      "ec": 1388,
      "vent": 1389,
      "Ġsaw": 1390,
      "ists": 1391,
      "ĠWhat": 1392,
      "Ġvisual": 1393,
      "Ġaudience": 1394,
      "Ġfocus": 1395,
      "Ġcertain": 1396,
      "Ġear": 1397,
      "ational": 1398,
      "pecially": 1399,
      "Ġtrag": 1400,
      "aj": 1401,
      "cy": 1402,
      "Ġcre": 1403,
      "Ġcou": 1404,
      "Ġloved": 1405,
      "ĠThey": 1406,
      "Ġclose": 1407,
      "Ġseeing": 1408,
      "Ġwoman": 1409,
      "ted": 1410,
      "ug": 1411,
      "Ġfall": 1412,
      "Ġcut": 1413,
      "Ġquest": 1414,
      "over": 1415,
      "sy": 1416,
      "Ġmain": 1417,
      "Ġstud": 1418,
      "app": 1419,
      "ĠFr": 1420,
      "Ġpartic": 1421,
      "Ġagainst": 1422,
      "Ġfoot": 1423,
      "Ġcame": 1424,
      "owing": 1425,
      "Ġrele": 1426,
      "Ġnarrative": 1427,
      "Ġfollow": 1428,
      "Ġcourse": 1429,
      "Ġable": 1430,
      "Ġcomes": 1431,
      "Ġconst": 1432,
      "rench": 1433,
      "ffect": 1434,
      "time": 1435,
      "Ġmor": 1436,
      "Ġche": 1437,
      "Ġbrilli": 1438,
      "Ġstyle": 1439,
      "iol": 1440,
      "Ġmiss": 1441,
      "Ġland": 1442,
      "ĠGod": 1443,
      "Ġsimply": 1444,
      "Ġdetail": 1445,
      "Ġmet": 1446,
      "Ġstories": 1447,
      "urt": 1448,
      "Ġsocial": 1449,
      "Ġwee": 1450,
      "Ġleast": 1451,
      "IS": 1452,
      "cri": 1453,
      "Ġpure": 1454,
      "empt": 1455,
      "ĠJapan": 1456,
      "Ġguy": 1457,
      "If": 1458,
      "und": 1459,
      "ital": 1460,
      "Ġuse": 1461,
      "Ġhelp": 1462,
      "haps": 1463,
      "uff": 1464,
      "yp": 1465,
      "Ġtear": 1466,
      "Ġlear": 1467,
      "Ġmove": 1468,
      "ury": 1469,
      "Ġsex": 1470,
      "ired": 1471,
      "Ġprot": 1472,
      "cing": 1473,
      "reme": 1474,
      "Ġseason": 1475,
      "Ġsuper": 1476,
      "Ġsubject": 1477,
      "Ġpolitical": 1478,
      "LL": 1479,
      "ape": 1480,
      "com": 1481,
      "eng": 1482,
      "ork": 1483,
      "Ġanime": 1484,
      "Ġask": 1485,
      "Ġpersonal": 1486,
      "Ġfunny": 1487,
      "ready": 1488,
      "Ġliterally": 1489,
      "ines": 1490,
      "Ġthr": 1491,
      "eless": 1492,
      "ook": 1493,
      "Ġwalk": 1494,
      "arch": 1495,
      "Ġret": 1496,
      "Ġprof": 1497,
      "ĠNot": 1498,
      "Ġdesp": 1499,
      "ai": 1500,
      "Ġele": 1501,
      "umb": 1502,
      "Ġbecom": 1503,
      "aces": 1504,
      "Ġinstead": 1505,
      "ined": 1506,
      "ouch": 1507,
      "ention": 1508,
      "Ġmoder": 1509,
      "iction": 1510,
      "Ġpresent": 1511,
      "con": 1512,
      "way": 1513,
      "ised": 1514,
      "ĠIf": 1515,
      "Ġmoving": 1516,
      "ressive": 1517,
      "Ġconcert": 1518,
      "ohn": 1519,
      "ray": 1520,
      "Ġwa": 1521,
      "Ġwent": 1522,
      "Ġfree": 1523,
      "Ġeffect": 1524,
      "Ġwhite": 1525,
      "Ġalready": 1526,
      "Ġviol": 1527,
      "Ġreality": 1528,
      "In": 1529,
      "Ġfant": 1530,
      "Ġdays": 1531,
      "Ġtoward": 1532,
      "ĠEvery": 1533,
      "Ġcontin": 1534,
      "Ġchildren": 1535,
      "Ġsociet": 1536,
      "EN": 1537,
      "ned": 1538,
      "Ġdr": 1539,
      "Ġgod": 1540,
      "Ġjour": 1541,
      "ages": 1542,
      "ured": 1543,
      "osed": 1544,
      "pped": 1545,
      "Ġobs": 1546,
      "Ġcommun": 1547,
      "ee": 1548,
      "fl": 1549,
      "Ġ9": 1550,
      "ination": 1551,
      "Ġcast": 1552,
      "Ġtold": 1553,
      "Ġgonna": 1554,
      "There": 1555,
      "Ġwanted": 1556,
      "Ġcontr": 1557,
      "Ġmaybe": 1558,
      "Ġmodern": 1559,
      "One": 1560,
      "Ġvers": 1561,
      "ences": 1562,
      "Ġworth": 1563,
      "plic": 1564,
      "Ġanyone": 1565,
      "ivid": 1566,
      "Ġgetting": 1567,
      "Ġpowerful": 1568,
      "Ġespecially": 1569,
      "Ġstun": 1570,
      "Ġsequ": 1571,
      "Ġcho": 1572,
      "ung": 1573,
      "uss": 1574,
      "Ġperformances": 1575,
      "Ġconsider": 1576,
      "Ġfootage": 1577,
      "Ġgay": 1578,
      "ĠAs": 1579,
      "rigin": 1580,
      "Ġscenes": 1581,
      "Ġfriends": 1582,
      "att": 1583,
      "Ġpar": 1584,
      "ets": 1585,
      "Ġchang": 1586,
      "Ġgoes": 1587,
      "Ġstrugg": 1588,
      "ON": 1589,
      "br": 1590,
      "how": 1591,
      "ric": 1592,
      "ief": 1593,
      "arent": 1594,
      "!!!!": 1595,
      "Ġexperien": 1596,
      "Ġimages": 1597,
      "mb": 1598,
      "oon": 1599,
      "Ġhold": 1600,
      "ental": 1601,
      "Ġfilmmak": 1602,
      "Ġbrilliant": 1603,
      "ike": 1604,
      "iven": 1605,
      "Ġpop": 1606,
      "aries": 1607,
      "itely": 1608,
      "Ġused": 1609,
      "Ġess": 1610,
      "Ġways": 1611,
      "Ġble": 1612,
      "ĠBl": 1613,
      "Ġrather": 1614,
      "Ġhimself": 1615,
      "Ġremind": 1616,
      "Ġlooking": 1617,
      "ĠAmerican": 1618,
      "dd": 1619,
      "side": 1620,
      "yn": 1621,
      "Ġsat": 1622,
      "Ġfour": 1623,
      "Ġchange": 1624,
      "ĠBr": 1625,
      "Ġnext": 1626,
      "Ġlevel": 1627,
      "Ġworks": 1628,
      "Ġroom": 1629,
      "Ġwrong": 1630,
      "ex": 1631,
      "Ġorigin": 1632,
      "ried": 1633,
      "ĠHow": 1634,
      "....": 1635,
      "Ġlead": 1636,
      "Ġmel": 1637,
      "Ġdone": 1638,
      "Ġlaugh": 1639,
      "ster": 1640,
      "ĠAt": 1641,
      "iving": 1642,
      "Ġrelation": 1643,
      "ik": 1644,
      "Ġopp": 1645,
      "ats": 1646,
      "Ġexact": 1647,
      "Ġtry": 1648,
      "ĠDe": 1649,
      "Ġcool": 1650,
      "Ġemotion": 1651,
      "What": 1652,
      "Ġbehind": 1653,
      "hood": 1654,
      "ts": 1655,
      "Ġsol": 1656,
      "Ġpur": 1657,
      "stem": 1658,
      "Ġcomedy": 1659,
      "ously": 1660,
      "box": 1661,
      "zy": 1662,
      "Ġcor": 1663,
      "onic": 1664,
      "Ġple": 1665,
      "Ġdie": 1666,
      "ides": 1667,
      "Ġang": 1668,
      "Ġbeauty": 1669,
      "Ġsurpr": 1670,
      "lud": 1671,
      "oke": 1672,
      "Ġswe": 1673,
      "nded": 1674,
      "Ġfasc": 1675,
      "Ġrom": 1676,
      "Ġknew": 1677,
      "Ġepic": 1678,
      "Ġbreak": 1679,
      "iel": 1680,
      "yond": 1681,
      "Ġtook": 1682,
      "ters": 1683,
      "Ġspir": 1684,
      "Ġending": 1685,
      "Ġhappy": 1686,
      "Ġsystem": 1687,
      "body": 1688,
      "use": 1689,
      "Ġline": 1690,
      "ames": 1691,
      "avid": 1692,
      "Ġyourself": 1693,
      "Ġ10": 1694,
      "Ġago": 1695,
      "Ġfinally": 1696,
      "Ġcrit": 1697,
      "CK": 1698,
      "ES": 1699,
      "bre": 1700,
      "rist": 1701,
      "vol": 1702,
      "Ġwish": 1703,
      "ison": 1704,
      "Ġfight": 1705,
      "Ġbra": 1706,
      "Ġtot": 1707,
      "Ġcinematic": 1708,
      "Ġ--": 1709,
      "Ã©": 1710,
      "Ġmother": 1711,
      "ony": 1712,
      "orge": 1713,
      "Ġdra": 1714,
      "ĠIs": 1715,
      "ement": 1716,
      "ĠOne": 1717,
      "ax": 1718,
      "Ġbreat": 1719,
      "Ġcur": 1720,
      "Ġdial": 1721,
      "Ġlater": 1722,
      "oph": 1723,
      "Ġplot": 1724,
      "ogue": 1725,
      "Ġappe": 1726,
      "OO": 1727,
      "by": 1728,
      "for": 1729,
      "ni": 1730,
      "Ġtouch": 1731,
      "Ġmis": 1732,
      "Ġhell": 1733,
      "Ġconne": 1734,
      "Ġplaying": 1735,
      "amn": 1736,
      "Ġwasn": 1737,
      "Ġothers": 1738,
      "Ġcomplex": 1739,
      "Ġdeeply": 1740,
      "fic": 1741,
      "real": 1742,
      "itch": 1743,
      "Ġfut": 1744,
      "ilar": 1745,
      "ither": 1746,
      "Ġalong": 1747,
      "terbox": 1748,
      "Ġinsp": 1749,
      "like": 1750,
      "Ġmeaning": 1751,
      "bing": 1752,
      "Ġach": 1753,
      "nding": 1754,
      "Ġmot": 1755,
      "Ġdead": 1756,
      "unch": 1757,
      "ored": 1758,
      "ĠRe": 1759,
      "izing": 1760,
      "chool": 1761,
      "Ġsociety": 1762,
      "Ġrelationship": 1763,
      "but": 1764,
      "de": 1765,
      "Ġbas": 1766,
      "ths": 1767,
      "Ġfeature": 1768,
      "Ġeng": 1769,
      "Ġenj": 1770,
      "ressed": 1771,
      "Ġsimple": 1772,
      "AR": 1773,
      "nds": 1774,
      "Ġful": 1775,
      "Ġbeyond": 1776,
      "ĠST": 1777,
      "Ġjoy": 1778,
      "Ġthemselves": 1779,
      "ival": 1780,
      "Ġthinking": 1781,
      "Ġspeak": 1782,
      "Ġhistor": 1783,
      "terboxd": 1784,
      "Ġsort": 1785,
      "Ġlar": 1786,
      "ĠMar": 1787,
      "Ġcannot": 1788,
      "Ġaction": 1789,
      "Ġidea": 1790,
      "Ġbuild": 1791,
      "cle": 1792,
      "Ġfan": 1793,
      "Ġpsy": 1794,
      "Ġant": 1795,
      "Ġdescri": 1796,
      "Ġtele": 1797,
      "ky": 1798,
      "Ġocc": 1799,
      "Ġmess": 1800,
      "Ġdem": 1801,
      "ifying": 1802,
      "awa": 1803,
      "Ġhumanity": 1804,
      "Ġevent": 1805,
      "vision": 1806,
      "An": 1807,
      "My": 1808,
      "OR": 1809,
      "Ġ7": 1810,
      "Ġtit": 1811,
      "ene": 1812,
      "orld": 1813,
      "omet": 1814,
      "rop": 1815,
      "ĠAr": 1816,
      "Ġtalking": 1817,
      "Ġstrong": 1818,
      "Ġsongs": 1819,
      "oes": 1820,
      "Ġfre": 1821,
      "Ġname": 1822,
      "ieces": 1823,
      "Ġmeans": 1824,
      "Ġcoming": 1825,
      "Ġprocess": 1826,
      "Ġunique": 1827,
      "Ġinteresting": 1828,
      "oo": 1829,
      "ering": 1830,
      "Ġfail": 1831,
      "Ġexam": 1832,
      "Ġspace": 1833,
      "Ġsaying": 1834,
      "Ġlooks": 1835,
      "Ġdreams": 1836,
      "Ġenjoy": 1837,
      "reci": 1838,
      "imate": 1839,
      "verse": 1840,
      "ĠAll": 1841,
      "Ġperhaps": 1842,
      "Ġpost": 1843,
      "Ġbrut": 1844,
      "Ġinterview": 1845,
      "Ġartist": 1846,
      "Ġcountry": 1847,
      "bs": 1848,
      "iar": 1849,
      "uine": 1850,
      "Ġsens": 1851,
      "Ġhouse": 1852,
      "ided": 1853,
      "Ġspec": 1854,
      "Ġdeser": 1855,
      "Ġstarted": 1856,
      "ND": 1857,
      "fter": 1858,
      "light": 1859,
      "Ġtale": 1860,
      "Ġwon": 1861,
      "Ġbody": 1862,
      "edi": 1863,
      "Ġalone": 1864,
      "Ġtruth": 1865,
      "Ġprov": 1866,
      "Ġsometimes": 1867,
      "ĠYOU": 1868,
      "When": 1869,
      "Ġforever": 1870,
      "Ġvoice": 1871,
      "Ġbecomes": 1872,
      "Ġjourney": 1873,
      "Ġversion": 1874,
      "AS": 1875,
      "min": 1876,
      "par": 1877,
      "let": 1878,
      "ote": 1879,
      "Ġstuff": 1880,
      "Ġcomfort": 1881,
      "Ġval": 1882,
      "Ġvide": 1883,
      "apt": 1884,
      "ĠNew": 1885,
      "Ġtech": 1886,
      "pective": 1887,
      "Ġindivid": 1888,
      "Ġextreme": 1889,
      "Ġmult": 1890,
      "Ġfig": 1891,
      "Ġstra": 1892,
      "ther": 1893,
      "ĠTV": 1894,
      "aterial": 1895,
      "Ġattempt": 1896,
      "Ġterr": 1897,
      "Ġdefinitely": 1898,
      "Ġachie": 1899,
      "Ġpsych": 1900,
      "ffer": 1901,
      "land": 1902,
      "son": 1903,
      "Ġut": 1904,
      "Ġill": 1905,
      "Ġbur": 1906,
      "play": 1907,
      "Ġamong": 1908,
      "itten": 1909,
      "Ġfilmmaking": 1910,
      "Ġtowards": 1911,
      "lt": 1912,
      "Ġir": 1913,
      "erv": 1914,
      "Ġfa": 1915,
      "Ġpat": 1916,
      "Ġlik": 1917,
      "Ġforget": 1918,
      "usion": 1919,
      "aves": 1920,
      "Ġemb": 1921,
      "Ġwriting": 1922,
      "Ġacross": 1923,
      "Ġcrying": 1924,
      "Ġtears": 1925,
      "Ġstunning": 1926,
      "Ġfuture": 1927,
      "Ġindividual": 1928,
      "?\"": 1929,
      "ler": 1930,
      "now": 1931,
      "Ġ8": 1932,
      "ones": 1933,
      "ilt": 1934,
      "ots": 1935,
      "Ġheard": 1936,
      "antly": 1937,
      "ĠLe": 1938,
      "Ġleave": 1939,
      "Ġcouldn": 1940,
      "velop": 1941,
      "Ġopen": 1942,
      "Ġappreci": 1943,
      "Ġbook": 1944,
      "iddle": 1945,
      "ED": 1946,
      "Ġmaterial": 1947,
      "Ġupon": 1948,
      "ĠOn": 1949,
      "aving": 1950,
      "Ġcinemat": 1951,
      "Ġspirit": 1952,
      "breaking": 1953,
      "gu": 1954,
      "Ġsun": 1955,
      "Ġschool": 1956,
      "Ġce": 1957,
      "Ġpri": 1958,
      "Ġlim": 1959,
      "ley": 1960,
      "Ġhear": 1961,
      "Ġpossible": 1962,
      "Ġhorror": 1963,
      "Ġfive": 1964,
      "Ġhit": 1965,
      "Ġgiven": 1966,
      "ĠShe": 1967,
      "ude": 1968,
      "Ġgenuine": 1969,
      "Ġobv": 1970,
      "Ġdespite": 1971,
      "bum": 1972,
      "fr": 1973,
      "Ġ:": 1974,
      "Ġtheat": 1975,
      "itive": 1976,
      "Ġhu": 1977,
      "Ġhot": 1978,
      "Ġorder": 1979,
      "ĠJohn": 1980,
      "Ġimpact": 1981,
      "Ġspect": 1982,
      "what": 1983,
      "Ġdevast": 1984,
      "bit": 1985,
      "cl": 1986,
      "path": 1987,
      "Ġband": 1988,
      "Ġhaven": 1989,
      "Ġimposs": 1990,
      "Ġclassic": 1991,
      "Ġmedia": 1992,
      "Ġkids": 1993,
      "ĠJapanese": 1994,
      "Ġoriginal": 1995,
      "Ġexactly": 1996,
      "?âĢĿ": 1997,
      "ID": 1998,
      "PE": 1999,
      "ially": 2000,
      "ma": 2001,
      "oint": 2002,
      "you": 2003,
      "ze": 2004,
      "Ġ6": 2005,
      "erman": 2006,
      "Ġsent": 2007,
      "ising": 2008,
      "though": 2009,
      "astic": 2010,
      "Ġblood": 2011,
      "Ġadm": 2012,
      "Ġinside": 2013,
      "head": 2014,
      "Ġopening": 2015,
      "Ġincredibly": 2016,
      "Ġcraft": 2017,
      "IT": 2018,
      "eah": 2019,
      "ĠZ": 2020,
      "Ġsign": 2021,
      "Ġhar": 2022,
      "Ġforg": 2023,
      "Ġexcept": 2024,
      "ĠMan": 2025,
      "Ġsuffer": 2026,
      "Ġquiet": 2027,
      "Ġwonderful": 2028,
      "Ġwater": 2029,
      "Ġfather": 2030,
      "Ġgives": 2031,
      "Ġstri": 2032,
      "ĠHis": 2033,
      "ĠFor": 2034,
      "Ġhappened": 2035,
      "Ġinsane": 2036,
      "Ġevents": 2037,
      "volution": 2038,
      "cer": 2039,
      "lin": 2040,
      "Ġage": 2041,
      "Ġmur": 2042,
      "Ġcir": 2043,
      "Ġrewatch": 2044,
      "ether": 2045,
      "Ġult": 2046,
      "ĠWar": 2047,
      "Ġsucc": 2048,
      "Ġproject": 2049,
      "Ġrare": 2050,
      "Ġresp": 2051,
      "Ġfamil": 2052,
      "Ġturned": 2053,
      "ficult": 2054,
      "Ġtelevision": 2055,
      "bed": 2056,
      "ians": 2057,
      "war": 2058,
      "Ġcru": 2059,
      "Ġequ": 2060,
      "Ġgrou": 2061,
      "els": 2062,
      "ĠSe": 2063,
      "aken": 2064,
      "oney": 2065,
      "Ġwhose": 2066,
      "ension": 2067,
      "Ġemotions": 2068,
      "Ġportray": 2069,
      "Ġquestion": 2070,
      "Ġdialogue": 2071,
      "Ġfully": 2072,
      "Ġtreat": 2073,
      "ishing": 2074,
      "Ġdou": 2075,
      "leep": 2076,
      "ented": 2077,
      "rag": 2078,
      "ĠMy": 2079,
      "ively": 2080,
      "Ġimage": 2081,
      "Ġscore": 2082,
      "Ġclos": 2083,
      "Ġdifficult": 2084,
      "Ġmemory": 2085,
      "ĠâĢĺ": 2086,
      "Ġcinematography": 2087,
      "FF": 2088,
      "OV": 2089,
      "gan": 2090,
      "ground": 2091,
      "wood": 2092,
      "Ġtaking": 2093,
      "Ġtheater": 2094,
      "rew": 2095,
      "Ġcity": 2096,
      "Ġones": 2097,
      "ades": 2098,
      "olly": 2099,
      "ump": 2100,
      "ĠHer": 2101,
      "ĠTo": 2102,
      "ĠNo": 2103,
      "Ġparts": 2104,
      "Ġbring": 2105,
      "Ġinclud": 2106,
      "Ġexistence": 2107,
      "Ġbreath": 2108,
      "Ġimpossible": 2109,
      "just": 2110,
      "no": 2111,
      "Ġparent": 2112,
      "omme": 2113,
      "Ġdevelop": 2114,
      "ĠCl": 2115,
      "Ġfeelings": 2116,
      "anger": 2117,
      "ruct": 2118,
      "Ġdocumentaries": 2119,
      "ĠWhen": 2120,
      "Ġapart": 2121,
      "Ġgrand": 2122,
      "Ġhistorical": 2123,
      "--": 2124,
      "itions": 2125,
      "Ġstat": 2126,
      "uros": 2127,
      "ĠAND": 2128,
      "right": 2129,
      "Ġweird": 2130,
      "Ġintro": 2131,
      "ĠFrench": 2132,
      "Ġstoryt": 2133,
      "Ġtraum": 2134,
      "Ġwrite": 2135,
      "Ġexplain": 2136,
      "Ġviewing": 2137,
      "Ġinvol": 2138,
      "As": 2139,
      "eries": 2140,
      "Ġwit": 2141,
      "Ġwall": 2142,
      "atural": 2143,
      "Ġmiddle": 2144,
      "Ġbar": 2145,
      "Ġbased": 2146,
      "estern": 2147,
      "Ġcond": 2148,
      "Ġpict": 2149,
      "Ġinn": 2150,
      "Ġalive": 2151,
      "Ġframe": 2152,
      "Ġprog": 2153,
      "acy": 2154,
      "angu": 2155,
      "Ġlonger": 2156,
      "Ġpassion": 2157,
      "Ġhonestly": 2158,
      "Ġviolence": 2159,
      "Ġz": 2160,
      "Ġcase": 2161,
      "anet": 2162,
      "Ġinfl": 2163,
      "agon": 2164,
      "abor": 2165,
      "Ġthemes": 2166,
      "Ġactors": 2167,
      "where": 2168,
      "Ġrecord": 2169,
      "Ġheartbreaking": 2170,
      "Ġsurv": 2171,
      "Ġgenre": 2172,
      "ĠUn": 2173,
      "Ġeye": 2174,
      "Ġmemories": 2175,
      "Ġslowly": 2176,
      "Ġbeginning": 2177,
      "Ġearth": 2178,
      "19": 2179,
      "gn": 2180,
      "ient": 2181,
      "set": 2182,
      "Ġtal": 2183,
      "ino": 2184,
      "Ġwind": 2185,
      "Ġmir": 2186,
      "Ġmaj": 2187,
      "Ġfur": 2188,
      "Ġflow": 2189,
      "Ġhate": 2190,
      "oud": 2191,
      "Ġfear": 2192,
      "Ġunf": 2193,
      "pping": 2194,
      "Ġmusical": 2195,
      "Ġprom": 2196,
      "Ġrecomme": 2197,
      "ysical": 2198,
      "Ġanimated": 2199,
      "Ġdeli": 2200,
      "Ġesc": 2201,
      "Ġconnect": 2202,
      "ĠSTU": 2203,
      "CH": 2204,
      "sw": 2205,
      "uc": 2206,
      "Ġhom": 2207,
      "Ġstars": 2208,
      "Ġmeant": 2209,
      "Ġhaun": 2210,
      "Ġproble": 2211,
      "Ġaffect": 2212,
      "Ġentirely": 2213,
      "urosawa": 2214,
      "iod": 2215,
      "ki": 2216,
      "Ġic": 2217,
      "Ġmere": 2218,
      "aling": 2219,
      "Ġpull": 2220,
      "Ġlate": 2221,
      "Ġeither": 2222,
      "aybe": 2223,
      "Ġstre": 2224,
      "Ġalbum": 2225,
      "ĠWith": 2226,
      "ards": 2227,
      "ogn": 2228,
      "Ġenc": 2229,
      "Ġentertain": 2230,
      "when": 2231,
      "Ġchildhood": 2232,
      "Ġperfectly": 2233,
      "Ġstruct": 2234,
      "Ġprofound": 2235,
      "Ġstraight": 2236,
      "aul": 2237,
      "ius": 2238,
      "work": 2239,
      "inating": 2240,
      "Ġwin": 2241,
      "Ġbus": 2242,
      "Ġhop": 2243,
      "orough": 2244,
      "Ġpieces": 2245,
      "Ġdri": 2246,
      "Ġnorm": 2247,
      "ott": 2248,
      "imately": 2249,
      "Ġstay": 2250,
      "irt": 2251,
      "ift": 2252,
      "ries": 2253,
      "ants": 2254,
      "Ġru": 2255,
      "Ġrich": 2256,
      "ĠFU": 2257,
      "Ġthroughout": 2258,
      "Ġdesire": 2259,
      "whel": 2260,
      "Ġcoll": 2261,
      "Ġcolor": 2262,
      "Ġideas": 2263,
      "Ġcentury": 2264,
      "Ġeasy": 2265,
      "Ġculture": 2266,
      "Ġproduction": 2267,
      "Ġdestro": 2268,
      "Ġtragedy": 2269,
      "OW": 2270,
      "So": 2271,
      "mos": 2272,
      "alth": 2273,
      "Ġstate": 2274,
      "oles": 2275,
      "atching": 2276,
      "Ġrad": 2277,
      "Ġoutside": 2278,
      "ĠOF": 2279,
      "Ġdesign": 2280,
      "Ġwritten": 2281,
      "Ġfavour": 2282,
      "Ġplayed": 2283,
      "Ġshots": 2284,
      "REPE": 2285,
      "Ġeasily": 2286,
      "Ġweek": 2287,
      "Ġspecific": 2288,
      "Ġgroup": 2289,
      "Ġstorytelling": 2290,
      "ĠSTUFF": 2291,
      "REPEAT": 2292,
      "20": 2293,
      "iy": 2294,
      "ken": 2295,
      "Ġsum": 2296,
      "Ġsays": 2297,
      "Ġborn": 2298,
      "ices": 2299,
      "lebr": 2300,
      "Ġnon": 2301,
      "owd": 2302,
      "Ġansw": 2303,
      "ularly": 2304,
      "ustr": 2305,
      "Ġfront": 2306,
      "Ġleg": 2307,
      "aced": 2308,
      "!!!": 2309,
      "urns": 2310,
      "Ġsubt": 2311,
      "Ġimmedi": 2312,
      "ology": 2313,
      "Ġfilmmaker": 2314,
      "Ġsuccess": 2315,
      "Ġparents": 2316,
      "ĠSTUFFREPEAT": 2317,
      "And": 2318,
      "No": 2319,
      "ev": 2320,
      "ior": 2321,
      "Ġtur": 2322,
      "iny": 2323,
      "Ġhy": 2324,
      "Ġpick": 2325,
      "Ġlack": 2326,
      "Ġgame": 2327,
      "Ġgave": 2328,
      "amed": 2329,
      "oll": 2330,
      "Ġsoon": 2331,
      "ĠSp": 2332,
      "osition": 2333,
      "ĠPe": 2334,
      "Ġsomehow": 2335,
      "Ġ100": 2336,
      "Ġwarm": 2337,
      "Ġaccom": 2338,
      "Ġhands": 2339,
      "ield": 2340,
      "EE": 2341,
      "Not": 2342,
      "hh": 2343,
      "Ġera": 2344,
      "inary": 2345,
      "Ġmil": 2346,
      "Ġfire": 2347,
      "Ġlangu": 2348,
      "Ġeff": 2349,
      "ĠIT": 2350,
      "lection": 2351,
      "Ġreach": 2352,
      "ified": 2353,
      "Ġallow": 2354,
      "ĠPl": 2355,
      "ĠLet": 2356,
      "Ġnovel": 2357,
      "Ġthank": 2358,
      "Ġactual": 2359,
      "Ġrealize": 2360,
      "rupt": 2361,
      "Ġfinished": 2362,
      "Ġphot": 2363,
      "Ġcalled": 2364,
      "Ġediting": 2365,
      "Ġcouple": 2366,
      "Ġachieve": 2367,
      "Ġdevastating": 2368,
      "10": 2369,
      "aust": 2370,
      "bel": 2371,
      "ium": 2372,
      "line": 2373,
      "Ġside": 2374,
      "Ġearly": 2375,
      "Ġgiving": 2376,
      "that": 2377,
      "Ġlog": 2378,
      "used": 2379,
      "Ġnear": 2380,
      "Ġvill": 2381,
      "Ġperiod": 2382,
      "Ġacting": 2383,
      "ization": 2384,
      "Ġwouldn": 2385,
      "acle": 2386,
      "Ġbeautifully": 2387,
      "Ġguys": 2388,
      "Ġsurreal": 2389,
      "Ġimagine": 2390,
      "Ġappro": 2391,
      "Ġreading": 2392,
      "Ġrepres": 2393,
      "Ġsupposed": 2394,
      "Ġlearn": 2395,
      "Ġwait": 2396,
      "por": 2397,
      "ator": 2398,
      "alg": 2399,
      "Ġpot": 2400,
      "Ġgone": 2401,
      "Ġvar": 2402,
      "ĠDo": 2403,
      "Ġpeace": 2404,
      "ĠJust": 2405,
      "Ġknows": 2406,
      "Ġimpressive": 2407,
      "Ġwants": 2408,
      "Ġperspective": 2409,
      "Ġflo": 2410,
      "Ġcelebr": 2411,
      "Ġmurder": 2412,
      "Ġcirc": 2413,
      "ran": 2414,
      "Ġtre": 2415,
      "Ġtaken": 2416,
      "inc": 2417,
      "ered": 2418,
      "Ġcal": 2419,
      "ĠIN": 2420,
      "Ġnice": 2421,
      "Ġshoot": 2422,
      "illed": 2423,
      "Ġconvers": 2424,
      "ability": 2425,
      "ogy": 2426,
      "Ġpoet": 2427,
      "Ġrock": 2428,
      "Ġrespect": 2429,
      "Ġgrow": 2430,
      "Ġreflect": 2431,
      "Ġportra": 2432,
      "ĠðŁĺ": 2433,
      "Ġwitness": 2434,
      "St": 2435,
      "TH": 2436,
      "gr": 2437,
      "med": 2438,
      "Ġten": 2439,
      "Ġtest": 2440,
      "Ġshock": 2441,
      "Ġjob": 2442,
      "antic": 2443,
      "ĠDavid": 2444,
      "ĠPal": 2445,
      "Ġamount": 2446,
      "Ġworking": 2447,
      "text": 2448,
      "Ġdirected": 2449,
      "Ġdecided": 2450,
      "Ġattention": 2451,
      "Ġcreated": 2452,
      "Ġcontrol": 2453,
      "Ġhuge": 2454,
      "Ġmajor": 2455,
      "ĠFUCK": 2456,
      "bt": 2457,
      "Ġca": 2458,
      "Ġcat": 2459,
      "Ġcred": 2460,
      "orry": 2461,
      "Ġdamn": 2462,
      "Ġlay": 2463,
      "Ġground": 2464,
      "Ġred": 2465,
      "Ġreve": 2466,
      "Ġste": 2467,
      "Ġstar": 2468,
      "ĠSc": 2469,
      "Ġnearly": 2470,
      "aph": 2471,
      "Ġrecogn": 2472,
      "Ġsurround": 2473,
      "Ġcertainly": 2474,
      "Ġparticular": 2475,
      "orgeous": 2476,
      "co": 2477,
      "Ġair": 2478,
      "Ġmass": 2479,
      "ann": 2480,
      "Ġda": 2481,
      "Ġrevolution": 2482,
      "Ġstage": 2483,
      "ĠWorld": 2484,
      "aby": 2485,
      "Ġscream": 2486,
      "ĠGerman": 2487,
      "Ġknown": 2488,
      "Ġoverwhel": 2489,
      "Ġended": 2490,
      "iple": 2491,
      "Ġremark": 2492,
      "Ġrelig": 2493,
      "ĠChrist": 2494,
      "Ġtelling": 2495,
      "Ġmagn": 2496,
      "ĠâĢĵ": 2497,
      "ength": 2498,
      "Ġemotionally": 2499,
      "Ġlarge": 2500,
      "Ġtitle": 2501,
      "zu": 2502,
      "ining": 2503,
      "ern": 2504,
      "Ġmad": 2505,
      "any": 2506,
      "ilos": 2507,
      "asy": 2508,
      "urs": 2509,
      "irth": 2510,
      "Ġintense": 2511,
      "Ġmostly": 2512,
      "Ġusing": 2513,
      "Ġprec": 2514,
      "Ġteach": 2515,
      "Ġraw": 2516,
      "Ġguess": 2517,
      "Ġexplo": 2518,
      "Ġconfl": 2519,
      "ological": 2520,
      "Ġclear": 2521,
      "Ġeffort": 2522,
      "ges": 2523,
      "king": 2524,
      "more": 2525,
      "Ġer": 2526,
      "Ġhang": 2527,
      "outh": 2528,
      "ĠInd": 2529,
      "Ġiss": 2530,
      "aging": 2531,
      "Ġconcept": 2532,
      "Ġplays": 2533,
      "Ġshowing": 2534,
      "Ġarch": 2535,
      "Ġquality": 2536,
      "Ġadapt": 2537,
      "lessly": 2538,
      "Ġ30": 2539,
      "Ġterms": 2540,
      "Ġrunning": 2541,
      "ĠAmerica": 2542,
      "Ġpurp": 2543,
      "Ġvideo": 2544,
      "Ġextremely": 2545,
      "Ġfavourite": 2546,
      "On": 2547,
      "af": 2548,
      "sp": 2549,
      "ta": 2550,
      "uk": 2551,
      "Ġauth": 2552,
      "rent": 2553,
      "anch": 2554,
      "Ġlaw": 2555,
      "asure": 2556,
      "rack": 2557,
      "ĠAd": 2558,
      "odies": 2559,
      "illing": 2560,
      "aged": 2561,
      "ĠMY": 2562,
      "ĠRob": 2563,
      "ĠEven": 2564,
      "Ġspent": 2565,
      "Ġtells": 2566,
      "Ġthoughts": 2567,
      "Ġturns": 2568,
      "Ġaccept": 2569,
      "Ġdiscuss": 2570,
      "Ġcommunity": 2571,
      "Ġstruggle": 2572,
      "Ġinflu": 2573,
      "Ġlanguage": 2574,
      "OM": 2575,
      "oe": 2576,
      "ole": 2577,
      "Ġident": 2578,
      "Ġthird": 2579,
      "ister": 2580,
      "Ġfem": 2581,
      "esth": 2582,
      "Ġdi": 2583,
      "Ġdan": 2584,
      "edic": 2585,
      "vern": 2586,
      "urd": 2587,
      "Ġvib": 2588,
      "Ġvict": 2589,
      "ands": 2590,
      "osh": 2591,
      "Ġtrad": 2592,
      "Ġlege": 2593,
      "Ġhumor": 2594,
      "Ġcrowd": 2595,
      "Ġprotagon": 2596,
      "Ġtotally": 2597,
      "Ġbrutal": 2598,
      "Ġty": 2599,
      "Ġast": 2600,
      "Ġson": 2601,
      "Ġsleep": 2602,
      "Ġdied": 2603,
      "Ġyes": 2604,
      "Ġur": 2605,
      "okes": 2606,
      "ĠOr": 2607,
      "Ġactor": 2608,
      "Ġpoetic": 2609,
      "ĠKurosawa": 2610,
      "Ġcontem": 2611,
      "Ġneeds": 2612,
      "Ġexistential": 2613,
      "Ġcareer": 2614,
      "Ġruntime": 2615,
      "Ġcreate": 2616,
      "Ġcheck": 2617,
      "Ġchanged": 2618,
      "Ġtechn": 2619,
      "ollywood": 2620,
      "ilosoph": 2621,
      "Every": 2622,
      "lish": 2623,
      "Ġav": 2624,
      "Ġsn": 2625,
      "Ġsold": 2626,
      "Ġmid": 2627,
      "Ġbal": 2628,
      "omen": 2629,
      "Ġnatural": 2630,
      "Ġlived": 2631,
      "Ġforce": 2632,
      "Ġsever": 2633,
      "Ġmeet": 2634,
      "Ġnecess": 2635,
      "rought": 2636,
      "ĠHar": 2637,
      "atever": 2638,
      "iber": 2639,
      "Ġempt": 2640,
      "ressing": 2641,
      "Ġremains": 2642,
      "Ġteen": 2643,
      "Ġbackground": 2644,
      "Ġdirection": 2645,
      "Ġfinding": 2646,
      "Ġevil": 2647,
      "Ġ196": 2648,
      "Ġsymb": 2649,
      "Ġsexual": 2650,
      "Ġexperiences": 2651,
      "Ġsweet": 2652,
      "We": 2653,
      "mm": 2654,
      "Ġwild": 2655,
      "Ġfans": 2656,
      "Ġhyp": 2657,
      "oun": 2658,
      "Ġdig": 2659,
      "Ġund": 2660,
      "ami": 2661,
      "amp": 2662,
      "Ġaspect": 2663,
      "umber": 2664,
      "ĠMc": 2665,
      "une": 2666,
      "Ġunc": 2667,
      "Ġprop": 2668,
      "Ġprev": 2669,
      "ĠWhile": 2670,
      "Ġ201": 2671,
      "idden": 2672,
      "ergman": 2673,
      "Ġobsess": 2674,
      "Ġanti": 2675,
      "ometimes": 2676,
      "Ġcruel": 2677,
      "For": 2678,
      "ĠQ": 2679,
      "Ġid": 2680,
      "Ġaesth": 2681,
      "ini": 2682,
      "Ġok": 2683,
      "Ġhor": 2684,
      "oring": 2685,
      "Ġgun": 2686,
      "Ġgorgeous": 2687,
      "Ġheav": 2688,
      "unt": 2689,
      "Ġknowing": 2690,
      "Ġminute": 2691,
      "Ġrob": 2692,
      "Ġcapital": 2693,
      "Ġsequence": 2694,
      "Ġinspir": 2695,
      "Ġutter": 2696,
      "Ġsuffering": 2697,
      "Ġtrauma": 2698,
      "Ġinnoc": 2699,
      "Ġportrait": 2700,
      "Be": 2701,
      "UT": 2702,
      "aff": 2703,
      "nal": 2704,
      "itar": 2705,
      "onst": 2706,
      "onel": 2707,
      "aly": 2708,
      "Ġdue": 2709,
      "ica": 2710,
      "Ġgang": 2711,
      "imal": 2712,
      "imental": 2713,
      "eter": 2714,
      "iding": 2715,
      "ĠSome": 2716,
      "ills": 2717,
      "aki": 2718,
      "aught": 2719,
      "oking": 2720,
      "icks": 2721,
      "Ġphysical": 2722,
      "ðŁĺ": 2723,
      "ledge": 2724,
      "ubl": 2725,
      "Ġextra": 2726,
      "Ġuniverse": 2727,
      "Ġmonths": 2728,
      "Ġregard": 2729,
      "Ġtragic": 2730,
      "Ġfantastic": 2731,
      "attle": 2732,
      "Ġpurpose": 2733,
      "\",": 2734,
      "Sh": 2735,
      "uz": 2736,
      "wr": 2737,
      "Ġtim": 2738,
      "Ġmoney": 2739,
      "ana": 2740,
      "Ġpath": 2741,
      "otic": 2742,
      "ims": 2743,
      "sequ": 2744,
      "Ġshad": 2745,
      "Ġmyst": 2746,
      "action": 2747,
      "ĠPer": 2748,
      "Ġpoor": 2749,
      "Ġends": 2750,
      "Ġcrime": 2751,
      "Ġcover": 2752,
      "Ġphilosoph": 2753,
      "orrow": 2754,
      "Ġunderstanding": 2755,
      "Ġcrazy": 2756,
      "Ġcaptures": 2757,
      "Ġbroken": 2758,
      "Ġfascinating": 2759,
      "Ġdescribe": 2760,
      "Ġgenuinely": 2761,
      "Ġfurther": 2762,
      "Ġconflict": 2763,
      ",\"": 2764,
      "ean": 2765,
      "taking": 2766,
      "Ġtension": 2767,
      "inct": 2768,
      "Ġoper": 2769,
      "ision": 2770,
      "Ġmill": 2771,
      "Ġbare": 2772,
      "Ġcold": 2773,
      "Ġlength": 2774,
      "ilogy": 2775,
      "Ġnu": 2776,
      "Ġforward": 2777,
      "Ġsearch": 2778,
      "odram": 2779,
      "Ġloc": 2780,
      "Ġcontext": 2781,
      "unk": 2782,
      "Ġintimate": 2783,
      "ĠFilm": 2784,
      "udd": 2785,
      "Ġrole": 2786,
      "Ġhappen": 2787,
      "Ġstarts": 2788,
      "ĠTHIS": 2789,
      "Ġdepict": 2790,
      "Ġtransce": 2791,
      "Ġsitu": 2792,
      "Ġsitting": 2793,
      "Ġclearly": 2794,
      "dden": 2795,
      "Ġmultiple": 2796,
      "Ġapproach": 2797,
      "Ġsymbol": 2798,
      "ael": 2799,
      "ged": 2800,
      "sing": 2801,
      "ube": 2802,
      "yr": 2803,
      "Ġcop": 2804,
      "arl": 2805,
      "iment": 2806,
      "Ġatmos": 2807,
      "ĠTime": 2808,
      "ĠGra": 2809,
      "ived": 2810,
      "Ġusually": 2811,
      "ruction": 2812,
      "Ġfinds": 2813,
      "Ġexists": 2814,
      "Ġopin": 2815,
      "Ġsilent": 2816,
      "Ġcultural": 2817,
      "Ġlisten": 2818,
      "Ġimmediately": 2819,
      "Ġremarkable": 2820,
      "He": 2821,
      "YY": 2822,
      "oil": 2823,
      "oved": 2824,
      "Ġve": 2825,
      "Ġsus": 2826,
      "Ġmach": 2827,
      "esh": 2828,
      "Ġcried": 2829,
      "Ġpract": 2830,
      "Ġdance": 2831,
      "edom": 2832,
      "Ġinform": 2833,
      "ĠIS": 2834,
      "Ġgh": 2835,
      "Ġonto": 2836,
      "Ġyeah": 2837,
      "eth": 2838,
      "Ġloss": 2839,
      "Ġmanages": 2840,
      "ivil": 2841,
      "Ġempath": 2842,
      "Ġabsurd": 2843,
      "Ġcreative": 2844,
      "Ġunivers": 2845,
      "Ġdiscover": 2846,
      "Ġmetaph": 2847,
      "Ġbleak": 2848,
      "ĠBrit": 2849,
      "Ġromantic": 2850,
      "Ġcritic": 2851,
      "Ġforgot": 2852,
      "But": 2853,
      "II": 2854,
      "ball": 2855,
      "face": 2856,
      "go": 2857,
      "hil": 2858,
      "ped": 2859,
      "pro": 2860,
      "ral": 2861,
      "Ġtone": 2862,
      "Ġsa": 2863,
      "Ġwife": 2864,
      "Ġmix": 2865,
      "Ġfell": 2866,
      "Ġfaces": 2867,
      "Ġbirth": 2868,
      "Ġcost": 2869,
      "Ġoffer": 2870,
      "Ġwhether": 2871,
      "Ġwhatever": 2872,
      "Ġlif": 2873,
      "iev": 2874,
      "emy": 2875,
      "Ġcomment": 2876,
      "atched": 2877,
      "Ġjustice": 2878,
      "Ġsudden": 2879,
      "ichael": 2880,
      "autiful": 2881,
      "Ġhappens": 2882,
      "Ġsetting": 2883,
      "Ġfriendship": 2884,
      "Ġultimately": 2885,
      "!\"": 2886,
      "LE": 2887,
      "ech": 2888,
      "oid": 2889,
      "year": 2890,
      "ï½": 2891,
      "Ġtv": 2892,
      "Ġbodies": 2893,
      "Ġbrought": 2894,
      "arth": 2895,
      "Ġmood": 2896,
      "Ġcha": 2897,
      "ĠTO": 2898,
      "ĠTr": 2899,
      "Ġinte": 2900,
      "Ġpeak": 2901,
      "ĠEm": 2902,
      "acing": 2903,
      "inema": 2904,
      "Ġdesper": 2905,
      "Ġcollect": 2906,
      "Ġvision": 2907,
      "Ġ200": 2908,
      "Ġ199": 2909,
      "Ġglad": 2910,
      "Ġdramatic": 2911,
      "Ġsupport": 2912,
      "Ġparticularly": 2913,
      "Ġmoral": 2914,
      "Ġfilmmakers": 2915,
      "Ġmelodram": 2916,
      "Ġexample": 2917,
      "Ġliked": 2918,
      "Ġdestroy": 2919,
      "ĠLetterboxd": 2920,
      "Ġlegend": 2921,
      "\".": 2922,
      "gest": 2923,
      "tes": 2924,
      "vant": 2925,
      "yo": 2926,
      "Ġest": 2927,
      "Ġopt": 2928,
      "Ġmark": 2929,
      "ites": 2930,
      "Ġfair": 2931,
      "Ġtown": 2932,
      "ille": 2933,
      "Ġge": 2934,
      "lex": 2935,
      "Ġfilmed": 2936,
      "Ġcomb": 2937,
      "ained": 2938,
      "ĠHollywood": 2939,
      "Ġgovern": 2940,
      "Ġrh": 2941,
      "ibility": 2942,
      "Ġarg": 2943,
      "Ġenerg": 2944,
      "Ġrealized": 2945,
      "Ġque": 2946,
      "Ġquick": 2947,
      "Ġdirectors": 2948,
      "Ġgenius": 2949,
      "Ġneeded": 2950,
      "upid": 2951,
      "Ġmagic": 2952,
      "urtis": 2953,
      "Ġessential": 2954,
      "Ġpicture": 2955,
      "Ġiconic": 2956,
      ".)": 2957,
      "AL": 2958,
      "AY": 2959,
      "ding": 2960,
      "every": 2961,
      "ham": 2962,
      "pret": 2963,
      "sky": 2964,
      "track": 2965,
      "Ġ[": 2966,
      "Ġsix": 2967,
      "itary": 2968,
      "Ġfit": 2969,
      "Ġbaby": 2970,
      "Ġpubl": 2971,
      "Ġden": 2972,
      "Ġdro": 2973,
      "Ġlonel": 2974,
      "lying": 2975,
      "ases": 2976,
      "stalg": 2977,
      "Ġstupid": 2978,
      "Ġconv": 2979,
      "ĠHE": 2980,
      "ĠCr": 2981,
      "ĠCon": 2982,
      "ĠTw": 2983,
      "ĠIts": 2984,
      "Ġbecame": 2985,
      "uchi": 2986,
      "Ġnostalg": 2987,
      "Ġfinish": 2988,
      "Ġreson": 2989,
      "Ġviewer": 2990,
      "Ġstrange": 2991,
      "Ġslight": 2992,
      "Ġinterested": 2993,
      "Ġquestions": 2994,
      "Ġmovement": 2995,
      "Ġeffects": 2996,
      "Ġplease": 2997,
      "Ġeventually": 2998,
      "Ġfreedom": 2999,
      "Just": 3000,
      "ST": 3001,
      "ring": 3002,
      "rated": 3003,
      "Ġ*": 3004,
      "isf": 3005,
      "Ġmist": 3006,
      "ency": 3007,
      "oration": 3008,
      "Ġpay": 3009,
      "omin": 3010,
      "omic": 3011,
      "imin": 3012,
      "Ġrepe": 3013,
      "idence": 3014,
      "Ġability": 3015,
      "Ġlose": 3016,
      "Ġchance": 3017,
      "Ġfrustr": 3018,
      "Ġaren": 3019,
      "Ġmanner": 3020,
      "ĠGe": 3021,
      "Ġanyway": 3022,
      "Ġclim": 3023,
      "Ġdisapp": 3024,
      "phere": 3025,
      "Ġadult": 3026,
      "azz": 3027,
      "Ġaware": 3028,
      "Ġflaw": 3029,
      "Ġ202": 3030,
      "Ġregret": 3031,
      "Ġreleased": 3032,
      "Ġconstantly": 3033,
      "Ġdetails": 3034,
      "Ġconsidered": 3035,
      "Ġappreciate": 3036,
      "Ġintrodu": 3037,
      "Ġrecommend": 3038,
      "Ġmerely": 3039,
      "Ġoverwhelming": 3040,
      "Ch": 3041,
      "OT": 3042,
      "aim": 3043,
      "do": 3044,
      "hour": 3045,
      "mar": 3046,
      "ince": 3047,
      "Ġwestern": 3048,
      "Ġdad": 3049,
      "Ġecon": 3050,
      "That": 3051,
      "room": 3052,
      "Ġabove": 3053,
      "Ġexec": 3054,
      "ĠWW": 3055,
      "ĠTom": 3056,
      "ĠOf": 3057,
      "ĠOzu": 3058,
      "Ġanymore": 3059,
      "Ġtrack": 3060,
      "Ġ197": 3061,
      "Ġnarration": 3062,
      "Ġready": 3063,
      "???": 3064,
      "Ġpossibly": 3065,
      "aughter": 3066,
      "Ġgirls": 3067,
      "Ġsilence": 3068,
      "Ġgeneral": 3069,
      "Ġoccup": 3070,
      "Ġobviously": 3071,
      "Ġinvolved": 3072,
      "Ġpoetry": 3073,
      "Ġenergy": 3074,
      "aur": 3075,
      "eed": 3076,
      "here": 3077,
      "iers": 3078,
      "su": 3079,
      "Ġsorry": 3080,
      "Ġfiction": 3081,
      "Ġcross": 3082,
      "Ġdiv": 3083,
      "arily": 3084,
      "Ġet": 3085,
      "Ġrefer": 3086,
      "ctor": 3087,
      "ĠBergman": 3088,
      "aining": 3089,
      "ellent": 3090,
      "ĠDon": 3091,
      "Ġhero": 3092,
      "Ġprison": 3093,
      "Ġ198": 3094,
      "Ġolder": 3095,
      "scape": 3096,
      "Ġmedium": 3097,
      "Ġreviews": 3098,
      "ĠAlso": 3099,
      "Ġstudy": 3100,
      "Ġasked": 3101,
      "Ġmotion": 3102,
      "Ġinterviews": 3103,
      "Ġfigure": 3104,
      "Ġdoubt": 3105,
      "Ġrepresent": 3106,
      "Ġtype": 3107,
      "Ġseveral": 3108,
      "IM": 3109,
      "Some": 3110,
      "To": 3111,
      "VER": 3112,
      "bers": 3113,
      "iest": 3114,
      "lor": 3115,
      "rom": 3116,
      "Ġton": 3117,
      "Ġtour": 3118,
      "alian": 3119,
      "Ġling": 3120,
      "ilities": 3121,
      "âĢĵ": 3122,
      "Ġnor": 3123,
      "ched": 3124,
      "ament": 3125,
      "ĠAb": 3126,
      "Ġexh": 3127,
      "ĠBE": 3128,
      "ĠWell": 3129,
      "ĠLife": 3130,
      "Ġtheme": 3131,
      "ĠON": 3132,
      "ivity": 3133,
      "ips": 3134,
      "Ġtender": 3135,
      "Ġresult": 3136,
      "Ġsmile": 3137,
      "ggest": 3138,
      "Ġindust": 3139,
      "Ġletterboxd": 3140,
      "Ġexpress": 3141,
      "Ġsoundtrack": 3142,
      "Ġweeks": 3143,
      "Ġsolid": 3144,
      "Ġromance": 3145,
      "Ġmessage": 3146,
      "Ġescape": 3147,
      "Ġhaunting": 3148,
      "Ġnormal": 3149,
      "Ġanswer": 3150,
      "believ": 3151,
      "ĠPalest": 3152,
      "Ġprotagonist": 3153,
      "Ġempty": 3154,
      "Ġopinion": 3155,
      "Ġghost": 3156,
      ".âĢ¦": 3157,
      "CE": 3158,
      "¸ı": 3159,
      "ï¸ı": 3160,
      "erc": 3161,
      "Ġhilar": 3162,
      "icate": 3163,
      "entially": 3164,
      "ify": 3165,
      "Ġsepar": 3166,
      "Ġjoke": 3167,
      "Ġdog": 3168,
      "ĠBurns": 3169,
      "Ġdeal": 3170,
      "ĠMe": 3171,
      "ĠMaybe": 3172,
      "Ġworst": 3173,
      "ĠWH": 3174,
      "Ġsuggest": 3175,
      "ĠLike": 3176,
      "Ġplaces": 3177,
      "assion": 3178,
      "Ġuses": 3179,
      "Ġourselves": 3180,
      "Ġdirectly": 3181,
      "Ġgrief": 3182,
      "aneously": 3183,
      "Ġdepiction": 3184,
      "Ġkinda": 3185,
      "Ġexpression": 3186,
      "Ġexpected": 3187,
      "Ġvisuals": 3188,
      "Ġreturn": 3189,
      "Ġchoice": 3190,
      "Ġexperienced": 3191,
      "ĠRobert": 3192,
      "Al": 3193,
      "mon": 3194,
      "port": 3195,
      "wise": 3196,
      "Ġoh": 3197,
      "ises": 3198,
      "Ġmental": 3199,
      "Ġbene": 3200,
      "anna": 3201,
      "ask": 3202,
      "Ġrequ": 3203,
      "Ġstep": 3204,
      "Ġstuck": 3205,
      "urope": 3206,
      "ĠAng": 3207,
      "iff": 3208,
      "iller": 3209,
      "uman": 3210,
      "Ġchall": 3211,
      "ĠBo": 3212,
      "Ġcomplic": 3213,
      "Ġmoved": 3214,
      "ĠRay": 3215,
      "ĠRuss": 3216,
      "aret": 3217,
      "Ġ15": 3218,
      "Ġoverall": 3219,
      "Ġrealistic": 3220,
      "Ġunderst": 3221,
      "Ġlooked": 3222,
      "Ġoffic": 3223,
      "Ġimagery": 3224,
      "Ġbiggest": 3225,
      "Ġconfr": 3226,
      "Ġsounds": 3227,
      "iety": 3228,
      "Ġsky": 3229,
      "Ġfantasy": 3230,
      "ĠEverything": 3231,
      "ĠBlack": 3232,
      "Ġbrain": 3233,
      "Ġtheatre": 3234,
      "Ġfamiliar": 3235,
      "Ġdeliver": 3236,
      "Ġallowed": 3237,
      "Ġmystery": 3238,
      "Ġgovernment": 3239,
      "Ġloneliness": 3240,
      "iant": 3241,
      "kn": 3242,
      "zog": 3243,
      "Ġmention": 3244,
      "Ġhurt": 3245,
      "Ġpal": 3246,
      "Ġpack": 3247,
      "eds": 3248,
      "Ġlow": 3249,
      "Ġgre": 3250,
      "Ġnumber": 3251,
      "Ġlies": 3252,
      "olf": 3253,
      "Ġjump": 3254,
      "Ġloving": 3255,
      "aked": 3256,
      "erson": 3257,
      "Ġkiss": 3258,
      "pend": 3259,
      "using": 3260,
      "oses": 3261,
      "Ġuncom": 3262,
      "Ġimper": 3263,
      "ĠRed": 3264,
      "ĠNow": 3265,
      "Ġamb": 3266,
      "Ġadvent": 3267,
      "itty": 3268,
      "Ġtext": 3269,
      "Ġfinale": 3270,
      "Ġobject": 3271,
      "Ġkept": 3272,
      "Ġcamp": 3273,
      "Ġrelease": 3274,
      "Ġreminded": 3275,
      "ĠHowever": 3276,
      "Ġrelationships": 3277,
      "Ġdeserves": 3278,
      "minute": 3279,
      "Ġfault": 3280,
      "Ġaccompl": 3281,
      "Ġissues": 3282,
      "AM": 3283,
      "How": 3284,
      "Re": 3285,
      "borough": 3286,
      "cent": 3287,
      "lo": 3288,
      "oly": 3289,
      "Ã¨": 3290,
      "Ġtast": 3291,
      "Ġahead": 3292,
      "rest": 3293,
      "Ġbom": 3294,
      "Ġbound": 3295,
      "Ġhol": 3296,
      "Ġdanger": 3297,
      "aris": 3298,
      "Ġinf": 3299,
      "Ġinev": 3300,
      "Ġalthough": 3301,
      "key": 3302,
      "there": 3303,
      "raw": 3304,
      "Ġju": 3305,
      "Ġaband": 3306,
      "Ġweight": 3307,
      "ĠCurtis": 3308,
      "aper": 3309,
      "ĠDis": 3310,
      "izes": 3311,
      "ĠKen": 3312,
      "ĠKore": 3313,
      "Ġaff": 3314,
      "Ġspend": 3315,
      "Ġartistic": 3316,
      "Ġrain": 3317,
      "ĠWho": 3318,
      "Ġsimilar": 3319,
      "olutely": 3320,
      "Ġpolice": 3321,
      "Ġsym": 3322,
      "Ġpolitics": 3323,
      "fortun": 3324,
      "Ġcontrast": 3325,
      "Ġsequences": 3326,
      "Ġdraw": 3327,
      "Ġbuilding": 3328,
      "Ġobvious": 3329,
      "Ġbreathtaking": 3330,
      "Ġproblem": 3331,
      "Ġokay": 3332,
      "Ġatmosphere": 3333,
      "Ġpublic": 3334,
      "Ġinevit": 3335,
      ",âĢ¦": 3336,
      ",âĢĿ": 3337,
      "After": 3338,
      "uel": 3339,
      "uous": 3340,
      "ĠÂł": 3341,
      "inity": 3342,
      "Ġbed": 3343,
      "Ġcivil": 3344,
      "Ġhers": 3345,
      "Ġpun": 3346,
      "Ġpush": 3347,
      "oted": 3348,
      "eld": 3349,
      "amur": 3350,
      "ĠAm": 3351,
      "ĠAfter": 3352,
      "ĠThen": 3353,
      "ĠSO": 3354,
      "Ġjud": 3355,
      "ume": 3356,
      "ĠMad": 3357,
      "Ġconve": 3358,
      "uses": 3359,
      "Ġorgan": 3360,
      "Ġleaves": 3361,
      "Ġhumans": 3362,
      "ultaneously": 3363,
      "Ġteam": 3364,
      "azi": 3365,
      "Ġartists": 3366,
      "Ġtrain": 3367,
      "ĠWhy": 3368,
      "Ġguilt": 3369,
      "Ġgrad": 3370,
      "Ġdecades": 3371,
      "gged": 3372,
      "Ġsinging": 3373,
      "standing": 3374,
      "Ġdepth": 3375,
      "tenborough": 3376,
      "Ġboys": 3377,
      "Ġmorning": 3378,
      "Ġinspired": 3379,
      "Ġbasically": 3380,
      "Ġfaith": 3381,
      "Ġbusiness": 3382,
      "Ġcircum": 3383,
      "Ġaesthetic": 3384,
      "ĠBritish": 3385,
      "back": 3386,
      "cause": 3387,
      "ka": 3388,
      "well": 3389,
      "âĺ": 3390,
      "Ġtrou": 3391,
      "ina": 3392,
      "rem": 3393,
      "isem": 3394,
      "iseries": 3395,
      "itude": 3396,
      "Ġfrag": 3397,
      "Ġbattle": 3398,
      "onial": 3399,
      "anced": 3400,
      "Ġlad": 3401,
      "uted": 3402,
      "Ġnational": 3403,
      "ĠThese": 3404,
      "ĠSH": 3405,
      "ript": 3406,
      "riage": 3407,
      "rible": 3408,
      "Ġdef": 3409,
      "Ġign": 3410,
      "Ġworse": 3411,
      "Ġuns": 3412,
      "ĠFOR": 3413,
      "Ġeveryday": 3414,
      "Ġlovely": 3415,
      "ĠEarth": 3416,
      "ĠEurope": 3417,
      "Ġknowledge": 3418,
      "Ġspeech": 3419,
      "Ġsurface": 3420,
      "obby": 3421,
      "Ġconcl": 3422,
      "Ġtransform": 3423,
      "Ġviewers": 3424,
      "Ġglim": 3425,
      "Ġglass": 3426,
      "Ġhighly": 3427,
      "Ġ50": 3428,
      "Ġbroad": 3429,
      "Ġcarry": 3430,
      "ĠFrom": 3431,
      "Ġprotect": 3432,
      "Ġwaiting": 3433,
      "Ġdrink": 3434,
      "Ġsatisf": 3435,
      "Ġtotal": 3436,
      "friend": 3437,
      "Ġcrafted": 3438,
      "ĠHerzog": 3439,
      "Ġstreet": 3440,
      "Ġvarious": 3441,
      "Ġabandon": 3442,
      "!âĢĿ": 3443,
      "AA": 3444,
      "EL": 3445,
      "aven": 3446,
      "kins": 3447,
      "list": 3448,
      "ool": 3449,
      "ton": 3450,
      "Ġ/": 3451,
      "inter": 3452,
      "Ġsight": 3453,
      "Ġodd": 3454,
      "itation": 3455,
      "Ġcart": 3456,
      "Ġcig": 3457,
      "Ġhus": 3458,
      "edly": 3459,
      "Ġeat": 3460,
      "asing": 3461,
      "oman": 3462,
      "Ġgent": 3463,
      "Ġreb": 3464,
      "Ġhealth": 3465,
      "Ġconsequ": 3466,
      "osp": 3467,
      "apes": 3468,
      "Ġplanet": 3469,
      "ipul": 3470,
      "Ġblock": 3471,
      "Ġdisplay": 3472,
      "Ġbrings": 3473,
      "Ġrac": 3474,
      "others": 3475,
      "Ġtravel": 3476,
      "Ġcontent": 3477,
      "Ġhappiness": 3478,
      "Ġbitch": 3479,
      "ovsky": 3480,
      "Ġbelief": 3481,
      "Ġimmers": 3482,
      "Ġgrace": 3483,
      "Ġsadness": 3484,
      "Ġstands": 3485,
      "Ġexcellent": 3486,
      "undred": 3487,
      "Ġlearned": 3488,
      "Ġviolent": 3489,
      "Ġcontinue": 3490,
      "Ġ90": 3491,
      "Ġpopular": 3492,
      "Ġsurprised": 3493,
      "Ġcurrent": 3494,
      "Ġappear": 3495,
      "Ġconversation": 3496,
      "Ġreveal": 3497,
      "Ġutterly": 3498,
      "Ġcircumst": 3499,
      "Oh": 3500,
      "ging": 3501,
      "mas": 3502,
      "off": 3503,
      "Ã¡": 3504,
      "erry": 3505,
      "Ġwanna": 3506,
      "Ġhits": 3507,
      "ancho": 3508,
      "enty": 3509,
      "Ġstream": 3510,
      "ceived": 3511,
      "Ġalien": 3512,
      "aming": 3513,
      "Ġshame": 3514,
      "roc": 3515,
      "ĠMov": 3516,
      "Ġking": 3517,
      "ĠWas": 3518,
      "Ġneg": 3519,
      "Ġmanipul": 3520,
      "Ġproper": 3521,
      "ĠGreat": 3522,
      "Ġleaving": 3523,
      "oguchi": 3524,
      "ĠEng": 3525,
      "ĠJack": 3526,
      "Ġactions": 3527,
      "izoguchi": 3528,
      "Ġparty": 3529,
      "Ġminiseries": 3530,
      "which": 3531,
      "Ġgrowing": 3532,
      "Ġstarting": 3533,
      "Ġconsist": 3534,
      "Ġcapture": 3535,
      "Ġdespair": 3536,
      "Ġelements": 3537,
      "Ġ70": 3538,
      "Ġspiritual": 3539,
      "Ġdevelopment": 3540,
      "Ġmilitary": 3541,
      "Ġsuddenly": 3542,
      "Ġestab": 3543,
      "Ġhilarious": 3544,
      "amurai": 3545,
      "ancholy": 3546,
      "Even": 3547,
      "bl": 3548,
      "ns": 3549,
      "Ġ<": 3550,
      "Ġtro": 3551,
      "Ġsac": 3552,
      "ndom": 3553,
      "Ġfood": 3554,
      "Ġbunch": 3555,
      "Ġdying": 3556,
      "arp": 3557,
      "ĠIm": 3558,
      "Ġnone": 3559,
      "Ġstren": 3560,
      "Ġforces": 3561,
      "Ġhair": 3562,
      "Ġloves": 3563,
      "agine": 3564,
      "Ġcompl": 3565,
      "ĠMon": 3566,
      "Ġlikely": 3567,
      "ĠCan": 3568,
      "ĠCom": 3569,
      "Ġride": 3570,
      "Ġunbeliev": 3571,
      "arda": 3572,
      "Ġscope": 3573,
      "Ġscript": 3574,
      "ĠLove": 3575,
      "Ġbrief": 3576,
      "Ġtend": 3577,
      "aze": 3578,
      "Ġroad": 3579,
      "Ġsheer": 3580,
      "Ġhappening": 3581,
      "Ġcreates": 3582,
      "Ġpresence": 3583,
      "Ġpassing": 3584,
      "Ġtried": 3585,
      "Ġ40": 3586,
      "Ġkeeps": 3587,
      "Ġdistinct": 3588,
      "ascul": 3589,
      "ĠBeautiful": 3590,
      "Ġgeneration": 3591,
      "Ġreasons": 3592,
      "Ġsurprise": 3593,
      "Ġpriv": 3594,
      "Ġspectac": 3595,
      "Ġrespons": 3596,
      "Ġherself": 3597,
      "Ġhusb": 3598,
      "Bobby": 3599,
      "OD": 3600,
      "eper": 3601,
      "life": 3602,
      "look": 3603,
      "ror": 3604,
      "yth": 3605,
      "Ġtiny": 3606,
      "Ġaut": 3607,
      "Ġsick": 3608,
      "atory": 3609,
      "Ġburn": 3610,
      "Ġcy": 3611,
      "Ġpos": 3612,
      "icul": 3613,
      "Ġyouth": 3614,
      "Ġann": 3615,
      "olic": 3616,
      "iron": 3617,
      "raid": 3618,
      "ĠAf": 3619,
      "Ġsea": 3620,
      "Ġdebut": 3621,
      "ĠMark": 3622,
      "anted": 3623,
      "Ġfeet": 3624,
      "Ġweak": 3625,
      "aplin": 3626,
      "Ġrout": 3627,
      "Ġrating": 3628,
      "Ġtrilogy": 3629,
      "ĠDay": 3630,
      "ĠEx": 3631,
      "Ġshowed": 3632,
      "Ġcompos": 3633,
      "Ġcompelling": 3634,
      "Ġcompassion": 3635,
      "tend": 3636,
      "Ġpred": 3637,
      "weet": 3638,
      "arkovsky": 3639,
      "Ġbrother": 3640,
      "ocal": 3641,
      "Ġsimultaneously": 3642,
      "Ġdecade": 3643,
      "ĠUS": 3644,
      "Ġsett": 3645,
      "Ġbelong": 3646,
      "Ġkey": 3647,
      "ception": 3648,
      "Ġcommit": 3649,
      "Ġcommon": 3650,
      "Ġbox": 3651,
      "ternal": 3652,
      "Ġexpecting": 3653,
      "Ġkilled": 3654,
      "Ġfalling": 3655,
      "Ġseasons": 3656,
      "Ġbecoming": 3657,
      "ĠAttenborough": 3658,
      "Ġengaging": 3659,
      "Ġadmit": 3660,
      "Ġrarely": 3661,
      "Ġstructure": 3662,
      "Ġachievement": 3663,
      "Ġcalm": 3664,
      "Ġconfront": 3665,
      "iseman": 3666,
      "At": 3667,
      "All": 3668,
      "ares": 3669,
      "ga": 3670,
      "gy": 3671,
      "ha": 3672,
      "lan": 3673,
      "oom": 3674,
      "reh": 3675,
      "rel": 3676,
      "aty": 3677,
      "Ġmount": 3678,
      "itional": 3679,
      "Ġfine": 3680,
      "Ġfund": 3681,
      "Ġbi": 3682,
      "enomen": 3683,
      "esp": 3684,
      "esome": 3685,
      "Ġcas": 3686,
      "Ġcause": 3687,
      "Ġhundred": 3688,
      "orable": 3689,
      "anks": 3690,
      "Ġpen": 3691,
      "Ġpark": 3692,
      "Ġdin": 3693,
      "leg": 3694,
      "Ġbeat": 3695,
      "Ġmoon": 3696,
      "sey": 3697,
      "Ġanx": 3698,
      "Ġshall": 3699,
      "rael": 3700,
      "rib": 3701,
      "Ġdefe": 3702,
      "ĠME": 3703,
      "roud": 3704,
      "anda": 3705,
      "ques": 3706,
      "ĠItalian": 3707,
      "Ġhowever": 3708,
      "ĠPaul": 3709,
      "Ġplan": 3710,
      "Ġnobody": 3711,
      "Ġacts": 3712,
      "Ġusual": 3713,
      "Ġenv": 3714,
      "Ġrealism": 3715,
      "Ġblind": 3716,
      "ensive": 3717,
      "Ġinterpret": 3718,
      "Ġrandom": 3719,
      ".\"\"": 3720,
      "ordinary": 3721,
      "Ġgotta": 3722,
      "Ġvisually": 3723,
      "Ġsets": 3724,
      "ups": 3725,
      "scar": 3726,
      "ATCH": 3727,
      "Ġsecret": 3728,
      "Ġliteral": 3729,
      "Ġobser": 3730,
      "Ġmelancholy": 3731,
      "Ġspeaks": 3732,
      "Ġpatri": 3733,
      "Ġsignific": 3734,
      "Ġportrayal": 3735,
      "Ġstatement": 3736,
      "Ġunfold": 3737,
      "Ġsubtle": 3738,
      "Ġdancing": 3739,
      "Ġmillion": 3740,
      "Ġdisappoint": 3741,
      "ĠÂłĠÂł": 3742,
      "Ġstreng": 3743,
      "ALL": 3744,
      "VE": 3745,
      "can": 3746,
      "pet": 3747,
      "rical": 3748,
      "Ġtight": 3749,
      "Ġtyp": 3750,
      "Ġther": 3751,
      "Ġthous": 3752,
      "erner": 3753,
      "Ġoce": 3754,
      "Ġwide": 3755,
      "Ġmale": 3756,
      "Ġbond": 3757,
      "esus": 3758,
      "Ġcore": 3759,
      "Ġhat": 3760,
      "onishing": 3761,
      "iling": 3762,
      "asion": 3763,
      "ĠII": 3764,
      "Ġgest": 3765,
      "Ġgold": 3766,
      "Ġna": 3767,
      "Ġnation": 3768,
      "Ġrevis": 3769,
      "ching": 3770,
      "aylor": 3771,
      "Ġshare": 3772,
      "tered": 3773,
      "ĠAli": 3774,
      "ĠSer": 3775,
      "Ġlock": 3776,
      "ĠBest": 3777,
      "ushing": 3778,
      "Ġvast": 3779,
      "Ġsuic": 3780,
      "Ġsuff": 3781,
      "ĠEl": 3782,
      "Ġshown": 3783,
      "Ġ12": 3784,
      "ĠKe": 3785,
      "Ġendless": 3786,
      "Ġimpression": 3787,
      "ostami": 3788,
      "phas": 3789,
      "Ġtwist": 3790,
      "Ġintern": 3791,
      "Ġresist": 3792,
      "Ġseemed": 3793,
      "Ġseemingly": 3794,
      "Ġcamer": 3795,
      "Ġpoints": 3796,
      "Ġhighlight": 3797,
      "Ġdistur": 3798,
      "Ġmissing": 3799,
      "Ġchanges": 3800,
      "Ġcorrupt": 3801,
      "iarostami": 3802,
      "Ġterrifying": 3803,
      "Ġharsh": 3804,
      "Ġentertaining": 3805,
      "ĠPeople": 3806,
      "Ġpotential": 3807,
      "Ġfloor": 3808,
      "Ġdaily": 3809,
      "Ġheavy": 3810,
      "Ġsafe": 3811,
      "Ġcigaret": 3812,
      "Is": 3813,
      "Love": 3814,
      "ae": 3815,
      "fli": 3816,
      "gs": 3817,
      "Ġsour": 3818,
      "Ġmascul": 3819,
      "Ġfif": 3820,
      "Ġcatch": 3821,
      "ald": 3822,
      "Ġdedic": 3823,
      "Ġlabor": 3824,
      "Ġinh": 3825,
      "entic": 3826,
      "ette": 3827,
      "Ġmod": 3828,
      "Ġforced": 3829,
      "ĠAp": 3830,
      "ĠAnt": 3831,
      "ifting": 3832,
      "Ġjokes": 3833,
      "ĠBy": 3834,
      "Ġdeeper": 3835,
      "Ġmoves": 3836,
      "Ġunp": 3837,
      "Ġunex": 3838,
      "onely": 3839,
      "ĠDi": 3840,
      "ights": 3841,
      "Ġamer": 3842,
      "Ġ11": 3843,
      "Ġseriously": 3844,
      "who": 3845,
      "while": 3846,
      "Ġwrote": 3847,
      "Ġpersonally": 3848,
      "they": 3849,
      "Ġphenomen": 3850,
      "Ġtransl": 3851,
      "Ġformal": 3852,
      "Ġaccount": 3853,
      "Ġbuilt": 3854,
      "Ġmonth": 3855,
      "Ġdarkness": 3856,
      "Ġbegins": 3857,
      "Ġlistening": 3858,
      "Ġrelevant": 3859,
      "Ġwalking": 3860,
      "Ġcontinu": 3861,
      "Ġobserv": 3862,
      "Ġfighting": 3863,
      "Ġmeaningful": 3864,
      "Ġpsychological": 3865,
      "Ġincluding": 3866,
      "Ġproblems": 3867,
      "Ġhyper": 3868,
      "Ġmassive": 3869,
      "Ġsoldiers": 3870,
      "Ġhypnot": 3871,
      "Ġprevious": 3872,
      "Ġbarely": 3873,
      "Ġslightly": 3874,
      "Ġetc": 3875,
      "fortunately": 3876,
      "AK": 3877,
      "De": 3878,
      "IE": 3879,
      "IG": 3880,
      "even": 3881,
      "mark": 3882,
      "ris": 3883,
      "ron": 3884,
      "ras": 3885,
      "rant": 3886,
      "sm": 3887,
      "Ġawe": 3888,
      "Ġwake": 3889,
      "ata": 3890,
      "itz": 3891,
      "Ġfle": 3892,
      "Ġbott": 3893,
      "Ġcaught": 3894,
      "Ġhun": 3895,
      "ano": 3896,
      "Ġpunch": 3897,
      "Ġdyn": 3898,
      "Ġdaughter": 3899,
      "Ġeth": 3900,
      "iled": 3901,
      "illy": 3902,
      "sec": 3903,
      "ules": 3904,
      "ros": 3905,
      "roph": 3906,
      "ĠAny": 3907,
      "estival": 3908,
      "Ġsoft": 3909,
      "cknow": 3910,
      "Ġje": 3911,
      "ĠMr": 3912,
      "ĠMal": 3913,
      "ĠMore": 3914,
      "Ġvul": 3915,
      "ĠCinema": 3916,
      "aped": 3917,
      "Ġrid": 3918,
      "Ġtrust": 3919,
      "ples": 3920,
      "Ġthanks": 3921,
      "ĠNe": 3922,
      "Ġarc": 3923,
      "Ġambit": 3924,
      "Ġspot": 3925,
      "Ġprem": 3926,
      "Ġadv": 3927,
      "Ġprim": 3928,
      "Ġfuckin": 3929,
      "ĠChaplin": 3930,
      "wards": 3931,
      "ĠTHAT": 3932,
      "Ġpaint": 3933,
      "Ġpainful": 3934,
      "Ġputs": 3935,
      "Ġcentral": 3936,
      "Ġconstant": 3937,
      "Ġconstruct": 3938,
      "Ġeffective": 3939,
      "Ġessentially": 3940,
      "Ġconnection": 3941,
      "Ġlarger": 3942,
      "Ġvalue": 3943,
      "Ġindividuals": 3944,
      "Ġlimit": 3945,
      "Ġradical": 3946,
      "Ġturning": 3947,
      "Ġvillage": 3948,
      "Ġreligious": 3949,
      "Ġmagnific": 3950,
      "Ġadaptation": 3951,
      "Ġastonishing": 3952,
      "Ġsituation": 3953,
      "Ġrhyth": 3954,
      "Ġargument": 3955,
      "known": 3956,
      "Ġtaste": 3957,
      "ĠDisney": 3958,
      "Ġgentle": 3959,
      "Ġtrope": 3960,
      "Ġhusband": 3961,
      "Don": 3962,
      "down": 3963,
      "fuck": 3964,
      "miss": 3965,
      "pir": 3966,
      "Ġtort": 3967,
      "Ġacknow": 3968,
      "Ġthorough": 3969,
      "Ġmouth": 3970,
      "itiz": 3971,
      "Ġfast": 3972,
      "Ġfix": 3973,
      "Ġfilled": 3974,
      "Ġcos": 3975,
      "Ġcath": 3976,
      "Ġharr": 3977,
      "Ġhidden": 3978,
      "alt": 3979,
      "Ġpan": 3980,
      "arre": 3981,
      "Ġlines": 3982,
      "Ġloud": 3983,
      "Ġlonely": 3984,
      "ĠIM": 3985,
      "Ġgut": 3986,
      "stop": 3987,
      "oto": 3988,
      "verty": 3989,
      "Ġug": 3990,
      "iro": 3991,
      "Ġshared": 3992,
      "rage": 3993,
      "ĠSw": 3994,
      "ĠSee": 3995,
      "Ġabst": 3996,
      "Ġabuse": 3997,
      "Ġmyth": 3998,
      "Ġhearing": 3999
    },
    "merges": [
      [
        "Ġ",
        "t"
      ],
      [
        "Ġ",
        "a"
      ],
      [
        "i",
        "n"
      ],
      [
        "Ġt",
        "h"
      ],
      [
        "e",
        "r"
      ],
      [
        "Ġ",
        "s"
      ],
      [
        "Ġ",
        "o"
      ],
      [
        "Ġth",
        "e"
      ],
      [
        "Ġ",
        "w"
      ],
      [
        "r",
        "e"
      ],
      [
        "i",
        "s"
      ],
      [
        "a",
        "t"
      ],
      [
        "n",
        "d"
      ],
      [
        "Ġ",
        "m"
      ],
      [
        "i",
        "t"
      ],
      [
        "in",
        "g"
      ],
      [
        "Ġ",
        "f"
      ],
      [
        "Ġ",
        "b"
      ],
      [
        "e",
        "n"
      ],
      [
        "e",
        "s"
      ],
      [
        "Ġ",
        "c"
      ],
      [
        "Ġ",
        "h"
      ],
      [
        "o",
        "n"
      ],
      [
        "o",
        "u"
      ],
      [
        "Ġo",
        "f"
      ],
      [
        "o",
        "r"
      ],
      [
        "a",
        "n"
      ],
      [
        "Ġa",
        "nd"
      ],
      [
        "a",
        "l"
      ],
      [
        "Ġ",
        "p"
      ],
      [
        "Ġ",
        "d"
      ],
      [
        "Ġt",
        "o"
      ],
      [
        "e",
        "d"
      ],
      [
        "a",
        "r"
      ],
      [
        "Ġ",
        "l"
      ],
      [
        "Ġ",
        "in"
      ],
      [
        "l",
        "y"
      ],
      [
        "Ġ",
        "e"
      ],
      [
        "i",
        "l"
      ],
      [
        "a",
        "s"
      ],
      [
        "i",
        "c"
      ],
      [
        "o",
        "m"
      ],
      [
        "Ġ",
        "I"
      ],
      [
        "â",
        "Ģ"
      ],
      [
        "u",
        "t"
      ],
      [
        "Ġ",
        "g"
      ],
      [
        "v",
        "e"
      ],
      [
        "s",
        "t"
      ],
      [
        "Ġ",
        "it"
      ],
      [
        "l",
        "e"
      ],
      [
        "Ġb",
        "e"
      ],
      [
        "Ġ",
        "n"
      ],
      [
        "Ġ",
        "is"
      ],
      [
        "o",
        "w"
      ],
      [
        "o",
        "t"
      ],
      [
        "i",
        "m"
      ],
      [
        "i",
        "on"
      ],
      [
        "v",
        "er"
      ],
      [
        "Ġth",
        "at"
      ],
      [
        "Ġw",
        "h"
      ],
      [
        "en",
        "t"
      ],
      [
        "Ġ",
        "re"
      ],
      [
        "e",
        "l"
      ],
      [
        "c",
        "h"
      ],
      [
        "Ġo",
        "n"
      ],
      [
        "Ġ",
        "y"
      ],
      [
        "c",
        "t"
      ],
      [
        "e",
        "t"
      ],
      [
        "a",
        "y"
      ],
      [
        "Ġth",
        "is"
      ],
      [
        "Ġs",
        "t"
      ],
      [
        "Ġy",
        "ou"
      ],
      [
        "T",
        "h"
      ],
      [
        "c",
        "e"
      ],
      [
        "Ġm",
        "o"
      ],
      [
        "âĢ",
        "Ļ"
      ],
      [
        "Ġ",
        "u"
      ],
      [
        "a",
        "d"
      ],
      [
        "g",
        "h"
      ],
      [
        "s",
        "e"
      ],
      [
        "Ġl",
        "i"
      ],
      [
        "Ġf",
        "or"
      ],
      [
        "i",
        "d"
      ],
      [
        "it",
        "h"
      ],
      [
        "Ġa",
        "n"
      ],
      [
        "Ġa",
        "l"
      ],
      [
        "a",
        "m"
      ],
      [
        "'",
        "s"
      ],
      [
        "k",
        "e"
      ],
      [
        "u",
        "r"
      ],
      [
        "o",
        "l"
      ],
      [
        "i",
        "r"
      ],
      [
        "t",
        "h"
      ],
      [
        "Ġw",
        "ith"
      ],
      [
        "Ġa",
        "s"
      ],
      [
        "i",
        "e"
      ],
      [
        "u",
        "l"
      ],
      [
        "er",
        "e"
      ],
      [
        "Ġs",
        "h"
      ],
      [
        "il",
        "m"
      ],
      [
        "t",
        "er"
      ],
      [
        "l",
        "d"
      ],
      [
        "Ġf",
        "ilm"
      ],
      [
        "r",
        "a"
      ],
      [
        "r",
        "o"
      ],
      [
        "Ġ",
        "A"
      ],
      [
        "i",
        "f"
      ],
      [
        "es",
        "t"
      ],
      [
        "Ġb",
        "ut"
      ],
      [
        "Ġs",
        "e"
      ],
      [
        "Ġ",
        "Th"
      ],
      [
        "Ġs",
        "o"
      ],
      [
        "Ġm",
        "e"
      ],
      [
        "Ġw",
        "as"
      ],
      [
        "c",
        "k"
      ],
      [
        "Ġh",
        "a"
      ],
      [
        "al",
        "ly"
      ],
      [
        "Ġ",
        "S"
      ],
      [
        "Ġ",
        "j"
      ],
      [
        "o",
        "d"
      ],
      [
        "Ġa",
        "b"
      ],
      [
        "Ġm",
        "y"
      ],
      [
        "is",
        "t"
      ],
      [
        "il",
        "l"
      ],
      [
        "Ġh",
        "e"
      ],
      [
        "Ġe",
        "x"
      ],
      [
        "u",
        "m"
      ],
      [
        "u",
        "st"
      ],
      [
        "Ġl",
        "o"
      ],
      [
        "e",
        "m"
      ],
      [
        "ou",
        "t"
      ],
      [
        "o",
        "p"
      ],
      [
        "es",
        "s"
      ],
      [
        "a",
        "k"
      ],
      [
        "gh",
        "t"
      ],
      [
        "Ġc",
        "h"
      ],
      [
        "er",
        "s"
      ],
      [
        "at",
        "ion"
      ],
      [
        "Ġe",
        "ver"
      ],
      [
        "Ġd",
        "o"
      ],
      [
        "Ġf",
        "r"
      ],
      [
        "a",
        "g"
      ],
      [
        "Ġ",
        "B"
      ],
      [
        "r",
        "i"
      ],
      [
        "Ġn",
        "ot"
      ],
      [
        "Ġd",
        "e"
      ],
      [
        "Ġc",
        "om"
      ],
      [
        "Ġ",
        "M"
      ],
      [
        "an",
        "t"
      ],
      [
        "Ġ",
        "k"
      ],
      [
        "Ġa",
        "t"
      ],
      [
        "Ġc",
        "on"
      ],
      [
        "Ġ",
        "i"
      ],
      [
        "u",
        "n"
      ],
      [
        "Ġon",
        "e"
      ],
      [
        "Ġw",
        "or"
      ],
      [
        "Ġal",
        "l"
      ],
      [
        "i",
        "es"
      ],
      [
        "Ġ",
        "W"
      ],
      [
        "p",
        "e"
      ],
      [
        "Ġli",
        "ke"
      ],
      [
        "u",
        "s"
      ],
      [
        "Ġn",
        "e"
      ],
      [
        "Ġa",
        "re"
      ],
      [
        "Ġ",
        "v"
      ],
      [
        "ar",
        "t"
      ],
      [
        "at",
        "ch"
      ],
      [
        "ou",
        "ld"
      ],
      [
        "i",
        "ve"
      ],
      [
        "u",
        "re"
      ],
      [
        "Ġh",
        "is"
      ],
      [
        "im",
        "e"
      ],
      [
        "a",
        "in"
      ],
      [
        "a",
        "b"
      ],
      [
        "Ġab",
        "out"
      ],
      [
        "Ġs",
        "om"
      ],
      [
        "f",
        "e"
      ],
      [
        "ĠTh",
        "e"
      ],
      [
        "r",
        "ou"
      ],
      [
        "Ġ",
        "H"
      ],
      [
        ".",
        "."
      ],
      [
        "Ġf",
        "e"
      ],
      [
        "a",
        "nd"
      ],
      [
        "Ġmo",
        "v"
      ],
      [
        "Ġw",
        "e"
      ],
      [
        "it",
        "y"
      ],
      [
        "o",
        "s"
      ],
      [
        "Ġj",
        "ust"
      ],
      [
        "el",
        "l"
      ],
      [
        "Ġ",
        "C"
      ],
      [
        "'",
        "t"
      ],
      [
        "at",
        "e"
      ],
      [
        "Ġc",
        "an"
      ],
      [
        "a",
        "p"
      ],
      [
        "Ġg",
        "o"
      ],
      [
        "Ġs",
        "u"
      ],
      [
        "Ġ",
        "T"
      ],
      [
        "q",
        "u"
      ],
      [
        "Ġin",
        "t"
      ],
      [
        "Ġha",
        "ve"
      ],
      [
        "Ġ",
        "r"
      ],
      [
        "Ġu",
        "n"
      ],
      [
        "Ġfr",
        "om"
      ],
      [
        "Ġb",
        "y"
      ],
      [
        "as",
        "t"
      ],
      [
        "in",
        "d"
      ],
      [
        "Ġ",
        "im"
      ],
      [
        "on",
        "g"
      ],
      [
        "Ġw",
        "atch"
      ],
      [
        "on",
        "e"
      ],
      [
        "Ġwh",
        "o"
      ],
      [
        "ĠI",
        "t"
      ],
      [
        "i",
        "re"
      ],
      [
        "v",
        "en"
      ],
      [
        "p",
        "p"
      ],
      [
        "a",
        "ct"
      ],
      [
        "Ġo",
        "r"
      ],
      [
        "re",
        "at"
      ],
      [
        "ou",
        "s"
      ],
      [
        "Ġthe",
        "y"
      ],
      [
        "Ġ",
        "F"
      ],
      [
        "re",
        "s"
      ],
      [
        "or",
        "t"
      ],
      [
        "ou",
        "r"
      ],
      [
        "ar",
        "d"
      ],
      [
        "Ġever",
        "y"
      ],
      [
        "Ġt",
        "r"
      ],
      [
        "Ġo",
        "ut"
      ],
      [
        "Ġh",
        "ow"
      ],
      [
        "Ġm",
        "an"
      ],
      [
        "Ġwh",
        "at"
      ],
      [
        "Ġ",
        "D"
      ],
      [
        "Ġt",
        "ime"
      ],
      [
        "or",
        "y"
      ],
      [
        "o",
        "re"
      ],
      [
        "Ġit",
        "s"
      ],
      [
        "h",
        "er"
      ],
      [
        "a",
        "u"
      ],
      [
        "i",
        "ght"
      ],
      [
        "Ġp",
        "ro"
      ],
      [
        "o",
        "k"
      ],
      [
        "Ġ",
        "("
      ],
      [
        "i",
        "g"
      ],
      [
        "e",
        "ar"
      ],
      [
        "Ġmo",
        "re"
      ],
      [
        "Ġs",
        "c"
      ],
      [
        "en",
        "ce"
      ],
      [
        "Ġ",
        "P"
      ],
      [
        "Ġ",
        "L"
      ],
      [
        "a",
        "ck"
      ],
      [
        "Ġmo",
        "st"
      ],
      [
        "al",
        "l"
      ],
      [
        "it",
        "e"
      ],
      [
        "Ġfe",
        "el"
      ],
      [
        "h",
        "ing"
      ],
      [
        "Ġp",
        "l"
      ],
      [
        "Ġmov",
        "ie"
      ],
      [
        "Ġp",
        "e"
      ],
      [
        "Ġk",
        "n"
      ],
      [
        "Ġu",
        "p"
      ],
      [
        "Ġbe",
        "c"
      ],
      [
        "i",
        "al"
      ],
      [
        "Ġthe",
        "ir"
      ],
      [
        "Ġint",
        "o"
      ],
      [
        "Ġwh",
        "en"
      ],
      [
        "g",
        "e"
      ],
      [
        "Ġ",
        "R"
      ],
      [
        "Ġ",
        "G"
      ],
      [
        "Ġp",
        "er"
      ],
      [
        "Ġsom",
        "e"
      ],
      [
        "ic",
        "h"
      ],
      [
        "Ġli",
        "fe"
      ],
      [
        "Ġlo",
        "ve"
      ],
      [
        "p",
        "er"
      ],
      [
        "a",
        "ke"
      ],
      [
        "Ġl",
        "e"
      ],
      [
        "i",
        "b"
      ],
      [
        "in",
        "k"
      ],
      [
        "Ġthe",
        "m"
      ],
      [
        "Ġh",
        "as"
      ],
      [
        "u",
        "ch"
      ],
      [
        "op",
        "le"
      ],
      [
        "o",
        "g"
      ],
      [
        "Ġ",
        "E"
      ],
      [
        "am",
        "e"
      ],
      [
        "ay",
        "s"
      ],
      [
        "Ġ",
        "O"
      ],
      [
        "Th",
        "e"
      ],
      [
        "p",
        "l"
      ],
      [
        "âĢ",
        "¦"
      ],
      [
        "a",
        "re"
      ],
      [
        "Ġan",
        "y"
      ],
      [
        "a",
        "v"
      ],
      [
        "nd",
        "er"
      ],
      [
        "id",
        "e"
      ],
      [
        "Ġ",
        "J"
      ],
      [
        "ic",
        "al"
      ],
      [
        "Ġpe",
        "ople"
      ],
      [
        "Ġkn",
        "ow"
      ],
      [
        "i",
        "v"
      ],
      [
        "Ġn",
        "o"
      ],
      [
        "as",
        "s"
      ],
      [
        "Ġth",
        "an"
      ],
      [
        "Ġyou",
        "r"
      ],
      [
        "p",
        "t"
      ],
      [
        "Ġsh",
        "ow"
      ],
      [
        "f",
        "ul"
      ],
      [
        "Ġ",
        "N"
      ],
      [
        "Ġa",
        "r"
      ],
      [
        "ver",
        "y"
      ],
      [
        "âĢ",
        "ľ"
      ],
      [
        "Ġg",
        "et"
      ],
      [
        "Ġa",
        "ct"
      ],
      [
        "Ġc",
        "l"
      ],
      [
        "r",
        "y"
      ],
      [
        "âĢ",
        "Ŀ"
      ],
      [
        "el",
        "f"
      ],
      [
        "i",
        "z"
      ],
      [
        "Ġ",
        "if"
      ],
      [
        "Ġa",
        "m"
      ],
      [
        "Ġm",
        "uch"
      ],
      [
        "Ġth",
        "ere"
      ],
      [
        "ar",
        "y"
      ],
      [
        "u",
        "d"
      ],
      [
        "Ġ",
        "1"
      ],
      [
        "Ġon",
        "ly"
      ],
      [
        "au",
        "se"
      ],
      [
        "o",
        "se"
      ],
      [
        "ad",
        "e"
      ],
      [
        "Ġse",
        "e"
      ],
      [
        "in",
        "e"
      ],
      [
        "Ġe",
        "ven"
      ],
      [
        "ab",
        "le"
      ],
      [
        "Ġw",
        "ould"
      ],
      [
        "Ġo",
        "ver"
      ],
      [
        "Ġw",
        "ill"
      ],
      [
        "Ġ",
        "\""
      ],
      [
        "is",
        "h"
      ],
      [
        "ing",
        "s"
      ],
      [
        "rou",
        "gh"
      ],
      [
        "Ġu",
        "s"
      ],
      [
        "a",
        "c"
      ],
      [
        "Ġh",
        "er"
      ],
      [
        "m",
        "ent"
      ],
      [
        "Ġth",
        "ink"
      ],
      [
        "Ġ",
        "en"
      ],
      [
        "ag",
        "e"
      ],
      [
        "a",
        "ch"
      ],
      [
        "Ġw",
        "ay"
      ],
      [
        "Ġe",
        "m"
      ],
      [
        "Ġwor",
        "ld"
      ],
      [
        "an",
        "ce"
      ],
      [
        "n",
        "e"
      ],
      [
        "e",
        "p"
      ],
      [
        "an",
        "s"
      ],
      [
        "Ġch",
        "ar"
      ],
      [
        "il",
        "e"
      ],
      [
        "Ġcom",
        "p"
      ],
      [
        "a",
        "ce"
      ],
      [
        "Ġg",
        "reat"
      ],
      [
        "Ġth",
        "rough"
      ],
      [
        "an",
        "g"
      ],
      [
        "Ġp",
        "o"
      ],
      [
        "u",
        "ck"
      ],
      [
        "a",
        "ut"
      ],
      [
        "Ġ",
        "K"
      ],
      [
        "Ġre",
        "ally"
      ],
      [
        "t",
        "ing"
      ],
      [
        "Ġbec",
        "ause"
      ],
      [
        "res",
        "s"
      ],
      [
        "or",
        "m"
      ],
      [
        "Ġs",
        "p"
      ],
      [
        "Ġd",
        "on"
      ],
      [
        "in",
        "em"
      ],
      [
        "s",
        "o"
      ],
      [
        "Ġre",
        "al"
      ],
      [
        "Ġa",
        "g"
      ],
      [
        "Ġy",
        "ear"
      ],
      [
        "Ġne",
        "ver"
      ],
      [
        "Ġwh",
        "ich"
      ],
      [
        "ion",
        "s"
      ],
      [
        "Ġo",
        "th"
      ],
      [
        "Ġ",
        "qu"
      ],
      [
        "u",
        "e"
      ],
      [
        "ir",
        "st"
      ],
      [
        "Ġwor",
        "k"
      ],
      [
        "Ġa",
        "f"
      ],
      [
        "th",
        "ing"
      ],
      [
        "Ġe",
        "nd"
      ],
      [
        "ak",
        "ing"
      ],
      [
        "at",
        "ed"
      ],
      [
        "Ġsom",
        "et"
      ],
      [
        "Ġbe",
        "t"
      ],
      [
        "Ġh",
        "ad"
      ],
      [
        "i",
        "ous"
      ],
      [
        "n",
        "t"
      ],
      [
        "Ġb",
        "est"
      ],
      [
        "u",
        "al"
      ],
      [
        "Ġbe",
        "ing"
      ],
      [
        "ak",
        "es"
      ],
      [
        "Ġbe",
        "en"
      ],
      [
        "r",
        "u"
      ],
      [
        "Ġchar",
        "act"
      ],
      [
        "t",
        "e"
      ],
      [
        "at",
        "h"
      ],
      [
        "Ġim",
        "p"
      ],
      [
        "i",
        "p"
      ],
      [
        "Ġm",
        "ade"
      ],
      [
        "Ġh",
        "um"
      ],
      [
        "c",
        "es"
      ],
      [
        "Ġbe",
        "aut"
      ],
      [
        "om",
        "e"
      ],
      [
        "Ġse",
        "en"
      ],
      [
        "Ġb",
        "l"
      ],
      [
        "Ġst",
        "ory"
      ],
      [
        "Ġw",
        "ant"
      ],
      [
        "ou",
        "gh"
      ],
      [
        "Ġc",
        "inem"
      ],
      [
        "ou",
        "nd"
      ],
      [
        "Ġh",
        "im"
      ],
      [
        "Ġf",
        "irst"
      ],
      [
        "ic",
        "e"
      ],
      [
        "Ġc",
        "ould"
      ],
      [
        "Ġd",
        "is"
      ],
      [
        "Ġd",
        "id"
      ],
      [
        "at",
        "ing"
      ],
      [
        "v",
        "es"
      ],
      [
        "Ġp",
        "re"
      ],
      [
        "ie",
        "w"
      ],
      [
        "'",
        "m"
      ],
      [
        "Ġs",
        "pe"
      ],
      [
        "o",
        "st"
      ],
      [
        "Ġ",
        "Y"
      ],
      [
        "w",
        "e"
      ],
      [
        "p",
        "h"
      ],
      [
        "il",
        "d"
      ],
      [
        "rou",
        "nd"
      ],
      [
        "Ġp",
        "art"
      ],
      [
        "Ġ",
        "2"
      ],
      [
        "Ġa",
        "d"
      ],
      [
        "Ġd",
        "es"
      ],
      [
        "ar",
        "k"
      ],
      [
        "Ġwh",
        "ere"
      ],
      [
        "Ġfilm",
        "s"
      ],
      [
        "..",
        "."
      ],
      [
        "Ġoth",
        "er"
      ],
      [
        "ul",
        "t"
      ],
      [
        "Ġdo",
        "c"
      ],
      [
        "'",
        "ve"
      ],
      [
        "Ġs",
        "er"
      ],
      [
        "l",
        "l"
      ],
      [
        "Ġ",
        "-"
      ],
      [
        "a",
        "w"
      ],
      [
        "o",
        "nd"
      ],
      [
        "Ġs",
        "ay"
      ],
      [
        "it",
        "t"
      ],
      [
        "o",
        "y"
      ],
      [
        "um",
        "ent"
      ],
      [
        "is",
        "m"
      ],
      [
        "if",
        "ul"
      ],
      [
        "Ġb",
        "r"
      ],
      [
        "fe",
        "ct"
      ],
      [
        "Ġre",
        "m"
      ],
      [
        "!",
        "!"
      ],
      [
        "ic",
        "t"
      ],
      [
        "ow",
        "n"
      ],
      [
        "Ġsomet",
        "hing"
      ],
      [
        "ic",
        "k"
      ],
      [
        "er",
        "t"
      ],
      [
        "f",
        "orm"
      ],
      [
        "Ġgo",
        "od"
      ],
      [
        "f",
        "er"
      ],
      [
        "ire",
        "ct"
      ],
      [
        "Ġ",
        "very"
      ],
      [
        "Ġt",
        "w"
      ],
      [
        "Ġt",
        "e"
      ],
      [
        "Ġb",
        "ack"
      ],
      [
        "n",
        "ing"
      ],
      [
        "Ġm",
        "ake"
      ],
      [
        "o",
        "c"
      ],
      [
        "re",
        "d"
      ],
      [
        "en",
        "s"
      ],
      [
        "Ġp",
        "ers"
      ],
      [
        "Ġu",
        "nder"
      ],
      [
        "o",
        "od"
      ],
      [
        "v",
        "ing"
      ],
      [
        "Ġal",
        "so"
      ],
      [
        "Ġdo",
        "es"
      ],
      [
        "Ġin",
        "ter"
      ],
      [
        "Ġe",
        "p"
      ],
      [
        "Ġ",
        "ent"
      ],
      [
        "Ġn",
        "ow"
      ],
      [
        "Ġo",
        "ur"
      ],
      [
        "c",
        "c"
      ],
      [
        "n",
        "ess"
      ],
      [
        "Ġlo",
        "ok"
      ],
      [
        "Ġbeaut",
        "iful"
      ],
      [
        "l",
        "ow"
      ],
      [
        "c",
        "i"
      ],
      [
        "Ġthe",
        "se"
      ],
      [
        "Ġl",
        "ong"
      ],
      [
        "ut",
        "e"
      ],
      [
        "s",
        "h"
      ],
      [
        "Ġst",
        "ill"
      ],
      [
        "Ġ",
        "âĢľ"
      ],
      [
        "Ġf",
        "in"
      ],
      [
        "Ġaf",
        "ter"
      ],
      [
        "Ġh",
        "ere"
      ],
      [
        "Ġw",
        "ere"
      ],
      [
        "Ġm",
        "in"
      ],
      [
        "Ġm",
        "om"
      ],
      [
        "Ġd",
        "irect"
      ],
      [
        "a",
        "z"
      ],
      [
        "Ġ",
        "ri"
      ],
      [
        "Ġthe",
        "n"
      ],
      [
        "ib",
        "le"
      ],
      [
        "Ġar",
        "t"
      ],
      [
        "u",
        "ally"
      ],
      [
        "w",
        "n"
      ],
      [
        "Ġ",
        "ra"
      ],
      [
        "i",
        "an"
      ],
      [
        "al",
        "k"
      ],
      [
        "ol",
        "d"
      ],
      [
        "Ġdoc",
        "ument"
      ],
      [
        "ot",
        "h"
      ],
      [
        "Ġhum",
        "an"
      ],
      [
        "re",
        "e"
      ],
      [
        "pe",
        "ct"
      ],
      [
        "i",
        "ence"
      ],
      [
        "i",
        "ly"
      ],
      [
        "Ġt",
        "ra"
      ],
      [
        "Ġin",
        "c"
      ],
      [
        "ent",
        "s"
      ],
      [
        "w",
        "h"
      ],
      [
        "Ġcon",
        "t"
      ],
      [
        "Ġman",
        "y"
      ],
      [
        "in",
        "t"
      ],
      [
        "ĠTh",
        "is"
      ],
      [
        "ĠW",
        "h"
      ],
      [
        "ot",
        "her"
      ],
      [
        "Ġwatch",
        "ing"
      ],
      [
        "Ġ",
        "ro"
      ],
      [
        "Ġsh",
        "e"
      ],
      [
        "t",
        "y"
      ],
      [
        "Ġw",
        "r"
      ],
      [
        "Ġex",
        "per"
      ],
      [
        "s",
        "elf"
      ],
      [
        "im",
        "es"
      ],
      [
        "Ġm",
        "us"
      ],
      [
        "Ġc",
        "r"
      ],
      [
        "w",
        "ays"
      ],
      [
        "b",
        "e"
      ],
      [
        "b",
        "er"
      ],
      [
        "Ġp",
        "r"
      ],
      [
        "ur",
        "n"
      ],
      [
        "re",
        "am"
      ],
      [
        "Ġre",
        "c"
      ],
      [
        "Ġf",
        "uck"
      ],
      [
        "âĢ",
        "Ķ"
      ],
      [
        "v",
        "ed"
      ],
      [
        "Ġg",
        "u"
      ],
      [
        "Ġpers",
        "on"
      ],
      [
        "i",
        "a"
      ],
      [
        "ar",
        "r"
      ],
      [
        "f",
        "ore"
      ],
      [
        "Ġre",
        "s"
      ],
      [
        "Ġhe",
        "art"
      ],
      [
        "Ġag",
        "ain"
      ],
      [
        "Ġto",
        "o"
      ],
      [
        "Ġa",
        "w"
      ],
      [
        "Ġwh",
        "ile"
      ],
      [
        "Ġyear",
        "s"
      ],
      [
        "ve",
        "l"
      ],
      [
        "ver",
        "s"
      ],
      [
        "Ġs",
        "ur"
      ],
      [
        "Ġg",
        "en"
      ],
      [
        "Ġsu",
        "ch"
      ],
      [
        "ĠA",
        "nd"
      ],
      [
        "Ġg",
        "r"
      ],
      [
        "Ġcinem",
        "a"
      ],
      [
        "at",
        "er"
      ],
      [
        "Ġof",
        "f"
      ],
      [
        "th",
        "e"
      ],
      [
        "a",
        "il"
      ],
      [
        "is",
        "e"
      ],
      [
        "Ġal",
        "ways"
      ],
      [
        "f",
        "f"
      ],
      [
        "Ġo",
        "wn"
      ],
      [
        ".",
        "\""
      ],
      [
        "y",
        "ing"
      ],
      [
        "m",
        "er"
      ],
      [
        "en",
        "se"
      ],
      [
        "Ġh",
        "ist"
      ],
      [
        "as",
        "ter"
      ],
      [
        "Ġtw",
        "o"
      ],
      [
        "Ġw",
        "ar"
      ],
      [
        "o",
        "b"
      ],
      [
        "Ġw",
        "ell"
      ],
      [
        "r",
        "am"
      ],
      [
        "Ġth",
        "ose"
      ],
      [
        "Ġs",
        "im"
      ],
      [
        "or",
        "s"
      ],
      [
        "e",
        "ct"
      ],
      [
        "is",
        "od"
      ],
      [
        "l",
        "ess"
      ],
      [
        "Ġha",
        "pp"
      ],
      [
        "Ġth",
        "ings"
      ],
      [
        "'",
        "re"
      ],
      [
        "Ġc",
        "o"
      ],
      [
        "f",
        "t"
      ],
      [
        "Ġin",
        "s"
      ],
      [
        "Ġem",
        "ot"
      ],
      [
        "Ġth",
        "ing"
      ],
      [
        "re",
        "n"
      ],
      [
        "Th",
        "is"
      ],
      [
        "Ġser",
        "ies"
      ],
      [
        "ation",
        "s"
      ],
      [
        "Ġgo",
        "ing"
      ],
      [
        "Ġsc",
        "en"
      ],
      [
        "ow",
        "er"
      ],
      [
        "Ġc",
        "ol"
      ],
      [
        "Ġf",
        "l"
      ],
      [
        "Ġm",
        "akes"
      ],
      [
        "Ġs",
        "m"
      ],
      [
        "Ġbe",
        "fore"
      ],
      [
        "Ġper",
        "form"
      ],
      [
        "Ġd",
        "if"
      ],
      [
        "Ġs",
        "ame"
      ],
      [
        "Ġf",
        "ind"
      ],
      [
        "at",
        "ive"
      ],
      [
        "ul",
        "l"
      ],
      [
        "Ġne",
        "ed"
      ],
      [
        "Ġre",
        "l"
      ],
      [
        "d",
        "er"
      ],
      [
        "a",
        "ve"
      ],
      [
        "Ġsu",
        "b"
      ],
      [
        "ie",
        "ce"
      ],
      [
        "Ġep",
        "isod"
      ],
      [
        "h",
        "e"
      ],
      [
        "Ġri",
        "ght"
      ],
      [
        "Ġmus",
        "ic"
      ],
      [
        "ab",
        "ly"
      ],
      [
        "i",
        "gh"
      ],
      [
        "os",
        "s"
      ],
      [
        "ion",
        "al"
      ],
      [
        "Ġa",
        "round"
      ],
      [
        "itt",
        "le"
      ],
      [
        "Ġe",
        "v"
      ],
      [
        "at",
        "ure"
      ],
      [
        "Ġab",
        "s"
      ],
      [
        "m",
        "e"
      ],
      [
        "Ġcomp",
        "le"
      ],
      [
        "ou",
        "nt"
      ],
      [
        "Ġl",
        "ast"
      ],
      [
        "c",
        "ial"
      ],
      [
        "Ġf",
        "av"
      ],
      [
        "Ġh",
        "our"
      ],
      [
        "Ġch",
        "ild"
      ],
      [
        "Ġf",
        "am"
      ],
      [
        "ou",
        "ght"
      ],
      [
        "as",
        "on"
      ],
      [
        "Ġevery",
        "thing"
      ],
      [
        "ct",
        "ion"
      ],
      [
        "Ġpl",
        "ay"
      ],
      [
        "g",
        "et"
      ],
      [
        "Ġ",
        "V"
      ],
      [
        "at",
        "ic"
      ],
      [
        "ie",
        "nd"
      ],
      [
        "v",
        "iew"
      ],
      [
        "ĠC",
        "h"
      ],
      [
        "Ġd",
        "own"
      ],
      [
        "we",
        "en"
      ],
      [
        "Ġdocument",
        "ary"
      ],
      [
        "m",
        "an"
      ],
      [
        "ĠB",
        "ut"
      ],
      [
        "w",
        "ard"
      ],
      [
        "a",
        "id"
      ],
      [
        "g",
        "in"
      ],
      [
        "as",
        "e"
      ],
      [
        "Ġt",
        "ell"
      ],
      [
        "Ġst",
        "art"
      ],
      [
        "Ġcharact",
        "ers"
      ],
      [
        "Ġm",
        "aster"
      ],
      [
        "or",
        "d"
      ],
      [
        "Ġl",
        "ittle"
      ],
      [
        "Ġli",
        "ve"
      ],
      [
        "Ġmov",
        "ies"
      ],
      [
        "Ġp",
        "ower"
      ],
      [
        "at",
        "her"
      ],
      [
        "Ġg",
        "ot"
      ],
      [
        "Ġde",
        "c"
      ],
      [
        "Ġne",
        "w"
      ],
      [
        "ĠH",
        "e"
      ],
      [
        "m",
        "ost"
      ],
      [
        "Ġo",
        "b"
      ],
      [
        "Ġm",
        "ay"
      ],
      [
        "Ġsh",
        "ould"
      ],
      [
        "Ġp",
        "h"
      ],
      [
        "Ġw",
        "om"
      ],
      [
        "Ġd",
        "ay"
      ],
      [
        "Ġbet",
        "ween"
      ],
      [
        "Ġ",
        "U"
      ],
      [
        "ig",
        "n"
      ],
      [
        "Ġim",
        "ag"
      ],
      [
        "Ġent",
        "ire"
      ],
      [
        "Ġex",
        "pl"
      ],
      [
        "Ġv",
        "is"
      ],
      [
        "g",
        "g"
      ],
      [
        "j",
        "ect"
      ],
      [
        "is",
        "s"
      ],
      [
        "op",
        "e"
      ],
      [
        "Ġcharact",
        "er"
      ],
      [
        "ð",
        "Ł"
      ],
      [
        "Ġs",
        "ing"
      ],
      [
        "Ġ2",
        "0"
      ],
      [
        "I",
        "t"
      ],
      [
        "Ġf",
        "un"
      ],
      [
        "l",
        "es"
      ],
      [
        "y",
        "s"
      ],
      [
        "al",
        "e"
      ],
      [
        "st",
        "and"
      ],
      [
        "Ġse",
        "em"
      ],
      [
        "W",
        "h"
      ],
      [
        "Ġth",
        "ought"
      ],
      [
        "Ġs",
        "et"
      ],
      [
        "Ġper",
        "fect"
      ],
      [
        "Ġb",
        "oth"
      ],
      [
        "Ġwith",
        "out"
      ],
      [
        "l",
        "ing"
      ],
      [
        "Ġbe",
        "l"
      ],
      [
        "Ġ1",
        "9"
      ],
      [
        "Ġbet",
        "ter"
      ],
      [
        "Ġdid",
        "n"
      ],
      [
        "x",
        "t"
      ],
      [
        "ĠI",
        "n"
      ],
      [
        "ĠT",
        "H"
      ],
      [
        "Ġex",
        "ist"
      ],
      [
        "it",
        "er"
      ],
      [
        "Ġh",
        "ard"
      ],
      [
        "Ġl",
        "ot"
      ],
      [
        "Ġan",
        "im"
      ],
      [
        "d",
        "ay"
      ],
      [
        "e",
        "w"
      ],
      [
        "Ġy",
        "et"
      ],
      [
        "l",
        "i"
      ],
      [
        "Ġo",
        "p"
      ],
      [
        "ut",
        "es"
      ],
      [
        "Ġ",
        "ke"
      ],
      [
        "re",
        "en"
      ],
      [
        "it",
        "ing"
      ],
      [
        "Ġin",
        "d"
      ],
      [
        "ur",
        "ing"
      ],
      [
        "an",
        "e"
      ],
      [
        "Ġl",
        "et"
      ],
      [
        "Ġhist",
        "ory"
      ],
      [
        "Ġc",
        "ap"
      ],
      [
        "Ġde",
        "p"
      ],
      [
        "t",
        "en"
      ],
      [
        "er",
        "a"
      ],
      [
        "ce",
        "pt"
      ],
      [
        "Ġe",
        "ach"
      ],
      [
        "ol",
        "ute"
      ],
      [
        "ĠS",
        "t"
      ],
      [
        "c",
        "ed"
      ],
      [
        "p",
        "le"
      ],
      [
        "Ġb",
        "it"
      ],
      [
        "Ġp",
        "ol"
      ],
      [
        "Ġt",
        "alk"
      ],
      [
        "Ġc",
        "am"
      ],
      [
        "if",
        "ic"
      ],
      [
        "Ġfr",
        "iend"
      ],
      [
        "Ġcon",
        "s"
      ],
      [
        "n",
        "y"
      ],
      [
        "Ġo",
        "ld"
      ],
      [
        "Ġk",
        "ind"
      ],
      [
        "Ġfeel",
        "s"
      ],
      [
        "Ġa",
        "pp"
      ],
      [
        "Ġdif",
        "fer"
      ],
      [
        "ar",
        "s"
      ],
      [
        "ar",
        "ly"
      ],
      [
        "ist",
        "ic"
      ],
      [
        "n",
        "g"
      ],
      [
        "Â",
        "ł"
      ],
      [
        "Ġcon",
        "c"
      ],
      [
        "Ġmin",
        "utes"
      ],
      [
        "Ġwatch",
        "ed"
      ],
      [
        "Ġal",
        "most"
      ],
      [
        "Ġpo",
        "int"
      ],
      [
        "f",
        "in"
      ],
      [
        "Ġs",
        "in"
      ],
      [
        "d",
        "u"
      ],
      [
        "Ġp",
        "ain"
      ],
      [
        "a",
        "h"
      ],
      [
        "u",
        "p"
      ],
      [
        "at",
        "ter"
      ],
      [
        "Ġwh",
        "y"
      ],
      [
        "I",
        "N"
      ],
      [
        "Ġtr",
        "ans"
      ],
      [
        "or",
        "r"
      ],
      [
        "Ġe",
        "y"
      ],
      [
        "Ġd",
        "ream"
      ],
      [
        "Ġfor",
        "m"
      ],
      [
        "Ġwor",
        "d"
      ],
      [
        "or",
        "ies"
      ],
      [
        "Ġcom",
        "e"
      ],
      [
        "Ġn",
        "arr"
      ],
      [
        "el",
        "t"
      ],
      [
        "Ġv",
        "iew"
      ],
      [
        "Ġwho",
        "le"
      ],
      [
        "Ġexper",
        "ience"
      ],
      [
        "k",
        "s"
      ],
      [
        "Ġst",
        "r"
      ],
      [
        "Ġsh",
        "ot"
      ],
      [
        "ate",
        "ly"
      ],
      [
        "b",
        "le"
      ],
      [
        "o",
        "ot"
      ],
      [
        "Ġin",
        "st"
      ],
      [
        "Ġat",
        "t"
      ],
      [
        "Ġany",
        "thing"
      ],
      [
        "Ġfav",
        "or"
      ],
      [
        "Ġg",
        "l"
      ],
      [
        "s",
        "s"
      ],
      [
        "it",
        "ion"
      ],
      [
        "Ġt",
        "imes"
      ],
      [
        "ra",
        "ph"
      ],
      [
        "Ġp",
        "ut"
      ],
      [
        "ert",
        "ain"
      ],
      [
        "Ġaw",
        "ay"
      ],
      [
        "Ġs",
        "aid"
      ],
      [
        "at",
        "es"
      ],
      [
        "Ġe",
        "l"
      ],
      [
        "s",
        "c"
      ],
      [
        "Ġcom",
        "m"
      ],
      [
        "l",
        "ed"
      ],
      [
        "Ġd",
        "ram"
      ],
      [
        "Ġre",
        "ad"
      ],
      [
        "Ġgreat",
        "est"
      ],
      [
        "n",
        "a"
      ],
      [
        "n",
        "er"
      ],
      [
        "o",
        "ck"
      ],
      [
        "Ġa",
        "cc"
      ],
      [
        "Ġunder",
        "stand"
      ],
      [
        "Ġinc",
        "red"
      ],
      [
        "Ġs",
        "y"
      ],
      [
        "Ġc",
        "reat"
      ],
      [
        "Ġh",
        "igh"
      ],
      [
        "Ġdoes",
        "n"
      ],
      [
        "R",
        "E"
      ],
      [
        "Ġ",
        "&"
      ],
      [
        "ic",
        "ally"
      ],
      [
        "Ġme",
        "m"
      ],
      [
        "re",
        "ad"
      ],
      [
        "Ġb",
        "o"
      ],
      [
        "on",
        "t"
      ],
      [
        "Ġ",
        "3"
      ],
      [
        "Ġha",
        "nd"
      ],
      [
        "od",
        "y"
      ],
      [
        "it",
        "s"
      ],
      [
        "Ġt",
        "ake"
      ],
      [
        "Ġp",
        "res"
      ],
      [
        "Ġmom",
        "ent"
      ],
      [
        "i",
        "ed"
      ],
      [
        "Ġdiffer",
        "ent"
      ],
      [
        "Ġabs",
        "olute"
      ],
      [
        "o",
        "v"
      ],
      [
        "Ġsome",
        "one"
      ],
      [
        "Ġme",
        "an"
      ],
      [
        "Ġbel",
        "ie"
      ],
      [
        "Ġb",
        "ig"
      ],
      [
        ")",
        ","
      ],
      [
        "A",
        "T"
      ],
      [
        "Ġpl",
        "ace"
      ],
      [
        "Ġscen",
        "e"
      ],
      [
        "Ġfe",
        "w"
      ],
      [
        "Ġ",
        "ide"
      ],
      [
        "Ġon",
        "ce"
      ],
      [
        "ir",
        "l"
      ],
      [
        "ure",
        "s"
      ],
      [
        "e",
        "ad"
      ],
      [
        "Ġc",
        "are"
      ],
      [
        "Ġcl",
        "ass"
      ],
      [
        "0",
        "0"
      ],
      [
        "Ġt",
        "urn"
      ],
      [
        "Ġfuck",
        "ing"
      ],
      [
        "Ġan",
        "other"
      ],
      [
        "n",
        "ot"
      ],
      [
        "u",
        "b"
      ],
      [
        "en",
        "ing"
      ],
      [
        "re",
        "t"
      ],
      [
        "Ġin",
        "v"
      ],
      [
        "o",
        "h"
      ],
      [
        "Ġde",
        "ep"
      ],
      [
        "Ġcon",
        "f"
      ],
      [
        "Ġcomple",
        "te"
      ],
      [
        "Ġa",
        "p"
      ],
      [
        "an",
        "ces"
      ],
      [
        "Ġp",
        "ass"
      ],
      [
        "ĠY",
        "ou"
      ],
      [
        "Ġf",
        "elt"
      ],
      [
        "Ġse",
        "c"
      ],
      [
        "Ġfavor",
        "ite"
      ],
      [
        "Ġex",
        "p"
      ],
      [
        "Ġact",
        "ually"
      ],
      [
        "iz",
        "ed"
      ],
      [
        "Ġf",
        "act"
      ],
      [
        "Ġd",
        "el"
      ],
      [
        "Ġw",
        "o"
      ],
      [
        "an",
        "ge"
      ],
      [
        "le",
        "ct"
      ],
      [
        "Ġex",
        "t"
      ],
      [
        "Ġfam",
        "ily"
      ],
      [
        "Ġs",
        "ound"
      ],
      [
        "al",
        "ity"
      ],
      [
        "Ġs",
        "l"
      ],
      [
        "on",
        "s"
      ],
      [
        "ĠTh",
        "ere"
      ],
      [
        "Ġevery",
        "one"
      ],
      [
        "Ġf",
        "ar"
      ],
      [
        "es",
        "e"
      ],
      [
        "Ġsc",
        "reen"
      ],
      [
        "Ġt",
        "er"
      ],
      [
        "Ġf",
        "ull"
      ],
      [
        "Ġd",
        "et"
      ],
      [
        "Ġun",
        "t"
      ],
      [
        "?",
        "?"
      ],
      [
        "Ġ",
        "es"
      ],
      [
        "Ġh",
        "on"
      ],
      [
        "Ġsh",
        "ort"
      ],
      [
        ".",
        "âĢĿ"
      ],
      [
        "Ġfilm",
        "m"
      ],
      [
        "Ġr",
        "un"
      ],
      [
        "og",
        "raph"
      ],
      [
        "ed",
        "y"
      ],
      [
        "Ġn",
        "ight"
      ],
      [
        "i",
        "en"
      ],
      [
        "Ġs",
        "ense"
      ],
      [
        "as",
        "h"
      ],
      [
        "Ġt",
        "ri"
      ],
      [
        "Ġs",
        "ong"
      ],
      [
        "Ġc",
        "all"
      ],
      [
        "Ġa",
        "ud"
      ],
      [
        "er",
        "y"
      ],
      [
        "Ġde",
        "ath"
      ],
      [
        "c",
        "ess"
      ],
      [
        "Ġg",
        "ive"
      ],
      [
        "em",
        "ber"
      ],
      [
        "sh",
        "ip"
      ],
      [
        "Ġpol",
        "it"
      ],
      [
        "i",
        "et"
      ],
      [
        "Ġd",
        "uring"
      ],
      [
        "Ġun",
        "i"
      ],
      [
        "Ġm",
        "ind"
      ],
      [
        "Ġb",
        "u"
      ],
      [
        "ic",
        "s"
      ],
      [
        "Ġmom",
        "ents"
      ],
      [
        "Ġhour",
        "s"
      ],
      [
        "Ġmy",
        "self"
      ],
      [
        "Ġm",
        "ed"
      ],
      [
        "Ġh",
        "el"
      ],
      [
        "Ġre",
        "view"
      ],
      [
        "Ġnot",
        "hing"
      ],
      [
        "Ġim",
        "m"
      ],
      [
        "'",
        "ll"
      ],
      [
        "Ġm",
        "aking"
      ],
      [
        "Ġpre",
        "t"
      ],
      [
        "Ġp",
        "ast"
      ],
      [
        "qu",
        "e"
      ],
      [
        "mer",
        "ic"
      ],
      [
        "Ġen",
        "ough"
      ],
      [
        "Ġimp",
        "ort"
      ],
      [
        ")",
        "."
      ],
      [
        "Ġ",
        "4"
      ],
      [
        "Ġm",
        "on"
      ],
      [
        "ol",
        "og"
      ],
      [
        "Ġtr",
        "u"
      ],
      [
        "Ġa",
        "c"
      ],
      [
        "Ġsing",
        "le"
      ],
      [
        "Ġ",
        "'"
      ],
      [
        "Ġc",
        "ry"
      ],
      [
        "or",
        "n"
      ],
      [
        "Ġst",
        "ru"
      ],
      [
        "Ġc",
        "ra"
      ],
      [
        "al",
        "f"
      ],
      [
        "Ġl",
        "iter"
      ],
      [
        "Ġre",
        "f"
      ],
      [
        "Ġdis",
        "c"
      ],
      [
        "a",
        "ir"
      ],
      [
        "Ġg",
        "ra"
      ],
      [
        "ap",
        "s"
      ],
      [
        "Ġke",
        "ep"
      ],
      [
        "Ġs",
        "ad"
      ],
      [
        "ou",
        "l"
      ],
      [
        "ir",
        "d"
      ],
      [
        "Ġd",
        "ist"
      ],
      [
        "Ġwo",
        "nder"
      ],
      [
        "b",
        "o"
      ],
      [
        "Ġth",
        "ough"
      ],
      [
        "Ġp",
        "oss"
      ],
      [
        "Ġsin",
        "ce"
      ],
      [
        "il",
        "ity"
      ],
      [
        "Ġis",
        "n"
      ],
      [
        "Ġle",
        "ft"
      ],
      [
        "Ġinter",
        "est"
      ],
      [
        "Ġepisod",
        "e"
      ],
      [
        "Ġtru",
        "ly"
      ],
      [
        "e",
        "ver"
      ],
      [
        "Ġli",
        "ves"
      ],
      [
        "Ġ",
        "5"
      ],
      [
        "it",
        "ies"
      ],
      [
        "ent",
        "ial"
      ],
      [
        "ĠW",
        "e"
      ],
      [
        "i",
        "x"
      ],
      [
        "v",
        "is"
      ],
      [
        "Ġ",
        "ed"
      ],
      [
        "al",
        "s"
      ],
      [
        "as",
        "ed"
      ],
      [
        "ĠA",
        "meric"
      ],
      [
        "ne",
        "y"
      ],
      [
        "b",
        "ably"
      ],
      [
        "p",
        "r"
      ],
      [
        "Ġm",
        "ight"
      ],
      [
        "Ġp",
        "ort"
      ],
      [
        "Ġwith",
        "in"
      ],
      [
        "iz",
        "e"
      ],
      [
        "Ġst",
        "y"
      ],
      [
        "ĠS",
        "h"
      ],
      [
        "Ġdirect",
        "or"
      ],
      [
        "Ġ",
        "âĢĶ"
      ],
      [
        "Ġm",
        "en"
      ],
      [
        "an",
        "k"
      ],
      [
        "Ġk",
        "id"
      ],
      [
        "Ġunt",
        "il"
      ],
      [
        "in",
        "ess"
      ],
      [
        "ch",
        "o"
      ],
      [
        "au",
        "gh"
      ],
      [
        "Ġmaster",
        "p"
      ],
      [
        "Ġf",
        "ol"
      ],
      [
        "as",
        "c"
      ],
      [
        "Ġg",
        "irl"
      ],
      [
        "ur",
        "al"
      ],
      [
        "ul",
        "ar"
      ],
      [
        "Ġfeel",
        "ing"
      ],
      [
        "Ġpret",
        "ty"
      ],
      [
        "ill",
        "i"
      ],
      [
        "ĠB",
        "e"
      ],
      [
        "Ġd",
        "ark"
      ],
      [
        "Ġey",
        "es"
      ],
      [
        "et",
        "ic"
      ],
      [
        "Ġemot",
        "ional"
      ],
      [
        "ut",
        "h"
      ],
      [
        "Ġof",
        "ten"
      ],
      [
        "Ġcam",
        "era"
      ],
      [
        "Ġel",
        "se"
      ],
      [
        "Ġhon",
        "est"
      ],
      [
        "Ġs",
        "ure"
      ],
      [
        "Ġc",
        "our"
      ],
      [
        "Ġre",
        "p"
      ],
      [
        "ish",
        "ed"
      ],
      [
        "'",
        "d"
      ],
      [
        "f",
        "ort"
      ],
      [
        "o",
        "ve"
      ],
      [
        "Ġh",
        "alf"
      ],
      [
        "Ġrem",
        "ember"
      ],
      [
        "E",
        "R"
      ],
      [
        "m",
        "ing"
      ],
      [
        "ent",
        "ly"
      ],
      [
        "ĠTh",
        "at"
      ],
      [
        "Ġsec",
        "ond"
      ],
      [
        "Ġh",
        "ome"
      ],
      [
        "Ġha",
        "ving"
      ],
      [
        "Ġabsolute",
        "ly"
      ],
      [
        "i",
        "er"
      ],
      [
        "id",
        "er"
      ],
      [
        "ĠTH",
        "E"
      ],
      [
        "Ġh",
        "ope"
      ],
      [
        "az",
        "ing"
      ],
      [
        "Ġimport",
        "ant"
      ],
      [
        "Ġf",
        "ound"
      ],
      [
        "Ġb",
        "ad"
      ],
      [
        "Ġp",
        "iece"
      ],
      [
        "iv",
        "es"
      ],
      [
        "Ġli",
        "ght"
      ],
      [
        "Ġde",
        "fin"
      ],
      [
        "ib",
        "ly"
      ],
      [
        "ful",
        "ly"
      ],
      [
        "p",
        "s"
      ],
      [
        "Ġth",
        "ree"
      ],
      [
        "Ġre",
        "g"
      ],
      [
        "Ġst",
        "and"
      ],
      [
        "ter",
        "n"
      ],
      [
        "Ġcap",
        "t"
      ],
      [
        "Ġh",
        "orr"
      ],
      [
        "Ġs",
        "it"
      ],
      [
        "Ġwom",
        "en"
      ],
      [
        "Ġs",
        "k"
      ],
      [
        "Ġc",
        "ent"
      ],
      [
        "Ġe",
        "as"
      ],
      [
        "Ġtr",
        "ue"
      ],
      [
        "Ġdram",
        "a"
      ],
      [
        "O",
        "U"
      ],
      [
        "Ġs",
        "low"
      ],
      [
        "Ġex",
        "pect"
      ],
      [
        "Ġn",
        "ature"
      ],
      [
        "Ġre",
        "st"
      ],
      [
        "Ġyou",
        "ng"
      ],
      [
        "Y",
        "ou"
      ],
      [
        "u",
        "es"
      ],
      [
        "Ġm",
        "ust"
      ],
      [
        "it",
        "ed"
      ],
      [
        "id",
        "d"
      ],
      [
        "t",
        "o"
      ],
      [
        "Ġs",
        "elf"
      ],
      [
        "Ġf",
        "ore"
      ],
      [
        "Ġc",
        "ount"
      ],
      [
        "Ġto",
        "get"
      ],
      [
        "Ġl",
        "ess"
      ],
      [
        "Ġbe",
        "gin"
      ],
      [
        "Ġsh",
        "it"
      ],
      [
        "ious",
        "ly"
      ],
      [
        "Ġmasterp",
        "iece"
      ],
      [
        "Ġtoget",
        "her"
      ],
      [
        "Ġs",
        "il"
      ],
      [
        "Ġm",
        "atter"
      ],
      [
        "Ġc",
        "le"
      ],
      [
        "ress",
        "ion"
      ],
      [
        "i",
        "o"
      ],
      [
        "Ġst",
        "op"
      ],
      [
        "th",
        "is"
      ],
      [
        "ro",
        "ss"
      ],
      [
        "Ġits",
        "elf"
      ],
      [
        "Ġperform",
        "ance"
      ],
      [
        "IN",
        "G"
      ],
      [
        "Ġt",
        "akes"
      ],
      [
        "en",
        "ed"
      ],
      [
        "ou",
        "se"
      ],
      [
        "el",
        "ves"
      ],
      [
        "Ġex",
        "c"
      ],
      [
        "ell",
        "ing"
      ],
      [
        "Ġshow",
        "s"
      ],
      [
        "Ġb",
        "re"
      ],
      [
        "Ġtr",
        "ying"
      ],
      [
        "ci",
        "ally"
      ],
      [
        "Ġgen",
        "er"
      ],
      [
        "Ġto",
        "day"
      ],
      [
        "Ġbe",
        "h"
      ],
      [
        "ment",
        "s"
      ],
      [
        "Ġincred",
        "ible"
      ],
      [
        "Ġcomplete",
        "ly"
      ],
      [
        "Ġ",
        "ðŁ"
      ],
      [
        "Ġm",
        "ag"
      ],
      [
        "id",
        "ent"
      ],
      [
        "if",
        "e"
      ],
      [
        "Ġlo",
        "st"
      ],
      [
        "ow",
        "s"
      ],
      [
        "ar",
        "ing"
      ],
      [
        "Ġhe",
        "ad"
      ],
      [
        "Ġsu",
        "pp"
      ],
      [
        "Ġpro",
        "bably"
      ],
      [
        "Ġbec",
        "ome"
      ],
      [
        "Ġseem",
        "s"
      ],
      [
        "m",
        "s"
      ],
      [
        "p",
        "ly"
      ],
      [
        "w",
        "atch"
      ],
      [
        "Ġc",
        "ult"
      ],
      [
        "ĠS",
        "o"
      ],
      [
        "Ġqu",
        "ite"
      ],
      [
        "oc",
        "us"
      ],
      [
        "Ġsm",
        "all"
      ],
      [
        "Ġbelie",
        "ve"
      ],
      [
        "g",
        "er"
      ],
      [
        "er",
        "g"
      ],
      [
        "ut",
        "ion"
      ],
      [
        "Ġm",
        "ar"
      ],
      [
        "Ġb",
        "oy"
      ],
      [
        "Ġto",
        "p"
      ],
      [
        "ĠA",
        "l"
      ],
      [
        "ap",
        "an"
      ],
      [
        "Ġget",
        "s"
      ],
      [
        "Ġspe",
        "cial"
      ],
      [
        "Ġword",
        "s"
      ],
      [
        "m",
        "y"
      ],
      [
        "in",
        "s"
      ],
      [
        "Ġs",
        "w"
      ],
      [
        "Ġf",
        "ace"
      ],
      [
        "Ġb",
        "ro"
      ],
      [
        "Ġre",
        "ason"
      ],
      [
        "Ġas",
        "s"
      ],
      [
        "Ġdo",
        "ing"
      ],
      [
        "Ġam",
        "azing"
      ],
      [
        "Ġs",
        "oul"
      ],
      [
        "Ġl",
        "ist"
      ],
      [
        "Ġli",
        "ving"
      ],
      [
        "ra",
        "ct"
      ],
      [
        "Ġk",
        "ill"
      ],
      [
        "are",
        "d"
      ],
      [
        "Ġfin",
        "al"
      ],
      [
        "ing",
        "ly"
      ],
      [
        "ĠA",
        "n"
      ],
      [
        "Ġso",
        "ci"
      ],
      [
        "Ġpro",
        "du"
      ],
      [
        "ograph",
        "y"
      ],
      [
        "A",
        "N"
      ],
      [
        "us",
        "h"
      ],
      [
        "Ġv",
        "o"
      ],
      [
        "o",
        "f"
      ],
      [
        "Ġad",
        "d"
      ],
      [
        "s",
        "elves"
      ],
      [
        "on",
        "na"
      ],
      [
        "ain",
        "s"
      ],
      [
        "Ġepisod",
        "es"
      ],
      [
        "Ġ",
        "âĢ"
      ],
      [
        "Ġd",
        "est"
      ],
      [
        "Ġde",
        "v"
      ],
      [
        "Ġbl",
        "ack"
      ],
      [
        "Ġanim",
        "ation"
      ],
      [
        "Ġc",
        "ar"
      ],
      [
        "e",
        "c"
      ],
      [
        "v",
        "ent"
      ],
      [
        "Ġs",
        "aw"
      ],
      [
        "ist",
        "s"
      ],
      [
        "ĠWh",
        "at"
      ],
      [
        "Ġvis",
        "ual"
      ],
      [
        "Ġaud",
        "ience"
      ],
      [
        "Ġf",
        "ocus"
      ],
      [
        "Ġc",
        "ertain"
      ],
      [
        "Ġe",
        "ar"
      ],
      [
        "ation",
        "al"
      ],
      [
        "pe",
        "cially"
      ],
      [
        "Ġtra",
        "g"
      ],
      [
        "a",
        "j"
      ],
      [
        "c",
        "y"
      ],
      [
        "Ġc",
        "re"
      ],
      [
        "Ġc",
        "ou"
      ],
      [
        "Ġlo",
        "ved"
      ],
      [
        "ĠThe",
        "y"
      ],
      [
        "Ġcl",
        "ose"
      ],
      [
        "Ġsee",
        "ing"
      ],
      [
        "Ġwom",
        "an"
      ],
      [
        "t",
        "ed"
      ],
      [
        "u",
        "g"
      ],
      [
        "Ġf",
        "all"
      ],
      [
        "Ġc",
        "ut"
      ],
      [
        "Ġqu",
        "est"
      ],
      [
        "o",
        "ver"
      ],
      [
        "s",
        "y"
      ],
      [
        "Ġm",
        "ain"
      ],
      [
        "Ġst",
        "ud"
      ],
      [
        "ap",
        "p"
      ],
      [
        "ĠF",
        "r"
      ],
      [
        "Ġpart",
        "ic"
      ],
      [
        "Ġagain",
        "st"
      ],
      [
        "Ġf",
        "oot"
      ],
      [
        "Ġc",
        "ame"
      ],
      [
        "ow",
        "ing"
      ],
      [
        "Ġre",
        "le"
      ],
      [
        "Ġnarr",
        "ative"
      ],
      [
        "Ġfol",
        "low"
      ],
      [
        "Ġcour",
        "se"
      ],
      [
        "Ġab",
        "le"
      ],
      [
        "Ġcom",
        "es"
      ],
      [
        "Ġcon",
        "st"
      ],
      [
        "ren",
        "ch"
      ],
      [
        "f",
        "fect"
      ],
      [
        "t",
        "ime"
      ],
      [
        "Ġm",
        "or"
      ],
      [
        "Ġch",
        "e"
      ],
      [
        "Ġbr",
        "illi"
      ],
      [
        "Ġsty",
        "le"
      ],
      [
        "i",
        "ol"
      ],
      [
        "Ġm",
        "iss"
      ],
      [
        "Ġl",
        "and"
      ],
      [
        "ĠG",
        "od"
      ],
      [
        "Ġsim",
        "ply"
      ],
      [
        "Ġdet",
        "ail"
      ],
      [
        "Ġm",
        "et"
      ],
      [
        "Ġst",
        "ories"
      ],
      [
        "ur",
        "t"
      ],
      [
        "Ġso",
        "cial"
      ],
      [
        "Ġwe",
        "e"
      ],
      [
        "Ġle",
        "ast"
      ],
      [
        "I",
        "S"
      ],
      [
        "c",
        "ri"
      ],
      [
        "Ġp",
        "ure"
      ],
      [
        "em",
        "pt"
      ],
      [
        "ĠJ",
        "apan"
      ],
      [
        "Ġgu",
        "y"
      ],
      [
        "I",
        "f"
      ],
      [
        "u",
        "nd"
      ],
      [
        "it",
        "al"
      ],
      [
        "Ġu",
        "se"
      ],
      [
        "Ġhel",
        "p"
      ],
      [
        "h",
        "aps"
      ],
      [
        "u",
        "ff"
      ],
      [
        "y",
        "p"
      ],
      [
        "Ġt",
        "ear"
      ],
      [
        "Ġl",
        "ear"
      ],
      [
        "Ġmo",
        "ve"
      ],
      [
        "ur",
        "y"
      ],
      [
        "Ġse",
        "x"
      ],
      [
        "ire",
        "d"
      ],
      [
        "Ġpr",
        "ot"
      ],
      [
        "c",
        "ing"
      ],
      [
        "re",
        "me"
      ],
      [
        "Ġse",
        "ason"
      ],
      [
        "Ġsu",
        "per"
      ],
      [
        "Ġsub",
        "ject"
      ],
      [
        "Ġpolit",
        "ical"
      ],
      [
        "L",
        "L"
      ],
      [
        "a",
        "pe"
      ],
      [
        "c",
        "om"
      ],
      [
        "en",
        "g"
      ],
      [
        "or",
        "k"
      ],
      [
        "Ġan",
        "ime"
      ],
      [
        "Ġas",
        "k"
      ],
      [
        "Ġperson",
        "al"
      ],
      [
        "Ġfun",
        "ny"
      ],
      [
        "read",
        "y"
      ],
      [
        "Ġliter",
        "ally"
      ],
      [
        "in",
        "es"
      ],
      [
        "Ġth",
        "r"
      ],
      [
        "el",
        "ess"
      ],
      [
        "o",
        "ok"
      ],
      [
        "Ġw",
        "alk"
      ],
      [
        "ar",
        "ch"
      ],
      [
        "Ġre",
        "t"
      ],
      [
        "Ġpro",
        "f"
      ],
      [
        "ĠN",
        "ot"
      ],
      [
        "Ġdes",
        "p"
      ],
      [
        "a",
        "i"
      ],
      [
        "Ġe",
        "le"
      ],
      [
        "um",
        "b"
      ],
      [
        "Ġbec",
        "om"
      ],
      [
        "ac",
        "es"
      ],
      [
        "Ġinst",
        "ead"
      ],
      [
        "in",
        "ed"
      ],
      [
        "ou",
        "ch"
      ],
      [
        "ent",
        "ion"
      ],
      [
        "Ġmo",
        "der"
      ],
      [
        "ict",
        "ion"
      ],
      [
        "Ġpres",
        "ent"
      ],
      [
        "c",
        "on"
      ],
      [
        "w",
        "ay"
      ],
      [
        "is",
        "ed"
      ],
      [
        "ĠI",
        "f"
      ],
      [
        "Ġmov",
        "ing"
      ],
      [
        "ress",
        "ive"
      ],
      [
        "Ġconc",
        "ert"
      ],
      [
        "oh",
        "n"
      ],
      [
        "r",
        "ay"
      ],
      [
        "Ġw",
        "a"
      ],
      [
        "Ġw",
        "ent"
      ],
      [
        "Ġf",
        "ree"
      ],
      [
        "Ġe",
        "ffect"
      ],
      [
        "Ġwh",
        "ite"
      ],
      [
        "Ġal",
        "ready"
      ],
      [
        "Ġv",
        "iol"
      ],
      [
        "Ġreal",
        "ity"
      ],
      [
        "I",
        "n"
      ],
      [
        "Ġf",
        "ant"
      ],
      [
        "Ġd",
        "ays"
      ],
      [
        "Ġto",
        "ward"
      ],
      [
        "ĠE",
        "very"
      ],
      [
        "Ġcont",
        "in"
      ],
      [
        "Ġchild",
        "ren"
      ],
      [
        "Ġsoci",
        "et"
      ],
      [
        "E",
        "N"
      ],
      [
        "n",
        "ed"
      ],
      [
        "Ġd",
        "r"
      ],
      [
        "Ġg",
        "od"
      ],
      [
        "Ġj",
        "our"
      ],
      [
        "ag",
        "es"
      ],
      [
        "ure",
        "d"
      ],
      [
        "os",
        "ed"
      ],
      [
        "pp",
        "ed"
      ],
      [
        "Ġob",
        "s"
      ],
      [
        "Ġcomm",
        "un"
      ],
      [
        "e",
        "e"
      ],
      [
        "f",
        "l"
      ],
      [
        "Ġ",
        "9"
      ],
      [
        "in",
        "ation"
      ],
      [
        "Ġc",
        "ast"
      ],
      [
        "Ġto",
        "ld"
      ],
      [
        "Ġg",
        "onna"
      ],
      [
        "Th",
        "ere"
      ],
      [
        "Ġwant",
        "ed"
      ],
      [
        "Ġcont",
        "r"
      ],
      [
        "Ġmay",
        "be"
      ],
      [
        "Ġmoder",
        "n"
      ],
      [
        "O",
        "ne"
      ],
      [
        "Ġ",
        "vers"
      ],
      [
        "en",
        "ces"
      ],
      [
        "Ġwor",
        "th"
      ],
      [
        "pl",
        "ic"
      ],
      [
        "Ġany",
        "one"
      ],
      [
        "iv",
        "id"
      ],
      [
        "Ġget",
        "ting"
      ],
      [
        "Ġpower",
        "ful"
      ],
      [
        "Ġes",
        "pecially"
      ],
      [
        "Ġst",
        "un"
      ],
      [
        "Ġse",
        "qu"
      ],
      [
        "Ġch",
        "o"
      ],
      [
        "un",
        "g"
      ],
      [
        "us",
        "s"
      ],
      [
        "Ġperform",
        "ances"
      ],
      [
        "Ġcons",
        "ider"
      ],
      [
        "Ġfoot",
        "age"
      ],
      [
        "Ġg",
        "ay"
      ],
      [
        "ĠA",
        "s"
      ],
      [
        "ri",
        "gin"
      ],
      [
        "Ġscen",
        "es"
      ],
      [
        "Ġfriend",
        "s"
      ],
      [
        "at",
        "t"
      ],
      [
        "Ġp",
        "ar"
      ],
      [
        "et",
        "s"
      ],
      [
        "Ġch",
        "ang"
      ],
      [
        "Ġgo",
        "es"
      ],
      [
        "Ġstru",
        "gg"
      ],
      [
        "O",
        "N"
      ],
      [
        "b",
        "r"
      ],
      [
        "h",
        "ow"
      ],
      [
        "r",
        "ic"
      ],
      [
        "ie",
        "f"
      ],
      [
        "are",
        "nt"
      ],
      [
        "!!",
        "!!"
      ],
      [
        "Ġexper",
        "ien"
      ],
      [
        "Ġimag",
        "es"
      ],
      [
        "m",
        "b"
      ],
      [
        "o",
        "on"
      ],
      [
        "Ġh",
        "old"
      ],
      [
        "ent",
        "al"
      ],
      [
        "Ġfilmm",
        "ak"
      ],
      [
        "Ġbrilli",
        "ant"
      ],
      [
        "i",
        "ke"
      ],
      [
        "i",
        "ven"
      ],
      [
        "Ġp",
        "op"
      ],
      [
        "ar",
        "ies"
      ],
      [
        "ite",
        "ly"
      ],
      [
        "Ġus",
        "ed"
      ],
      [
        "Ġ",
        "ess"
      ],
      [
        "Ġw",
        "ays"
      ],
      [
        "Ġb",
        "le"
      ],
      [
        "ĠB",
        "l"
      ],
      [
        "Ġr",
        "ather"
      ],
      [
        "Ġhim",
        "self"
      ],
      [
        "Ġrem",
        "ind"
      ],
      [
        "Ġlook",
        "ing"
      ],
      [
        "ĠAmeric",
        "an"
      ],
      [
        "d",
        "d"
      ],
      [
        "s",
        "ide"
      ],
      [
        "y",
        "n"
      ],
      [
        "Ġs",
        "at"
      ],
      [
        "Ġf",
        "our"
      ],
      [
        "Ġch",
        "ange"
      ],
      [
        "ĠB",
        "r"
      ],
      [
        "Ġne",
        "xt"
      ],
      [
        "Ġle",
        "vel"
      ],
      [
        "Ġwork",
        "s"
      ],
      [
        "Ġro",
        "om"
      ],
      [
        "Ġwr",
        "ong"
      ],
      [
        "e",
        "x"
      ],
      [
        "Ġo",
        "rigin"
      ],
      [
        "ri",
        "ed"
      ],
      [
        "ĠH",
        "ow"
      ],
      [
        "..",
        ".."
      ],
      [
        "Ġle",
        "ad"
      ],
      [
        "Ġm",
        "el"
      ],
      [
        "Ġd",
        "one"
      ],
      [
        "Ġl",
        "augh"
      ],
      [
        "st",
        "er"
      ],
      [
        "ĠA",
        "t"
      ],
      [
        "iv",
        "ing"
      ],
      [
        "Ġrel",
        "ation"
      ],
      [
        "i",
        "k"
      ],
      [
        "Ġo",
        "pp"
      ],
      [
        "at",
        "s"
      ],
      [
        "Ġex",
        "act"
      ],
      [
        "Ġtr",
        "y"
      ],
      [
        "ĠD",
        "e"
      ],
      [
        "Ġco",
        "ol"
      ],
      [
        "Ġemot",
        "ion"
      ],
      [
        "Wh",
        "at"
      ],
      [
        "Ġbeh",
        "ind"
      ],
      [
        "h",
        "ood"
      ],
      [
        "t",
        "s"
      ],
      [
        "Ġs",
        "ol"
      ],
      [
        "Ġp",
        "ur"
      ],
      [
        "st",
        "em"
      ],
      [
        "Ġcom",
        "edy"
      ],
      [
        "ous",
        "ly"
      ],
      [
        "bo",
        "x"
      ],
      [
        "z",
        "y"
      ],
      [
        "Ġc",
        "or"
      ],
      [
        "on",
        "ic"
      ],
      [
        "Ġp",
        "le"
      ],
      [
        "Ġd",
        "ie"
      ],
      [
        "id",
        "es"
      ],
      [
        "Ġan",
        "g"
      ],
      [
        "Ġbeaut",
        "y"
      ],
      [
        "Ġsur",
        "pr"
      ],
      [
        "l",
        "ud"
      ],
      [
        "o",
        "ke"
      ],
      [
        "Ġs",
        "we"
      ],
      [
        "nd",
        "ed"
      ],
      [
        "Ġf",
        "asc"
      ],
      [
        "Ġr",
        "om"
      ],
      [
        "Ġkn",
        "ew"
      ],
      [
        "Ġep",
        "ic"
      ],
      [
        "Ġbre",
        "ak"
      ],
      [
        "i",
        "el"
      ],
      [
        "y",
        "ond"
      ],
      [
        "Ġto",
        "ok"
      ],
      [
        "ter",
        "s"
      ],
      [
        "Ġsp",
        "ir"
      ],
      [
        "Ġend",
        "ing"
      ],
      [
        "Ġhapp",
        "y"
      ],
      [
        "Ġsy",
        "stem"
      ],
      [
        "b",
        "ody"
      ],
      [
        "u",
        "se"
      ],
      [
        "Ġl",
        "ine"
      ],
      [
        "am",
        "es"
      ],
      [
        "av",
        "id"
      ],
      [
        "Ġyour",
        "self"
      ],
      [
        "Ġ1",
        "0"
      ],
      [
        "Ġag",
        "o"
      ],
      [
        "Ġfin",
        "ally"
      ],
      [
        "Ġcr",
        "it"
      ],
      [
        "C",
        "K"
      ],
      [
        "E",
        "S"
      ],
      [
        "b",
        "re"
      ],
      [
        "r",
        "ist"
      ],
      [
        "v",
        "ol"
      ],
      [
        "Ġw",
        "ish"
      ],
      [
        "is",
        "on"
      ],
      [
        "Ġf",
        "ight"
      ],
      [
        "Ġb",
        "ra"
      ],
      [
        "Ġto",
        "t"
      ],
      [
        "Ġcinem",
        "atic"
      ],
      [
        "Ġ-",
        "-"
      ],
      [
        "Ã",
        "©"
      ],
      [
        "Ġm",
        "other"
      ],
      [
        "on",
        "y"
      ],
      [
        "or",
        "ge"
      ],
      [
        "Ġd",
        "ra"
      ],
      [
        "ĠI",
        "s"
      ],
      [
        "em",
        "ent"
      ],
      [
        "ĠO",
        "ne"
      ],
      [
        "a",
        "x"
      ],
      [
        "Ġb",
        "reat"
      ],
      [
        "Ġc",
        "ur"
      ],
      [
        "Ġd",
        "ial"
      ],
      [
        "Ġl",
        "ater"
      ],
      [
        "op",
        "h"
      ],
      [
        "Ġpl",
        "ot"
      ],
      [
        "og",
        "ue"
      ],
      [
        "Ġap",
        "pe"
      ],
      [
        "O",
        "O"
      ],
      [
        "b",
        "y"
      ],
      [
        "f",
        "or"
      ],
      [
        "n",
        "i"
      ],
      [
        "Ġt",
        "ouch"
      ],
      [
        "Ġm",
        "is"
      ],
      [
        "Ġh",
        "ell"
      ],
      [
        "Ġcon",
        "ne"
      ],
      [
        "Ġplay",
        "ing"
      ],
      [
        "am",
        "n"
      ],
      [
        "Ġwas",
        "n"
      ],
      [
        "Ġoth",
        "ers"
      ],
      [
        "Ġcomple",
        "x"
      ],
      [
        "Ġdeep",
        "ly"
      ],
      [
        "f",
        "ic"
      ],
      [
        "re",
        "al"
      ],
      [
        "it",
        "ch"
      ],
      [
        "Ġf",
        "ut"
      ],
      [
        "il",
        "ar"
      ],
      [
        "ith",
        "er"
      ],
      [
        "Ġal",
        "ong"
      ],
      [
        "ter",
        "box"
      ],
      [
        "Ġins",
        "p"
      ],
      [
        "li",
        "ke"
      ],
      [
        "Ġmean",
        "ing"
      ],
      [
        "b",
        "ing"
      ],
      [
        "Ġa",
        "ch"
      ],
      [
        "nd",
        "ing"
      ],
      [
        "Ġm",
        "ot"
      ],
      [
        "Ġde",
        "ad"
      ],
      [
        "un",
        "ch"
      ],
      [
        "ore",
        "d"
      ],
      [
        "ĠR",
        "e"
      ],
      [
        "iz",
        "ing"
      ],
      [
        "cho",
        "ol"
      ],
      [
        "Ġsociet",
        "y"
      ],
      [
        "Ġrelation",
        "ship"
      ],
      [
        "b",
        "ut"
      ],
      [
        "d",
        "e"
      ],
      [
        "Ġb",
        "as"
      ],
      [
        "th",
        "s"
      ],
      [
        "Ġfe",
        "ature"
      ],
      [
        "Ġen",
        "g"
      ],
      [
        "Ġen",
        "j"
      ],
      [
        "ress",
        "ed"
      ],
      [
        "Ġsim",
        "ple"
      ],
      [
        "A",
        "R"
      ],
      [
        "nd",
        "s"
      ],
      [
        "Ġf",
        "ul"
      ],
      [
        "Ġbe",
        "yond"
      ],
      [
        "ĠS",
        "T"
      ],
      [
        "Ġj",
        "oy"
      ],
      [
        "Ġthem",
        "selves"
      ],
      [
        "iv",
        "al"
      ],
      [
        "Ġthink",
        "ing"
      ],
      [
        "Ġspe",
        "ak"
      ],
      [
        "Ġhist",
        "or"
      ],
      [
        "terbox",
        "d"
      ],
      [
        "Ġs",
        "ort"
      ],
      [
        "Ġl",
        "ar"
      ],
      [
        "ĠM",
        "ar"
      ],
      [
        "Ġcan",
        "not"
      ],
      [
        "Ġact",
        "ion"
      ],
      [
        "Ġide",
        "a"
      ],
      [
        "Ġbu",
        "ild"
      ],
      [
        "c",
        "le"
      ],
      [
        "Ġf",
        "an"
      ],
      [
        "Ġp",
        "sy"
      ],
      [
        "Ġan",
        "t"
      ],
      [
        "Ġdes",
        "cri"
      ],
      [
        "Ġte",
        "le"
      ],
      [
        "k",
        "y"
      ],
      [
        "Ġo",
        "cc"
      ],
      [
        "Ġm",
        "ess"
      ],
      [
        "Ġd",
        "em"
      ],
      [
        "if",
        "ying"
      ],
      [
        "aw",
        "a"
      ],
      [
        "Ġhuman",
        "ity"
      ],
      [
        "Ġev",
        "ent"
      ],
      [
        "vis",
        "ion"
      ],
      [
        "A",
        "n"
      ],
      [
        "M",
        "y"
      ],
      [
        "O",
        "R"
      ],
      [
        "Ġ",
        "7"
      ],
      [
        "Ġt",
        "it"
      ],
      [
        "en",
        "e"
      ],
      [
        "or",
        "ld"
      ],
      [
        "om",
        "et"
      ],
      [
        "ro",
        "p"
      ],
      [
        "ĠA",
        "r"
      ],
      [
        "Ġtalk",
        "ing"
      ],
      [
        "Ġstr",
        "ong"
      ],
      [
        "Ġsong",
        "s"
      ],
      [
        "o",
        "es"
      ],
      [
        "Ġf",
        "re"
      ],
      [
        "Ġn",
        "ame"
      ],
      [
        "ie",
        "ces"
      ],
      [
        "Ġme",
        "ans"
      ],
      [
        "Ġcom",
        "ing"
      ],
      [
        "Ġpro",
        "cess"
      ],
      [
        "Ġuni",
        "que"
      ],
      [
        "Ġinterest",
        "ing"
      ],
      [
        "o",
        "o"
      ],
      [
        "er",
        "ing"
      ],
      [
        "Ġf",
        "ail"
      ],
      [
        "Ġex",
        "am"
      ],
      [
        "Ġsp",
        "ace"
      ],
      [
        "Ġsay",
        "ing"
      ],
      [
        "Ġlook",
        "s"
      ],
      [
        "Ġdream",
        "s"
      ],
      [
        "Ġenj",
        "oy"
      ],
      [
        "re",
        "ci"
      ],
      [
        "im",
        "ate"
      ],
      [
        "ver",
        "se"
      ],
      [
        "ĠA",
        "ll"
      ],
      [
        "Ġper",
        "haps"
      ],
      [
        "Ġpo",
        "st"
      ],
      [
        "Ġbr",
        "ut"
      ],
      [
        "Ġinter",
        "view"
      ],
      [
        "Ġart",
        "ist"
      ],
      [
        "Ġcount",
        "ry"
      ],
      [
        "b",
        "s"
      ],
      [
        "i",
        "ar"
      ],
      [
        "u",
        "ine"
      ],
      [
        "Ġs",
        "ens"
      ],
      [
        "Ġh",
        "ouse"
      ],
      [
        "id",
        "ed"
      ],
      [
        "Ġspe",
        "c"
      ],
      [
        "Ġdes",
        "er"
      ],
      [
        "Ġstart",
        "ed"
      ],
      [
        "N",
        "D"
      ],
      [
        "f",
        "ter"
      ],
      [
        "l",
        "ight"
      ],
      [
        "Ġt",
        "ale"
      ],
      [
        "Ġw",
        "on"
      ],
      [
        "Ġb",
        "ody"
      ],
      [
        "ed",
        "i"
      ],
      [
        "Ġal",
        "one"
      ],
      [
        "Ġtr",
        "uth"
      ],
      [
        "Ġpro",
        "v"
      ],
      [
        "Ġsomet",
        "imes"
      ],
      [
        "ĠY",
        "OU"
      ],
      [
        "Wh",
        "en"
      ],
      [
        "Ġfore",
        "ver"
      ],
      [
        "Ġvo",
        "ice"
      ],
      [
        "Ġbecom",
        "es"
      ],
      [
        "Ġjour",
        "ney"
      ],
      [
        "Ġvers",
        "ion"
      ],
      [
        "A",
        "S"
      ],
      [
        "m",
        "in"
      ],
      [
        "p",
        "ar"
      ],
      [
        "le",
        "t"
      ],
      [
        "ot",
        "e"
      ],
      [
        "Ġst",
        "uff"
      ],
      [
        "Ġcom",
        "fort"
      ],
      [
        "Ġv",
        "al"
      ],
      [
        "Ġv",
        "ide"
      ],
      [
        "ap",
        "t"
      ],
      [
        "ĠN",
        "ew"
      ],
      [
        "Ġte",
        "ch"
      ],
      [
        "pect",
        "ive"
      ],
      [
        "Ġind",
        "ivid"
      ],
      [
        "Ġext",
        "reme"
      ],
      [
        "Ġm",
        "ult"
      ],
      [
        "Ġf",
        "ig"
      ],
      [
        "Ġst",
        "ra"
      ],
      [
        "th",
        "er"
      ],
      [
        "ĠT",
        "V"
      ],
      [
        "ater",
        "ial"
      ],
      [
        "Ġatt",
        "empt"
      ],
      [
        "Ġter",
        "r"
      ],
      [
        "Ġdefin",
        "itely"
      ],
      [
        "Ġach",
        "ie"
      ],
      [
        "Ġpsy",
        "ch"
      ],
      [
        "f",
        "fer"
      ],
      [
        "l",
        "and"
      ],
      [
        "s",
        "on"
      ],
      [
        "Ġ",
        "ut"
      ],
      [
        "Ġ",
        "ill"
      ],
      [
        "Ġb",
        "ur"
      ],
      [
        "pl",
        "ay"
      ],
      [
        "Ġam",
        "ong"
      ],
      [
        "itt",
        "en"
      ],
      [
        "Ġfilmm",
        "aking"
      ],
      [
        "Ġtoward",
        "s"
      ],
      [
        "l",
        "t"
      ],
      [
        "Ġ",
        "ir"
      ],
      [
        "er",
        "v"
      ],
      [
        "Ġf",
        "a"
      ],
      [
        "Ġp",
        "at"
      ],
      [
        "Ġli",
        "k"
      ],
      [
        "Ġfor",
        "get"
      ],
      [
        "us",
        "ion"
      ],
      [
        "av",
        "es"
      ],
      [
        "Ġem",
        "b"
      ],
      [
        "Ġwr",
        "iting"
      ],
      [
        "Ġac",
        "ross"
      ],
      [
        "Ġcry",
        "ing"
      ],
      [
        "Ġtear",
        "s"
      ],
      [
        "Ġstun",
        "ning"
      ],
      [
        "Ġfut",
        "ure"
      ],
      [
        "Ġindivid",
        "ual"
      ],
      [
        "?",
        "\""
      ],
      [
        "l",
        "er"
      ],
      [
        "n",
        "ow"
      ],
      [
        "Ġ",
        "8"
      ],
      [
        "on",
        "es"
      ],
      [
        "il",
        "t"
      ],
      [
        "ot",
        "s"
      ],
      [
        "Ġhe",
        "ard"
      ],
      [
        "ant",
        "ly"
      ],
      [
        "ĠL",
        "e"
      ],
      [
        "Ġle",
        "ave"
      ],
      [
        "Ġcould",
        "n"
      ],
      [
        "vel",
        "op"
      ],
      [
        "Ġop",
        "en"
      ],
      [
        "Ġapp",
        "reci"
      ],
      [
        "Ġbo",
        "ok"
      ],
      [
        "idd",
        "le"
      ],
      [
        "E",
        "D"
      ],
      [
        "Ġm",
        "aterial"
      ],
      [
        "Ġup",
        "on"
      ],
      [
        "ĠO",
        "n"
      ],
      [
        "av",
        "ing"
      ],
      [
        "Ġcinem",
        "at"
      ],
      [
        "Ġspir",
        "it"
      ],
      [
        "bre",
        "aking"
      ],
      [
        "g",
        "u"
      ],
      [
        "Ġs",
        "un"
      ],
      [
        "Ġs",
        "chool"
      ],
      [
        "Ġc",
        "e"
      ],
      [
        "Ġp",
        "ri"
      ],
      [
        "Ġl",
        "im"
      ],
      [
        "le",
        "y"
      ],
      [
        "Ġhe",
        "ar"
      ],
      [
        "Ġposs",
        "ible"
      ],
      [
        "Ġhorr",
        "or"
      ],
      [
        "Ġf",
        "ive"
      ],
      [
        "Ġh",
        "it"
      ],
      [
        "Ġg",
        "iven"
      ],
      [
        "ĠS",
        "he"
      ],
      [
        "ud",
        "e"
      ],
      [
        "Ġgen",
        "uine"
      ],
      [
        "Ġob",
        "v"
      ],
      [
        "Ġdesp",
        "ite"
      ],
      [
        "b",
        "um"
      ],
      [
        "f",
        "r"
      ],
      [
        "Ġ",
        ":"
      ],
      [
        "Ġthe",
        "at"
      ],
      [
        "it",
        "ive"
      ],
      [
        "Ġh",
        "u"
      ],
      [
        "Ġh",
        "ot"
      ],
      [
        "Ġor",
        "der"
      ],
      [
        "ĠJ",
        "ohn"
      ],
      [
        "Ġimp",
        "act"
      ],
      [
        "Ġspe",
        "ct"
      ],
      [
        "wh",
        "at"
      ],
      [
        "Ġdev",
        "ast"
      ],
      [
        "b",
        "it"
      ],
      [
        "c",
        "l"
      ],
      [
        "p",
        "ath"
      ],
      [
        "Ġb",
        "and"
      ],
      [
        "Ġha",
        "ven"
      ],
      [
        "Ġimp",
        "oss"
      ],
      [
        "Ġclass",
        "ic"
      ],
      [
        "Ġmed",
        "ia"
      ],
      [
        "Ġkid",
        "s"
      ],
      [
        "ĠJapan",
        "ese"
      ],
      [
        "Ġorigin",
        "al"
      ],
      [
        "Ġexact",
        "ly"
      ],
      [
        "?",
        "âĢĿ"
      ],
      [
        "I",
        "D"
      ],
      [
        "P",
        "E"
      ],
      [
        "i",
        "ally"
      ],
      [
        "m",
        "a"
      ],
      [
        "o",
        "int"
      ],
      [
        "y",
        "ou"
      ],
      [
        "z",
        "e"
      ],
      [
        "Ġ",
        "6"
      ],
      [
        "er",
        "man"
      ],
      [
        "Ġs",
        "ent"
      ],
      [
        "is",
        "ing"
      ],
      [
        "th",
        "ough"
      ],
      [
        "ast",
        "ic"
      ],
      [
        "Ġbl",
        "ood"
      ],
      [
        "Ġad",
        "m"
      ],
      [
        "Ġins",
        "ide"
      ],
      [
        "he",
        "ad"
      ],
      [
        "Ġop",
        "ening"
      ],
      [
        "Ġincred",
        "ibly"
      ],
      [
        "Ġcra",
        "ft"
      ],
      [
        "I",
        "T"
      ],
      [
        "e",
        "ah"
      ],
      [
        "Ġ",
        "Z"
      ],
      [
        "Ġs",
        "ign"
      ],
      [
        "Ġh",
        "ar"
      ],
      [
        "Ġfor",
        "g"
      ],
      [
        "Ġex",
        "cept"
      ],
      [
        "ĠM",
        "an"
      ],
      [
        "Ġsu",
        "ffer"
      ],
      [
        "Ġqu",
        "iet"
      ],
      [
        "Ġwonder",
        "ful"
      ],
      [
        "Ġw",
        "ater"
      ],
      [
        "Ġf",
        "ather"
      ],
      [
        "Ġg",
        "ives"
      ],
      [
        "Ġst",
        "ri"
      ],
      [
        "ĠH",
        "is"
      ],
      [
        "ĠF",
        "or"
      ],
      [
        "Ġhapp",
        "ened"
      ],
      [
        "Ġins",
        "ane"
      ],
      [
        "Ġev",
        "ents"
      ],
      [
        "vol",
        "ution"
      ],
      [
        "c",
        "er"
      ],
      [
        "l",
        "in"
      ],
      [
        "Ġa",
        "ge"
      ],
      [
        "Ġm",
        "ur"
      ],
      [
        "Ġc",
        "ir"
      ],
      [
        "Ġre",
        "watch"
      ],
      [
        "et",
        "her"
      ],
      [
        "Ġu",
        "lt"
      ],
      [
        "ĠW",
        "ar"
      ],
      [
        "Ġsu",
        "cc"
      ],
      [
        "Ġpro",
        "ject"
      ],
      [
        "Ġra",
        "re"
      ],
      [
        "Ġres",
        "p"
      ],
      [
        "Ġfam",
        "il"
      ],
      [
        "Ġturn",
        "ed"
      ],
      [
        "fic",
        "ult"
      ],
      [
        "Ġtele",
        "vision"
      ],
      [
        "b",
        "ed"
      ],
      [
        "i",
        "ans"
      ],
      [
        "w",
        "ar"
      ],
      [
        "Ġc",
        "ru"
      ],
      [
        "Ġe",
        "qu"
      ],
      [
        "Ġg",
        "rou"
      ],
      [
        "el",
        "s"
      ],
      [
        "ĠS",
        "e"
      ],
      [
        "ak",
        "en"
      ],
      [
        "one",
        "y"
      ],
      [
        "Ġwho",
        "se"
      ],
      [
        "ens",
        "ion"
      ],
      [
        "Ġemot",
        "ions"
      ],
      [
        "Ġport",
        "ray"
      ],
      [
        "Ġquest",
        "ion"
      ],
      [
        "Ġdial",
        "ogue"
      ],
      [
        "Ġful",
        "ly"
      ],
      [
        "Ġt",
        "reat"
      ],
      [
        "is",
        "hing"
      ],
      [
        "Ġd",
        "ou"
      ],
      [
        "le",
        "ep"
      ],
      [
        "ent",
        "ed"
      ],
      [
        "ra",
        "g"
      ],
      [
        "ĠM",
        "y"
      ],
      [
        "ive",
        "ly"
      ],
      [
        "Ġim",
        "age"
      ],
      [
        "Ġsc",
        "ore"
      ],
      [
        "Ġcl",
        "os"
      ],
      [
        "Ġdif",
        "ficult"
      ],
      [
        "Ġmem",
        "ory"
      ],
      [
        "ĠâĢ",
        "ĺ"
      ],
      [
        "Ġcinemat",
        "ography"
      ],
      [
        "F",
        "F"
      ],
      [
        "O",
        "V"
      ],
      [
        "g",
        "an"
      ],
      [
        "g",
        "round"
      ],
      [
        "w",
        "ood"
      ],
      [
        "Ġt",
        "aking"
      ],
      [
        "Ġthe",
        "ater"
      ],
      [
        "re",
        "w"
      ],
      [
        "Ġc",
        "ity"
      ],
      [
        "Ġon",
        "es"
      ],
      [
        "ad",
        "es"
      ],
      [
        "ol",
        "ly"
      ],
      [
        "um",
        "p"
      ],
      [
        "ĠH",
        "er"
      ],
      [
        "ĠT",
        "o"
      ],
      [
        "ĠN",
        "o"
      ],
      [
        "Ġpart",
        "s"
      ],
      [
        "Ġbr",
        "ing"
      ],
      [
        "Ġinc",
        "lud"
      ],
      [
        "Ġexist",
        "ence"
      ],
      [
        "Ġbreat",
        "h"
      ],
      [
        "Ġimposs",
        "ible"
      ],
      [
        "j",
        "ust"
      ],
      [
        "n",
        "o"
      ],
      [
        "Ġp",
        "arent"
      ],
      [
        "om",
        "me"
      ],
      [
        "Ġde",
        "velop"
      ],
      [
        "ĠC",
        "l"
      ],
      [
        "Ġfeel",
        "ings"
      ],
      [
        "ang",
        "er"
      ],
      [
        "ru",
        "ct"
      ],
      [
        "Ġdocument",
        "aries"
      ],
      [
        "ĠWh",
        "en"
      ],
      [
        "Ġap",
        "art"
      ],
      [
        "Ġgra",
        "nd"
      ],
      [
        "Ġhistor",
        "ical"
      ],
      [
        "-",
        "-"
      ],
      [
        "it",
        "ions"
      ],
      [
        "Ġst",
        "at"
      ],
      [
        "ur",
        "os"
      ],
      [
        "ĠA",
        "ND"
      ],
      [
        "ri",
        "ght"
      ],
      [
        "Ġwe",
        "ird"
      ],
      [
        "Ġint",
        "ro"
      ],
      [
        "ĠF",
        "rench"
      ],
      [
        "Ġstory",
        "t"
      ],
      [
        "Ġtra",
        "um"
      ],
      [
        "Ġwr",
        "ite"
      ],
      [
        "Ġexpl",
        "ain"
      ],
      [
        "Ġview",
        "ing"
      ],
      [
        "Ġinv",
        "ol"
      ],
      [
        "A",
        "s"
      ],
      [
        "er",
        "ies"
      ],
      [
        "Ġw",
        "it"
      ],
      [
        "Ġw",
        "all"
      ],
      [
        "at",
        "ural"
      ],
      [
        "Ġm",
        "iddle"
      ],
      [
        "Ġb",
        "ar"
      ],
      [
        "Ġb",
        "ased"
      ],
      [
        "es",
        "tern"
      ],
      [
        "Ġc",
        "ond"
      ],
      [
        "Ġp",
        "ict"
      ],
      [
        "Ġin",
        "n"
      ],
      [
        "Ġal",
        "ive"
      ],
      [
        "Ġfr",
        "ame"
      ],
      [
        "Ġpro",
        "g"
      ],
      [
        "ac",
        "y"
      ],
      [
        "ang",
        "u"
      ],
      [
        "Ġlong",
        "er"
      ],
      [
        "Ġpass",
        "ion"
      ],
      [
        "Ġhonest",
        "ly"
      ],
      [
        "Ġviol",
        "ence"
      ],
      [
        "Ġ",
        "z"
      ],
      [
        "Ġc",
        "ase"
      ],
      [
        "an",
        "et"
      ],
      [
        "Ġin",
        "fl"
      ],
      [
        "ag",
        "on"
      ],
      [
        "ab",
        "or"
      ],
      [
        "Ġthem",
        "es"
      ],
      [
        "Ġact",
        "ors"
      ],
      [
        "wh",
        "ere"
      ],
      [
        "Ġrec",
        "ord"
      ],
      [
        "Ġheart",
        "breaking"
      ],
      [
        "Ġsur",
        "v"
      ],
      [
        "Ġgen",
        "re"
      ],
      [
        "ĠU",
        "n"
      ],
      [
        "Ġey",
        "e"
      ],
      [
        "Ġmem",
        "ories"
      ],
      [
        "Ġslow",
        "ly"
      ],
      [
        "Ġbegin",
        "ning"
      ],
      [
        "Ġear",
        "th"
      ],
      [
        "1",
        "9"
      ],
      [
        "g",
        "n"
      ],
      [
        "i",
        "ent"
      ],
      [
        "s",
        "et"
      ],
      [
        "Ġt",
        "al"
      ],
      [
        "in",
        "o"
      ],
      [
        "Ġw",
        "ind"
      ],
      [
        "Ġm",
        "ir"
      ],
      [
        "Ġm",
        "aj"
      ],
      [
        "Ġf",
        "ur"
      ],
      [
        "Ġf",
        "low"
      ],
      [
        "Ġh",
        "ate"
      ],
      [
        "ou",
        "d"
      ],
      [
        "Ġfe",
        "ar"
      ],
      [
        "Ġun",
        "f"
      ],
      [
        "pp",
        "ing"
      ],
      [
        "Ġmus",
        "ical"
      ],
      [
        "Ġpr",
        "om"
      ],
      [
        "Ġrec",
        "omme"
      ],
      [
        "ys",
        "ical"
      ],
      [
        "Ġanim",
        "ated"
      ],
      [
        "Ġdel",
        "i"
      ],
      [
        "Ġes",
        "c"
      ],
      [
        "Ġconne",
        "ct"
      ],
      [
        "ĠST",
        "U"
      ],
      [
        "C",
        "H"
      ],
      [
        "s",
        "w"
      ],
      [
        "u",
        "c"
      ],
      [
        "Ġh",
        "om"
      ],
      [
        "Ġst",
        "ars"
      ],
      [
        "Ġme",
        "ant"
      ],
      [
        "Ġha",
        "un"
      ],
      [
        "Ġpro",
        "ble"
      ],
      [
        "Ġaf",
        "fect"
      ],
      [
        "Ġentire",
        "ly"
      ],
      [
        "uros",
        "awa"
      ],
      [
        "i",
        "od"
      ],
      [
        "k",
        "i"
      ],
      [
        "Ġ",
        "ic"
      ],
      [
        "Ġm",
        "ere"
      ],
      [
        "al",
        "ing"
      ],
      [
        "Ġp",
        "ull"
      ],
      [
        "Ġl",
        "ate"
      ],
      [
        "Ġe",
        "ither"
      ],
      [
        "ay",
        "be"
      ],
      [
        "Ġst",
        "re"
      ],
      [
        "Ġal",
        "bum"
      ],
      [
        "ĠW",
        "ith"
      ],
      [
        "ard",
        "s"
      ],
      [
        "og",
        "n"
      ],
      [
        "Ġen",
        "c"
      ],
      [
        "Ġent",
        "ertain"
      ],
      [
        "wh",
        "en"
      ],
      [
        "Ġchild",
        "hood"
      ],
      [
        "Ġperfect",
        "ly"
      ],
      [
        "Ġstru",
        "ct"
      ],
      [
        "Ġprof",
        "ound"
      ],
      [
        "Ġstra",
        "ight"
      ],
      [
        "a",
        "ul"
      ],
      [
        "i",
        "us"
      ],
      [
        "w",
        "ork"
      ],
      [
        "in",
        "ating"
      ],
      [
        "Ġw",
        "in"
      ],
      [
        "Ġb",
        "us"
      ],
      [
        "Ġh",
        "op"
      ],
      [
        "or",
        "ough"
      ],
      [
        "Ġp",
        "ieces"
      ],
      [
        "Ġd",
        "ri"
      ],
      [
        "Ġn",
        "orm"
      ],
      [
        "ot",
        "t"
      ],
      [
        "im",
        "ately"
      ],
      [
        "Ġst",
        "ay"
      ],
      [
        "ir",
        "t"
      ],
      [
        "if",
        "t"
      ],
      [
        "ri",
        "es"
      ],
      [
        "ant",
        "s"
      ],
      [
        "Ġr",
        "u"
      ],
      [
        "Ġr",
        "ich"
      ],
      [
        "ĠF",
        "U"
      ],
      [
        "Ġthrough",
        "out"
      ],
      [
        "Ġdes",
        "ire"
      ],
      [
        "wh",
        "el"
      ],
      [
        "Ġcol",
        "l"
      ],
      [
        "Ġcol",
        "or"
      ],
      [
        "Ġide",
        "as"
      ],
      [
        "Ġcent",
        "ury"
      ],
      [
        "Ġeas",
        "y"
      ],
      [
        "Ġcult",
        "ure"
      ],
      [
        "Ġprodu",
        "ction"
      ],
      [
        "Ġdest",
        "ro"
      ],
      [
        "Ġtrag",
        "edy"
      ],
      [
        "O",
        "W"
      ],
      [
        "S",
        "o"
      ],
      [
        "m",
        "os"
      ],
      [
        "al",
        "th"
      ],
      [
        "Ġst",
        "ate"
      ],
      [
        "ol",
        "es"
      ],
      [
        "atch",
        "ing"
      ],
      [
        "Ġr",
        "ad"
      ],
      [
        "Ġout",
        "side"
      ],
      [
        "ĠO",
        "F"
      ],
      [
        "Ġdes",
        "ign"
      ],
      [
        "Ġwr",
        "itten"
      ],
      [
        "Ġfav",
        "our"
      ],
      [
        "Ġplay",
        "ed"
      ],
      [
        "Ġshot",
        "s"
      ],
      [
        "RE",
        "PE"
      ],
      [
        "Ġeas",
        "ily"
      ],
      [
        "Ġwee",
        "k"
      ],
      [
        "Ġspec",
        "ific"
      ],
      [
        "Ġgrou",
        "p"
      ],
      [
        "Ġstoryt",
        "elling"
      ],
      [
        "ĠSTU",
        "FF"
      ],
      [
        "REPE",
        "AT"
      ],
      [
        "2",
        "0"
      ],
      [
        "i",
        "y"
      ],
      [
        "k",
        "en"
      ],
      [
        "Ġs",
        "um"
      ],
      [
        "Ġs",
        "ays"
      ],
      [
        "Ġb",
        "orn"
      ],
      [
        "ic",
        "es"
      ],
      [
        "le",
        "br"
      ],
      [
        "Ġn",
        "on"
      ],
      [
        "ow",
        "d"
      ],
      [
        "Ġan",
        "sw"
      ],
      [
        "ul",
        "arly"
      ],
      [
        "ust",
        "r"
      ],
      [
        "Ġfr",
        "ont"
      ],
      [
        "Ġle",
        "g"
      ],
      [
        "ac",
        "ed"
      ],
      [
        "!!",
        "!"
      ],
      [
        "urn",
        "s"
      ],
      [
        "Ġsub",
        "t"
      ],
      [
        "Ġimm",
        "edi"
      ],
      [
        "olog",
        "y"
      ],
      [
        "Ġfilmmak",
        "er"
      ],
      [
        "Ġsucc",
        "ess"
      ],
      [
        "Ġparent",
        "s"
      ],
      [
        "ĠSTUFF",
        "REPEAT"
      ],
      [
        "A",
        "nd"
      ],
      [
        "N",
        "o"
      ],
      [
        "e",
        "v"
      ],
      [
        "i",
        "or"
      ],
      [
        "Ġt",
        "ur"
      ],
      [
        "in",
        "y"
      ],
      [
        "Ġh",
        "y"
      ],
      [
        "Ġp",
        "ick"
      ],
      [
        "Ġl",
        "ack"
      ],
      [
        "Ġg",
        "ame"
      ],
      [
        "Ġg",
        "ave"
      ],
      [
        "am",
        "ed"
      ],
      [
        "ol",
        "l"
      ],
      [
        "Ġso",
        "on"
      ],
      [
        "ĠS",
        "p"
      ],
      [
        "os",
        "ition"
      ],
      [
        "ĠP",
        "e"
      ],
      [
        "Ġsome",
        "how"
      ],
      [
        "Ġ1",
        "00"
      ],
      [
        "Ġwar",
        "m"
      ],
      [
        "Ġacc",
        "om"
      ],
      [
        "Ġhand",
        "s"
      ],
      [
        "iel",
        "d"
      ],
      [
        "E",
        "E"
      ],
      [
        "N",
        "ot"
      ],
      [
        "h",
        "h"
      ],
      [
        "Ġ",
        "era"
      ],
      [
        "in",
        "ary"
      ],
      [
        "Ġm",
        "il"
      ],
      [
        "Ġf",
        "ire"
      ],
      [
        "Ġl",
        "angu"
      ],
      [
        "Ġe",
        "ff"
      ],
      [
        "ĠI",
        "T"
      ],
      [
        "le",
        "ction"
      ],
      [
        "Ġre",
        "ach"
      ],
      [
        "if",
        "ied"
      ],
      [
        "Ġall",
        "ow"
      ],
      [
        "ĠP",
        "l"
      ],
      [
        "ĠL",
        "et"
      ],
      [
        "Ġno",
        "vel"
      ],
      [
        "Ġthan",
        "k"
      ],
      [
        "Ġact",
        "ual"
      ],
      [
        "Ġreal",
        "ize"
      ],
      [
        "ru",
        "pt"
      ],
      [
        "Ġfin",
        "ished"
      ],
      [
        "Ġph",
        "ot"
      ],
      [
        "Ġcall",
        "ed"
      ],
      [
        "Ġed",
        "iting"
      ],
      [
        "Ġcou",
        "ple"
      ],
      [
        "Ġachie",
        "ve"
      ],
      [
        "Ġdevast",
        "ating"
      ],
      [
        "1",
        "0"
      ],
      [
        "a",
        "ust"
      ],
      [
        "b",
        "el"
      ],
      [
        "i",
        "um"
      ],
      [
        "l",
        "ine"
      ],
      [
        "Ġs",
        "ide"
      ],
      [
        "Ġe",
        "arly"
      ],
      [
        "Ġg",
        "iving"
      ],
      [
        "th",
        "at"
      ],
      [
        "Ġlo",
        "g"
      ],
      [
        "us",
        "ed"
      ],
      [
        "Ġne",
        "ar"
      ],
      [
        "Ġv",
        "ill"
      ],
      [
        "Ġper",
        "iod"
      ],
      [
        "Ġact",
        "ing"
      ],
      [
        "iz",
        "ation"
      ],
      [
        "Ġwould",
        "n"
      ],
      [
        "ac",
        "le"
      ],
      [
        "Ġbeautiful",
        "ly"
      ],
      [
        "Ġgu",
        "ys"
      ],
      [
        "Ġsur",
        "real"
      ],
      [
        "Ġimag",
        "ine"
      ],
      [
        "Ġapp",
        "ro"
      ],
      [
        "Ġread",
        "ing"
      ],
      [
        "Ġrep",
        "res"
      ],
      [
        "Ġsupp",
        "osed"
      ],
      [
        "Ġlear",
        "n"
      ],
      [
        "Ġwa",
        "it"
      ],
      [
        "p",
        "or"
      ],
      [
        "at",
        "or"
      ],
      [
        "al",
        "g"
      ],
      [
        "Ġp",
        "ot"
      ],
      [
        "Ġg",
        "one"
      ],
      [
        "Ġv",
        "ar"
      ],
      [
        "ĠD",
        "o"
      ],
      [
        "Ġpe",
        "ace"
      ],
      [
        "ĠJ",
        "ust"
      ],
      [
        "Ġknow",
        "s"
      ],
      [
        "Ġimp",
        "ressive"
      ],
      [
        "Ġwant",
        "s"
      ],
      [
        "Ġpers",
        "pective"
      ],
      [
        "Ġfl",
        "o"
      ],
      [
        "Ġce",
        "lebr"
      ],
      [
        "Ġmur",
        "der"
      ],
      [
        "Ġcir",
        "c"
      ],
      [
        "r",
        "an"
      ],
      [
        "Ġt",
        "re"
      ],
      [
        "Ġt",
        "aken"
      ],
      [
        "in",
        "c"
      ],
      [
        "er",
        "ed"
      ],
      [
        "Ġc",
        "al"
      ],
      [
        "ĠI",
        "N"
      ],
      [
        "Ġn",
        "ice"
      ],
      [
        "Ġsh",
        "oot"
      ],
      [
        "ill",
        "ed"
      ],
      [
        "Ġcon",
        "vers"
      ],
      [
        "ab",
        "ility"
      ],
      [
        "og",
        "y"
      ],
      [
        "Ġpo",
        "et"
      ],
      [
        "Ġro",
        "ck"
      ],
      [
        "Ġres",
        "pect"
      ],
      [
        "Ġgr",
        "ow"
      ],
      [
        "Ġref",
        "lect"
      ],
      [
        "Ġport",
        "ra"
      ],
      [
        "ĠðŁ",
        "ĺ"
      ],
      [
        "Ġwit",
        "ness"
      ],
      [
        "S",
        "t"
      ],
      [
        "T",
        "H"
      ],
      [
        "g",
        "r"
      ],
      [
        "m",
        "ed"
      ],
      [
        "Ġt",
        "en"
      ],
      [
        "Ġt",
        "est"
      ],
      [
        "Ġsh",
        "ock"
      ],
      [
        "Ġj",
        "ob"
      ],
      [
        "ant",
        "ic"
      ],
      [
        "ĠD",
        "avid"
      ],
      [
        "ĠP",
        "al"
      ],
      [
        "Ġam",
        "ount"
      ],
      [
        "Ġwork",
        "ing"
      ],
      [
        "te",
        "xt"
      ],
      [
        "Ġdirect",
        "ed"
      ],
      [
        "Ġdec",
        "ided"
      ],
      [
        "Ġatt",
        "ention"
      ],
      [
        "Ġcreat",
        "ed"
      ],
      [
        "Ġcontr",
        "ol"
      ],
      [
        "Ġhu",
        "ge"
      ],
      [
        "Ġmaj",
        "or"
      ],
      [
        "ĠFU",
        "CK"
      ],
      [
        "b",
        "t"
      ],
      [
        "Ġc",
        "a"
      ],
      [
        "Ġc",
        "at"
      ],
      [
        "Ġc",
        "red"
      ],
      [
        "or",
        "ry"
      ],
      [
        "Ġd",
        "amn"
      ],
      [
        "Ġl",
        "ay"
      ],
      [
        "Ġg",
        "round"
      ],
      [
        "Ġre",
        "d"
      ],
      [
        "Ġre",
        "ve"
      ],
      [
        "Ġst",
        "e"
      ],
      [
        "Ġst",
        "ar"
      ],
      [
        "ĠS",
        "c"
      ],
      [
        "Ġne",
        "arly"
      ],
      [
        "ap",
        "h"
      ],
      [
        "Ġrec",
        "ogn"
      ],
      [
        "Ġsur",
        "round"
      ],
      [
        "Ġcertain",
        "ly"
      ],
      [
        "Ġpartic",
        "ular"
      ],
      [
        "orge",
        "ous"
      ],
      [
        "c",
        "o"
      ],
      [
        "Ġa",
        "ir"
      ],
      [
        "Ġm",
        "ass"
      ],
      [
        "an",
        "n"
      ],
      [
        "Ġd",
        "a"
      ],
      [
        "Ġre",
        "volution"
      ],
      [
        "Ġst",
        "age"
      ],
      [
        "ĠW",
        "orld"
      ],
      [
        "ab",
        "y"
      ],
      [
        "Ġsc",
        "ream"
      ],
      [
        "ĠG",
        "erman"
      ],
      [
        "Ġknow",
        "n"
      ],
      [
        "Ġover",
        "whel"
      ],
      [
        "Ġend",
        "ed"
      ],
      [
        "ip",
        "le"
      ],
      [
        "Ġrem",
        "ark"
      ],
      [
        "Ġrel",
        "ig"
      ],
      [
        "ĠCh",
        "rist"
      ],
      [
        "Ġtell",
        "ing"
      ],
      [
        "Ġmag",
        "n"
      ],
      [
        "ĠâĢ",
        "ĵ"
      ],
      [
        "eng",
        "th"
      ],
      [
        "Ġemotion",
        "ally"
      ],
      [
        "Ġlar",
        "ge"
      ],
      [
        "Ġtit",
        "le"
      ],
      [
        "z",
        "u"
      ],
      [
        "in",
        "ing"
      ],
      [
        "er",
        "n"
      ],
      [
        "Ġm",
        "ad"
      ],
      [
        "an",
        "y"
      ],
      [
        "il",
        "os"
      ],
      [
        "as",
        "y"
      ],
      [
        "ur",
        "s"
      ],
      [
        "ir",
        "th"
      ],
      [
        "Ġint",
        "ense"
      ],
      [
        "Ġmost",
        "ly"
      ],
      [
        "Ġus",
        "ing"
      ],
      [
        "Ġpre",
        "c"
      ],
      [
        "Ġte",
        "ach"
      ],
      [
        "Ġra",
        "w"
      ],
      [
        "Ġgu",
        "ess"
      ],
      [
        "Ġexpl",
        "o"
      ],
      [
        "Ġconf",
        "l"
      ],
      [
        "olog",
        "ical"
      ],
      [
        "Ġcle",
        "ar"
      ],
      [
        "Ġeff",
        "ort"
      ],
      [
        "g",
        "es"
      ],
      [
        "k",
        "ing"
      ],
      [
        "m",
        "ore"
      ],
      [
        "Ġ",
        "er"
      ],
      [
        "Ġh",
        "ang"
      ],
      [
        "ou",
        "th"
      ],
      [
        "ĠI",
        "nd"
      ],
      [
        "Ġis",
        "s"
      ],
      [
        "ag",
        "ing"
      ],
      [
        "Ġcon",
        "cept"
      ],
      [
        "Ġpl",
        "ays"
      ],
      [
        "Ġshow",
        "ing"
      ],
      [
        "Ġar",
        "ch"
      ],
      [
        "Ġqu",
        "ality"
      ],
      [
        "Ġad",
        "apt"
      ],
      [
        "less",
        "ly"
      ],
      [
        "Ġ3",
        "0"
      ],
      [
        "Ġter",
        "ms"
      ],
      [
        "Ġrun",
        "ning"
      ],
      [
        "ĠAmeric",
        "a"
      ],
      [
        "Ġpur",
        "p"
      ],
      [
        "Ġvide",
        "o"
      ],
      [
        "Ġextreme",
        "ly"
      ],
      [
        "Ġfavour",
        "ite"
      ],
      [
        "O",
        "n"
      ],
      [
        "a",
        "f"
      ],
      [
        "s",
        "p"
      ],
      [
        "t",
        "a"
      ],
      [
        "u",
        "k"
      ],
      [
        "Ġa",
        "uth"
      ],
      [
        "re",
        "nt"
      ],
      [
        "an",
        "ch"
      ],
      [
        "Ġl",
        "aw"
      ],
      [
        "as",
        "ure"
      ],
      [
        "ra",
        "ck"
      ],
      [
        "ĠA",
        "d"
      ],
      [
        "od",
        "ies"
      ],
      [
        "ill",
        "ing"
      ],
      [
        "ag",
        "ed"
      ],
      [
        "ĠM",
        "Y"
      ],
      [
        "ĠR",
        "ob"
      ],
      [
        "ĠE",
        "ven"
      ],
      [
        "Ġsp",
        "ent"
      ],
      [
        "Ġtell",
        "s"
      ],
      [
        "Ġthought",
        "s"
      ],
      [
        "Ġturn",
        "s"
      ],
      [
        "Ġac",
        "cept"
      ],
      [
        "Ġdisc",
        "uss"
      ],
      [
        "Ġcommun",
        "ity"
      ],
      [
        "Ġstrugg",
        "le"
      ],
      [
        "Ġinfl",
        "u"
      ],
      [
        "Ġlangu",
        "age"
      ],
      [
        "O",
        "M"
      ],
      [
        "o",
        "e"
      ],
      [
        "o",
        "le"
      ],
      [
        "Ġ",
        "ident"
      ],
      [
        "Ġth",
        "ird"
      ],
      [
        "is",
        "ter"
      ],
      [
        "Ġf",
        "em"
      ],
      [
        "es",
        "th"
      ],
      [
        "Ġd",
        "i"
      ],
      [
        "Ġd",
        "an"
      ],
      [
        "ed",
        "ic"
      ],
      [
        "ver",
        "n"
      ],
      [
        "ur",
        "d"
      ],
      [
        "Ġv",
        "ib"
      ],
      [
        "Ġv",
        "ict"
      ],
      [
        "and",
        "s"
      ],
      [
        "os",
        "h"
      ],
      [
        "Ġtr",
        "ad"
      ],
      [
        "Ġle",
        "ge"
      ],
      [
        "Ġhum",
        "or"
      ],
      [
        "Ġcr",
        "owd"
      ],
      [
        "Ġprot",
        "agon"
      ],
      [
        "Ġtot",
        "ally"
      ],
      [
        "Ġbrut",
        "al"
      ],
      [
        "Ġt",
        "y"
      ],
      [
        "Ġa",
        "st"
      ],
      [
        "Ġs",
        "on"
      ],
      [
        "Ġs",
        "leep"
      ],
      [
        "Ġd",
        "ied"
      ],
      [
        "Ġy",
        "es"
      ],
      [
        "Ġu",
        "r"
      ],
      [
        "ok",
        "es"
      ],
      [
        "ĠO",
        "r"
      ],
      [
        "Ġact",
        "or"
      ],
      [
        "Ġpo",
        "etic"
      ],
      [
        "ĠK",
        "urosawa"
      ],
      [
        "Ġcont",
        "em"
      ],
      [
        "Ġneed",
        "s"
      ],
      [
        "Ġexist",
        "ential"
      ],
      [
        "Ġcare",
        "er"
      ],
      [
        "Ġrun",
        "time"
      ],
      [
        "Ġcre",
        "ate"
      ],
      [
        "Ġche",
        "ck"
      ],
      [
        "Ġchang",
        "ed"
      ],
      [
        "Ġtech",
        "n"
      ],
      [
        "olly",
        "wood"
      ],
      [
        "ilos",
        "oph"
      ],
      [
        "E",
        "very"
      ],
      [
        "l",
        "ish"
      ],
      [
        "Ġa",
        "v"
      ],
      [
        "Ġs",
        "n"
      ],
      [
        "Ġs",
        "old"
      ],
      [
        "Ġm",
        "id"
      ],
      [
        "Ġb",
        "al"
      ],
      [
        "om",
        "en"
      ],
      [
        "Ġn",
        "atural"
      ],
      [
        "Ġli",
        "ved"
      ],
      [
        "Ġfor",
        "ce"
      ],
      [
        "Ġse",
        "ver"
      ],
      [
        "Ġme",
        "et"
      ],
      [
        "Ġne",
        "cess"
      ],
      [
        "rou",
        "ght"
      ],
      [
        "ĠH",
        "ar"
      ],
      [
        "ate",
        "ver"
      ],
      [
        "ib",
        "er"
      ],
      [
        "Ġem",
        "pt"
      ],
      [
        "ress",
        "ing"
      ],
      [
        "Ġrem",
        "ains"
      ],
      [
        "Ġte",
        "en"
      ],
      [
        "Ġback",
        "ground"
      ],
      [
        "Ġdirect",
        "ion"
      ],
      [
        "Ġfind",
        "ing"
      ],
      [
        "Ġev",
        "il"
      ],
      [
        "Ġ19",
        "6"
      ],
      [
        "Ġsy",
        "mb"
      ],
      [
        "Ġsex",
        "ual"
      ],
      [
        "Ġexperien",
        "ces"
      ],
      [
        "Ġswe",
        "et"
      ],
      [
        "W",
        "e"
      ],
      [
        "m",
        "m"
      ],
      [
        "Ġw",
        "ild"
      ],
      [
        "Ġf",
        "ans"
      ],
      [
        "Ġh",
        "yp"
      ],
      [
        "ou",
        "n"
      ],
      [
        "Ġd",
        "ig"
      ],
      [
        "Ġu",
        "nd"
      ],
      [
        "am",
        "i"
      ],
      [
        "am",
        "p"
      ],
      [
        "Ġas",
        "pect"
      ],
      [
        "um",
        "ber"
      ],
      [
        "ĠM",
        "c"
      ],
      [
        "un",
        "e"
      ],
      [
        "Ġun",
        "c"
      ],
      [
        "Ġpro",
        "p"
      ],
      [
        "Ġpre",
        "v"
      ],
      [
        "ĠWh",
        "ile"
      ],
      [
        "Ġ20",
        "1"
      ],
      [
        "idd",
        "en"
      ],
      [
        "erg",
        "man"
      ],
      [
        "Ġobs",
        "ess"
      ],
      [
        "Ġant",
        "i"
      ],
      [
        "omet",
        "imes"
      ],
      [
        "Ġcru",
        "el"
      ],
      [
        "F",
        "or"
      ],
      [
        "Ġ",
        "Q"
      ],
      [
        "Ġ",
        "id"
      ],
      [
        "Ġa",
        "esth"
      ],
      [
        "in",
        "i"
      ],
      [
        "Ġo",
        "k"
      ],
      [
        "Ġh",
        "or"
      ],
      [
        "or",
        "ing"
      ],
      [
        "Ġg",
        "un"
      ],
      [
        "Ġg",
        "orgeous"
      ],
      [
        "Ġhe",
        "av"
      ],
      [
        "un",
        "t"
      ],
      [
        "Ġknow",
        "ing"
      ],
      [
        "Ġmin",
        "ute"
      ],
      [
        "Ġro",
        "b"
      ],
      [
        "Ġcap",
        "ital"
      ],
      [
        "Ġsequ",
        "ence"
      ],
      [
        "Ġinsp",
        "ir"
      ],
      [
        "Ġut",
        "ter"
      ],
      [
        "Ġsuffer",
        "ing"
      ],
      [
        "Ġtraum",
        "a"
      ],
      [
        "Ġinn",
        "oc"
      ],
      [
        "Ġportra",
        "it"
      ],
      [
        "B",
        "e"
      ],
      [
        "U",
        "T"
      ],
      [
        "a",
        "ff"
      ],
      [
        "n",
        "al"
      ],
      [
        "it",
        "ar"
      ],
      [
        "on",
        "st"
      ],
      [
        "on",
        "el"
      ],
      [
        "al",
        "y"
      ],
      [
        "Ġd",
        "ue"
      ],
      [
        "ic",
        "a"
      ],
      [
        "Ġg",
        "ang"
      ],
      [
        "im",
        "al"
      ],
      [
        "im",
        "ental"
      ],
      [
        "et",
        "er"
      ],
      [
        "id",
        "ing"
      ],
      [
        "ĠS",
        "ome"
      ],
      [
        "ill",
        "s"
      ],
      [
        "ak",
        "i"
      ],
      [
        "au",
        "ght"
      ],
      [
        "ok",
        "ing"
      ],
      [
        "ick",
        "s"
      ],
      [
        "Ġph",
        "ysical"
      ],
      [
        "ðŁ",
        "ĺ"
      ],
      [
        "led",
        "ge"
      ],
      [
        "ub",
        "l"
      ],
      [
        "Ġext",
        "ra"
      ],
      [
        "Ġuni",
        "verse"
      ],
      [
        "Ġmon",
        "ths"
      ],
      [
        "Ġreg",
        "ard"
      ],
      [
        "Ġtrag",
        "ic"
      ],
      [
        "Ġfant",
        "astic"
      ],
      [
        "att",
        "le"
      ],
      [
        "Ġpurp",
        "ose"
      ],
      [
        "\"",
        ","
      ],
      [
        "S",
        "h"
      ],
      [
        "u",
        "z"
      ],
      [
        "w",
        "r"
      ],
      [
        "Ġt",
        "im"
      ],
      [
        "Ġm",
        "oney"
      ],
      [
        "an",
        "a"
      ],
      [
        "Ġp",
        "ath"
      ],
      [
        "ot",
        "ic"
      ],
      [
        "im",
        "s"
      ],
      [
        "se",
        "qu"
      ],
      [
        "Ġsh",
        "ad"
      ],
      [
        "Ġmy",
        "st"
      ],
      [
        "act",
        "ion"
      ],
      [
        "ĠP",
        "er"
      ],
      [
        "Ġpo",
        "or"
      ],
      [
        "Ġend",
        "s"
      ],
      [
        "Ġcr",
        "ime"
      ],
      [
        "Ġco",
        "ver"
      ],
      [
        "Ġph",
        "ilosoph"
      ],
      [
        "orr",
        "ow"
      ],
      [
        "Ġunderstand",
        "ing"
      ],
      [
        "Ġcra",
        "zy"
      ],
      [
        "Ġcapt",
        "ures"
      ],
      [
        "Ġbro",
        "ken"
      ],
      [
        "Ġfasc",
        "inating"
      ],
      [
        "Ġdescri",
        "be"
      ],
      [
        "Ġgenuine",
        "ly"
      ],
      [
        "Ġfur",
        "ther"
      ],
      [
        "Ġconfl",
        "ict"
      ],
      [
        ",",
        "\""
      ],
      [
        "e",
        "an"
      ],
      [
        "t",
        "aking"
      ],
      [
        "Ġt",
        "ension"
      ],
      [
        "in",
        "ct"
      ],
      [
        "Ġo",
        "per"
      ],
      [
        "is",
        "ion"
      ],
      [
        "Ġm",
        "ill"
      ],
      [
        "Ġb",
        "are"
      ],
      [
        "Ġc",
        "old"
      ],
      [
        "Ġl",
        "ength"
      ],
      [
        "il",
        "ogy"
      ],
      [
        "Ġn",
        "u"
      ],
      [
        "Ġfor",
        "ward"
      ],
      [
[...]
